<unk>	0
<s>	0
</s>	0
,	-2.94572
.	-3.26289
▁the	-3.42343
'	-3.6213
s	-3.95965
▁to	-3.99952
▁and	-4.06112
▁`	-4.22245
▁of	-4.22639
▁a	-4.2472
▁Harry	-4.45458
▁he	-4.50294
▁was	-4.54663
▁said	-4.62848
▁his	-4.67545
▁in	-4.75873
▁it	-4.81707
▁you	-4.85852
▁'	-4.92537
▁had	-4.95742
t	-4.98548
▁that	-5.00246
▁.	-5.02045
▁I	-5.0225
▁at	-5.18562
,`	-5.20468
▁on	-5.33976
▁him	-5.34897
.`	-5.37035
▁as	-5.38353
-	-5.43396
▁with	-5.44116
▁Ron	-5.49404
▁for	-5.60611
▁her	-5.62158
▁Hermione	-5.67083
?`	-5.67377
▁they	-5.68736
▁not	-5.69102
▁He	-5.70875
▁be	-5.7519
I	-5.80778
▁out	-5.81115
▁up	-5.82191
▁-	-5.8225
▁were	-5.84885
ing	-5.87472
▁them	-5.88693
▁but	-5.88795
▁have	-5.88832
▁from	-5.89948
▁she	-5.92867
▁all	-5.9298
!`	-5.93155
d	-5.94772
;	-5.98815
ed	-6.02201
▁into	-6.05812
▁back	-6.11158
▁been	-6.12001
▁	-6.12405
▁what	-6.13102
▁is	-6.14861
▁Dumbledore	-6.14977
▁The	-6.186
▁we	-6.21478
▁me	-6.21917
?	-6.24885
▁could	-6.26308
▁who	-6.27506
▁this	-6.29552
re	-6.31336
▁so	-6.34484
▁their	-6.36936
▁over	-6.37168
▁an	-6.38041
▁there	-6.38266
▁about	-6.39564
▁one	-6.40523
ve	-6.43779
▁looked	-6.44388
▁like	-6.44504
▁down	-6.44691
▁know	-6.45941
n	-6.46065
▁would	-6.48066
▁do	-6.48255
m	-6.48488
▁now	-6.48641
▁around	-6.51907
?'	-6.54189
▁by	-6.54485
▁just	-6.56196
ll	-6.56652
▁did	-6.57821
!	-6.59199
▁your	-6.59202
▁got	-6.59652
▁if	-6.60862
▁then	-6.60987
▁Hagrid	-6.64772
▁more	-6.64871
▁very	-6.6502
▁when	-6.65757
▁can	-6.6667
▁see	-6.66765
▁again	-6.67941
▁off	-6.67972
▁Professor	-6.68137
▁no	-6.70011
▁are	-6.7114
You	-6.71921
▁though	-6.7249
▁think	-6.74332
▁Snape	-6.74915
▁time	-6.75602
▁my	-6.77149
▁still	-6.799
▁wand	-6.80855
▁eyes	-6.82428
▁get	-6.82537
▁face	-6.83459
ly	-6.83683
▁don	-6.84234
▁It	-6.84364
▁looking	-6.85283
▁Weasley	-6.8563
▁through	-6.86969
y	-6.87714
▁--	-6.88065
▁right	-6.88516
▁or	-6.89496
▁voice	-6.8965
▁going	-6.91994
...	-6.93012
▁which	-6.94663
▁before	-6.96299
▁than	-6.96549
:	-6.97093
▁go	-6.99189
▁̈C	-6.99512
▁didn	-6.99973
▁door	-7.00374
!'	-7.01916
▁will	-7.01919
▁too	-7.02071
▁room	-7.02074
▁They	-7.02292
▁Malfoy	-7.03301
▁head	-7.03413
▁thought	-7.04379
▁here	-7.04441
▁look	-7.05388
▁only	-7.07185
What	-7.07901
▁saw	-7.09658
He	-7.10197
▁how	-7.10334
▁Mr	-7.10521
▁hand	-7.1215
▁other	-7.13681
▁way	-7.1377
▁Voldemort	-7.14208
▁where	-7.1716
▁seemed	-7.17653
▁away	-7.18079
▁something	-7.18319
▁himself	-7.18498
▁behind	-7.19489
▁come	-7.19682
▁asked	-7.2004
▁Potter	-7.20142
It	-7.2042
▁told	-7.22436
▁turned	-7.22859
Harry	-7.22963
▁last	-7.22993
er	-7.23275
▁us	-7.24031
▁Sirius	-7.24139
▁A	-7.24316
▁long	-7.24541
▁never	-7.24984
▁much	-7.27309
▁after	-7.27603
▁want	-7.29411
▁knew	-7.3009
▁You	-7.31189
▁She	-7.32223
▁And	-7.33081
But	-7.33359
▁once	-7.33454
▁little	-7.33681
e	-7.34123
▁first	-7.34954
▁tell	-7.35405
Well	-7.37103
▁two	-7.37193
▁made	-7.37312
▁heard	-7.37436
▁moment	-7.37596
▁But	-7.37741
r	-7.37802
▁left	-7.37948
▁even	-7.38532
▁any	-7.38832
▁say	-7.40224
And	-7.40852
The	-7.4095
▁felt	-7.41385
▁...	-7.41902
We	-7.4294
▁some	-7.42981
▁Fred	-7.42986
No	-7.43728
▁There	-7.43812
▁people	-7.44364
▁good	-7.46105
▁really	-7.46508
▁Hogwarts	-7.46842
▁well	-7.47341
▁might	-7.47674
.``	-7.47969
▁Mrs	-7.485
▁has	-7.51466
▁front	-7.51589
▁ever	-7.52384
Oh	-7.53524
▁Lupin	-7.55029
▁toward	-7.55424
▁George	-7.56587
▁came	-7.56716
a	-7.57893
?``	-7.58769
▁feet	-7.58976
▁must	-7.58977
▁Neville	-7.60342
▁because	-7.60351
in	-7.60493
▁take	-7.61972
▁Ginny	-7.61995
▁let	-7.62274
▁McGonagall	-7.62398
▁took	-7.62453
l	-7.63046
▁make	-7.63546
▁open	-7.63563
▁sure	-7.63706
▁anything	-7.64652
▁old	-7.65728
▁trying	-7.665
▁table	-7.66671
▁few	-7.67611
▁under	-7.67972
▁floor	-7.67981
▁inside	-7.69433
▁went	-7.69466
▁another	-7.69764
c	-7.70581
▁next	-7.70965
▁find	-7.71751
▁while	-7.72803
▁own	-7.74039
▁large	-7.74287
▁put	-7.74403
`	-7.75075
▁school	-7.75303
▁end	-7.75609
▁three	-7.75625
▁its	-7.75888
▁thing	-7.7599
A	-7.76084
▁house	-7.76802
▁found	-7.76883
▁great	-7.77352
▁need	-7.77511
▁Umbridge	-7.78855
▁course	-7.79178
▁gave	-7.80348
▁seen	-7.80493
▁hair	-7.81257
▁night	-7.81339
▁nothing	-7.81351
▁hear	-7.81479
▁Gryffindor	-7.82173
▁mean	-7.82244
▁stood	-7.82355
▁Ministry	-7.827
▁-`	-7.83505
▁why	-7.83903
▁hands	-7.84765
▁man	-7.84774
▁pulled	-7.84973
o	-7.85347
p	-7.85941
▁our	-7.86556
▁Death	-7.87305
▁upon	-7.87742
▁light	-7.88326
▁bit	-7.8846
Yes	-7.88635
▁air	-7.88642
▁across	-7.887
▁place	-7.88892
▁wanted	-7.8892
u	-7.90393
▁side	-7.9103
▁each	-7.91235
▁both	-7.91872
▁black	-7.91969
▁every	-7.92122
▁most	-7.92173
Yeah	-7.9251
b	-7.92537
▁help	-7.93157
▁without	-7.93166
▁being	-7.93488
▁done	-7.93901
▁does	-7.94068
▁dark	-7.94429
▁happened	-7.94518
▁mind	-7.94634
▁quite	-7.94826
▁against	-7.95065
▁couldn	-7.95093
▁boy	-7.95271
▁Dark	-7.95409
▁wasn	-7.96046
▁better	-7.96772
▁His	-7.97791
▁doing	-7.98607
▁keep	-7.98794
▁else	-7.99759
▁enough	-7.99961
▁Vernon	-7.99964
▁wizard	-8.00028
▁along	-8.00304
▁second	-8.00306
▁bed	-8.00885
▁year	-8.00963
▁Moody	-8.00985
▁mouth	-8.01062
▁Then	-8.03868
▁hard	-8.0413
S	-8.04674
▁robes	-8.04813
▁already	-8.04969
▁set	-8.04993
So	-8.05017
▁walked	-8.05232
▁half	-8.05377
▁years	-8.0566
▁sat	-8.05674
▁staring	-8.05824
▁give	-8.05868
▁should	-8.05957
▁past	-8.06266
▁small	-8.06359
▁fell	-8.06871
▁Uncle	-8.07102
or	-8.08409
Who	-8.08437
▁won	-8.08869
▁gone	-8.08885
▁those	-8.09077
▁rather	-8.093
▁day	-8.09875
▁between	-8.10193
▁whispered	-8.10252
▁Fudge	-8.10426
▁suddenly	-8.11125
▁standing	-8.1144
▁--`	-8.11961
▁We	-8.12179
▁am	-8.12331
es	-8.12407
▁began	-8.12464
▁until	-8.12695
▁these	-8.12849
▁many	-8.1329
▁opened	-8.13317
▁full	-8.14215
▁window	-8.14301
▁tried	-8.14323
▁—	-8.14509
That	-8.14594
▁slightly	-8.15037
▁yet	-8.15045
▁onto	-8.15184
▁sitting	-8.15263
▁Black	-8.15739
▁.`	-8.15928
▁quickly	-8.16473
▁office	-8.16697
▁raised	-8.16956
▁same	-8.17169
h	-8.17302
▁reached	-8.18428
▁top	-8.1843
▁talking	-8.18591
▁Quidditch	-8.18625
▁Dudley	-8.18628
▁castle	-8.1887
▁new	-8.19332
▁things	-8.19566
She	-8.19894
▁started	-8.19985
f	-8.20538
▁As	-8.20582
▁arm	-8.2065
▁Lord	-8.216
They	-8.21855
▁able	-8.21924
▁name	-8.21963
▁ground	-8.21975
▁wouldn	-8.21978
▁fire	-8.22092
you	-8.22137
▁rest	-8.2284
▁ter	-8.23357
▁Slughorn	-8.2338
How	-8.23406
▁feel	-8.23603
▁shouted	-8.24179
▁forward	-8.24354
▁always	-8.244
▁re	-8.24597
▁Percy	-8.24673
▁almost	-8.2544
▁anyone	-8.25451
▁Dobby	-8.25487
▁together	-8.25964
▁coming	-8.26007
▁work	-8.26351
▁called	-8.26352
▁later	-8.26518
▁father	-8.26756
al	-8.27427
▁S	-8.27718
▁wall	-8.2781
▁far	-8.27825
▁yeh	-8.28096
▁idea	-8.28569
▁feeling	-8.28921
▁eye	-8.29581
▁dead	-8.2961
▁however	-8.29726
▁stared	-8.2978
There	-8.30484
g	-8.31183
▁sight	-8.32015
▁What	-8.3207
▁watching	-8.32124
▁quietly	-8.32249
▁Hall	-8.32491
▁believe	-8.32497
▁students	-8.32944
▁whole	-8.32947
▁ask	-8.3298
▁mother	-8.33047
le	-8.33163
▁beside	-8.33362
▁lot	-8.33432
▁d	-8.33639
▁stop	-8.33888
▁o	-8.34037
▁read	-8.34091
▁s	-8.34195
▁life	-8.34746
i	-8.34825
▁outside	-8.35072
▁Eaters	-8.35709
....	-8.36025
!``	-8.36733
▁caught	-8.37072
▁everything	-8.37075
▁close	-8.37525
▁Slytherin	-8.37549
▁kept	-8.37956
▁When	-8.38615
▁best	-8.39039
▁stopped	-8.39154
▁everyone	-8.39161
▁whether	-8.39452
▁slowly	-8.3947
and	-8.39473
▁Muggle	-8.39682
▁If	-8.39832
▁use	-8.39916
▁words	-8.40084
▁supposed	-8.40189
▁stone	-8.40357
▁passed	-8.40438
▁saying	-8.40812
▁muttered	-8.40974
▁scar	-8.41583
▁getting	-8.41652
▁cold	-8.41711
▁red	-8.41729
▁word	-8.42471
▁Luna	-8.42516
▁nose	-8.42598
▁class	-8.4278
▁try	-8.43792
▁Magic	-8.44043
▁Crouch	-8.44076
▁someone	-8.44078
▁taken	-8.44106
▁leave	-8.44384
▁sir	-8.44399
▁talk	-8.44492
▁sound	-8.44501
▁Madam	-8.44647
▁wizards	-8.45434
▁haven	-8.45778
▁empty	-8.45973
▁shoulder	-8.46197
▁holding	-8.46451
▁un	-8.46552
▁corridor	-8.46664
▁silence	-8.46953
▁moved	-8.47154
▁heart	-8.4726
...`	-8.47285
▁crowd	-8.47353
Don	-8.47553
T	-8.47981
If	-8.48419
▁since	-8.48574
▁Cedric	-8.48914
▁appeared	-8.48956
▁alone	-8.49236
▁loudly	-8.4965
▁making	-8.49912
it	-8.50046
▁wearing	-8.50312
▁remember	-8.50384
▁high	-8.50385
▁book	-8.50484
▁taking	-8.50576
▁Riddle	-8.50579
is	-8.50803
▁(	-8.50869
▁water	-8.51155
▁minutes	-8.51311
on	-8.52038
▁pointed	-8.52157
▁white	-8.5232
▁silver	-8.53195
▁followed	-8.53722
▁magic	-8.53965
▁morning	-8.53995
▁sort	-8.54297
Why	-8.54475
▁t	-8.54828
▁desk	-8.54904
▁watched	-8.54908
▁corner	-8.55007
▁point	-8.55127
▁chair	-8.55259
▁pointing	-8.55319
w	-8.55541
▁towards	-8.55589
▁arms	-8.55592
▁hit	-8.55708
▁understand	-8.56172
▁This	-8.56259
▁closed	-8.56773
▁four	-8.56782
▁That	-8.56788
▁Cloak	-8.56813
▁Petunia	-8.57179
▁Bill	-8.57191
▁common	-8.57893
▁team	-8.57975
▁P	-8.58323
less	-8.58597
▁cloak	-8.58913
▁Aunt	-8.59346
▁several	-8.59349
▁Minister	-8.59353
▁hall	-8.59388
▁thinking	-8.59657
▁such	-8.59717
▁having	-8.59718
D	-8.60565
▁yes	-8.60571
E	-8.60595
▁shaking	-8.60828
▁body	-8.60836
▁letter	-8.60863
▁family	-8.61575
▁Filch	-8.61581
▁speak	-8.62427
▁usual	-8.62605
Not	-8.62834
▁green	-8.631
▁breath	-8.63247
▁watch	-8.63705
▁answer	-8.63711
▁lay	-8.63865
▁yelled	-8.63896
but	-8.63956
▁held	-8.64245
▁sorry	-8.64249
▁C	-8.64515
▁pain	-8.64586
▁others	-8.64632
▁given	-8.64906
▁parchment	-8.65011
▁wrong	-8.654
▁fact	-8.65419
▁owl	-8.65456
▁used	-8.65575
▁fast	-8.65856
▁B	-8.65934
▁kitchen	-8.66183
▁kill	-8.6665
▁smile	-8.66709
▁bag	-8.67084
▁move	-8.67537
▁continued	-8.67836
▁matter	-8.67877
▁hurried	-8.68058
▁ten	-8.68087
▁Lockhart	-8.6857
▁dear	-8.68584
▁added	-8.68608
▁Kreacher	-8.68622
▁telling	-8.68832
▁straight	-8.68962
▁moving	-8.68973
▁At	-8.69092
▁ran	-8.69368
v	-8.6944
est	-8.69579
▁Trelawney	-8.69784
▁lost	-8.69786
▁...`	-8.70071
▁fingers	-8.7029
▁books	-8.70306
▁deep	-8.70816
▁hope	-8.71145
Know	-8.71203
▁low	-8.71346
▁shut	-8.71429
▁round	-8.71627
Ron	-8.71638
ness	-8.71743
▁gold	-8.7184
▁either	-8.71841
▁turn	-8.71952
Hermione	-8.7204
▁died	-8.72455
il	-8.73007
▁snake	-8.73085
▁exactly	-8.73099
....`	-8.73777
▁themselves	-8.73943
▁foot	-8.73971
▁noise	-8.74202
▁Great	-8.74384
▁Krum	-8.74384
▁girl	-8.74617
▁real	-8.7472
▁run	-8.75259
▁In	-8.75312
▁bad	-8.75647
▁Goyle	-8.75655
▁Cho	-8.75757
▁spoke	-8.7593
▁five	-8.76107
▁``	-8.76313
▁kind	-8.76415
▁blood	-8.76471
▁tiny	-8.76542
▁loud	-8.7678
▁start	-8.76975
▁returned	-8.77149
▁days	-8.77156
P	-8.77175
▁seem	-8.77378
▁glass	-8.77386
▁Tonks	-8.77411
▁sign	-8.77428
▁nearly	-8.7749
em	-8.77628
▁shook	-8.77839
▁dropped	-8.7784
▁For	-8.7792
▁waiting	-8.7807
▁short	-8.78099
▁thick	-8.78173
▁chance	-8.78282
▁Bagman	-8.78284
▁Fleur	-8.78298
▁above	-8.78725
▁parents	-8.78849
▁witch	-8.79163
ers	-8.79167
▁least	-8.79172
th	-8.79514
▁case	-8.79639
▁turning	-8.79922
▁ago	-8.79969
▁Crabbe	-8.80079
▁noticed	-8.80207
▁burst	-8.80239
as	-8.80505
▁also	-8.80978
▁hat	-8.81217
▁All	-8.81389
)	-8.81404
▁neck	-8.81434
▁darkness	-8.81478
C	-8.81736
▁Dursleys	-8.81742
ur	-8.81752
▁home	-8.8189
▁lying	-8.81898
▁stairs	-8.82022
▁beneath	-8.82354
▁Draco	-8.82369
▁entered	-8.82419
▁steps	-8.82452
▁entrance	-8.82817
▁trouble	-8.83016
▁match	-8.83724
▁golden	-8.83765
▁sent	-8.83768
▁person	-8.84187
▁pocket	-8.842
ri	-8.84267
▁expression	-8.84692
▁finished	-8.8477
en	-8.85018
▁ceiling	-8.85164
▁staircase	-8.85164
▁clear	-8.85416
▁care	-8.85749
▁evening	-8.85903
▁stay	-8.86076
▁leaving	-8.86119
▁whose	-8.86154
ar	-8.86191
▁please	-8.86841
▁free	-8.86994
Come	-8.87349
▁friends	-8.87395
▁Dean	-8.87571
▁shall	-8.88046
▁threw	-8.88056
▁son	-8.88203
M	-8.88395
This	-8.88823
▁So	-8.8885
▁flew	-8.89039
▁chest	-8.89043
▁arrived	-8.89068
▁hour	-8.89124
▁stuff	-8.89507
▁number	-8.89559
▁grounds	-8.89777
My	-8.89915
he	-8.90059
▁managed	-8.90091
▁Now	-8.90255
Now	-8.90401
▁magical	-8.90468
▁legs	-8.90485
▁Christmas	-8.90531
▁potion	-8.9064
Dumbledore	-8.90816
▁ears	-8.90974
▁death	-8.91146
▁except	-8.91539
▁near	-8.91849
Er	-8.91972
▁running	-8.92051
▁glasses	-8.92593
▁trunk	-8.92706
▁soon	-8.9275
▁enormous	-8.93585
▁Hedwig	-8.93596
O	-8.93648
▁—`	-8.93649
Good	-8.93885
L	-8.93972
▁thin	-8.94088
▁nobody	-8.9411
▁friend	-8.942
▁glanced	-8.94217
▁longer	-8.94494
▁stupid	-8.94514
▁became	-8.94624
▁world	-8.94624
▁seized	-8.94664
▁question	-8.95121
▁call	-8.9518
▁vanished	-8.95181
▁Invisibility	-8.95674
▁woman	-8.95674
All	-8.9592
▁wide	-8.96024
ion	-8.96076
ation	-8.96303
▁odd	-8.96629
▁perhaps	-8.96742
▁wait	-8.9675
▁within	-8.96824
▁part	-8.96943
ting	-8.97069
▁times	-8.97296
▁walls	-8.97305
ic	-8.97316
ro	-8.975
▁seat	-8.97572
▁sword	-8.97808
▁Wood	-8.97814
▁Wormtail	-8.97818
▁ready	-8.98
R	-8.9832
B	-8.98354
▁doors	-8.98441
▁One	-8.9848
▁car	-8.98569
▁T	-8.98635
▁herself	-8.98896
▁finally	-8.98936
▁show	-8.99009
▁walking	-8.99109
looking	-8.9922
Look	-8.99222
▁known	-8.99229
▁angry	-8.99438
Where	-8.99769
▁met	-8.99798
▁pulling	-9.0012
▁elf	-9.0015
▁repeated	-9.00568
▁return	-9.00577
▁How	-9.01015
▁happy	-9.01095
▁de	-9.01778
▁listening	-9.01853
▁killed	-9.01995
▁week	-9.02003
▁bright	-9.02121
▁angrily	-9.02216
▁job	-9.02216
▁Bellatrix	-9.02241
▁No	-9.02245
▁stand	-9.02299
▁F	-9.023
▁broom	-9.02331
▁broken	-9.02371
▁flying	-9.02377
ent	-9.02382
▁hurt	-9.02477
▁Well	-9.02575
▁says	-9.02705
▁Arts	-9.02781
▁instead	-9.02781
▁anyway	-9.02788
▁dementors	-9.02855
▁pale	-9.02857
Did	-9.03144
▁Eater	-9.03161
▁broke	-9.03192
▁dragon	-9.03199
▁Prophet	-9.03349
▁tonight	-9.0335
▁smiling	-9.03351
▁clearly	-9.03477
we	-9.03577
▁portrait	-9.03735
▁expect	-9.03911
▁Snitch	-9.0392
▁true	-9.0392
▁memory	-9.0392
▁nodded	-9.0392
▁Seamus	-9.03923
an	-9.04154
▁hold	-9.04239
▁less	-9.04253
▁looks	-9.04395
▁below	-9.04495
▁Azkaban	-9.04498
▁laugh	-9.04541
▁completely	-9.04542
▁edge	-9.04808
▁suppose	-9.04811
Professor	-9.04855
▁lesson	-9.04934
▁spell	-9.05513
able	-9.05522
▁different	-9.05654
▁spot	-9.06216
▁barely	-9.06256
ce	-9.06281
▁windows	-9.06288
W	-9.06674
▁reckon	-9.06683
▁James	-9.06845
▁p	-9.06869
▁pair	-9.07295
▁meant	-9.07578
▁tears	-9.07733
▁trees	-9.07925
▁ought	-9.08014
▁forced	-9.08186
▁tent	-9.08298
▁quiet	-9.08506
ted	-9.08516
▁shot	-9.08617
▁fine	-9.08623
▁Magical	-9.08662
▁train	-9.08669
▁led	-9.08982
▁teacher	-9.09172
▁happen	-9.09209
▁horrible	-9.09216
▁story	-9.09217
us	-9.09391
ful	-9.09574
▁Albus	-9.09842
▁young	-9.10007
▁ahead	-9.10029
▁sky	-9.10431
▁stepped	-9.10435
▁seconds	-9.1061
ish	-9.1092
▁hundred	-9.10994
▁big	-9.11034
▁master	-9.11046
▁blue	-9.11068
▁break	-9.11414
▁b	-9.1153
▁important	-9.11552
▁giving	-9.11663
▁snapped	-9.11663
▁lake	-9.11664
like	-9.12017
▁fear	-9.12028
▁street	-9.12094
▁late	-9.12106
▁middle	-9.12283
at	-9.12654
Of	-9.12722
▁power	-9.12893
li	-9.13283
▁summer	-9.13537
▁hidden	-9.13538
▁sit	-9.14025
▁hours	-9.14065
▁forest	-9.14104
ge	-9.14147
▁third	-9.1417
▁Order	-9.1417
up	-9.14223
▁Muggles	-9.14347
Are	-9.1467
▁rose	-9.1481
▁whom	-9.14956
ow	-9.15081
▁couple	-9.15448
▁probably	-9.15452
▁cup	-9.15456
▁bottle	-9.15475
ul	-9.15874
▁silent	-9.15986
▁dangerous	-9.15987
▁Pomfrey	-9.16093
▁brought	-9.16094
▁pushed	-9.16152
et	-9.16246
ity	-9.16354
the	-9.16569
▁yourself	-9.16745
▁leg	-9.16809
▁f	-9.16814
▁carrying	-9.16846
▁roared	-9.16855
▁hardly	-9.17073
Let	-9.17191
▁sounded	-9.17238
▁dis	-9.17329
▁possible	-9.17396
▁during	-9.17397
▁giant	-9.17479
k	-9.17562
▁ear	-9.17584
▁sense	-9.17787
▁sister	-9.18056
ling	-9.18178
▁tea	-9.18476
▁cried	-9.18716
▁tree	-9.18816
▁heads	-9.18889
▁points	-9.18964
▁laughed	-9.18994
▁expected	-9.18995
▁worse	-9.19383
▁wands	-9.19595
▁nor	-9.19764
Ah	-9.19958
U	-9.19963
▁Crookshanks	-9.20062
▁hole	-9.20062
▁goblin	-9.20177
▁difficult	-9.20627
▁truth	-9.20726
▁Hogsmeade	-9.20734
▁laughter	-9.20742
▁yeah	-9.20743
▁Rita	-9.20744
▁Peeves	-9.20747
ter	-9.20848
▁closer	-9.20872
▁covered	-9.2092
▁mad	-9.21303
▁group	-9.2141
▁drew	-9.2141
▁Karkaroff	-9.21429
▁picked	-9.21505
▁jumped	-9.2153
▁aren	-9.21922
▁meet	-9.22027
▁heavy	-9.22095
▁funny	-9.22097
▁become	-9.2213
▁reason	-9.22233
▁pleased	-9.2247
▁stomach	-9.22785
▁may	-9.22806
▁realized	-9.22931
▁cat	-9.23209
▁throat	-9.23479
▁picture	-9.2367
▁indeed	-9.24179
▁simply	-9.2418
▁merely	-9.24206
▁walk	-9.24362
lo	-9.24481
▁catch	-9.2461
▁?	-9.24725
▁Her	-9.24841
▁fight	-9.253
▁Horcrux	-9.25561
▁field	-9.25592
▁gasped	-9.25664
▁apart	-9.2584
Do	-9.25845
▁Why	-9.26037
▁knows	-9.26115
▁nice	-9.26308
▁plan	-9.26439
▁screamed	-9.26473
▁wondered	-9.26478
▁Ravenclaw	-9.26556
▁sleep	-9.26632
▁note	-9.26649
▁slid	-9.26677
▁aside	-9.26848
led	-9.26921
▁myself	-9.27028
▁alive	-9.27029
▁Granger	-9.27033
▁dad	-9.27049
▁surprise	-9.27487
▁starting	-9.27493
▁M	-9.27524
▁dinner	-9.2775
▁teeth	-9.2775
▁breakfast	-9.27751
▁Winky	-9.27784
▁With	-9.27846
▁remained	-9.27884
▁joined	-9.27964
▁brother	-9.28044
▁girls	-9.2806
um	-9.28145
▁news	-9.28255
▁die	-9.28348
Just	-9.28354
▁cut	-9.28476
▁somebody	-9.28485
▁actually	-9.28486
▁House	-9.28497
to	-9.28684
ir	-9.28721
▁wing	-9.28775
▁direction	-9.28775
▁paper	-9.28775
ad	-9.28826
▁laughing	-9.28841
▁carefully	-9.29285
▁leapt	-9.29331
▁huge	-9.29371
▁worry	-9.29541
▁Charm	-9.29551
▁needed	-9.2957
▁dog	-9.2965
▁remembered	-9.29745
▁terrible	-9.29956
▁bent	-9.30007
Right	-9.3054
▁Against	-9.30704
▁somewhere	-9.30714
▁Lucius	-9.30715
▁tail	-9.3072
▁c	-9.30969
elf	-9.31157
▁drink	-9.31171
▁smiled	-9.31202
▁safe	-9.3127
▁Lavender	-9.31454
▁cauldron	-9.31454
▁apparently	-9.31464
▁view	-9.31467
ive	-9.31647
▁wish	-9.31665
▁twenty	-9.32212
▁beyond	-9.32213
▁Daily	-9.32213
▁Flitwick	-9.32216
▁Scrimgeour	-9.32229
▁knees	-9.32631
▁information	-9.32978
▁slipped	-9.32979
▁clutching	-9.32996
▁climbed	-9.33032
▁sharply	-9.33049
▁allowed	-9.33056
▁tightly	-9.3308
▁teachers	-9.33094
▁surprised	-9.33253
ment	-9.33334
▁present	-9.33373
▁change	-9.33481
▁weren	-9.33492
▁Curse	-9.33745
▁attention	-9.33745
▁bottom	-9.33745
▁mirror	-9.33745
▁task	-9.33745
▁Diggory	-9.33756
▁single	-9.33782
el	-9.33804
▁H	-9.33808
▁After	-9.33811
▁decided	-9.33872
ate	-9.33919
▁today	-9.34056
id	-9.34076
▁piece	-9.34167
am	-9.34265
▁wind	-9.34451
▁Skeeter	-9.34526
▁classroom	-9.34526
▁Cup	-9.34542
▁D	-9.34713
▁Head	-9.34846
▁bring	-9.35028
▁Potions	-9.3507
▁G	-9.35112
▁tight	-9.35203
▁shock	-9.35203
▁On	-9.35288
▁living	-9.35301
▁pink	-9.35309
▁working	-9.35348
▁itself	-9.35363
▁hasn	-9.35505
▁live	-9.3551
▁er	-9.35582
▁closely	-9.35586
Hagrid	-9.35871
se	-9.36086
▁forehead	-9.36088
▁hospital	-9.36088
▁worried	-9.36088
▁forgotten	-9.36091
▁Griphook	-9.36108
▁lessons	-9.36306
▁listen	-9.36368
▁attack	-9.36495
▁backward	-9.3663
▁lit	-9.36668
▁upstairs	-9.36882
▁THE	-9.36901
▁hiding	-9.36953
ch	-9.37279
▁strange	-9.37458
▁speaking	-9.37474
▁wants	-9.37479
▁happily	-9.37682
▁opposite	-9.37682
▁filled	-9.37769
▁following	-9.37894
▁egg	-9.37909
▁line	-9.37986
Eye	-9.38266
▁love	-9.38276
▁none	-9.38352
▁sudden	-9.38381
▁box	-9.38459
▁afraid	-9.38488
▁gazing	-9.38489
▁Parvati	-9.38498
``	-9.38705
▁faces	-9.3891
▁Scabbers	-9.39313
▁visit	-9.39555
▁join	-9.39593
▁touch	-9.39596
F	-9.39789
▁form	-9.39795
▁subject	-9.39845
▁trust	-9.39877
▁boys	-9.39922
▁swung	-9.40121
▁extremely	-9.4013
▁purple	-9.40151
▁secret	-9.40555
▁r	-9.40647
▁marble	-9.40948
▁Buckbeak	-9.40954
▁Mundungus	-9.40969
▁seeing	-9.41117
ant	-9.41252
▁wondering	-9.41329
be	-9.41473
▁quill	-9.41545
▁grinning	-9.41783
▁disappeared	-9.41839
▁furiously	-9.41854
▁keeping	-9.42127
ie	-9.42158
▁finger	-9.42509
▁okay	-9.42621
▁practice	-9.42624
▁Quirrell	-9.42626
▁Angelina	-9.42628
▁placed	-9.42998
▁doubt	-9.4322
▁mention	-9.4323
Very	-9.43249
▁dormitory	-9.43469
▁immediately	-9.43488
▁To	-9.43623
Can	-9.43696
▁co	-9.43764
▁six	-9.43958
▁step	-9.44133
▁figure	-9.44147
im	-9.44152
▁food	-9.44324
▁hastily	-9.44324
▁strode	-9.44324
▁footsteps	-9.44324
▁knocked	-9.4442
▁whatever	-9.44428
▁Tom	-9.44489
ies	-9.44529
As	-9.4459
▁weeks	-9.44644
▁send	-9.4492
▁page	-9.4502
▁minute	-9.45045
▁powerful	-9.4509
▁staff	-9.45183
▁bellowed	-9.45186
▁terrified	-9.45186
▁homework	-9.45193
▁Severus	-9.45243
▁waited	-9.45577
▁Not	-9.45889
▁notice	-9.45917
▁conversation	-9.45925
▁copy	-9.46055
▁library	-9.46055
▁landed	-9.46098
▁attacked	-9.4632
ap	-9.46659
▁bedroom	-9.46943
▁path	-9.46943
▁cage	-9.46953
▁fixed	-9.46987
▁Dad	-9.47017
▁rolled	-9.47059
ig	-9.4719
In	-9.47191
▁Slytherins	-9.47296
▁term	-9.47516
▁ball	-9.47751
▁afternoon	-9.47817
▁Arthur	-9.47884
▁nervously	-9.4791
▁nearer	-9.47943
▁scared	-9.48539
▁Hufflepuff	-9.48592
▁garden	-9.4871
▁Pettigrew	-9.48717
▁glad	-9.4872
▁map	-9.48733
▁cannot	-9.48755
▁bound	-9.48756
ated	-9.48801
▁softly	-9.48802
▁meeting	-9.48952
▁usually	-9.48964
▁rain	-9.4898
▁shop	-9.49495
▁forget	-9.496
▁problem	-9.49611
▁twelve	-9.49611
▁firmly	-9.49632
▁tall	-9.49677
▁means	-9.49709
▁beard	-9.4992
ry	-9.4993
▁Mad	-9.49966
▁pass	-9.4997
▁whisper	-9.49997
Be	-9.50028
ily	-9.5024
ring	-9.50404
▁bathroom	-9.50521
▁locket	-9.50526
▁Myrtle	-9.50531
▁earth	-9.50543
▁E	-9.50617
▁playing	-9.50751
▁explain	-9.5091
that	-9.51242
▁m	-9.51298
▁skin	-9.51338
▁Firebolt	-9.51438
▁spent	-9.51445
▁particularly	-9.51473
G	-9.5169
▁showed	-9.51844
▁My	-9.51974
▁curse	-9.52047
▁deal	-9.52118
▁quick	-9.52182
▁normal	-9.52255
▁reading	-9.52347
▁prophecy	-9.52363
▁halfway	-9.5237
▁Nick	-9.52389
▁brain	-9.53268
▁Katie	-9.53298
▁sideways	-9.53298
▁Tower	-9.533
▁W	-9.53302
▁Fang	-9.53303
▁surface	-9.53307
▁oh	-9.53439
▁force	-9.5363
▁w	-9.53906
▁1	-9.53977
▁cast	-9.53981
Get	-9.54033
▁owls	-9.54105
▁worked	-9.54156
▁cabin	-9.54231
▁asleep	-9.54241
▁headmaster	-9.54241
▁waving	-9.54243
▁Forest	-9.54277
▁Lily	-9.54285
▁fer	-9.54343
▁changed	-9.54566
▁v	-9.54687
▁Prime	-9.55194
▁heavily	-9.55194
▁diary	-9.55196
▁fallen	-9.55208
▁Miss	-9.55248
▁certainly	-9.55277
z	-9.55603
▁dare	-9.55899
pe	-9.55902
clock	-9.55943
▁save	-9.55954
▁rock	-9.56042
▁deserted	-9.56164
▁Ollivander	-9.56175
▁hot	-9.56331
▁fighting	-9.56538
▁Where	-9.5654
▁tone	-9.56832
▁fall	-9.56839
▁An	-9.56926
▁smell	-9.57039
▁Maxime	-9.57126
▁distant	-9.57126
▁Charlie	-9.5714
▁broomstick	-9.57166
▁approached	-9.57191
▁beaming	-9.57208
▁crossed	-9.57243
▁missed	-9.5731
▁Madame	-9.57332
▁spells	-9.57378
ave	-9.57426
▁e	-9.57592
▁L	-9.57693
▁fly	-9.57987
▁sank	-9.58107
▁hoping	-9.58109
▁scarlet	-9.58117
▁St	-9.58122
▁leaned	-9.58129
▁gray	-9.58146
▁row	-9.58189
▁ill	-9.58198
▁throwing	-9.58294
▁brightly	-9.58295
▁hanging	-9.58318
▁falling	-9.58391
sh	-9.58884
▁corridors	-9.58953
’	-9.59097
▁nasty	-9.59097
▁trembling	-9.59097
▁anger	-9.59098
▁grass	-9.59103
▁poor	-9.59113
▁frowning	-9.59129
▁unless	-9.59155
▁dream	-9.59552
▁pitch	-9.59613
▁seven	-9.59746
▁en	-9.59836
Snape	-9.59879
▁luck	-9.59997
▁maybe	-9.60123
▁Two	-9.60133
▁stretched	-9.60181
▁Mum	-9.6019
▁wonder	-9.60223
▁hurrying	-9.60313
▁attempt	-9.60689
When	-9.60891
▁often	-9.61029
▁shoulders	-9.61067
▁further	-9.61108
▁eagerly	-9.61142
▁muttering	-9.61145
▁perfectly	-9.61154
▁eyebrows	-9.61274
▁soul	-9.61385
▁crack	-9.61585
▁check	-9.61603
▁O	-9.6185
Y	-9.61983
▁nervous	-9.6202
▁using	-9.62071
▁hung	-9.62121
▁fault	-9.62127
▁position	-9.62127
▁business	-9.62128
▁R	-9.62129
▁Department	-9.62133
▁ink	-9.62137
▁busy	-9.62182
▁putting	-9.62222
▁sun	-9.62424
▁months	-9.62503
ight	-9.62681
▁scream	-9.62795
▁Oh	-9.62887
te	-9.63071
▁facing	-9.63158
▁fifty	-9.63158
▁tomorrow	-9.63158
▁halt	-9.63159
▁split	-9.6316
▁Ernie	-9.63161
▁Lee	-9.63163
▁snarled	-9.63169
▁Even	-9.63214
▁pressed	-9.63257
▁YOU	-9.63668
▁cover	-9.63682
▁teach	-9.63844
Maybe	-9.63982
▁invisible	-9.642
▁control	-9.64205
▁impatiently	-9.64216
▁inches	-9.6422
▁nearest	-9.64234
▁unable	-9.64238
▁Who	-9.64321
▁waved	-9.64436
▁soft	-9.64592
ne	-9.64601
▁Did	-9.64711
▁shouldn	-9.64967
▁thank	-9.65036
▁echoed	-9.65252
▁neither	-9.65252
▁pretty	-9.65253
▁g	-9.6527
▁fit	-9.65272
▁hide	-9.65309
▁witches	-9.65325
Your	-9.65348
▁early	-9.65425
▁follow	-9.65777
▁showing	-9.65798
▁flat	-9.66045
ag	-9.6606
▁lips	-9.66296
▁cupboard	-9.66319
▁Greyback	-9.66325
▁frightened	-9.66358
age	-9.66359
▁thrown	-9.6643
ous	-9.66463
▁drawing	-9.66493
▁goblet	-9.66539
▁handed	-9.67263
▁determined	-9.67281
▁danger	-9.67384
▁grabbed	-9.67392
▁emerged	-9.67422
▁growled	-9.67441
▁obviously	-9.67456
▁bin	-9.67478
▁screaming	-9.67685
Go	-9.67771
▁seems	-9.67791
▁voices	-9.68129
▁hesitated	-9.68494
▁spotted	-9.68503
▁Wizarding	-9.68561
▁liked	-9.68588
▁worth	-9.6864
▁human	-9.68773
▁asking	-9.68775
▁passing	-9.68817
op	-9.68974
▁rid	-9.69028
▁lift	-9.69049
▁questions	-9.69136
▁hissed	-9.69168
Have	-9.69404
▁Gr	-9.6948
▁snow	-9.6948
▁wood	-9.69532
▁sick	-9.69541
▁warning	-9.6957
N	-9.6957
▁shrieked	-9.69683
▁badly	-9.69852
▁dungeon	-9.6988
ally	-9.70022
▁play	-9.70128
▁reach	-9.70176
▁flames	-9.70424
Because	-9.70468
▁sharp	-9.70586
if	-9.70602
▁twice	-9.70689
▁carried	-9.70689
▁wake	-9.70692
▁anymore	-9.70697
▁yer	-9.70703
▁Kingsley	-9.70704
▁Potion	-9.71034
▁age	-9.71436
▁village	-9.71805
▁Sprout	-9.71812
▁fresh	-9.71812
▁writing	-9.71812
▁stuck	-9.71814
▁Mark	-9.71818
om	-9.71843
▁Patronus	-9.71857
▁grave	-9.71873
▁Just	-9.721
▁Bludger	-9.72163
▁Dursley	-9.72184
▁guard	-9.72414
x	-9.72548
▁patch	-9.72675
▁Weasleys	-9.72692
▁easy	-9.72948
▁familiar	-9.72948
▁midair	-9.72949
▁joke	-9.7295
▁definitely	-9.72968
See	-9.73055
▁interested	-9.73164
▁student	-9.73348
▁pause	-9.73835
▁sounding	-9.73965
▁horror	-9.74098
▁worst	-9.74098
▁square	-9.74099
▁Longbottom	-9.74112
▁wooden	-9.74113
▁rising	-9.74117
▁Nearly	-9.74135
▁Every	-9.74145
▁Horcruxes	-9.74154
▁pile	-9.74214
▁mum	-9.74224
per	-9.74282
▁shouting	-9.74296
▁helped	-9.74409
Mr	-9.74431
ary	-9.74465
▁act	-9.74759
▁Was	-9.74768
▁pull	-9.74823
▁l	-9.74846
▁wave	-9.75075
▁mistake	-9.75104
▁cool	-9.75153
▁Chamber	-9.75261
▁downstairs	-9.75261
▁shining	-9.75261
▁birthday	-9.75261
▁eh	-9.75295
▁However	-9.75298
▁Wand	-9.75321
▁party	-9.75484
my	-9.75497
▁leading	-9.7552
mon	-9.76069
▁clean	-9.76172
▁color	-9.76193
▁mark	-9.76207
Listen	-9.76214
Potter	-9.76219
▁wild	-9.7633
▁tables	-9.76403
▁warm	-9.76427
▁Drive	-9.76437
▁Privet	-9.76437
▁understood	-9.76437
▁platform	-9.76438
▁solid	-9.76438
▁Stone	-9.76443
▁gleaming	-9.76472
▁seriously	-9.76533
▁growing	-9.7655
Sorry	-9.76553
▁lifted	-9.76697
▁highly	-9.76817
▁coldly	-9.76851
ened	-9.76961
▁creatures	-9.76964
▁glance	-9.77366
▁Stan	-9.77433
▁hearing	-9.77522
ick	-9.77588
▁Quaffle	-9.77628
▁scene	-9.77628
▁excitement	-9.77628
▁glittering	-9.77646
▁objects	-9.77719
▁excitedly	-9.7772
▁letters	-9.77732
red	-9.77746
▁packed	-9.77777
▁louder	-9.77825
▁seats	-9.7827
▁win	-9.7843
▁nine	-9.78451
▁bar	-9.78597
▁Triwizard	-9.78832
▁statue	-9.78832
▁swept	-9.78832
▁soared	-9.78834
▁game	-9.7884
▁properly	-9.78875
▁Once	-9.789
of	-9.7895
▁lucky	-9.78956
tion	-9.79163
▁size	-9.79206
▁goal	-9.79251
▁ring	-9.79254
▁tip	-9.79364
▁Dementors	-9.79409
▁bell	-9.79513
▁Charms	-9.79519
▁narrow	-9.797
▁eat	-9.7977
▁escape	-9.79788
uff	-9.79797
▁thanks	-9.798
Dobby	-9.79835
▁rang	-9.79847
▁strong	-9.79869
▁furious	-9.79946
▁list	-9.8003
▁aware	-9.80052
▁famous	-9.80053
▁Gringotts	-9.80056
▁somehow	-9.80077
▁Three	-9.80107
▁sighed	-9.80161
▁burning	-9.80268
▁bet	-9.80323
▁champions	-9.80332
▁avoid	-9.80837
▁N	-9.80963
haired	-9.81151
▁certain	-9.81178
▁careful	-9.81209
▁grip	-9.81285
▁armchair	-9.81287
▁compartment	-9.81287
▁dunno	-9.81287
▁relief	-9.81287
▁smoke	-9.81287
▁fireplace	-9.81294
▁fellow	-9.81347
▁learned	-9.81457
▁post	-9.81491
Then	-9.8156
▁deeply	-9.81611
▁saved	-9.81627
ine	-9.8175
▁con	-9.81793
▁holidays	-9.82097
▁surely	-9.82236
▁circle	-9.82537
▁slammed	-9.82537
▁write	-9.82537
▁impression	-9.82538
▁anybody	-9.82545
▁Defense	-9.82554
▁Headless	-9.82567
▁recognized	-9.82665
▁sped	-9.82782
▁shortly	-9.82842
▁lived	-9.82958
▁ghost	-9.83044
Hi	-9.83153
▁spider	-9.83161
▁lead	-9.8332
▁By	-9.83364
▁breathing	-9.83466
▁test	-9.83611
me	-9.83697
▁calmly	-9.83909
▁Do	-9.83942
▁higher	-9.84076
▁order	-9.84232
▁fun	-9.84277
▁interest	-9.84319
▁names	-9.84419
ance	-9.84546
▁ha	-9.84565
▁support	-9.84825
▁calm	-9.84977
▁lunch	-9.85084
▁contact	-9.85084
▁uncle	-9.85085
▁everybody	-9.85089
▁mine	-9.85093
Here	-9.85133
▁landing	-9.85159
▁miss	-9.85238
▁lowered	-9.85308
▁bat	-9.85468
▁lie	-9.85512
▁effort	-9.85752
▁detention	-9.85758
▁sc	-9.86058
▁pro	-9.86077
▁hurry	-9.86102
▁final	-9.86276
▁written	-9.86383
▁risk	-9.86383
▁Room	-9.86385
▁expelled	-9.86385
▁Transfiguration	-9.86388
▁passage	-9.86391
▁Fat	-9.86409
▁clothes	-9.8641
▁thinks	-9.86437
▁anxiously	-9.86481
▁remain	-9.86567
ack	-9.86593
▁Of	-9.86876
year	-9.86959
▁prefect	-9.87101
▁creature	-9.87113
▁knowing	-9.87167
▁stick	-9.87421
▁double	-9.87433
▁tower	-9.87457
▁serious	-9.87591
▁complete	-9.87592
▁brave	-9.87691
▁panic	-9.87696
▁money	-9.87699
▁yellow	-9.87724
▁silvery	-9.88092
▁happening	-9.88315
rs	-9.88341
all	-9.88427
▁drop	-9.88437
▁rage	-9.88441
▁movement	-9.88471
▁twins	-9.8874
▁realize	-9.88785
Voldemort	-9.88815
faced	-9.88896
▁sounds	-9.89001
old	-9.89003
▁suit	-9.89025
▁extra	-9.89031
▁Pensieve	-9.89032
▁dragged	-9.89032
▁feast	-9.89032
▁distance	-9.89032
▁anywhere	-9.89054
▁doorway	-9.89058
▁dozen	-9.89059
▁desperately	-9.8912
*	-9.89125
▁weight	-9.89288
▁escaped	-9.89322
▁moments	-9.89354
▁Come	-9.89639
▁likely	-9.89695
▁cleared	-9.89713
▁shadow	-9.89728
▁headed	-9.89766
elves	-9.90154
For	-9.90218
▁blank	-9.90265
▁Lady	-9.90384
▁brilliant	-9.90384
▁impossible	-9.90384
▁space	-9.90384
▁flung	-9.90385
▁protection	-9.90393
▁nearby	-9.90393
▁directly	-9.90408
▁missing	-9.90682
H	-9.91152
our	-9.91152
▁wings	-9.91193
▁jump	-9.91231
ating	-9.91455
▁members	-9.91619
ING	-9.91748
▁ugly	-9.91753
▁sometimes	-9.91754
▁werewolf	-9.91761
▁Cornelius	-9.9177
▁Phineas	-9.91779
▁peering	-9.91814
▁Everyone	-9.91858
▁suggested	-9.91902
▁agreed	-9.91941
co	-9.92021
▁state	-9.92025
▁fat	-9.92033
▁attempted	-9.92082
▁sp	-9.92114
▁roar	-9.92625
▁month	-9.92633
▁excited	-9.93035
▁believed	-9.93056
▁mood	-9.93137
▁frame	-9.93142
▁vault	-9.93142
▁Lovegood	-9.93142
▁children	-9.93143
▁panted	-9.93147
▁jet	-9.9315
▁Grawp	-9.9315
▁fury	-9.93195
▁Perhaps	-9.93218
▁locked	-9.93337
▁Your	-9.93458
▁Their	-9.93509
oo	-9.93589
▁curtains	-9.93967
▁loads	-9.94098
▁murder	-9.94228
▁Borgin	-9.94551
▁choice	-9.94551
▁essay	-9.94551
▁level	-9.94551
▁Divination	-9.94562
▁everywhere	-9.94565
▁pure	-9.9469
An	-9.94752
▁explained	-9.94925
▁touched	-9.9497
▁harder	-9.95035
out	-9.95121
ke	-9.9516
ingly	-9.95275
▁rat	-9.95402
▁finish	-9.95451
Never	-9.95763
Nothing	-9.95786
▁anxious	-9.95872
▁dust	-9.95882
▁among	-9.95967
▁innocent	-9.95979
▁journey	-9.95979
▁struggling	-9.95979
▁confused	-9.9598
▁glancing	-9.9598
▁Alley	-9.95988
▁Firenze	-9.9599
▁Xenophilius	-9.96044
▁thoughts	-9.96046
▁paused	-9.96309
▁shocked	-9.96423
▁Galleons	-9.96498
▁interesting	-9.96576
▁breaking	-9.96653
Thank	-9.96755
),	-9.96854
▁heading	-9.96861
▁flash	-9.96872
▁bang	-9.9702
▁spread	-9.97143
▁gaze	-9.97165
▁trick	-9.97288
▁previous	-9.97319
one	-9.97342
▁opening	-9.9741
▁Colin	-9.97429
▁Ogden	-9.97429
▁World	-9.97429
▁raising	-9.97429
▁surrounding	-9.97429
▁Sorting	-9.97429
▁favorite	-9.9743
▁appearance	-9.97434
▁basin	-9.97437
▁Aberforth	-9.97453
▁marched	-9.97481
▁dived	-9.97554
ee	-9.97717
▁wished	-9.97898
ped	-9.97937
▁n	-9.98144
▁hoped	-9.98366
▁crash	-9.98369
▁throw	-9.9846
▁mo	-9.9857
▁handle	-9.98632
▁imagine	-9.98635
▁lower	-9.98672
▁slip	-9.9889
▁London	-9.98899
▁delighted	-9.989
▁clever	-9.98901
▁message	-9.98903
▁Ludo	-9.98914
▁twisted	-9.98937
▁brown	-9.98966
▁Nobody	-9.98974
▁Gryffindors	-9.99044
▁lose	-9.9917
▁forwards	-9.99362
▁lamp	-9.9998
▁goblins	-10.0012
▁Don	-10.0012
▁pay	-10.0015
Sirius	-10.0018
Okay	-10.0039
▁Creatures	-10.0039
▁Frank	-10.0039
▁keen	-10.0039
▁spiral	-10.0039
▁visible	-10.0039
▁therefore	-10.0039
▁Godric	-10.0039
▁ripped	-10.0039
▁although	-10.0042
▁demanded	-10.0044
▁swallowed	-10.0045
▁murmured	-10.0045
▁settled	-10.0045
▁effect	-10.0047
▁fourth	-10.0048
▁hundreds	-10.0052
▁burned	-10.0062
His	-10.0099
▁shadows	-10.0101
▁helping	-10.0112
ned	-10.0117
▁slow	-10.0148
▁speed	-10.0162
▁continue	-10.0164
▁reveal	-10.0166
ver	-10.0179
RE	-10.0186
▁echoing	-10.0191
▁newspaper	-10.0191
▁whistle	-10.0191
▁Prince	-10.0192
▁Marge	-10.0192
▁useful	-10.0196
▁failed	-10.0201
ble	-10.0207
ard	-10.0207
▁gazed	-10.0218
▁sea	-10.0219
▁wear	-10.0234
▁mist	-10.0237
▁beat	-10.0241
▁Let	-10.0244
iv	-10.0264
do	-10.0268
▁mu	-10.0277
▁expecting	-10.0282
▁h	-10.0289
▁appear	-10.0291
▁plate	-10.0308
▁champion	-10.0309
▁unpleasant	-10.0334
▁forgot	-10.0344
▁baby	-10.0345
▁tired	-10.0345
▁Gaunt	-10.0345
▁grinned	-10.0345
▁panting	-10.0345
▁station	-10.0345
▁awake	-10.0346
▁leaning	-10.0349
▁ignored	-10.036
▁Or	-10.0372
ame	-10.0372
▁Yes	-10.0378
▁checking	-10.0387
▁chairs	-10.0403
▁bow	-10.0409
ran	-10.041
▁count	-10.0444
▁Hat	-10.0462
no	-10.0468
▁upward	-10.0482
▁Burrow	-10.0501
▁envelope	-10.0501
▁private	-10.0501
▁nodding	-10.0501
▁Hallows	-10.0502
▁McLaggen	-10.0502
▁lap	-10.0504
▁bank	-10.0504
▁peered	-10.0507
▁received	-10.0509
▁moon	-10.0512
▁kicked	-10.0513
end	-10.0515
▁caused	-10.0516
▁crying	-10.0528
▁dragons	-10.0543
▁teaching	-10.0544
ier	-10.0544
▁attempting	-10.0545
▁burn	-10.0607
▁photograph	-10.0628
▁decide	-10.0633
▁buy	-10.0638
▁slight	-10.065
▁Place	-10.066
▁easily	-10.066
▁eleven	-10.066
▁Saturday	-10.066
▁crystal	-10.066
▁examining	-10.066
▁dropping	-10.066
▁Durmstrang	-10.066
▁eight	-10.066
▁amount	-10.066
▁grin	-10.0663
ab	-10.0681
▁dressed	-10.0683
▁pretending	-10.0683
ten	-10.0697
▁hate	-10.0712
ock	-10.0756
▁st	-10.0761
One	-10.0805
▁admit	-10.082
▁Seeker	-10.0821
▁knife	-10.0821
▁wife	-10.0821
▁excellent	-10.0821
▁weak	-10.0823
▁handsome	-10.0823
▁abruptly	-10.0824
▁dirty	-10.0824
▁smashed	-10.0825
▁Narcissa	-10.0826
▁Some	-10.0832
▁ex	-10.0832
ence	-10.088
pi	-10.0902
▁shout	-10.0904
▁jus	-10.0917
man	-10.0933
▁V	-10.0935
▁inch	-10.0938
▁cry	-10.0958
Kreacher	-10.0963
▁faint	-10.0965
ook	-10.0972
▁desperate	-10.0974
▁......	-10.0979
▁leaves	-10.0983
▁Requirement	-10.0985
▁difference	-10.0985
▁simple	-10.0985
▁stadium	-10.0985
▁tournament	-10.0985
▁wrote	-10.0985
▁History	-10.0985
▁glaring	-10.0985
▁toilet	-10.0985
▁dying	-10.0985
▁security	-10.0987
▁curled	-10.0992
for	-10.0992
▁Something	-10.0995
▁realised	-10.0998
▁classes	-10.1001
▁pushing	-10.1002
▁difficulty	-10.101
▁notes	-10.101
▁wizarding	-10.1048
▁i	-10.1051
▁calling	-10.1074
▁dress	-10.1084
▁report	-10.1101
▁roll	-10.1109
▁finding	-10.1123
▁dementor	-10.1131
▁Elder	-10.1151
▁hippogriff	-10.1151
▁phoenix	-10.1151
▁welcome	-10.1151
▁grew	-10.1151
▁battle	-10.1152
▁floating	-10.1155
▁Most	-10.1156
▁bought	-10.1158
Hello	-10.1162
▁removed	-10.1165
▁wildly	-10.1167
▁temper	-10.1175
Thanks	-10.1182
▁figures	-10.1189
▁socks	-10.1202
pa	-10.122
▁badge	-10.1222
ng	-10.1241
▁draw	-10.1266
▁enter	-10.127
bye	-10.1273
▁wanting	-10.1285
▁fist	-10.1299
▁stare	-10.1309
▁dull	-10.1314
▁Delacour	-10.1321
▁Pansy	-10.1321
▁dancing	-10.1321
▁striding	-10.1321
ubbly	-10.1321
▁weird	-10.1322
▁upset	-10.1323
▁Bathilda	-10.1326
▁overhead	-10.1328
▁tied	-10.1338
▁instructions	-10.1339
▁Had	-10.1341
▁Be	-10.1341
▁wonderful	-10.1351
▁bowl	-10.1357
▁stands	-10.1383
▁lives	-10.1391
▁orders	-10.1405
ink	-10.1417
▁clearing	-10.1422
▁pick	-10.1443
▁lock	-10.1467
▁accept	-10.1469
▁carriage	-10.1474
▁aunt	-10.1476
ered	-10.1485
▁Nigellus	-10.1493
▁gigantic	-10.1493
▁possibly	-10.1493
▁rubbish	-10.1493
▁stunned	-10.1493
▁gently	-10.1493
▁company	-10.1493
▁tongue	-10.1493
▁terror	-10.1493
▁taught	-10.1494
▁blame	-10.1494
▁Grimmauld	-10.1494
▁planning	-10.1494
▁Fawkes	-10.1495
▁Morfin	-10.1495
▁filthy	-10.1496
▁jinx	-10.1496
▁clutched	-10.1497
▁Molly	-10.1502
▁frozen	-10.1504
▁squeaked	-10.1506
aking	-10.1511
▁King	-10.1511
▁Master	-10.1512
▁rolling	-10.1523
▁mentioned	-10.1543
▁sleeping	-10.1562
▁men	-10.1579
▁fully	-10.1591
▁staying	-10.1596
▁answered	-10.1603
▁learn	-10.1616
▁stars	-10.1618
work	-10.1643
▁carry	-10.1643
▁mass	-10.1654
▁object	-10.1654
▁Mungo	-10.1669
▁excuse	-10.1669
▁midnight	-10.1669
▁monster	-10.1669
▁skull	-10.1669
▁surrounded	-10.1669
▁tunnel	-10.1669
▁Norris	-10.1669
▁zoomed	-10.1669
▁losing	-10.1669
EN	-10.1671
ched	-10.1674
▁considered	-10.1681
▁becoming	-10.1682
▁sprinted	-10.1682
▁struggled	-10.1683
▁discovered	-10.1686
Really	-10.1702
▁oddly	-10.1705
ious	-10.1708
▁eating	-10.1711
ever	-10.1743
ping	-10.1749
▁Secrets	-10.175
).	-10.1751
▁breathed	-10.1796
ti	-10.1805
ta	-10.1825
▁dreams	-10.183
▁obvious	-10.1837
▁fool	-10.1846
▁disappointed	-10.1847
▁folded	-10.1847
▁fought	-10.1847
▁measure	-10.1847
▁unicorn	-10.1847
Course	-10.1847
Plank	-10.1848
▁wound	-10.1848
light	-10.1848
▁road	-10.1848
▁lawn	-10.1849
▁Re	-10.185
▁dry	-10.1852
▁Before	-10.1852
▁croaked	-10.1853
▁interrupted	-10.1855
▁convinced	-10.1856
king	-10.1857
▁cave	-10.1859
▁whenever	-10.186
▁reminded	-10.1861
▁OK	-10.1865
▁sending	-10.1907
▁toad	-10.1924
▁stuffed	-10.1935
▁po	-10.1943
go	-10.1981
▁smooth	-10.1993
▁charm	-10.1994
▁ones	-10.2003
▁Can	-10.2004
blood	-10.2007
▁sleeve	-10.2019
▁troll	-10.202
▁crept	-10.2029
▁memories	-10.2029
▁special	-10.2029
▁vision	-10.2029
▁damage	-10.2029
▁Figg	-10.2029
▁Headmaster	-10.2031
fully	-10.2031
▁Both	-10.2031
▁scrambled	-10.2032
▁Grindelwald	-10.2032
ible	-10.2033
▁applause	-10.2033
▁Keeper	-10.2042
▁bowed	-10.2058
▁deeper	-10.2061
▁coat	-10.2096
gu	-10.21
▁spiders	-10.2122
▁horse	-10.2164
▁ages	-10.2174
▁study	-10.2186
▁hang	-10.2187
▁protect	-10.2188
Must	-10.2192
▁bird	-10.2203
▁fair	-10.2204
▁Hollow	-10.2214
▁elbow	-10.2214
▁including	-10.2214
▁pleasure	-10.2214
▁shrugged	-10.2214
▁swear	-10.2214
▁package	-10.2215
▁sunlight	-10.2215
▁laid	-10.2217
▁straightened	-10.2217
▁horn	-10.2217
▁Half	-10.2219
▁entirely	-10.2221
▁struck	-10.2221
▁People	-10.2221
▁From	-10.2221
▁refused	-10.2224
▁warned	-10.2229
▁drawn	-10.2236
▁beak	-10.2237
▁imagined	-10.2248
▁date	-10.2251
▁sh	-10.2251
▁sparks	-10.2256
ning	-10.226
ear	-10.2284
▁lights	-10.2288
▁goes	-10.2292
ial	-10.23
ia	-10.2314
eyed	-10.2324
▁blow	-10.2358
▁brooms	-10.2365
born	-10.2381
Please	-10.2381
▁law	-10.2392
ph	-10.2393
▁Auror	-10.2402
▁fifth	-10.2403
▁Alicia	-10.2403
▁Cauldron	-10.2403
▁Hooch	-10.2403
▁aloud	-10.2403
▁barrier	-10.2403
▁evidence	-10.2403
▁staggered	-10.2403
▁clapped	-10.2403
▁clue	-10.2403
▁OF	-10.2404
▁fake	-10.2404
▁massive	-10.2404
▁Muriel	-10.2404
▁Diagon	-10.2404
▁thoroughly	-10.2404
▁cabinet	-10.2405
▁vaguely	-10.2406
▁dance	-10.2407
▁TO	-10.2408
▁bitterly	-10.2409
▁prepared	-10.2409
▁powers	-10.2409
▁self	-10.241
▁weather	-10.2411
▁glared	-10.2412
▁singing	-10.2419
▁boat	-10.2422
At	-10.2434
▁cracked	-10.2448
▁whispering	-10.2462
▁contents	-10.2464
▁seventeen	-10.2475
by	-10.2531
min	-10.2533
Or	-10.2535
▁due	-10.2541
▁pretend	-10.2543
--	-10.2544
▁pu	-10.2547
▁bus	-10.2561
▁poison	-10.2561
▁agree	-10.2568
▁lip	-10.2571
▁pot	-10.259
▁accident	-10.2595
▁Regulus	-10.2595
▁Several	-10.2595
▁beautiful	-10.2595
▁causing	-10.2595
▁closing	-10.2595
quot	-10.2595
▁Beauxbatons	-10.2595
▁Peter	-10.2595
▁Tournament	-10.2595
▁desire	-10.2595
▁relieved	-10.2595
▁pumpkin	-10.2595
▁source	-10.2596
▁country	-10.2596
▁dashed	-10.2597
▁Remus	-10.2598
▁Viktor	-10.2599
▁muffled	-10.2599
▁impressed	-10.2599
▁makes	-10.26
▁wore	-10.2604
-`	-10.2609
▁shown	-10.2652
▁bringing	-10.2666
▁bear	-10.2667
ED	-10.2673
VE	-10.2687
she	-10.2698
▁darkly	-10.2705
▁DA	-10.2707
▁rules	-10.2734
▁raise	-10.2765
▁j	-10.277
down	-10.2774
▁proud	-10.2781
▁curious	-10.2781
▁cloud	-10.2788
▁High	-10.2791
▁Lestrange	-10.2791
▁families	-10.2791
▁plenty	-10.2791
▁speech	-10.2791
▁trace	-10.2791
▁till	-10.2791
▁passageway	-10.2792
▁evil	-10.2792
▁jar	-10.2793
▁building	-10.28
▁spectacles	-10.2801
▁counter	-10.2803
▁pub	-10.282
▁per	-10.2823
▁*	-10.2824
▁picking	-10.2824
▁offered	-10.2825
kin	-10.2826
na	-10.2836
▁clock	-10.2837
▁mate	-10.2837
▁kindly	-10.2841
▁portraits	-10.2856
ise	-10.2858
▁Though	-10.2861
▁places	-10.2865
so	-10.2885
▁older	-10.2891
well	-10.2893
▁marks	-10.291
▁brothers	-10.2913
▁Un	-10.2929
▁cross	-10.2933
▁crowded	-10.2939
▁steal	-10.2963
▁sink	-10.2966
Ginny	-10.297
▁shape	-10.2976
▁shake	-10.2976
▁prove	-10.299
Excellent	-10.2991
▁chamber	-10.2991
▁irritably	-10.2991
▁steam	-10.2991
▁wiping	-10.2991
▁wrapped	-10.2991
▁vast	-10.2991
▁respect	-10.2991
▁mumbled	-10.2992
▁tap	-10.2996
▁grimly	-10.2998
long	-10.2998
▁pounding	-10.2999
▁dreadful	-10.3001
▁centaur	-10.3003
To	-10.3006
▁Anyway	-10.3009
▁knocking	-10.3018
▁ice	-10.3023
▁spat	-10.3026
▁plates	-10.3039
▁checked	-10.3039
▁Only	-10.304
gg	-10.3046
▁Go	-10.3049
ade	-10.3066
lessly	-10.3081
Got	-10.3098
▁?'	-10.3107
▁trunks	-10.3136
▁discuss	-10.3141
▁eggs	-10.3142
▁search	-10.3143
▁gap	-10.3163
Sir	-10.3182
▁centaurs	-10.3184
▁painful	-10.3191
▁Ariana	-10.3195
▁Defence	-10.3195
▁Imperius	-10.3195
▁Pigwidgeon	-10.3195
▁buried	-10.3195
▁chocolate	-10.3195
▁cousin	-10.3195
▁pool	-10.3195
▁powder	-10.3195
▁replied	-10.3195
▁rubbing	-10.3195
▁serpent	-10.3195
▁weapon	-10.3195
▁occurred	-10.3196
▁unconscious	-10.3196
▁Jordan	-10.3198
▁Next	-10.3198
▁fiercely	-10.3202
▁wrenched	-10.3202
▁nowhere	-10.3202
▁blinked	-10.3204
▁curiously	-10.3207
▁dusty	-10.321
▁exam	-10.3211
▁Spell	-10.3211
▁band	-10.3225
▁song	-10.3227
▁silently	-10.323
K	-10.3231
▁born	-10.3233
▁roots	-10.3234
cr	-10.3269
▁larger	-10.3277
Wait	-10.3281
av	-10.3314
▁length	-10.3345
▁ch	-10.3354
▁yell	-10.3367
▁persuade	-10.3377
▁destroy	-10.3379
Master	-10.3382
▁giants	-10.3383
▁charge	-10.3386
▁exams	-10.3388
▁bottles	-10.3395
▁Cattermole	-10.3404
▁Mysteries	-10.3404
▁godfather	-10.3404
▁ignoring	-10.3404
▁sensation	-10.3404
▁wedding	-10.3404
▁shelves	-10.3404
▁jacket	-10.3405
▁flight	-10.3405
▁foolish	-10.3405
▁branches	-10.3405
▁trip	-10.3406
▁Rosmerta	-10.3406
▁seventh	-10.3407
▁setting	-10.3418
▁younger	-10.3429
▁Sir	-10.3433
▁safely	-10.3434
Me	-10.3434
▁member	-10.3439
▁remaining	-10.3449
ging	-10.3466
▁handing	-10.3468
▁stayed	-10.351
▁ended	-10.3512
1	-10.3513
▁card	-10.3528
▁abou	-10.3547
▁knock	-10.3557
▁rush	-10.3564
▁lo	-10.3572
Like	-10.3594
▁prefer	-10.3615
▁child	-10.3615
▁exist	-10.3616
▁Occlumency	-10.3617
▁Phoenix	-10.3617
▁article	-10.3617
▁idiot	-10.3617
▁thirteen	-10.3617
▁velvet	-10.3617
▁key	-10.3617
▁ourselves	-10.3617
▁hint	-10.3617
▁foul	-10.3617
Named	-10.3617
▁bleeding	-10.3621
▁Yaxley	-10.3621
▁startled	-10.3621
▁snatched	-10.3625
▁instantly	-10.3625
▁chosen	-10.3631
▁grown	-10.3632
▁beamed	-10.3632
▁Care	-10.364
qui	-10.3642
▁searching	-10.3646
▁Nothing	-10.365
▁ward	-10.3659
▁pages	-10.3661
▁Have	-10.367
ors	-10.3708
▁backed	-10.3752
▁strength	-10.3768
▁ro	-10.3777
▁pack	-10.3783
Malfoy	-10.3812
▁woke	-10.3819
Only	-10.3821
▁board	-10.3823
0	-10.3834
▁Thomas	-10.3834
▁arrival	-10.3834
▁bewildered	-10.3834
▁decision	-10.3834
▁Binns	-10.3834
▁Marauder	-10.3834
▁carpet	-10.3834
▁circular	-10.3834
▁password	-10.3834
▁icy	-10.3834
▁tapped	-10.3834
▁Barty	-10.3836
▁Doge	-10.3836
▁sentence	-10.3836
▁breathlessly	-10.384
▁hopefully	-10.3842
▁grunted	-10.3843
▁Justin	-10.3844
▁moaned	-10.3845
▁barked	-10.385
▁blankly	-10.3851
▁enjoying	-10.3857
▁yelling	-10.3864
▁bearing	-10.3882
▁bother	-10.3904
years	-10.3911
▁thud	-10.3928
▁lies	-10.394
▁meaning	-10.3978
ou	-10.3981
▁hated	-10.3991
ST	-10.3991
▁pictures	-10.3995
let	-10.4
▁suggest	-10.4002
▁complain	-10.4027
▁blast	-10.4033
Yeh	-10.4034
Weasley	-10.4034
white	-10.4034
▁rise	-10.4041
▁di	-10.4056
▁Hog	-10.4056
▁daughter	-10.4056
▁injured	-10.4056
▁juice	-10.4056
▁permission	-10.4056
▁replaced	-10.4056
▁sprang	-10.4056
▁treasure	-10.4056
▁wrist	-10.4056
▁knowledge	-10.4056
▁presence	-10.4056
▁changing	-10.4056
▁whipped	-10.4056
▁mustache	-10.4056
▁bodies	-10.4057
▁Parkinson	-10.4057
▁indignantly	-10.4057
▁Herbology	-10.4057
▁forcing	-10.4058
▁Aragog	-10.4058
▁weekend	-10.4058
▁clenched	-10.4061
▁Map	-10.4061
▁sweeping	-10.4062
▁wet	-10.4065
▁Someone	-10.4074
▁greatest	-10.4079
▁U	-10.4086
zing	-10.4103
▁played	-10.4105
▁pre	-10.4106
ked	-10.4111
▁knot	-10.4112
Fine	-10.4126
▁listened	-10.4126
▁spoken	-10.4138
▁backwards	-10.4146
▁See	-10.415
▁plans	-10.4203
▁imp	-10.4206
ice	-10.4213
od	-10.4224
▁glow	-10.4235
▁bu	-10.4254
hand	-10.4256
▁promise	-10.4257
▁gulp	-10.4259
cent	-10.4259
▁tin	-10.4261
Would	-10.4262
▁perfect	-10.4273
▁cheerful	-10.4273
▁Forbidden	-10.4283
▁choked	-10.4283
▁evidently	-10.4283
▁wardrobe	-10.4283
▁orange	-10.4283
▁spun	-10.4283
▁interview	-10.4284
▁connection	-10.4284
▁rude	-10.4284
▁heaved	-10.4284
▁hedge	-10.4285
▁spare	-10.4285
▁damp	-10.4285
▁faded	-10.4288
▁exploded	-10.429
▁annoyed	-10.4292
▁soaring	-10.4293
▁loose	-10.4293
▁exchanged	-10.4295
▁jerked	-10.4296
▁concerned	-10.4302
▁alarmed	-10.4306
▁armor	-10.4312
▁sinking	-10.4316
▁cheek	-10.4323
are	-10.4324
▁allow	-10.4327
▁forever	-10.4331
▁ma	-10.4338
▁BE	-10.4338
ang	-10.4345
▁quills	-10.4349
OK	-10.4353
▁lined	-10.4359
▁De	-10.4379
Hang	-10.4382
▁sixteen	-10.4384
▁noises	-10.4387
▁training	-10.4392
▁bite	-10.4433
...``	-10.4437
▁matters	-10.4452
▁regret	-10.4459
▁sneak	-10.4463
▁stream	-10.4488
what	-10.4488
▁prevent	-10.4491
Blimey	-10.4493
▁sack	-10.4497
▁chose	-10.45
▁occasion	-10.4513
▁Moaning	-10.4516
▁Smith	-10.4516
▁diadem	-10.4516
▁gargoyle	-10.4516
▁handkerchief	-10.4516
▁record	-10.4516
▁servant	-10.4516
▁ancient	-10.4516
▁leather	-10.4516
▁insult	-10.4516
▁sobbed	-10.4517
▁Gilderoy	-10.4517
▁enchanted	-10.4519
▁horrified	-10.4519
▁Finally	-10.4519
▁Little	-10.452
▁dislike	-10.452
▁tray	-10.452
▁loss	-10.452
▁guilty	-10.4523
▁sobbing	-10.4523
▁brains	-10.4523
▁sneered	-10.4525
▁height	-10.4525
▁stolen	-10.4528
Hey	-10.4536
▁coolly	-10.4538
▁balls	-10.4551
▁duel	-10.4556
▁ra	-10.4559
▁possession	-10.4559
ny	-10.4566
▁beating	-10.4615
▁dim	-10.462
▁pieces	-10.4624
ew	-10.4651
▁righ	-10.4684
▁killing	-10.4685
▁gasp	-10.4703
▁toast	-10.4703
ure	-10.4723
▁glimpse	-10.4727
▁war	-10.4737
▁ga	-10.4737
uck	-10.4747
▁Entrance	-10.4754
▁International	-10.4754
▁Portkey	-10.4754
▁argument	-10.4754
▁emerging	-10.4754
▁feeble	-10.4754
▁jaw	-10.4754
▁liquid	-10.4754
▁situation	-10.4754
▁uncomfortable	-10.4754
▁forgive	-10.4754
▁grey	-10.4754
▁stories	-10.4754
▁dragging	-10.4754
▁noticing	-10.4755
▁rapidly	-10.4756
▁stopping	-10.4758
▁oak	-10.4759
▁erupted	-10.4761
▁metal	-10.4768
▁Still	-10.4769
▁gotten	-10.4775
▁outline	-10.4777
▁track	-10.4779
ung	-10.4779
▁upside	-10.4784
▁strangely	-10.4787
▁twin	-10.4807
▁Mudblood	-10.4808
▁signs	-10.483
▁lines	-10.4843
▁wishing	-10.4844
▁catching	-10.4852
side	-10.4879
▁gates	-10.4927
▁guess	-10.4945
▁bald	-10.4969
OR	-10.497
▁Apparate	-10.4971
▁storm	-10.4974
Anyway	-10.4976
▁add	-10.4981
▁Creevey	-10.4998
▁butterbeer	-10.4998
▁concentrate	-10.4998
▁cottage	-10.4998
▁dangling	-10.4998
▁earlier	-10.4998
▁examination	-10.4998
▁extraordinary	-10.4998
▁miserable	-10.4998
▁miserably	-10.4998
▁mysterious	-10.4998
▁opportunity	-10.4998
▁honor	-10.4998
▁rattling	-10.4998
▁silly	-10.4998
▁sofa	-10.4998
▁spinning	-10.4998
▁awful	-10.4999
Shut	-10.4999
▁briskly	-10.5
▁Gregorovitch	-10.5001
▁lightning	-10.5004
▁torn	-10.5005
▁squealed	-10.5006
▁Fire	-10.5007
▁overheard	-10.5007
▁pockets	-10.5008
▁wiped	-10.501
▁concealed	-10.5012
▁curses	-10.5012
▁wine	-10.5013
▁weakly	-10.5014
▁Broomsticks	-10.5025
air	-10.5031
▁hats	-10.5037
▁dressing	-10.504
▁murdered	-10.504
▁lately	-10.5041
▁sweet	-10.5043
pose	-10.5044
▁yard	-10.5052
▁acting	-10.5058
▁feather	-10.506
▁Look	-10.507
▁flame	-10.5092
▁keeps	-10.5095
▁fork	-10.5101
▁Good	-10.5104
V	-10.5141
ite	-10.5145
▁talked	-10.5188
▁alarm	-10.5194
▁shriek	-10.5195
▁tha	-10.5199
▁possess	-10.5222
gra	-10.5224
▁manage	-10.5225
▁cl	-10.5225
Which	-10.5225
With	-10.5226
After	-10.5226
because	-10.5227
Give	-10.5228
▁chin	-10.5232
Was	-10.5233
par	-10.5236
▁bench	-10.5245
▁Express	-10.5248
▁Finnigan	-10.5248
▁Nimbus	-10.5248
▁accompanied	-10.5248
▁chicken	-10.5248
▁easier	-10.5248
▁fifteen	-10.5248
▁future	-10.5248
▁horribly	-10.5248
▁prospect	-10.5248
▁center	-10.5248
▁ensure	-10.5248
▁reply	-10.5248
▁shield	-10.5248
▁Bones	-10.5248
▁safety	-10.5248
▁paid	-10.5249
▁Quibbler	-10.5249
▁gang	-10.5249
▁string	-10.5249
▁defend	-10.525
▁hungry	-10.525
▁punishment	-10.5251
▁Captain	-10.5254
▁sadly	-10.5256
▁squeezed	-10.5256
▁Yet	-10.5257
▁clicked	-10.5258
▁hitting	-10.5258
▁suspected	-10.5262
▁ingredients	-10.5265
▁approaching	-10.5268
▁examined	-10.527
▁Would	-10.5273
▁fists	-10.5279
On	-10.5284
lit	-10.5287
ably	-10.5288
AN	-10.5294
Nice	-10.5295
▁faster	-10.5295
▁sticking	-10.5302
▁thousand	-10.5309
▁Very	-10.5314
▁fangs	-10.532
ron	-10.5328
About	-10.5329
▁loved	-10.5331
▁cap	-10.5343
▁bones	-10.5345
▁sliding	-10.5348
not	-10.537
▁needs	-10.5394
ach	-10.5395
aged	-10.5408
ound	-10.542
▁mess	-10.5464
▁ignore	-10.5478
▁recognize	-10.5478
▁discover	-10.548
Neville	-10.5483
▁Spells	-10.5484
▁froze	-10.5489
sion	-10.5493
▁suspicious	-10.5494
▁cared	-10.5504
▁flesh	-10.5504
▁Monday	-10.5504
▁Thousand	-10.5504
▁boggart	-10.5504
▁dormitories	-10.5504
▁drank	-10.5504
▁explanation	-10.5504
▁illegal	-10.5504
▁necklace	-10.5504
▁opinion	-10.5504
▁outstretched	-10.5504
▁progress	-10.5504
▁ribs	-10.5504
▁symbol	-10.5504
▁telephone	-10.5504
▁truly	-10.5504
▁underneath	-10.5504
▁veela	-10.5504
▁Boy	-10.5504
▁swooped	-10.5505
▁frantically	-10.5505
▁crate	-10.5505
▁Bertha	-10.5506
▁positively	-10.5506
▁amongst	-10.5507
gy	-10.5509
▁sixth	-10.5509
▁reflected	-10.5511
▁ducked	-10.5518
▁perched	-10.5519
▁groaned	-10.5521
▁Bell	-10.5521
▁shadowy	-10.5524
▁pressing	-10.5527
▁store	-10.5532
▁sooner	-10.5541
▁chain	-10.5549
▁cloaks	-10.5554
▁le	-10.5554
▁offer	-10.5557
▁jumping	-10.5558
▁horses	-10.5575
sized	-10.5575
ugh	-10.5579
een	-10.56
▁club	-10.5605
▁candles	-10.5614
IN	-10.5627
▁returning	-10.5638
▁com	-10.5652
▁rounded	-10.5657
▁sweat	-10.571
▁enjoy	-10.5714
▁push	-10.5716
▁screams	-10.5727
▁se	-10.5728
▁star	-10.5734
▁drive	-10.5737
▁greet	-10.5739
ied	-10.5739
Could	-10.5746
▁unusual	-10.5757
off	-10.5762
▁Brown	-10.5768
▁Marietta	-10.5768
▁ashamed	-10.5768
▁bulging	-10.5768
▁choose	-10.5768
▁yesterday	-10.5768
▁ordinary	-10.5768
▁Polyjuice	-10.5769
▁Dolores	-10.577
▁Neither	-10.577
▁supporters	-10.5771
▁illuminated	-10.5771
▁proof	-10.5773
▁action	-10.5773
▁quivering	-10.5774
▁collapsed	-10.5776
▁conjured	-10.5776
▁boxes	-10.5778
time	-10.5789
ward	-10.5795
▁letting	-10.5796
▁flashed	-10.5812
▁sides	-10.5821
▁friendly	-10.5823
▁rule	-10.5846
▁gate	-10.5847
▁casting	-10.5848
▁smaller	-10.5857
▁J	-10.5909
▁sigh	-10.5928
▁K	-10.5953
▁correct	-10.6002
▁cart	-10.6005
Take	-10.6018
▁rows	-10.6021
turn	-10.6021
Mum	-10.6021
poster	-10.6021
▁hood	-10.6022
▁numb	-10.6024
▁cause	-10.6025
▁plain	-10.6029
▁fur	-10.6033
Certainly	-10.6038
▁Cross	-10.6038
▁Flint	-10.6038
▁Leaky	-10.6038
▁basilisk	-10.6038
▁false	-10.6038
▁hollow	-10.6038
▁seizing	-10.6038
▁slumped	-10.6038
▁steady	-10.6038
▁tapestry	-10.6038
▁lack	-10.6039
▁Aurors	-10.6039
▁crouched	-10.604
▁feelings	-10.604
▁Travers	-10.604
▁Zabini	-10.6041
▁bedside	-10.6042
▁bunch	-10.6042
▁cutting	-10.6044
▁involved	-10.6045
▁gathered	-10.6047
▁shivering	-10.6049
▁suspiciously	-10.6049
▁AND	-10.605
▁shooting	-10.605
▁nostrils	-10.6051
▁Di	-10.6053
▁bending	-10.6054
▁stronger	-10.6054
▁“	-10.6057
▁gets	-10.6061
▁Could	-10.6062
▁guessed	-10.6065
▁destroyed	-10.607
▁normally	-10.607
▁fan	-10.6082
lic	-10.6093
▁lied	-10.6095
▁mountain	-10.6101
iest	-10.6115
▁visited	-10.6119
ening	-10.6137
tle	-10.6146
▁si	-10.6148
▁Ted	-10.6159
▁load	-10.6163
ple	-10.6168
▁ghosts	-10.6179
pitched	-10.6184
Stop	-10.6222
▁pr	-10.6232
ak	-10.6258
▁perform	-10.6262
mber	-10.6271
▁inter	-10.6286
▁spend	-10.6288
▁dawn	-10.6291
colored	-10.6294
Someone	-10.6294
ake	-10.6303
▁instant	-10.6305
▁particular	-10.6305
▁triumph	-10.6315
▁favor	-10.6315
▁Instead	-10.6316
▁bloke	-10.6316
▁crumpled	-10.6316
▁husband	-10.6316
▁stool	-10.6316
▁pouring	-10.6316
▁racing	-10.6316
▁beetle	-10.6316
▁Stunning	-10.6316
▁trapped	-10.6316
▁shade	-10.6316
▁shame	-10.6316
▁Bulgarian	-10.6319
▁bolt	-10.632
▁hurtled	-10.632
▁exhausted	-10.6321
▁distinctly	-10.6321
ide	-10.6321
▁swirling	-10.6323
legged	-10.6326
▁released	-10.6327
dy	-10.6328
▁wherever	-10.633
▁swinging	-10.6333
▁traveling	-10.6333
▁wheeled	-10.6334
▁faintly	-10.6334
▁misty	-10.6335
▁sweater	-10.6335
▁bored	-10.6341
▁OWL	-10.6344
▁Please	-10.6348
▁pretended	-10.6351
▁stranger	-10.6351
cur	-10.637
▁Maybe	-10.6375
▁upper	-10.6387
quarters	-10.6388
▁Are	-10.6388
enthusiastically	-10.639
▁tie	-10.6409
ching	-10.6432
▁ho	-10.6441
▁prefects	-10.6444
▁heels	-10.6449
▁rag	-10.6493
nd	-10.6509
▁stretch	-10.6549
▁thrust	-10.6572
room	-10.6575
▁screech	-10.6577
Arthur	-10.6579
▁survive	-10.6587
▁clouds	-10.659
▁stiff	-10.659
▁broad	-10.659
▁chuck	-10.66
▁silk	-10.6601
▁Behind	-10.6601
▁absence	-10.6601
▁fragment	-10.6601
▁happier	-10.6601
▁magnificent	-10.6601
▁parcel	-10.6601
▁screwed	-10.6601
▁squinting	-10.6601
▁various	-10.6601
▁emerald	-10.6601
▁clipboard	-10.6601
gged	-10.6601
▁hut	-10.6601
▁Norbert	-10.6602
▁reflection	-10.6602
▁motionless	-10.6603
▁blond	-10.6603
▁comment	-10.6605
▁otherwise	-10.6605
▁personal	-10.6606
▁Minerva	-10.6607
▁beds	-10.6608
▁twisting	-10.661
▁More	-10.661
▁smirking	-10.6611
▁paw	-10.6617
▁dully	-10.6619
▁addressed	-10.662
▁Disapparated	-10.662
oke	-10.6635
▁searched	-10.6636
▁madly	-10.6648
▁waste	-10.6659
▁widely	-10.6661
▁miles	-10.6661
▁thickly	-10.6672
aded	-10.6694
▁nerve	-10.67
▁purpose	-10.6703
▁holiday	-10.6703
▁la	-10.6714
▁rope	-10.6716
▁aim	-10.6738
▁hurting	-10.6747
▁insides	-10.6756
▁signed	-10.6762
Mad	-10.6765
▁ropes	-10.6793
lus	-10.6796
▁hi	-10.6815
▁quarter	-10.6818
bl	-10.6825
▁bags	-10.6826
▁pin	-10.6832
▁flick	-10.6841
▁cheeks	-10.6845
▁remembering	-10.6848
how	-10.6858
▁resist	-10.6866
▁clatter	-10.6867
▁hero	-10.6868
▁share	-10.6869
▁gift	-10.687
▁concern	-10.6871
black	-10.6874
Exactly	-10.6895
▁Dolohov	-10.6895
▁Oliver	-10.6895
▁Patil	-10.6895
▁advice	-10.6895
▁continuing	-10.6895
▁depths	-10.6895
▁gliding	-10.6895
▁happiness	-10.6895
▁magazine	-10.6895
▁account	-10.6895
Indeed	-10.6896
▁partner	-10.6896
▁lane	-10.6896
▁winning	-10.6896
▁Willow	-10.6897
▁tipped	-10.6897
▁iron	-10.6897
▁grab	-10.6897
▁farther	-10.6897
▁satisfied	-10.6898
▁uncertainly	-10.6899
▁alongside	-10.69
▁urgently	-10.6903
▁afterward	-10.6903
▁pop	-10.6904
▁roughly	-10.6905
▁attend	-10.6906
▁harm	-10.6906
▁Here	-10.6906
▁smoothly	-10.6913
▁Tell	-10.6916
▁performed	-10.6922
▁hooded	-10.6922
▁flatly	-10.6926
▁rushed	-10.6929
▁discussing	-10.6937
▁happens	-10.6941
▁mud	-10.6946
▁towering	-10.696
ey	-10.6962
▁dreamed	-10.6968
ign	-10.6971
▁beg	-10.6974
▁cake	-10.7006
▁belong	-10.7029
▁details	-10.7038
▁presents	-10.704
▁houses	-10.7085
▁potions	-10.7135
▁owner	-10.7143
tering	-10.7146
▁examine	-10.7157
right	-10.7159
bu	-10.7161
▁warn	-10.7166
▁comfort	-10.7168
▁pipe	-10.7171
▁kick	-10.7174
▁insist	-10.7174
▁public	-10.7175
ize	-10.7176
que	-10.7176
Blood	-10.7176
▁limp	-10.7177
Everyone	-10.7177
Fred	-10.7179
▁bore	-10.7183
▁broomsticks	-10.7186
▁entire	-10.7188
▁eager	-10.7188
▁chill	-10.7188
Does	-10.7189
▁proper	-10.7192
headed	-10.7196
pect	-10.7197
▁ze	-10.7198
▁Frog	-10.7198
▁Montague	-10.7198
▁frog	-10.7198
▁maze	-10.7198
▁steadily	-10.7198
▁swayed	-10.7198
▁threshold	-10.7198
▁crammed	-10.7199
▁shiny	-10.7199
Dunno	-10.7199
▁duty	-10.7199
▁shrugging	-10.7199
▁accidentally	-10.7199
▁Zacharias	-10.72
▁NOT	-10.72
▁protective	-10.72
▁School	-10.7201
▁suspended	-10.7201
▁race	-10.7202
▁sake	-10.7202
▁hushed	-10.7203
▁Meanwhile	-10.7204
▁darted	-10.7205
▁While	-10.7206
▁drifted	-10.7206
▁proceeded	-10.7208
▁pie	-10.721
▁painting	-10.721
▁thoughtfully	-10.7214
▁pajamas	-10.722
▁dive	-10.7225
▁Will	-10.7226
▁upright	-10.7229
ump	-10.7232
▁mistaken	-10.724
▁fetch	-10.7247
▁cheer	-10.725
▁mug	-10.7265
▁pairs	-10.7265
▁tense	-10.7268
▁avoiding	-10.7269
▁reaching	-10.7277
▁rumors	-10.7304
▁stag	-10.7309
▁judge	-10.7317
▁poster	-10.7334
▁kids	-10.7365
use	-10.7376
▁plant	-10.7378
▁ca	-10.7379
▁dungeons	-10.7425
▁hissing	-10.7427
▁chains	-10.7427
▁anti	-10.7441
▁attract	-10.7454
▁.``	-10.7455
▁dread	-10.7468
▁Lo	-10.748
▁argue	-10.7484
▁urge	-10.7484
▁remove	-10.7485
▁sprint	-10.7487
▁punch	-10.7487
▁delight	-10.7489
“	-10.7489
Tell	-10.7489
Lupin	-10.7489
foot	-10.7489
NO	-10.7493
▁hid	-10.7496
▁stole	-10.7497
▁ginger	-10.75
den	-10.7501
▁lump	-10.7501
▁threatening	-10.7507
▁Horntail	-10.7511
▁behavior	-10.7511
▁kettle	-10.7511
▁lantern	-10.7511
▁puzzled	-10.7511
▁ridiculous	-10.7511
▁schedule	-10.7511
▁tentatively	-10.7511
▁umbrella	-10.7511
▁blew	-10.7511
▁instance	-10.7511
▁curtly	-10.7511
▁married	-10.7511
▁impressive	-10.7511
▁veil	-10.7511
▁talent	-10.7511
▁retrieve	-10.7511
▁yourselves	-10.7512
▁cellar	-10.7512
▁gloomily	-10.7512
▁poking	-10.7512
▁slipping	-10.7512
▁Healer	-10.7512
▁gripped	-10.7512
▁beast	-10.7513
▁decent	-10.7513
▁incredulously	-10.7513
▁crooked	-10.7514
▁hello	-10.7514
▁Slowly	-10.7514
▁lurking	-10.7514
▁swiftly	-10.7515
▁Many	-10.7516
▁faithful	-10.7516
▁trembled	-10.752
▁drained	-10.7521
▁connected	-10.7523
▁plainly	-10.7524
▁blinking	-10.7526
▁snorted	-10.7526
▁cur	-10.7527
▁painfully	-10.7531
▁blocked	-10.7532
▁shoes	-10.7533
▁filling	-10.7538
▁breathe	-10.7539
▁snowy	-10.7541
▁stretching	-10.7542
▁narrowed	-10.7574
men	-10.7577
▁bloody	-10.7586
Leave	-10.7608
▁These	-10.7616
Making	-10.7651
▁curtain	-10.7657
▁edged	-10.7658
▁player	-10.7661
▁DO	-10.7666
io	-10.7677
Mrs	-10.7701
▁papers	-10.7703
▁mere	-10.7706
▁players	-10.7707
▁career	-10.7724
▁IN	-10.7728
▁detect	-10.7744
▁remind	-10.7748
▁useless	-10.7771
▁kiss	-10.7781
▁climb	-10.7781
▁press	-10.7786
wn	-10.7793
▁experience	-10.7807
▁struggle	-10.7807
take	-10.7808
Severus	-10.7812
Out	-10.7812
ball	-10.7818
▁hex	-10.7821
▁neat	-10.7823
▁rough	-10.7823
▁spy	-10.7829
there	-10.7832
▁thirty	-10.7834
▁Halloween	-10.7834
▁Merope	-10.7834
▁antidote	-10.7834
▁astonished	-10.7834
▁breeze	-10.7834
▁contrary	-10.7834
▁daresay	-10.7834
▁emotion	-10.7834
▁jeans	-10.7834
▁pouch	-10.7834
▁satisfaction	-10.7834
▁undoubtedly	-10.7834
▁Law	-10.7834
▁slamming	-10.7834
▁zooming	-10.7834
▁secure	-10.7834
▁mixture	-10.7834
▁bewitched	-10.7834
▁fuss	-10.7834
▁swam	-10.7834
▁pudding	-10.7834
▁image	-10.7834
ified	-10.7835
▁comfortable	-10.7835
▁shelf	-10.7835
▁Chocolate	-10.7835
▁button	-10.7836
▁stumbled	-10.7837
▁Apparition	-10.7837
▁shimmering	-10.7837
▁shrilly	-10.7839
▁occasionally	-10.784
▁bitter	-10.7842
▁recently	-10.7844
▁clambered	-10.7844
▁descended	-10.7844
▁abandoned	-10.7845
▁reappeared	-10.7848
▁sad	-10.7854
▁birds	-10.7854
▁belonged	-10.786
▁kissing	-10.7862
▁Like	-10.7867
▁gulped	-10.7868
Shall	-10.7869
▁blasted	-10.7869
▁promised	-10.7872
▁—``	-10.7873
▁streaming	-10.7873
▁Hufflepuffs	-10.7878
▁Ten	-10.7896
▁banging	-10.7898
▁roaring	-10.7901
bling	-10.7901
ech	-10.7922
line	-10.7926
▁secrets	-10.7931
▁faced	-10.7932
▁grow	-10.7957
▁bits	-10.7959
▁results	-10.7971
▁remains	-10.7986
▁tips	-10.8023
▁directions	-10.8032
▁hairy	-10.8036
sen	-10.8053
▁feathers	-10.8088
▁Ma	-10.8091
▁squeak	-10.8103
HE	-10.8109
▁collect	-10.8112
▁consider	-10.8112
▁fill	-10.8114
rap	-10.8133
▁suck	-10.8142
▁deliver	-10.8142
▁hover	-10.8143
green	-10.8145
borns	-10.8145
▁theory	-10.8146
▁recent	-10.816
▁snap	-10.8166
▁tale	-10.8167
▁Macmillan	-10.8167
▁Owlery	-10.8167
▁Parseltongue	-10.8167
▁Squib	-10.8167
▁appreciate	-10.8167
▁arguing	-10.8167
▁brass	-10.8167
▁cautiously	-10.8167
▁community	-10.8167
▁luggage	-10.8167
▁shuffled	-10.8167
6	-10.8167
▁Goblet	-10.8167
▁Office	-10.8167
▁poured	-10.8167
▁archway	-10.8167
▁clapping	-10.8167
▁unknown	-10.8168
▁patting	-10.8168
▁manner	-10.8168
▁lace	-10.8169
▁daring	-10.8169
▁deny	-10.8169
▁slimy	-10.8169
▁mail	-10.8169
▁admitted	-10.817
▁spite	-10.817
▁amused	-10.817
▁pig	-10.8171
▁skill	-10.8174
▁bath	-10.8176
▁Auntie	-10.8176
▁hoarsely	-10.8176
▁unlikely	-10.8176
▁drowned	-10.8177
▁fluttered	-10.8177
▁strained	-10.8179
▁Over	-10.8181
thing	-10.8181
▁dimly	-10.8183
▁kneel	-10.8183
▁First	-10.8185
▁En	-10.8191
▁risen	-10.8191
▁climbing	-10.8196
▁cheering	-10.8198
▁grim	-10.8205
▁(`	-10.8211
▁lovely	-10.8213
▁vo	-10.8228
▁counting	-10.8229
con	-10.8231
▁howling	-10.8232
De	-10.8251
▁beam	-10.8253
▁aback	-10.8259
▁lamps	-10.8261
▁bark	-10.8274
▁winged	-10.828
owing	-10.828
ished	-10.829
Re	-10.8299
▁spirits	-10.8304
amp	-10.8315
▁knee	-10.8323
▁Thanks	-10.8349
▁shower	-10.8358
▁turns	-10.836
▁Ravenclaws	-10.8393
cy	-10.8397
round	-10.8435
▁pet	-10.8456
▁treat	-10.8457
▁shudder	-10.8458
▁disappear	-10.8458
▁cough	-10.8458
▁HE	-10.8466
▁Me	-10.8477
▁total	-10.8482
▁giggle	-10.8485
▁separate	-10.8485
▁seize	-10.8486
▁inform	-10.8486
▁grasp	-10.8488
▁realise	-10.8488
Will	-10.849
Something	-10.849
▁regular	-10.8501
▁casual	-10.8501
▁honest	-10.8501
▁fierce	-10.8501
pot	-10.8505
▁Advanced	-10.8512
▁Decree	-10.8512
▁Felix	-10.8512
▁brandishing	-10.8512
▁disbelief	-10.8512
▁graveyard	-10.8512
▁lopsided	-10.8512
▁milk	-10.8512
▁scroll	-10.8512
▁shabby	-10.8512
▁squinted	-10.8512
▁steak	-10.8512
▁television	-10.8512
▁Bane	-10.8512
▁nightmare	-10.8512
▁swaying	-10.8512
▁waist	-10.8512
▁alleyway	-10.8512
▁sought	-10.8512
▁capture	-10.8512
▁blurred	-10.8512
▁display	-10.8512
▁moonlight	-10.8513
▁gripping	-10.8513
▁wandering	-10.8513
▁midst	-10.8513
▁slightest	-10.8515
▁indicated	-10.8516
▁plunged	-10.8516
▁begin	-10.8517
▁Apparently	-10.852
▁recognised	-10.8522
▁shattered	-10.8522
▁intently	-10.8522
▁awkwardly	-10.8522
▁gown	-10.8522
▁Bus	-10.8523
▁twitched	-10.8523
▁suffered	-10.8524
▁glinting	-10.8524
▁scratching	-10.8524
▁sing	-10.8524
▁None	-10.853
▁fish	-10.8533
▁shaken	-10.8539
▁insisted	-10.854
can	-10.854
ER	-10.8546
they	-10.8549
▁survived	-10.855
▁seek	-10.8554
▁glowing	-10.8555
▁proved	-10.8558
▁outta	-10.8575
▁speeding	-10.8577
▁flashing	-10.8581
▁marked	-10.8584
aving	-10.8589
oving	-10.86
ized	-10.8613
cid	-10.8634
▁attacking	-10.8638
▁drinking	-10.8645
▁feared	-10.865
unch	-10.8663
▁mis	-10.8669
▁success	-10.8673
▁kid	-10.8675
▁worrying	-10.871
▁pit	-10.8716
▁Deathly	-10.8727
▁judges	-10.8731
▁Bludgers	-10.8757
own	-10.8758
▁hug	-10.8792
▁tracks	-10.8795
ory	-10.88
▁fail	-10.8815
▁approach	-10.8816
▁block	-10.8817
Keep	-10.8835
board	-10.8836
▁whi	-10.8837
▁transform	-10.8843
▁focus	-10.8844
▁borrow	-10.8844
▁claw	-10.8844
▁pan	-10.8846
shaped	-10.8847
Still	-10.8847
▁main	-10.8847
▁shapes	-10.8849
▁bare	-10.8853
▁gloom	-10.8858
▁natural	-10.8858
▁awkward	-10.8858
▁guilt	-10.8859
▁ev	-10.8867
ue	-10.8868
▁Flamel	-10.8869
▁Nagini	-10.8869
▁Wizengamot	-10.8869
▁amazement	-10.8869
▁caretaker	-10.8869
▁confidence	-10.8869
▁gruffly	-10.8869
▁meanwhile	-10.8869
▁penetrate	-10.8869
▁possibility	-10.8869
▁request	-10.8869
▁slept	-10.8869
▁suspicion	-10.8869
▁thumb	-10.8869
▁uncomfortably	-10.8869
▁pacing	-10.8869
▁popular	-10.8869
▁flask	-10.8869
▁swimming	-10.8869
▁protest	-10.8869
▁Floo	-10.8869
▁blazing	-10.8869
▁trolley	-10.8869
▁roof	-10.887
▁vein	-10.887
▁rip	-10.887
▁popping	-10.887
▁bump	-10.887
shirt	-10.8871
▁mental	-10.8871
▁absolutely	-10.8873
▁scribbled	-10.8876
▁sternly	-10.8877
▁OUT	-10.8877
▁utterly	-10.8878
TH	-10.8878
▁pleasantly	-10.8879
▁chilly	-10.8881
▁broadly	-10.8883
▁Think	-10.8884
▁Dear	-10.8889
▁hill	-10.8891
▁leaping	-10.8892
▁according	-10.8892
▁intent	-10.8894
▁slide	-10.8902
ments	-10.8903
oping	-10.8906
▁bothered	-10.8917
▁handful	-10.8918
▁Never	-10.8926
▁revealed	-10.8927
▁crashed	-10.8929
▁entering	-10.8931
▁ordered	-10.8938
▁tear	-10.8939
▁photographs	-10.8941
▁informed	-10.8941
▁comp	-10.8958
▁enchantments	-10.8959
▁area	-10.8972
▁cursed	-10.8974
▁Right	-10.8979
▁Mar	-10.8983
▁skrewts	-10.8995
▁desks	-10.901
▁ankles	-10.9023
▁Wizard	-10.9026
▁sorts	-10.9029
▁drops	-10.9032
ther	-10.904
▁im	-10.9048
ient	-10.9054
▁heat	-10.9064
ised	-10.9074
▁stuffing	-10.9079
▁lightly	-10.9089
▁bursting	-10.9099
used	-10.9105
▁Chang	-10.9125
AL	-10.9144
▁reasons	-10.9156
▁vanish	-10.9186
face	-10.9191
term	-10.9196
where	-10.92
▁deserve	-10.9212
▁address	-10.9215
▁wheel	-10.9215
just	-10.9218
▁awoke	-10.9223
▁grateful	-10.9229
moon	-10.9231
▁gentle	-10.9239
7	-10.9239
▁Butterbeer	-10.9239
▁Friday	-10.9239
▁Honeydukes	-10.9239
▁Ireland	-10.9239
▁Knight	-10.9239
▁amazed	-10.9239
▁basket	-10.9239
▁concentrating	-10.9239
▁despite	-10.9239
▁extinguished	-10.9239
▁habit	-10.9239
▁necessary	-10.9239
▁rumbling	-10.9239
▁scattered	-10.9239
▁strike	-10.9239
▁substance	-10.9239
▁swollen	-10.9239
▁underground	-10.9239
8	-10.9239
▁jolt	-10.9239
▁revolv	-10.9239
▁rigid	-10.9239
▁service	-10.9239
▁bigger	-10.9239
▁forbidden	-10.9239
▁giggling	-10.9239
▁orphanage	-10.9239
▁strip	-10.924
▁coins	-10.924
▁prisoners	-10.9241
▁wearily	-10.9241
▁mid	-10.9241
▁traitor	-10.9241
▁shone	-10.9241
▁spring	-10.9241
▁straightening	-10.9242
▁floated	-10.9245
▁cost	-10.9248
▁blonde	-10.9248
▁beckoned	-10.9248
Say	-10.9249
▁frowned	-10.925
▁drifting	-10.9251
▁distracted	-10.9251
▁honestly	-10.9251
▁disturbed	-10.9251
▁eyeing	-10.9252
▁fluttering	-10.9253
▁assured	-10.9256
▁contained	-10.9257
▁clicking	-10.9257
▁pity	-10.9257
▁curly	-10.9259
▁Blood	-10.9266
▁narrowly	-10.9273
ius	-10.9275
▁whoever	-10.928
ark	-10.928
ify	-10.9283
▁adding	-10.9283
▁gaped	-10.9285
▁goodness	-10.9292
▁learning	-10.93
▁avoided	-10.9314
▁pa	-10.9317
ES	-10.9319
▁acted	-10.9319
▁blankets	-10.9332
▁guarding	-10.9334
▁hurriedly	-10.9342
▁covering	-10.9342
j	-10.9346
▁heap	-10.9352
▁Thestrals	-10.9355
▁Ha	-10.9366
▁touching	-10.9371
▁attacks	-10.9394
▁Chasers	-10.9407
▁bubble	-10.9428
▁pillow	-10.9428
▁posts	-10.9443
▁wo	-10.9475
▁works	-10.9476
▁cheers	-10.9477
▁goin	-10.9497
▁humans	-10.9527
▁sweets	-10.9536
▁Nor	-10.9586
▁punish	-10.9595
▁score	-10.9597
▁sniff	-10.9599
▁groan	-10.96
▁stack	-10.96
2	-10.9601
Percy	-10.9602
Miss	-10.9602
Bill	-10.9603
▁confident	-10.9613
▁fond	-10.9613
▁polite	-10.9613
▁sur	-10.9613
▁music	-10.9621
▁chat	-10.9623
Expelliarmus	-10.9624
”	-10.9624
▁Davies	-10.9624
▁Deluminator	-10.9624
▁Felicis	-10.9624
▁Hepzibah	-10.9624
▁Johnson	-10.9624
▁Jorkins	-10.9624
▁September	-10.9624
▁concentration	-10.9624
▁consult	-10.9624
▁grandmother	-10.9624
▁merpeople	-10.9624
▁momentarily	-10.9624
▁official	-10.9624
▁practise	-10.9624
▁respond	-10.9624
▁telescope	-10.9624
▁valuable	-10.9624
▁campsite	-10.9624
▁hugged	-10.9624
▁neighbor	-10.9624
▁tucked	-10.9624
▁battered	-10.9624
▁canvas	-10.9624
▁drove	-10.9624
▁snore	-10.9624
▁alert	-10.9624
▁tugging	-10.9624
▁Stunned	-10.9624
▁carved	-10.9624
▁sparkling	-10.9624
cept	-10.9625
▁history	-10.9625
▁patted	-10.9625
▁chuckled	-10.9625
▁POTTER	-10.9626
▁embarrassed	-10.9626
▁fence	-10.9626
▁Al	-10.9628
▁Book	-10.9628
▁sniggered	-10.9628
▁advanced	-10.9629
ian	-10.9629
▁benches	-10.9629
▁announced	-10.963
▁firelight	-10.963
▁precisely	-10.963
▁jinxes	-10.9631
▁Father	-10.9632
▁bushy	-10.9633
▁Everything	-10.9634
▁violently	-10.9634
▁Four	-10.9639
▁cheerfully	-10.9643
▁poked	-10.9643
▁whirled	-10.9645
▁bowler	-10.9648
▁tortured	-10.965
▁kissed	-10.9653
▁blocking	-10.9655
▁print	-10.9668
▁taste	-10.9668
▁Looking	-10.9669
▁sneaking	-10.9672
▁protected	-10.9675
▁rushing	-10.9676
▁badges	-10.9677
▁meetings	-10.9679
▁blinding	-10.9682
▁studying	-10.9684
▁gloves	-10.9697
▁paying	-10.9699
▁Beaters	-10.9728
▁mead	-10.9731
▁bangs	-10.9748
ries	-10.9764
▁corners	-10.9782
▁lid	-10.9826
▁animal	-10.9829
▁detail	-10.9833
OO	-10.9834
▁award	-10.9837
▁Know	-10.9838
▁th	-10.9854
▁cakes	-10.9877
Stand	-10.9915
May	-10.9915
.*	-10.993
▁mountains	-10.9931
▁understanding	-10.9943
▁hum	-10.9967
▁torture	-10.9997
▁Disapparate	-10.9997
▁non	-10.9999
▁distract	-10.9999
hot	-11.0001
5	-11.0001
oc	-11.0002
Perhaps	-11.0002
Muggle	-11.0002
Even	-11.0003
▁general	-11.0013
▁hoarse	-11.0013
▁pleasant	-11.0013
Our	-11.0014
▁tart	-11.0023
lunk	-11.0023
▁Hannah	-11.0024
▁Horace	-11.0024
▁Malkin	-11.0024
▁Roberts	-11.0024
▁Whomping	-11.0024
▁advantage	-11.0024
▁bounced	-11.0024
▁bouncing	-11.0024
▁claim	-11.0024
▁compared	-11.0024
▁courage	-11.0024
▁crime	-11.0024
▁despair	-11.0024
▁disappointment	-11.0024
▁eagle	-11.0024
▁feebly	-11.0024
▁gamekeeper	-11.0024
▁grief	-11.0024
▁grindylow	-11.0024
▁gritted	-11.0024
▁incantation	-11.0024
▁injuries	-11.0024
▁knuckles	-11.0024
▁muscle	-11.0024
▁patronum	-11.0024
▁resembled	-11.0024
▁spectacular	-11.0024
▁steep	-11.0024
▁withdrew	-11.0024
Excuse	-11.0024
Expecto	-11.0024
▁Fluffy	-11.0024
▁funeral	-11.0024
▁pavement	-11.0024
▁resentful	-11.0024
▁smart	-11.0024
Probably	-11.0024
▁toppled	-11.0024
▁begun	-11.0024
▁deafening	-11.0024
▁series	-11.0024
▁Irish	-11.0024
▁fancy	-11.0024
▁ragged	-11.0024
▁flickered	-11.0024
▁stirred	-11.0024
▁pinned	-11.0025
▁muddy	-11.0025
▁Astronomy	-11.0025
▁boring	-11.0025
▁permitted	-11.0025
▁ferret	-11.0025
Said	-11.0025
▁agony	-11.0027
▁crouching	-11.0027
▁colour	-11.0027
▁saving	-11.0027
▁unlike	-11.0027
▁realizing	-11.0029
jo	-11.003
▁intended	-11.0032
▁yawned	-11.0032
made	-11.0033
ities	-11.0034
▁gloomy	-11.0036
▁FOR	-11.0037
▁betrayed	-11.0037
▁creaked	-11.0038
▁shoved	-11.0039
▁streaked	-11.0039
▁Pro	-11.0041
▁underage	-11.0042
▁invited	-11.0043
▁proudly	-11.0046
▁grasped	-11.0052
▁que	-11.0053
▁flicked	-11.0057
▁ghostly	-11.0059
▁tearing	-11.006
ously	-11.0062
▁gran	-11.0063
Put	-11.0065
gar	-11.0078
now	-11.0083
ition	-11.009
▁pupils	-11.01
▁ringing	-11.0121
▁Get	-11.013
▁colored	-11.0141
▁nu	-11.0146
▁formed	-11.0168
▁rats	-11.0169
Won	-11.0208
▁sobs	-11.0216
▁detentions	-11.0221
▁Th	-11.023
▁Wizards	-11.0239
▁cars	-11.0244
▁owned	-11.0247
▁Secret	-11.0248
▁Dementor	-11.0248
head	-11.0257
▁Ah	-11.0268
who	-11.0272
▁-``	-11.0282
▁Ch	-11.0301
▁Wa	-11.0315
▁nod	-11.0327
▁tu	-11.0331
Her	-11.036
▁blind	-11.0367
▁boo	-11.0368
▁attempts	-11.0397
ration	-11.04
▁jug	-11.04
▁cards	-11.0401
▁yells	-11.0405
▁utter	-11.0412
coming	-11.0413
▁boil	-11.0413
▁introduce	-11.0414
▁require	-11.0414
▁suspect	-11.0416
Remember	-11.0418
First	-11.0418
▁gain	-11.0424
four	-11.0425
qua	-11.0428
Dad	-11.0429
▁equal	-11.0429
▁violent	-11.043
▁prison	-11.0439
▁Ern	-11.044
part	-11.044
▁chess	-11.044
▁smug	-11.0441
▁Arithmancy	-11.0441
▁Committee	-11.0441
▁Extendable	-11.0441
▁Michael	-11.0441
▁Nevertheless	-11.0441
▁Sneakoscope	-11.0441
▁Sorcerer	-11.0441
▁ambition	-11.0441
▁bacon	-11.0441
▁bike	-11.0441
▁brick	-11.0441
▁brutal	-11.0441
▁centuries	-11.0441
▁church	-11.0441
▁cliff	-11.0441
▁curiosity	-11.0441
▁defense	-11.0441
▁encounter	-11.0441
▁fountain	-11.0441
▁joking	-11.0441
▁pausing	-11.0441
▁promptly	-11.0441
▁rucksack	-11.0441
▁thief	-11.0441
▁thread	-11.0441
▁trapdoor	-11.0441
▁trial	-11.0441
▁twinkling	-11.0441
▁unnatural	-11.0441
▁blunder	-11.0441
▁command	-11.0441
▁cream	-11.0441
▁mingled	-11.0441
▁model	-11.0441
▁rumble	-11.0441
▁swelling	-11.0441
▁amusing	-11.0441
▁lazily	-11.0441
▁pride	-11.0441
▁bucket	-11.0441
▁IT	-11.0441
▁queue	-11.0441
▁stir	-11.0441
▁hopeful	-11.0441
▁clunk	-11.0442
▁sunken	-11.0442
▁price	-11.0442
▁friendship	-11.0442
▁camp	-11.0442
▁preferred	-11.0442
▁exasperated	-11.0442
▁torches	-11.0442
▁devoted	-11.0443
▁planned	-11.0443
▁sub	-11.0444
▁currently	-11.0444
Stay	-11.0445
▁departed	-11.0447
▁plump	-11.0447
▁mounted	-11.0448
▁darting	-11.0451
▁politely	-11.0452
▁huddled	-11.0454
▁flown	-11.0455
▁neatly	-11.0455
▁Keep	-11.0455
▁Without	-11.0455
▁Time	-11.0455
▁stiffly	-11.0457
▁gathering	-11.0457
▁twitching	-11.0457
▁Those	-11.0457
▁flushed	-11.0459
▁snatching	-11.0459
▁Ex	-11.046
▁Ro	-11.0462
▁endure	-11.0462
▁trolls	-11.0462
▁maintain	-11.0462
▁thundering	-11.0463
▁rare	-11.0465
▁fairly	-11.0465
▁lookout	-11.0467
▁Use	-11.047
Quite	-11.0471
▁separated	-11.0473
▁taller	-11.0475
Number	-11.0482
▁Yeh	-11.0483
▁spending	-11.0484
▁glimpsed	-11.0488
Anyone	-11.0508
oon	-11.0508
▁`--	-11.0512
▁fashion	-11.0521
▁Sh	-11.0522
▁lowering	-11.0523
▁flu	-11.0526
ture	-11.0531
▁upwards	-11.0538
▁reckons	-11.0545
▁Vol	-11.0548
▁dared	-11.0559
▁soup	-11.0563
▁watery	-11.0571
▁subjects	-11.0585
Wow	-11.0599
top	-11.0601
ley	-11.061
▁movements	-11.0632
▁greater	-11.0634
▁sob	-11.0655
ipping	-11.0665
▁Chaser	-11.0681
▁bars	-11.0695
▁OWLs	-11.0735
▁tough	-11.0741
....``	-11.0745
oh	-11.0755
▁deaths	-11.0777
▁leap	-11.0779
▁goblets	-11.0784
▁fla	-11.0802
▁disgust	-11.0822
▁fix	-11.0822
▁heel	-11.0843
▁splash	-11.0846
▁creep	-11.0847
▁chas	-11.0848
▁arrive	-11.0849
covered	-11.085
▁conceal	-11.085
ship	-11.0851
J	-11.0852
Another	-11.0853
fact	-11.0854
Molly	-11.0854
witch	-11.0854
Nobody	-11.0856
Some	-11.0864
▁bo	-11.0864
▁harsh	-11.0864
▁immense	-11.0864
▁brand	-11.0865
▁Under	-11.0865
▁urgent	-11.0865
▁perch	-11.087
▁bush	-11.087
▁tank	-11.0875
▁Inquisitor	-11.0875
▁motion	-11.0875
/	-11.0875
▁August	-11.0875
▁Cruciatus	-11.0875
▁Dedalus	-11.0875
▁Errol	-11.0875
▁Shacklebolt	-11.0875
▁Sunday	-11.0875
▁afford	-11.0875
▁attitude	-11.0875
▁chandelier	-11.0875
▁chunk	-11.0875
▁dazzling	-11.0875
▁fiery	-11.0875
▁imagining	-11.0875
▁incredible	-11.0875
▁nature	-11.0875
▁period	-11.0875
▁piercing	-11.0875
▁practicing	-11.0875
▁prediction	-11.0875
▁scales	-11.0875
▁shawl	-11.0875
▁skidded	-11.0875
▁surveyed	-11.0875
▁swore	-11.0875
▁teacup	-11.0875
▁transparent	-11.0875
▁venom	-11.0875
▁vivid	-11.0875
▁crunch	-11.0875
▁enemy	-11.0875
▁pearly	-11.0875
▁session	-11.0875
Shh	-11.0875
▁HIM	-11.0875
▁insane	-11.0875
▁swelled	-11.0875
▁flickering	-11.0875
▁Shield	-11.0875
▁damn	-11.0875
▁bundle	-11.0875
▁sugar	-11.0876
▁tugged	-11.0876
▁pressure	-11.0876
▁Easter	-11.0876
▁department	-11.0876
▁existence	-11.0876
▁Wizardry	-11.0876
▁grade	-11.0876
▁fleeting	-11.0877
▁rack	-11.0877
▁forcefully	-11.0877
▁discussion	-11.0878
▁legend	-11.0878
Ready	-11.0879
▁widened	-11.0879
▁emptied	-11.088
▁Amos	-11.088
▁warmth	-11.0881
▁conscious	-11.0882
▁hatred	-11.0882
▁tick	-11.0882
▁lady	-11.0882
▁unfortunately	-11.0883
Hmm	-11.0883
▁werewolves	-11.0884
▁wise	-11.0884
▁Merlin	-11.0885
▁yawning	-11.0886
▁achieved	-11.0888
▁polished	-11.0889
▁thumping	-11.089
▁hoisted	-11.089
Wha	-11.0893
▁directed	-11.0893
▁unusually	-11.0894
▁ship	-11.0898
▁eaten	-11.0898
▁Another	-11.0898
▁charms	-11.0899
handed	-11.0901
place	-11.0905
▁woken	-11.0908
▁blown	-11.0913
▁screeched	-11.0913
▁sacked	-11.0922
▁hotly	-11.0926
▁packing	-11.0933
eek	-11.0938
ude	-11.0938
▁AN	-11.0942
▁elves	-11.0949
▁restrain	-11.0975
▁ability	-11.0978
▁magically	-11.098
▁cleaning	-11.0983
▁twigs	-11.0985
▁Y	-11.0993
▁doubted	-11.1004
lar	-11.1008
▁mend	-11.1011
▁recall	-11.1011
ft	-11.1013
ould	-11.1021
Want	-11.1026
ically	-11.1045
▁deadly	-11.1054
▁sa	-11.1066
▁howl	-11.1086
IR	-11.1093
▁...``	-11.1099
Ha	-11.1102
▁aching	-11.1107
▁pace	-11.1107
day	-11.1126
▁cushion	-11.1134
▁ankle	-11.1136
▁candle	-11.1136
▁result	-11.1138
▁fog	-11.1191
▁Ronan	-11.12
com	-11.121
posed	-11.1229
aring	-11.1249
RA	-11.1258
cause	-11.1274
▁jerk	-11.1276
▁wan	-11.1277
▁moan	-11.128
▁longing	-11.1287
▁feed	-11.1301
▁scann	-11.1301
▁swing	-11.1302
▁assume	-11.1303
▁NO	-11.1305
▁squash	-11.1305
▁stroll	-11.1305
▁mask	-11.1305
▁whirl	-11.1306
▁repeat	-11.1306
▁hangings	-11.1307
▁sto	-11.1307
3	-11.1307
Every	-11.1307
two	-11.1308
Winky	-11.1308
will	-11.1308
said	-11.1309
▁tend	-11.1309
▁duck	-11.131
bound	-11.1317
▁brief	-11.1319
▁unexpected	-11.1319
▁firm	-11.1319
▁immediate	-11.1319
▁triumphant	-11.132
▁branch	-11.1327
▁cloth	-11.1327
▁blur	-11.1328
Stupef	-11.1328
▁gesture	-11.1328
▁fright	-11.1329
brush	-11.133
▁jabb	-11.133
▁pursue	-11.133
Avada	-11.133
▁Bagshot	-11.133
▁Britain	-11.133
▁Through	-11.133
▁amazing	-11.133
▁appointment	-11.133
▁atmosphere	-11.133
▁bizarre	-11.133
▁circumstances	-11.133
▁dazed	-11.133
▁delicate	-11.133
▁engine	-11.133
▁eyelids	-11.133
▁female	-11.133
▁limb	-11.133
▁material	-11.133
▁peculiar	-11.133
▁prickling	-11.133
▁refusing	-11.133
▁rustling	-11.133
▁serenely	-11.133
▁stooped	-11.133
▁thrill	-11.133
▁uncontrollably	-11.133
▁whereabouts	-11.133
▁Squad	-11.133
▁bread	-11.133
▁complex	-11.133
▁nail	-11.133
▁nevertheless	-11.133
▁snout	-11.133
▁flaming	-11.133
▁curved	-11.133
Ouch	-11.133
▁favourite	-11.133
▁grabbing	-11.133
▁slope	-11.133
▁practical	-11.133
▁Dirk	-11.133
▁Everybody	-11.133
▁explosion	-11.133
▁banned	-11.133
▁ruddy	-11.133
Always	-11.133
▁knight	-11.133
▁Feeling	-11.1331
▁lime	-11.1331
▁mopping	-11.1331
▁tapping	-11.1331
▁cries	-11.1331
▁compete	-11.1331
▁skinny	-11.1331
▁earshot	-11.1331
▁barman	-11.1331
Better	-11.1332
▁Baron	-11.1332
▁surge	-11.1332
▁UP	-11.1333
▁Inside	-11.1333
▁bushes	-11.1333
▁earnestly	-11.1334
▁reward	-11.1335
▁nudged	-11.1337
▁Any	-11.1339
▁immensely	-11.1341
▁resumed	-11.1342
▁spilled	-11.1342
▁chattering	-11.1343
▁headline	-11.1343
▁distractedly	-11.1343
▁issued	-11.1344
▁ruined	-11.1348
▁outraged	-11.1348
▁deepest	-11.1349
▁4	-11.1349
▁suffering	-11.1349
▁stray	-11.135
▁frightening	-11.1351
▁traveled	-11.1352
▁Out	-11.1359
▁required	-11.1359
▁disgusting	-11.136
▁prize	-11.1361
▁unpleasantly	-11.1363
▁sneering	-11.1365
▁Five	-11.1368
▁experienced	-11.1368
▁noble	-11.1368
▁enjoyed	-11.1373
▁glowed	-11.138
▁shrieking	-11.1383
▁offering	-11.1383
this	-11.1399
ath	-11.1402
▁features	-11.1408
▁bowing	-11.1417
▁visitors	-11.142
▁spreading	-11.1421
▁Because	-11.1423
▁sting	-11.144
van	-11.1458
▁explaining	-11.1475
▁heaving	-11.1476
his	-11.1485
yes	-11.1499
ckle	-11.1505
▁flowers	-11.1519
▁rear	-11.154
▁animals	-11.1557
▁Has	-11.159
▁north	-11.1597
Un	-11.1603
way	-11.1612
▁spirit	-11.1612
▁slit	-11.1616
▁surprising	-11.1632
cap	-11.1633
▁flower	-11.1648
Sit	-11.1678
▁meal	-11.1685
▁Thank	-11.1686
Back	-11.1698
▁aid	-11.1727
worthy	-11.1734
▁flow	-11.1742
▁shift	-11.1753
▁land	-11.1764
▁Bar	-11.1776
▁pointless	-11.1776
▁refuse	-11.178
▁summon	-11.1781
Accio	-11.1783
Xenophilius	-11.1784
Three	-11.1784
Bellatrix	-11.1784
free	-11.1786
▁su	-11.1788
Dear	-11.1791
▁vicious	-11.1795
▁defensive	-11.1795
ather	-11.1803
▁sell	-11.1804
▁confess	-11.1805
▁Inferi	-11.1805
▁rub	-11.1805
nfortunately	-11.1806
▁cruel	-11.1806
▁Kedavra	-11.1806
hearted	-11.1806
▁June	-11.1806
▁Kendra	-11.1806
▁Omnioculars	-11.1806
▁Padma	-11.1806
▁Warrington	-11.1806
▁accompany	-11.1806
▁arriving	-11.1806
▁bezoar	-11.1806
▁companion	-11.1806
▁dissolved	-11.1806
▁escort	-11.1806
▁essential	-11.1806
▁fluffy	-11.1806
▁hammering	-11.1806
▁identical	-11.1806
▁indicating	-11.1806
▁invitation	-11.1806
▁jealous	-11.1806
▁judging	-11.1806
▁language	-11.1806
▁launched	-11.1806
▁mantelpiece	-11.1806
▁scribbling	-11.1806
▁sinister	-11.1806
▁sleek	-11.1806
▁smoking	-11.1806
▁stubbornly	-11.1806
▁surveying	-11.1806
▁unaware	-11.1806
▁untidy	-11.1806
▁version	-11.1806
▁whatsoever	-11.1806
▁collar	-11.1806
▁ladder	-11.1806
▁method	-11.1806
▁lungs	-11.1806
▁mistress	-11.1806
▁swig	-11.1806
▁random	-11.1806
▁foreign	-11.1806
strewn	-11.1806
▁swooping	-11.1806
Kill	-11.1806
Nah	-11.1807
▁beginning	-11.1807
▁bunk	-11.1807
▁affection	-11.1807
▁reaction	-11.1807
▁stock	-11.1807
▁ease	-11.1808
▁Headquarters	-11.1808
▁Secrecy	-11.1808
▁dug	-11.1808
▁Rookwood	-11.1809
▁shopping	-11.1809
▁freezing	-11.1809
▁Bode	-11.181
▁boss	-11.181
▁hopelessly	-11.181
▁blackboard	-11.1811
▁collided	-11.1812
▁worn	-11.1812
▁gleefully	-11.1812
▁exit	-11.1812
▁retreated	-11.1813
▁handbag	-11.1814
▁Summoning	-11.1814
▁followers	-11.1814
▁bobbing	-11.1816
▁automatically	-11.1817
▁rarely	-11.1819
▁scowled	-11.1819
▁palm	-11.182
▁hooting	-11.182
▁casually	-11.1821
▁blackened	-11.1821
▁angle	-11.1822
▁flattened	-11.1822
▁forgetting	-11.1822
▁succeeded	-11.1823
▁flooding	-11.1824
▁defeated	-11.1826
▁tangled	-11.1826
▁Up	-11.1828
▁hooked	-11.1829
▁Remember	-11.1832
▁sleeves	-11.1832
▁express	-11.1833
▁shifting	-11.1835
▁sniffed	-11.1837
▁shuddered	-11.184
▁treated	-11.184
▁gotta	-11.1847
▁largest	-11.1847
▁carriages	-11.1861
▁events	-11.1865
▁shops	-11.1868
▁gaping	-11.1875
▁sleepy	-11.1877
▁blowing	-11.188
▁git	-11.188
lend	-11.189
▁Yeah	-11.1891
▁crashing	-11.1901
▁gagg	-11.1914
new	-11.1927
▁Burkes	-11.1927
▁victims	-11.1937
▁trusted	-11.1952
▁fri	-11.1972
▁winding	-11.1987
Has	-11.2006
▁sensed	-11.2006
.'`	-11.203
▁parted	-11.2031
▁seated	-11.2035
▁efforts	-11.2045
▁YOUR	-11.2078
gling	-11.2084
unc	-11.2086
▁bone	-11.2117
hu	-11.2139
▁cornered	-11.2149
▁answering	-11.2174
▁thousands	-11.2183
▁el	-11.2198
ical	-11.2207
▁travel	-11.2251
▁gestur	-11.2253
ower	-11.2259
over	-11.2267
▁disguise	-11.2279
▁produce	-11.2279
▁exchange	-11.228
some	-11.228
▁sprout	-11.2281
▁yelp	-11.2281
▁lurch	-11.2281
▁repair	-11.2281
▁snort	-11.2282
▁stump	-11.2282
glass	-11.2283
▁hook	-11.2283
9	-11.2283
Should	-11.2284
Luna	-11.2284
please	-11.2284
seven	-11.2284
▁brow	-11.229
▁ominous	-11.2295
▁stern	-11.2295
▁ir	-11.2299
Keeper	-11.23
▁frantic	-11.2305
▁Twenty	-11.2306
Lumos	-11.2306
▁intrude	-11.2306
▁jewel	-11.2306
▁Blotts	-11.2306
▁Cadogan	-11.2306
▁Flourish	-11.2306
▁Leanne	-11.2306
▁Roger	-11.2306
▁Sickles	-11.2306
▁appeal	-11.2306
▁circling	-11.2306
▁crush	-11.2306
▁demonstrate	-11.2306
▁enthusiasm	-11.2306
▁especially	-11.2306
▁fortune	-11.2306
▁greasy	-11.2306
▁grumpily	-11.2306
▁interrogat	-11.2306
▁livid	-11.2306
▁lunged	-11.2306
▁motorbike	-11.2306
▁neighbour	-11.2306
▁original	-11.2306
▁photo	-11.2306
▁revenge	-11.2306
▁rippling	-11.2306
▁shakily	-11.2306
▁swivel	-11.2306
▁throbbing	-11.2306
▁title	-11.2306
▁wisp	-11.2306
Ended	-11.2306
▁Cole	-11.2306
▁sphere	-11.2306
▁fading	-11.2306
▁headstone	-11.2306
▁issuing	-11.2306
▁rich	-11.2306
▁droop	-11.2306
▁Howler	-11.2306
▁undertone	-11.2306
▁camera	-11.2306
▁blaze	-11.2306
▁aisle	-11.2307
▁ruffled	-11.2307
▁taunt	-11.2307
▁stew	-11.2307
▁cork	-11.2307
Naturally	-11.2307
▁girlfriend	-11.2308
▁grandfather	-11.2308
▁prat	-11.2308
▁reasonably	-11.2308
▁park	-11.2308
▁trap	-11.2309
▁widening	-11.231
▁Again	-11.2311
▁Macnair	-11.2312
▁wig	-11.2312
▁Day	-11.2314
▁skirt	-11.2314
▁trickle	-11.2314
▁Marvolo	-11.2315
▁mildly	-11.2315
▁daylight	-11.2315
▁WHAT	-11.2316
▁heartily	-11.2318
▁ME	-11.2319
▁patches	-11.232
▁smirked	-11.2321
▁greenish	-11.2321
▁winking	-11.2322
▁scratched	-11.2322
▁scowling	-11.2322
▁painted	-11.2323
▁robe	-11.2326
▁Quick	-11.2327
▁creaking	-11.2327
▁sealed	-11.2328
▁Should	-11.2329
port	-11.233
▁personally	-11.2332
▁squashed	-11.2333
▁strolled	-11.2333
▁masked	-11.2333
▁named	-11.2334
▁mouthful	-11.2335
▁creeping	-11.2339
▁boiling	-11.2341
▁wandered	-11.2341
▁Our	-11.2342
▁previously	-11.2345
▁vanishing	-11.2345
▁blackness	-11.2352
▁possessed	-11.2356
▁stormed	-11.2357
▁bend	-11.2359
aught	-11.236
▁sneaked	-11.236
▁wider	-11.2367
▁Ears	-11.2383
▁slowed	-11.2389
▁banged	-11.2393
▁shouts	-11.2397
Watch	-11.2416
▁pen	-11.2419
▁pat	-11.2436
pan	-11.2445
Make	-11.2452
▁gl	-11.2491
otted	-11.2494
▁slits	-11.2516
Wish	-11.2517
▁cushions	-11.2526
▁DON	-11.2536
▁questioning	-11.254
iness	-11.2542
▁pillows	-11.2568
▁kn	-11.2585
Hand	-11.2608
▁Galleon	-11.264
▁nerves	-11.2651
▁piles	-11.2653
▁drawer	-11.2659
Sp	-11.2693
▁dish	-11.2699
▁peace	-11.2723
▁ride	-11.2743
did	-11.2746
▁Sc	-11.2757
▁puff	-11.2773
▁thunder	-11.2778
▁reappear	-11.2779
▁contain	-11.278
▁gi	-11.278
,'`	-11.2784
tained	-11.2785
back	-11.2791
▁receive	-11.2799
▁Bl	-11.2801
▁arrest	-11.2808
▁extract	-11.2808
Wonder	-11.281
4	-11.281
Think	-11.281
Krum	-11.2811
floor	-11.2811
which	-11.2811
YOU	-11.2811
boy	-11.2811
Once	-11.2813
▁distinct	-11.2821
▁health	-11.2822
▁Sure	-11.2827
▁threat	-11.283
▁select	-11.2831
▁permit	-11.2831
Second	-11.2832
Z	-11.2832
▁Box	-11.2832
▁Dennis	-11.2832
▁English	-11.2832
▁Marchbanks	-11.2832
▁October	-11.2832
▁Rufus	-11.2832
▁Shunpike	-11.2832
▁Thicknesse	-11.2832
▁Thursday	-11.2832
▁Tuesday	-11.2832
▁WILL	-11.2832
▁Wednesday	-11.2832
▁adventure	-11.2832
▁boulder	-11.2832
▁confusion	-11.2832
▁copies	-11.2832
▁exceptionally	-11.2832
▁exciting	-11.2832
▁glimmer	-11.2832
▁gnarled	-11.2832
▁limit	-11.2832
▁lonely	-11.2832
▁petrified	-11.2832
▁precious	-11.2832
▁protruding	-11.2832
▁regard	-11.2832
▁rustle	-11.2832
▁sallow	-11.2832
▁scurrying	-11.2832
▁sloping	-11.2832
▁spellbooks	-11.2832
▁stammered	-11.2832
▁stroking	-11.2832
▁temple	-11.2832
▁uneasy	-11.2832
▁vampire	-11.2832
▁writhing	-11.2832
▁Pince	-11.2832
▁decorated	-11.2832
▁placing	-11.2832
▁river	-11.2832
▁bustled	-11.2832
▁bustling	-11.2832
▁sidecar	-11.2832
▁transport	-11.2832
▁vomit	-11.2832
▁built	-11.2832
▁banner	-11.2832
▁behave	-11.2832
▁bully	-11.2832
▁kit	-11.2832
Hurry	-11.2833
▁women	-11.2833
▁clamp	-11.2833
▁authority	-11.2833
▁shelter	-11.2833
▁tiptoe	-11.2833
▁tripped	-11.2834
▁topmost	-11.2834
▁ripping	-11.2834
▁mound	-11.2834
▁starry	-11.2834
▁Ronald	-11.2835
▁suggestion	-11.2836
▁deliberately	-11.2836
▁defiantly	-11.2836
▁anythin	-11.2836
▁Grim	-11.2836
▁drunk	-11.2837
▁whip	-11.2837
▁dashing	-11.2838
▁scarves	-11.2838
▁lion	-11.2839
▁beaten	-11.2839
▁chart	-11.2839
▁Today	-11.284
▁Turn	-11.284
▁overgrown	-11.2842
▁glided	-11.2842
▁wandmaker	-11.2842
▁standard	-11.2842
▁fumbled	-11.2842
▁attached	-11.2844
▁lingered	-11.2845
▁briefly	-11.2845
▁gleamed	-11.2846
▁somewhat	-11.2846
▁winked	-11.2846
▁youngest	-11.2848
▁naturally	-11.2849
▁witnessed	-11.285
▁shivered	-11.2852
▁forty	-11.2853
▁sweaty	-11.2854
▁dodged	-11.2854
▁grate	-11.2855
▁marching	-11.2855
▁crawled	-11.2856
▁relaxed	-11.2856
▁shifted	-11.286
ending	-11.2861
▁containing	-11.2861
▁jerking	-11.2866
▁wandlight	-11.2866
▁transformed	-11.2869
▁borrowed	-11.2869
▁deserved	-11.2871
▁lawns	-11.2873
▁smallest	-11.2875
other	-11.2876
▁owe	-11.2878
▁Take	-11.2879
rent	-11.2881
▁doe	-11.2882
▁fourteen	-11.2889
▁biting	-11.2896
▁bothering	-11.2903
thin	-11.2909
▁crossing	-11.291
▁charged	-11.2912
▁pod	-11.2913
▁Carrows	-11.2913
▁Skrewt	-11.2916
▁counted	-11.2918
▁guests	-11.2924
▁howled	-11.2926
▁buying	-11.293
▁appearing	-11.2933
▁dreaming	-11.2988
▁Eye	-11.3
▁boots	-11.302
itch	-11.3033
Jus	-11.3036
▁forming	-11.3036
▁drawers	-11.3037
▁darker	-11.304
—	-11.3076
▁growl	-11.3078
▁bla	-11.3101
Madam	-11.3119
▁pal	-11.3164
AND	-11.3183
▁plants	-11.3184
▁gnome	-11.3191
▁heaven	-11.3192
▁skrewt	-11.3194
▁rumor	-11.3194
▁mane	-11.3224
▁owners	-11.3243
bag	-11.3256
Thought	-11.3257
▁yards	-11.3263
▁jog	-11.3266
▁Mudbloods	-11.3275
cha	-11.3288
▁poke	-11.329
▁police	-11.3313
▁Du	-11.3316
▁ban	-11.3321
CK	-11.3322
▁grunt	-11.3334
▁wail	-11.3335
▁leak	-11.336
Lo	-11.3361
▁invite	-11.3361
▁wipe	-11.3361
▁convince	-11.3361
▁glare	-11.3362
▁interrupt	-11.3362
post	-11.3363
▁suppress	-11.3363
▁relax	-11.3363
▁crawl	-11.3363
friend	-11.3364
Anything	-11.3365
Quick	-11.3366
Fleur	-11.3366
Great	-11.3366
Fudge	-11.3366
Slughorn	-11.3366
great	-11.3366
when	-11.3366
▁flush	-11.3366
Those	-11.3366
blue	-11.3366
▁boot	-11.3368
away	-11.3371
ime	-11.3373
Lily	-11.3375
case	-11.3375
Ex	-11.3375
▁dirt	-11.3378
hold	-11.3378
▁flee	-11.3386
▁remark	-11.3388
▁zoo	-11.3388
▁Animagus	-11.3388
▁Atrium	-11.3388
▁BANG	-11.3388
▁Crack	-11.3388
▁Magnolia	-11.3388
▁Magorian	-11.3388
▁Mandrake	-11.3388
▁Peverell	-11.3388
▁astonishment	-11.3388
▁clanking	-11.3388
▁conclusion	-11.3388
▁contract	-11.3388
▁courtyard	-11.3388
▁crossbow	-11.3388
▁disagree	-11.3388
▁disgruntled	-11.3388
▁doorknob	-11.3388
▁driving	-11.3388
▁eerie	-11.3388
▁invented	-11.3388
▁jeering	-11.3388
▁keyhole	-11.3388
▁magnified	-11.3388
▁monstrous	-11.3388
▁nonsense	-11.3388
▁preparing	-11.3388
▁remorse	-11.3388
▁shaggy	-11.3388
▁strict	-11.3388
▁transfixed	-11.3388
▁violet	-11.3388
▁constrict	-11.3388
▁squirm	-11.3388
▁starving	-11.3388
▁Army	-11.3388
▁dais	-11.3388
▁electric	-11.3388
▁etched	-11.3388
▁ajar	-11.3388
Welcome	-11.3388
▁Witchcraft	-11.3388
▁clasp	-11.3388
▁worm	-11.3388
▁windowsill	-11.3388
▁booming	-11.3388
▁Killing	-11.3388
▁kidding	-11.3388
▁imagination	-11.3388
▁billowing	-11.3388
▁maroon	-11.3388
▁mortal	-11.3388
▁flapping	-11.3388
▁glory	-11.3388
▁noisy	-11.3388
▁silhouette	-11.3388
Point	-11.3388
▁gaunt	-11.3388
▁binding	-11.3388
▁hostage	-11.3388
▁candlelight	-11.3388
▁ripple	-11.3388
▁propped	-11.3388
▁spoon	-11.3389
▁Witch	-11.3389
▁gettin	-11.3389
▁spitting	-11.3389
▁disappearance	-11.3389
▁chapter	-11.3389
▁stirring	-11.3389
▁dense	-11.3389
▁inspect	-11.339
▁sail	-11.339
▁hallway	-11.339
Hope	-11.3391
▁ruff	-11.3391
--``	-11.3392
▁complicated	-11.3392
▁lure	-11.3392
▁feverishly	-11.3392
Follow	-11.3392
▁schoolbag	-11.3393
▁raw	-11.3393
▁HAVE	-11.3393
▁groped	-11.3395
▁hip	-11.3395
▁whizz	-11.3402
▁obscured	-11.3403
▁whimpering	-11.3404
Had	-11.3405
aster	-11.3405
▁spilling	-11.3405
▁buzzing	-11.3405
▁flooded	-11.3406
▁arrogant	-11.3406
▁trailing	-11.3407
▁HARRY	-11.3408
▁served	-11.3412
▁straining	-11.3412
▁amid	-11.3412
▁cooking	-11.3415
▁Surely	-11.3417
▁murderer	-11.3418
Any	-11.3418
▁2	-11.3421
▁Top	-11.3421
▁driven	-11.3423
▁punished	-11.3424
eaten	-11.3427
▁delivered	-11.343
▁sheet	-11.343
▁disappearing	-11.3435
▁urged	-11.3437
▁reminding	-11.3438
▁shared	-11.344
▁limping	-11.3441
▁clattering	-11.3443
▁chased	-11.3444
▁Give	-11.3445
▁rot	-11.3446
▁aiming	-11.3447
▁greeting	-11.345
▁gasping	-11.3457
SE	-11.346
▁stealing	-11.347
▁reported	-11.3472
▁clearer	-11.3476
▁seeking	-11.3477
▁leader	-11.3482
▁dangerously	-11.3486
▁fate	-11.3493
Whatever	-11.3496
▁Listen	-11.3497
▁supported	-11.3498
▁shaped	-11.3499
▁finishing	-11.3503
▁allowing	-11.3506
▁instruments	-11.3531
Ten	-11.3534
▁tickets	-11.3542
▁`—	-11.3545
▁conditions	-11.3565
ead	-11.3565
▁dealing	-11.3566
▁greenhouses	-11.3577
▁joining	-11.359
mort	-11.3594
▁fed	-11.3603
▁art	-11.3617
Bin	-11.3636
▁Fi	-11.3639
▁cow	-11.3652
▁bubbles	-11.3681
▁din	-11.3693
▁Love	-11.372
▁town	-11.3725
rous	-11.3743
▁fasten	-11.3775
▁stage	-11.3775
▁greenhouse	-11.3781
▁content	-11.3783
ative	-11.384
▁forth	-11.3857
▁gra	-11.3862
fashioned	-11.3863
▁HA	-11.3868
▁possessions	-11.3869
▁firs	-11.3908
Unless	-11.3912
▁sport	-11.3916
▁mop	-11.3918
▁curl	-11.3922
▁murmur	-11.3923
▁blink	-11.3923
▁click	-11.3925
▁Qu	-11.3933
▁severe	-11.3938
▁direct	-11.394
▁recover	-11.394
cal	-11.3942
▁pla	-11.3947
▁stroke	-11.3949
▁rescue	-11.3949
▁affect	-11.395
though	-11.3951
▁defeat	-11.3952
▁assure	-11.3952
▁cook	-11.3952
struck	-11.3954
People	-11.3954
From	-11.3954
Two	-11.3954
Dudley	-11.3954
Umbridge	-11.3954
why	-11.3954
Hold	-11.3955
count	-11.3958
Over	-11.3961
▁apprehensive	-11.3965
▁constant	-11.3965
▁savage	-11.3965
▁plum	-11.3966
▁potato	-11.3973
▁drag	-11.3974
bbing	-11.3976
▁deaf	-11.3976
Dragon	-11.3976
Fletchley	-11.3976
Honestly	-11.3976
▁Ancient	-11.3976
▁Argus	-11.3976
▁Bowtruckle	-11.3976
▁Dippet	-11.3976
▁Enforcement	-11.3976
▁Hokey	-11.3976
▁Knut	-11.3976
▁Scabior	-11.3976
▁Seven	-11.3976
▁Spinnet	-11.3976
▁Trevor	-11.3976
▁Whinging	-11.3976
▁believing	-11.3976
▁celebration	-11.3976
▁chimney	-11.3976
▁colleague	-11.3976
▁contorted	-11.3976
▁cubicle	-11.3976
▁desperation	-11.3976
▁disapproving	-11.3976
▁injury	-11.3976
▁instinctively	-11.3976
▁leprechaun	-11.3976
▁pillar	-11.3976
▁porridge	-11.3976
▁reproachful	-11.3976
▁response	-11.3976
▁similar	-11.3976
▁straw	-11.3976
▁stride	-11.3976
▁vegetable	-11.3976
▁vigorously	-11.3976
▁Doxy	-11.3976
▁employ	-11.3976
▁liking	-11.3976
▁Beedle	-11.3976
▁knives	-11.3976
▁rubber	-11.3976
▁adult	-11.3976
▁contemptuous	-11.3976
▁freedom	-11.3976
▁bloodshot	-11.3976
▁dried	-11.3976
▁winced	-11.3976
▁pathetic	-11.3976
▁departure	-11.3976
▁pleading	-11.3976
▁Weird	-11.3976
▁dripping	-11.3976
▁sputter	-11.3976
▁defence	-11.3976
▁snapping	-11.3977
▁mouse	-11.3977
▁reverse	-11.3977
▁squat	-11.3977
▁lunchtime	-11.3977
▁laden	-11.3978
▁Each	-11.3978
▁stall	-11.3978
▁considerable	-11.3978
▁collection	-11.3979
▁Amycus	-11.398
▁lick	-11.398
▁sunk	-11.3981
Arry	-11.3981
Poor	-11.3981
▁Blast	-11.3981
▁yellowish	-11.3981
▁Side	-11.3982
▁draped	-11.3982
▁skip	-11.3982
▁hexes	-11.3982
▁crackling	-11.3983
▁inner	-11.3985
▁meantime	-11.3987
▁severely	-11.3987
was	-11.3988
▁hurtling	-11.3988
None	-11.3988
harp	-11.3988
▁pronounced	-11.3988
▁described	-11.3989
▁shallow	-11.399
▁rattled	-11.399
▁spluttered	-11.399
▁hic	-11.3991
▁littered	-11.3991
▁filed	-11.3992
▁scraping	-11.3992
▁snakelike	-11.3992
▁generally	-11.3993
▁belt	-11.3993
▁arranged	-11.3993
▁Vanishing	-11.3994
▁LI	-11.3995
▁mainly	-11.3995
▁fled	-11.3995
▁breathless	-11.3996
▁stamped	-11.3996
▁prodding	-11.3998
▁swarming	-11.3998
▁descending	-11.4
▁stamping	-11.4
▁invisibility	-11.4001
▁wishes	-11.4001
▁steel	-11.4005
▁repaired	-11.4005
▁poisonous	-11.4006
▁highest	-11.4007
▁restore	-11.4009
▁scanning	-11.4014
▁web	-11.4017
▁throughout	-11.4022
▁punched	-11.4023
▁signal	-11.4024
▁limped	-11.4025
▁considering	-11.4028
▁bomb	-11.4028
▁gestured	-11.4041
▁sweating	-11.4042
▁boarded	-11.4045
▁oldest	-11.4048
▁dueling	-11.4054
▁complaining	-11.4054
▁persuaded	-11.4054
filled	-11.4057
▁accepted	-11.4063
put	-11.4063
▁sausages	-11.4067
▁pinch	-11.4078
▁relatives	-11.4079
▁breed	-11.4081
▁AT	-11.4111
Ask	-11.4117
▁smelled	-11.413
▁lifting	-11.4135
▁Wi	-11.4149
Erm	-11.4169
▁heavens	-11.4189
▁visiting	-11.4191
▁sheets	-11.4191
skin	-11.4211
rry	-11.4212
▁Heir	-11.4238
▁paces	-11.4239
lock	-11.4242
▁range	-11.4245
▁Stun	-11.4245
▁newly	-11.4249
Tha	-11.4252
▁Got	-11.4258
Having	-11.4293
come	-11.4306
mouthed	-11.4307
lent	-11.4313
▁orb	-11.4313
▁troubled	-11.4343
▁belongs	-11.4369
▁greatly	-11.4394
▁condition	-11.4405
▁hoop	-11.4406
▁Thestral	-11.4407
▁sock	-11.4419
▁sip	-11.4437
maker	-11.4441
bility	-11.4455
Yer	-11.4478
▁squ	-11.4479
▁sneer	-11.4528
fingered	-11.4532
run	-11.4538
▁streak	-11.4548
▁snatch	-11.4548
▁peer	-11.4549
▁frighten	-11.455
opping	-11.456
▁spin	-11.4561
▁hunt	-11.4572
▁shoot	-11.4573
wise	-11.4574
▁serve	-11.4575
▁release	-11.4575
▁tangle	-11.4576
▁obey	-11.4576
▁ruin	-11.4577
▁swallow	-11.4577
HARRY	-11.4579
point	-11.4579
Albus	-11.4579
Slytherin	-11.4579
Draco	-11.4579
Crouch	-11.4579
Hogwarts	-11.4579
large	-11.4582
▁settle	-11.4583
▁chase	-11.4584
▁mild	-11.459
▁unfortunate	-11.459
▁vague	-11.459
▁abrupt	-11.459
▁definite	-11.4591
▁shrill	-11.4591
▁Ball	-11.4592
Five	-11.4598
▁moth	-11.4599
▁wreck	-11.4601
▁leaf	-11.4601
Brilliant	-11.4601
Funny	-11.4601
rimmed	-11.4601
▁Abbott	-11.4601
▁Class	-11.4601
▁Confederation	-11.4601
▁Corner	-11.4601
▁Defensive	-11.4601
▁Demelza	-11.4601
▁Fletcher	-11.4601
▁Jinx	-11.4601
▁Mafalda	-11.4601
▁Millicent	-11.4601
▁Nicolas	-11.4601
▁Shrieking	-11.4601
▁Zonko	-11.4601
▁advancing	-11.4601
▁agitated	-11.4601
▁appalled	-11.4601
▁biggest	-11.4601
▁bronze	-11.4601
▁coffee	-11.4601
▁delay	-11.4601
▁delicious	-11.4601
▁determination	-11.4601
▁enclosure	-11.4601
▁fraction	-11.4601
▁freak	-11.4601
▁frustration	-11.4601
▁grubby	-11.4601
▁indignation	-11.4601
▁inherited	-11.4601
▁investigate	-11.4601
▁irritated	-11.4601
▁loathed	-11.4601
▁niffler	-11.4601
▁paddock	-11.4601
▁perfume	-11.4601
▁puncture	-11.4601
▁responsible	-11.4601
▁rummaged	-11.4601
▁rummaging	-11.4601
▁sarcastically	-11.4601
▁signature	-11.4601
▁significant	-11.4601
▁squeezing	-11.4601
▁stalked	-11.4601
▁steering	-11.4601
▁tramp	-11.4601
▁treacle	-11.4601
▁turban	-11.4601
▁unfolded	-11.4601
▁value	-11.4601
▁whistling	-11.4601
Imagine	-11.4601
Yep	-11.4601
▁Finch	-11.4601
▁Runes	-11.4601
▁crisp	-11.4601
▁expand	-11.4601
▁frost	-11.4601
▁slack	-11.4601
▁diff	-11.4601
▁cowering	-11.4601
▁mercy	-11.4601
▁prickle	-11.4601
▁boomed	-11.4601
▁depend	-11.4601
▁glowering	-11.4601
Oooh	-11.4601
▁brushed	-11.4601
▁managing	-11.4601
▁brushing	-11.4601
▁blade	-11.4601
▁Piers	-11.4601
▁forearm	-11.4601
▁importance	-11.4601
▁perplexed	-11.4601
▁rubbed	-11.4601
▁flapped	-11.4601
▁joy	-11.4601
▁warlock	-11.4601
▁recit	-11.4601
True	-11.4601
▁responsibility	-11.4602
▁Tale	-11.4602
▁Disarm	-11.4602
▁dramatically	-11.4602
▁sharing	-11.4602
▁hugging	-11.4602
tain	-11.4602
▁cozy	-11.4602
▁Monster	-11.4602
▁sworn	-11.4602
▁socket	-11.4602
ssuming	-11.4603
▁panicked	-11.4603
▁Romilda	-11.4603
▁seared	-11.4604
Outstanding	-11.4604
▁scum	-11.4606
▁Although	-11.4606
▁controlled	-11.4607
▁faintest	-11.4608
▁mission	-11.4608
▁sprawled	-11.4608
▁goggling	-11.4609
▁increasingly	-11.4609
▁GO	-11.461
▁glittered	-11.461
▁wad	-11.4612
▁hooted	-11.4612
▁swerved	-11.4613
▁savagely	-11.4613
▁capable	-11.4614
▁puffy	-11.4614
▁threatened	-11.4614
▁comin	-11.4614
▁increased	-11.4614
▁galloping	-11.4615
▁mixed	-11.4616
▁bitten	-11.4617
▁sold	-11.4617
▁strangled	-11.4618
▁scooped	-11.4619
▁overcome	-11.4619
▁dial	-11.462
▁chewing	-11.4621
▁pounded	-11.4621
Merry	-11.4621
▁advised	-11.4621
▁assistant	-11.4626
▁earned	-11.4627
▁locker	-11.4629
▁sweetly	-11.463
▁ARE	-11.4632
▁stumped	-11.4632
▁Best	-11.4634
▁wary	-11.4634
▁curling	-11.4634
▁port	-11.4635
▁tune	-11.464
▁scored	-11.4646
▁Mom	-11.4649
▁giggled	-11.4651
▁shuddering	-11.4655
▁strongly	-11.4659
▁corrected	-11.466
▁dreading	-11.466
▁messing	-11.4675
▁balding	-11.4677
▁discussed	-11.4679
▁paler	-11.4682
▁God	-11.469
▁seal	-11.4691
Break	-11.4704
▁scrape	-11.4707
▁shorter	-11.4709
▁fireworks	-11.4711
▁onward	-11.472
rk	-11.4721
▁peaceful	-11.4734
▁annoying	-11.4737
rate	-11.4759
▁shov	-11.4762
▁slugs	-11.4788
▁hoops	-11.4802
▁outrage	-11.4802
▁hag	-11.4824
▁gnomes	-11.4828
dore	-11.4833
▁trained	-11.4869
▁army	-11.4874
RY	-11.4897
▁oil	-11.4923
▁lookin	-11.5024
▁WE	-11.5031
▁slug	-11.5072
▁sorted	-11.5074
▁stair	-11.5078
▁parent	-11.5078
▁fang	-11.5085
▁annoy	-11.51
▁gri	-11.5137
▁Bra	-11.5144
formed	-11.5158
▁organ	-11.5206
eck	-11.5212
▁creak	-11.5215
▁strain	-11.5215
▁suffer	-11.5215
▁shiver	-11.5215
▁march	-11.5216
▁accord	-11.5223
▁ski	-11.5228
▁cure	-11.5229
▁pea	-11.5233
▁Tra	-11.5234
▁build	-11.524
▁register	-11.5243
▁succeed	-11.5243
▁demand	-11.5244
length	-11.5246
jinx	-11.5246
Nearly	-11.5246
Black	-11.5246
three	-11.5246
▁dwell	-11.5248
Time	-11.5248
power	-11.5252
Yet	-11.5253
▁UN	-11.5254
Cho	-11.5256
▁precise	-11.5257
▁impatient	-11.5257
▁author	-11.5267
▁expel	-11.5267
▁patrol	-11.5267
▁cell	-11.5267
Happy	-11.5268
Obviously	-11.5268
STOP	-11.5268
▁Apparating	-11.5268
▁Bogrod	-11.5268
▁Cleansweep	-11.5268
▁Egypt	-11.5268
▁Lynch	-11.5268
▁NEWT	-11.5268
▁Network	-11.5268
▁Owl	-11.5268
▁Padfoot	-11.5268
▁Snatcher	-11.5268
▁Snorkack	-11.5268
▁aghast	-11.5268
▁autograph	-11.5268
▁blushing	-11.5268
▁cackling	-11.5268
▁caution	-11.5268
▁challenge	-11.5268
▁crimson	-11.5268
▁dagger	-11.5268
▁deflect	-11.5268
▁destination	-11.5268
▁enclosed	-11.5268
▁fascinating	-11.5268
▁fervently	-11.5268
▁flustered	-11.5268
▁frail	-11.5268
▁ghoul	-11.5268
▁glorious	-11.5268
▁gratitude	-11.5268
▁grilles	-11.5268
▁grudgingly	-11.5268
▁hooves	-11.5268
▁illuminating	-11.5268
▁inclined	-11.5268
▁influence	-11.5268
▁irritable	-11.5268
▁loathing	-11.5268
▁marquee	-11.5268
▁moldy	-11.5268
▁mournful	-11.5268
▁obsessed	-11.5268
▁pelted	-11.5268
▁pincers	-11.5268
▁precaution	-11.5268
▁reassure	-11.5268
▁reduced	-11.5268
▁represent	-11.5268
▁shuffling	-11.5268
▁slippery	-11.5268
▁slithering	-11.5268
▁superior	-11.5268
▁temporarily	-11.5268
▁tentacle	-11.5268
▁thrashing	-11.5268
▁tiara	-11.5268
▁toffee	-11.5268
▁trousers	-11.5268
▁unhappy	-11.5268
▁utmost	-11.5268
▁July	-11.5268
▁MAGIC	-11.5268
▁contemplat	-11.5268
▁misery	-11.5268
▁overwhelm	-11.5268
▁reckless	-11.5268
▁rug	-11.5268
▁scandal	-11.5268
▁tragic	-11.5268
▁dusk	-11.5268
▁expert	-11.5268
▁latter	-11.5268
▁snide	-11.5268
▁stowed	-11.5268
▁haze	-11.5268
▁hysterical	-11.5268
▁roast	-11.5268
Lucky	-11.5268
▁loyal	-11.5268
▁trod	-11.5268
▁whoosh	-11.5268
▁bemused	-11.5268
▁coast	-11.5268
▁hilt	-11.5268
OUR	-11.5268
▁apple	-11.5268
▁arrangements	-11.5268
▁edging	-11.5268
▁season	-11.5268
▁courtroom	-11.5268
▁base	-11.5268
▁rabbit	-11.5268
▁waft	-11.5268
▁holly	-11.5268
▁leaflet	-11.5268
▁bond	-11.5268
▁Seconds	-11.5268
▁hastened	-11.5268
▁hind	-11.5269
▁committed	-11.5269
▁Shack	-11.5269
▁HERE	-11.5269
▁flared	-11.5269
▁Trace	-11.5269
▁wax	-11.5269
▁superb	-11.5269
▁travelling	-11.5269
▁Road	-11.5269
▁basic	-11.527
▁marry	-11.527
▁popped	-11.527
GH	-11.527
▁shred	-11.527
Since	-11.5271
▁enjoyable	-11.5271
five	-11.5271
▁effective	-11.5272
▁frequently	-11.5273
▁tightened	-11.5273
▁attic	-11.5273
▁cuff	-11.5273
▁omen	-11.5273
▁Together	-11.5273
▁breakout	-11.5273
▁beads	-11.5274
▁askew	-11.5275
▁related	-11.5275
▁weakness	-11.5275
▁dung	-11.5275
▁darkening	-11.5277
▁balance	-11.5278
▁Conf	-11.5278
▁tomb	-11.5278
▁Reg	-11.5278
backed	-11.5279
▁constantly	-11.5281
▁peeling	-11.5282
▁defensively	-11.5283
▁resigned	-11.5284
▁unexpectedly	-11.5284
▁spotting	-11.5285
▁cackled	-11.5286
▁blindly	-11.5286
▁rotting	-11.5289
▁swishing	-11.5291
▁wailed	-11.5298
▁ray	-11.5299
▁arrested	-11.53
▁thundered	-11.53
▁murmuring	-11.5301
▁Soon	-11.5301
▁lurched	-11.5301
▁wailing	-11.5303
▁produced	-11.5304
▁crossly	-11.5306
▁gained	-11.5308
▁assumed	-11.5308
▁downward	-11.531
▁focused	-11.5315
▁decorations	-11.5316
Open	-11.5323
▁cheered	-11.5323
▁collecting	-11.5327
▁Dungbombs	-11.533
▁aimed	-11.533
ax	-11.5331
▁chained	-11.5333
▁Bard	-11.5336
▁Age	-11.5349
▁gas	-11.5372
▁charming	-11.5377
▁tut	-11.5392
▁tested	-11.5403
▁soot	-11.5406
▁lad	-11.5407
▁ideal	-11.5419
▁intense	-11.5424
ational	-11.5439
▁bared	-11.5462
▁fo	-11.5505
▁sour	-11.5558
▁Str	-11.5612
▁fewer	-11.5619
▁brim	-11.5623
LL	-11.5629
▁successful	-11.565
EL	-11.568
Scar	-11.5696
▁towel	-11.5711
Bye	-11.5718
▁u	-11.5739
▁ON	-11.577
▁victim	-11.5787
▁Beater	-11.5787
▁ticket	-11.5788
▁shocking	-11.585
▁Da	-11.5865
Though	-11.5895
nog	-11.5903
▁ye	-11.5905
▁squeal	-11.5928
▁descend	-11.5929
▁stamp	-11.5929
▁mutter	-11.593
▁gather	-11.5931
▁twitch	-11.5933
ok	-11.5945
▁await	-11.5953
▁witness	-11.5954
water	-11.5956
▁haunt	-11.5957
▁regain	-11.5957
▁clamber	-11.5958
▁hoist	-11.5958
▁wrench	-11.5958
▁croak	-11.5958
play	-11.5959
Help	-11.596
hood	-11.596
Surely	-11.596
blond	-11.596
Narcissa	-11.596
More	-11.596
minute	-11.596
wizard	-11.596
James	-11.596
Tonks	-11.596
Moody	-11.596
with	-11.596
high	-11.5961
▁flatten	-11.5963
▁mar	-11.5965
▁Street	-11.597
▁absent	-11.5971
coloured	-11.5976
▁occasional	-11.598
▁process	-11.5981
▁glee	-11.5981
ject	-11.5981
▁occur	-11.5981
Morning	-11.5982
▁Legilimency	-11.5982
▁Moran	-11.5982
▁THAT	-11.5982
▁Warlock	-11.5982
▁custom	-11.5982
▁distress	-11.5982
▁interpret	-11.5982
▁motorcycle	-11.5982
▁occupant	-11.5982
▁pixie	-11.5982
▁quantit	-11.5982
▁spoil	-11.5982
▁textbook	-11.5982
Precisely	-11.5982
Special	-11.5982
▁Boggart	-11.5982
▁Crescent	-11.5982
▁Headmistress	-11.5982
▁Karkus	-11.5982
▁Studies	-11.5982
▁Veritaserum	-11.5982
▁absurd	-11.5982
▁applauding	-11.5982
▁approval	-11.5982
▁belief	-11.5982
▁boarhound	-11.5982
▁brace	-11.5982
▁copper	-11.5982
▁credit	-11.5982
▁criminal	-11.5982
▁crucial	-11.5982
▁dismissively	-11.5982
▁doorstep	-11.5982
▁eavesdrop	-11.5982
▁enemies	-11.5982
▁energy	-11.5982
▁exasperation	-11.5982
▁flourish	-11.5982
▁handwriting	-11.5982
▁horizon	-11.5982
▁merrily	-11.5982
▁miniature	-11.5982
▁opponent	-11.5982
▁pardon	-11.5982
▁persisted	-11.5982
▁practising	-11.5982
▁pyjamas	-11.5982
▁rapped	-11.5982
▁research	-11.5982
▁rusty	-11.5982
▁sacrifice	-11.5982
▁scuttled	-11.5982
▁tablecloth	-11.5982
▁temptation	-11.5982
▁tempted	-11.5982
▁trophy	-11.5982
▁uniform	-11.5982
▁wheezy	-11.5982
▁wrestling	-11.5982
▁Standard	-11.5982
▁blackthorn	-11.5982
▁chorus	-11.5982
▁stabbed	-11.5982
▁subdue	-11.5982
OUCH	-11.5982
▁Hestia	-11.5982
▁cease	-11.5982
▁conquer	-11.5982
▁drum	-11.5982
▁modest	-11.5982
▁type	-11.5982
▁jammed	-11.5982
▁matted	-11.5982
▁filing	-11.5982
▁scaly	-11.5982
knitted	-11.5982
Crucio	-11.5982
▁canopy	-11.5982
▁slapping	-11.5982
▁offended	-11.5982
▁ornate	-11.5982
▁united	-11.5982
▁locate	-11.5982
▁clinging	-11.5982
▁island	-11.5982
▁stubby	-11.5982
Devil	-11.5982
▁grinding	-11.5982
▁tuft	-11.5982
▁fulfill	-11.5982
▁sincerely	-11.5983
▁ninety	-11.5983
▁slopp	-11.5983
▁disturbance	-11.5983
▁bony	-11.5983
▁imitation	-11.5983
Knock	-11.5983
▁sixty	-11.5983
▁tying	-11.5983
▁tankard	-11.5983
▁plotting	-11.5983
GET	-11.5983
▁sandwiches	-11.5984
▁improvement	-11.5984
▁commentary	-11.5984
▁solve	-11.5984
▁purse	-11.5984
▁sickening	-11.5984
▁bracingly	-11.5984
▁stab	-11.5984
▁tartan	-11.5984
▁teapot	-11.5984
▁GOT	-11.5985
▁mice	-11.5985
▁Control	-11.5985
▁flag	-11.5985
▁waking	-11.5986
▁stepping	-11.5986
▁mock	-11.5986
▁potatoes	-11.5986
▁According	-11.5986
▁Elphias	-11.5986
▁crown	-11.5986
▁underwater	-11.5987
▁trickling	-11.5988
▁scrubb	-11.5988
▁dreamily	-11.5988
▁glumly	-11.5988
▁boast	-11.5989
▁Gold	-11.5989
▁Dawlish	-11.599
▁rim	-11.599
▁sleepily	-11.599
▁reluctantly	-11.5991
▁Sturgis	-11.5991
▁male	-11.5991
▁nest	-11.5991
▁convicted	-11.5992
▁Goblin	-11.5995
▁conf	-11.5995
▁apprehensively	-11.5996
▁healthy	-11.5997
▁Bella	-11.5997
▁china	-11.5998
▁accused	-11.5998
▁dabbing	-11.5998
▁flashes	-11.5998
▁mounting	-11.5998
▁labeled	-11.6
▁confirmed	-11.6003
▁shrinking	-11.6005
▁bless	-11.6005
▁grimy	-11.6006
▁lumpy	-11.6007
▁regained	-11.6007
▁cheery	-11.6007
▁gingerly	-11.6008
▁draining	-11.6009
▁correctly	-11.6012
▁awoken	-11.6014
▁Trying	-11.6014
▁streaking	-11.6016
Cheer	-11.6017
▁dining	-11.6021
▁mended	-11.6024
▁betray	-11.6024
▁disgusted	-11.6024
▁conclude	-11.6024
▁paced	-11.6026
These	-11.6027
▁Theory	-11.6027
▁feeding	-11.6028
ext	-11.6034
gue	-11.6038
▁included	-11.6038
TER	-11.6045
▁argued	-11.6046
▁dawned	-11.6048
▁scarf	-11.6049
▁planted	-11.6055
▁Does	-11.6055
▁warningly	-11.6058
▁spine	-11.6059
▁prevented	-11.6061
▁founders	-11.6062
▁Apparated	-11.6064
▁BO	-11.607
▁smoothed	-11.6083
By	-11.6096
bled	-11.6108
▁disarm	-11.6122
▁stupidly	-11.614
▁boa	-11.6154
▁piled	-11.6157
▁wa	-11.6161
▁colder	-11.6161
▁Fo	-11.6171
arry	-11.6178
▁riding	-11.6179
SH	-11.6193
Educational	-11.6193
▁cracking	-11.6194
LY	-11.6197
▁meat	-11.6233
▁du	-11.6278
▁bid	-11.628
▁Too	-11.6306
▁badger	-11.6334
Gone	-11.6347
zy	-11.6354
angle	-11.6362
▁guide	-11.645
otes	-11.6524
▁bun	-11.6526
▁earn	-11.6538
▁TR	-11.6553
▁instrument	-11.6555
▁Burke	-11.6556
▁twig	-11.6556
▁enchantment	-11.6557
▁blanket	-11.6563
ONS	-11.6575
cross	-11.6585
▁abandon	-11.6666
▁scratch	-11.6695
▁drown	-11.6698
▁glint	-11.6698
▁drain	-11.6698
▁flood	-11.6698
▁flutter	-11.6698
▁pound	-11.6702
▁improve	-11.6722
▁swarm	-11.6723
▁include	-11.6724
▁collapse	-11.6725
▁conjure	-11.6725
▁squeeze	-11.6725
▁prepare	-11.6725
▁disturb	-11.6726
▁retort	-11.6726
▁proceed	-11.6726
▁polish	-11.6727
atic	-11.6727
▁clang	-11.6727
rotting	-11.6729
Wizard	-11.6729
Before	-11.6729
Half	-11.6729
Bathilda	-11.6729
Most	-11.6729
Karkaroff	-11.673
Gryffindor	-11.673
Cedric	-11.673
after	-11.673
half	-11.673
fire	-11.673
Without	-11.6731
FOR	-11.6733
Four	-11.6734
▁elder	-11.674
▁swift	-11.674
▁filth	-11.6741
▁Snap	-11.6744
Six	-11.6747
▁torch	-11.6749
▁prodd	-11.675
▁admire	-11.6751
▁teenage	-11.6751
▁birth	-11.6751
▁slam	-11.6751
▁virtu	-11.6751
HERMIONE	-11.6751
▁Levi	-11.6751
▁Albania	-11.6751
▁Alecto	-11.6751
▁Crumple	-11.6751
▁Diggle	-11.6751
▁FROM	-11.6751
▁Gabrielle	-11.6751
▁Gellert	-11.6751
▁Gurg	-11.6751
▁Hangleton	-11.6751
▁Hippogriff	-11.6751
▁Memory	-11.6751
▁Mostafa	-11.6751
▁Petrified	-11.6751
▁Podmore	-11.6751
▁Pucey	-11.6751
▁Quill	-11.6751
▁Regulation	-11.6751
▁Resurrection	-11.6751
▁Runcorn	-11.6751
▁Smelting	-11.6751
▁Statute	-11.6751
▁Wheezes	-11.6751
▁Yule	-11.6751
▁access	-11.6751
▁alternative	-11.6751
▁anguished	-11.6751
▁anxiety	-11.6751
▁appointed	-11.6751
▁associat	-11.6751
▁audible	-11.6751
▁benefit	-11.6751
▁celebrating	-11.6751
▁century	-11.6751
▁choking	-11.6751
▁choosing	-11.6751
▁commotion	-11.6751
▁digging	-11.6751
▁diversion	-11.6751
▁drenched	-11.6751
▁dwarf	-11.6751
▁escaping	-11.6751
▁frustrated	-11.6751
▁governors	-11.6751
▁gracious	-11.6751
▁grumpy	-11.6751
▁hiccup	-11.6751
▁imprisoned	-11.6751
▁location	-11.6751
▁minuscule	-11.6751
▁pierced	-11.6751
▁plinth	-11.6751
▁pompous	-11.6751
▁program	-11.6751
▁prowled	-11.6751
▁purring	-11.6751
▁resentment	-11.6751
▁revive	-11.6751
▁rooster	-11.6751
▁slithered	-11.6751
▁splattered	-11.6751
▁summat	-11.6751
▁target	-11.6751
▁thestral	-11.6751
▁unmistakable	-11.6751
▁unnoticed	-11.6751
▁vibrating	-11.6751
▁volume	-11.6751
▁volunteer	-11.6751
▁Terry	-11.6751
▁blackmail	-11.6751
▁budge	-11.6751
▁bullet	-11.6751
▁craning	-11.6751
▁knelt	-11.6751
▁unlocked	-11.6751
▁furtive	-11.6751
▁jostl	-11.6751
▁pattern	-11.6751
▁tucking	-11.6751
▁zat	-11.6751
▁firing	-11.6751
▁aloft	-11.6751
▁liar	-11.6751
▁smack	-11.6751
▁reread	-11.6751
Horned	-11.6751
▁uproar	-11.6751
▁loyalty	-11.6751
▁Mason	-11.6751
▁humming	-11.6751
▁sodden	-11.6751
▁Avery	-11.6751
▁pulse	-11.6751
▁centre	-11.6752
▁briefcase	-11.6752
▁unwrapped	-11.6752
▁gracefully	-11.6752
▁prominent	-11.6752
▁nutter	-11.6752
▁brandished	-11.6752
▁swapped	-11.6752
▁wrought	-11.6752
▁education	-11.6752
▁rapt	-11.6752
▁speck	-11.6752
▁clump	-11.6752
▁stitch	-11.6752
▁Inquisitorial	-11.6752
▁Standing	-11.6752
▁fox	-11.6752
▁comfortably	-11.6752
LET	-11.6752
▁referee	-11.6752
▁wreckage	-11.6752
more	-11.6752
▁accusation	-11.6752
▁squid	-11.6753
▁countryside	-11.6753
▁sustain	-11.6753
▁eighteen	-11.6753
▁pond	-11.6753
▁performance	-11.6753
▁inspection	-11.6753
▁racket	-11.6753
▁sunny	-11.6754
▁Grade	-11.6754
▁chatting	-11.6754
▁slice	-11.6754
▁tottering	-11.6755
▁poring	-11.6755
▁Snare	-11.6755
▁skies	-11.6755
▁searing	-11.6756
▁timidly	-11.6756
▁statement	-11.6757
▁musical	-11.6757
▁tension	-11.6757
▁humor	-11.6758
▁remotely	-11.6758
▁somethin	-11.6758
▁dump	-11.6758
▁indifferently	-11.6759
▁maliciously	-11.6759
▁woolly	-11.6759
▁twittering	-11.676
Kind	-11.676
gal	-11.6761
Wand	-11.6761
▁fitted	-11.6761
▁rocket	-11.6761
▁menacingly	-11.6762
▁sniggering	-11.6762
▁floorboard	-11.6762
Clear	-11.6762
▁reside	-11.6763
▁retreating	-11.6764
▁glistening	-11.6767
▁Impediment	-11.6767
▁Sometimes	-11.6767
▁Last	-11.6767
UM	-11.6768
▁quivered	-11.6768
▁ominously	-11.6769
▁intending	-11.6772
Riddikulus	-11.6772
▁melted	-11.6772
▁confidently	-11.6774
▁fondly	-11.6774
Up	-11.6776
▁retorted	-11.6776
▁darkened	-11.6776
▁confided	-11.6776
gone	-11.6777
▁Dumble	-11.6777
▁improved	-11.6779
Bit	-11.6779
▁threateningly	-11.678
▁registered	-11.678
▁Big	-11.6781
▁obeyed	-11.6782
▁Help	-11.6782
▁awaiting	-11.6783
Speak	-11.6784
▁dwelling	-11.6785
▁hunting	-11.6787
▁extracted	-11.6788
▁puffed	-11.6788
Oi	-11.6789
▁reared	-11.6794
Knew	-11.6796
▁facedown	-11.6797
▁uttered	-11.6799
▁clawed	-11.6806
▁collected	-11.681
▁quicker	-11.6815
▁longingly	-11.6816
▁loop	-11.6817
▁treating	-11.6818
▁doze	-11.6819
▁safer	-11.6819
▁piped	-11.6822
▁Which	-11.6823
▁Blimey	-11.6829
▁massag	-11.6829
▁alley	-11.6831
mature	-11.6832
▁determinedly	-11.6834
▁tracked	-11.6834
▁rate	-11.6834
▁sporting	-11.6836
▁plea	-11.6844
▁conv	-11.6845
▁guessing	-11.6846
▁poisoned	-11.6855
▁suggesting	-11.6856
▁powerfully	-11.6859
▁endless	-11.6859
▁Must	-11.6861
▁needle	-11.6876
▁reporter	-11.6877
▁prod	-11.6889
Dead	-11.689
▁importantly	-11.6896
eeling	-11.6906
▁medi	-11.6915
Find	-11.6916
▁repel	-11.6924
▁doubled	-11.6926
CH	-11.6927
▁patched	-11.6928
▁freely	-11.6936
ALL	-11.6961
RON	-11.6986
▁log	-11.6986
idden	-11.6986
▁flatter	-11.6999
▁chop	-11.7044
ACK	-11.7099
armed	-11.7102
Run	-11.7142
Too	-11.716
▁una	-11.7167
ggling	-11.7287
dict	-11.7297
▁develop	-11.7306
▁Leav	-11.7324
▁prop	-11.7382
Wh	-11.739
▁spark	-11.7391
Night	-11.7418
▁refill	-11.7438
smelling	-11.7444
▁approve	-11.7452
opped	-11.7467
still	-11.7469
ister	-11.7501
Eat	-11.7514
▁trail	-11.7531
▁smirk	-11.7532
▁frown	-11.7532
▁swish	-11.7556
▁thump	-11.7557
▁grimace	-11.7557
Hu	-11.7557
▁confide	-11.7558
▁advise	-11.7558
▁huddle	-11.7558
▁explode	-11.7558
▁issue	-11.7559
▁confirm	-11.756
▁shatter	-11.756
▁erupt	-11.7562
Mudblood	-11.7563
Griphook	-11.7563
Mundungus	-11.7563
Peeves	-11.7563
giant	-11.7563
Lord	-11.7563
Death	-11.7563
telling	-11.7564
nosed	-11.7565
▁rasp	-11.7565
▁Try	-11.7568
▁shrewd	-11.7573
▁menacing	-11.7574
▁increasing	-11.7574
▁uncertain	-11.7574
▁apparent	-11.7574
▁gleeful	-11.7575
However	-11.7576
gold	-11.7579
▁addition	-11.7583
▁mill	-11.7584
▁swoo	-11.7584
▁dramatic	-11.7584
urried	-11.7584
▁court	-11.7584
▁sauce	-11.7585
Definitely	-11.7585
▁straggl	-11.7585
▁̈¦	-11.7585
WEASLEY	-11.7585
\	-11.7585
▁Alastor	-11.7585
▁Bulstrode	-11.7585
▁Draught	-11.7585
▁Edgecombe	-11.7585
▁February	-11.7585
▁KNOW	-11.7585
▁Life	-11.7585
▁Oracle	-11.7585
▁Salazar	-11.7585
▁Section	-11.7585
▁Sybill	-11.7585
▁Tofty	-11.7585
▁Totalu	-11.7585
▁Twice	-11.7585
▁Twycross	-11.7585
▁Vane	-11.7585
▁Weekly	-11.7585
▁abroad	-11.7585
▁accurate	-11.7585
▁amusement	-11.7585
▁angrier	-11.7585
▁applied	-11.7585
▁assembled	-11.7585
▁babble	-11.7585
▁blimey	-11.7585
▁brood	-11.7585
▁clinking	-11.7585
▁column	-11.7585
▁dustbin	-11.7585
▁elaborate	-11.7585
▁embroider	-11.7585
▁emitting	-11.7585
▁exercise	-11.7585
▁fumes	-11.7585
▁generous	-11.7585
▁gloating	-11.7585
▁gossip	-11.7585
▁groping	-11.7585
▁hiccough	-11.7585
▁hunched	-11.7585
▁immersed	-11.7585
▁incredibly	-11.7585
▁jagged	-11.7585
▁jeered	-11.7585
▁junk	-11.7585
▁miracle	-11.7585
▁mystery	-11.7585
▁napkin	-11.7585
▁occupied	-11.7585
▁pallid	-11.7585
▁pelting	-11.7585
▁penalty	-11.7585
▁pursuing	-11.7585
▁quality	-11.7585
▁revision	-11.7585
▁scattering	-11.7585
▁scrambling	-11.7585
▁sensible	-11.7585
▁shamrock	-11.7585
▁shrank	-11.7585
▁shunt	-11.7585
▁simper	-11.7585
▁slaughter	-11.7585
▁solemnly	-11.7585
▁steered	-11.7585
▁sunshine	-11.7585
▁sympathy	-11.7585
▁tethered	-11.7585
▁variety	-11.7585
▁vertical	-11.7585
▁victory	-11.7585
▁wolf	-11.7585
▁wrapper	-11.7585
▁writhe	-11.7585
Enough	-11.7585
▁WAS	-11.7585
▁copied	-11.7585
▁deciding	-11.7585
▁despise	-11.7585
▁gush	-11.7585
▁lousy	-11.7585
▁option	-11.7585
▁loomed	-11.7585
▁minor	-11.7585
▁relentless	-11.7585
▁gonna	-11.7585
▁barrel	-11.7585
▁leering	-11.7585
▁vase	-11.7585
▁bidding	-11.7585
▁relationship	-11.7585
▁Beans	-11.7585
▁maniac	-11.7585
▁thunderstruck	-11.7585
▁planets	-11.7585
ricket	-11.7585
▁cramped	-11.7585
▁wrinkled	-11.7585
▁nurse	-11.7585
▁Harper	-11.7585
lbert	-11.7585
▁beady	-11.7585
▁hopped	-11.7585
▁gentlemen	-11.7585
▁assistance	-11.7585
ampered	-11.7585
▁annoyance	-11.7585
▁considerably	-11.7585
▁bridge	-11.7586
▁buckled	-11.7586
▁example	-11.7586
uzz	-11.7586
▁strap	-11.7586
Glad	-11.7586
▁Somehow	-11.7586
▁guardian	-11.7586
▁balloon	-11.7586
▁clap	-11.7586
▁noticeboard	-11.7587
▁pureblood	-11.7587
▁sagging	-11.7587
▁appreciatively	-11.7587
▁furry	-11.7587
▁straightaway	-11.7587
uddy	-11.7587
▁stout	-11.7587
▁unwise	-11.7588
▁convincing	-11.7588
▁bury	-11.7588
▁nastily	-11.7588
▁achievement	-11.7588
kiving	-11.7588
▁Dung	-11.7589
▁pump	-11.7589
▁agreement	-11.7589
▁fearful	-11.759
▁bravery	-11.759
▁scathingly	-11.759
▁sulky	-11.7591
▁stricken	-11.7594
▁cluttered	-11.7595
▁unrolled	-11.7595
▁enable	-11.7595
▁Students	-11.7596
▁washing	-11.7596
▁skulking	-11.7596
▁sang	-11.7597
▁confiscated	-11.7598
▁host	-11.7598
▁Somebody	-11.7598
▁parties	-11.7598
▁nighttime	-11.7598
▁New	-11.76
▁embarrassing	-11.76
▁worthless	-11.76
▁flipped	-11.7602
▁nothin	-11.7604
▁flowery	-11.7604
▁topped	-11.7605
▁brandy	-11.7605
▁whimpered	-11.7605
▁Silence	-11.7606
▁rooted	-11.7606
▁madness	-11.7606
▁reacted	-11.7608
▁trailed	-11.761
US	-11.7611
▁squeaky	-11.7612
▁glinted	-11.7612
▁regularly	-11.7612
▁stained	-11.7612
▁Patronuses	-11.7614
▁knocker	-11.7615
▁drowning	-11.7617
▁washed	-11.762
▁Wonder	-11.7621
▁suppressed	-11.7623
▁rescued	-11.7624
▁severed	-11.7624
▁3	-11.7627
▁yelped	-11.7627
▁grunting	-11.7629
▁summoned	-11.7629
▁leaking	-11.7631
▁cloudy	-11.7631
▁5	-11.7633
▁selling	-11.7637
lining	-11.7637
▁disguised	-11.7638
trip	-11.7638
▁stacked	-11.764
making	-11.7641
▁fixing	-11.7642
▁def	-11.7644
bandoning	-11.7649
▁Char	-11.7653
▁experiment	-11.7656
▁squeaking	-11.766
▁spying	-11.7662
▁accusing	-11.7664
▁comforting	-11.7667
▁belly	-11.7668
▁thrusting	-11.7673
Talk	-11.7673
▁alarming	-11.7674
▁performing	-11.7675
▁dreamy	-11.7677
▁assist	-11.7686
oooo	-11.7687
▁fray	-11.7714
▁goat	-11.772
▁cope	-11.7729
Been	-11.7752
▁um	-11.7755
▁Star	-11.776
▁guarded	-11.7776
—`	-11.7777
▁tearful	-11.7862
▁attacker	-11.796
Bad	-11.7974
▁killer	-11.8023
gent	-11.8036
▁vote	-11.8095
▁stub	-11.8104
▁Bit	-11.8127
▁Gran	-11.8131
any	-11.8252
▁mile	-11.83
hone	-11.8316
Fi	-11.8336
tempered	-11.8361
▁fruit	-11.8372
raying	-11.8374
▁WH	-11.8382
Careful	-11.8406
▁wha	-11.8425
standing	-11.8432
body	-11.8435
▁scowl	-11.844
▁spill	-11.844
▁drift	-11.8441
▁gleam	-11.8441
▁twist	-11.8441
heard	-11.8464
▁shrink	-11.8465
▁Vanish	-11.8465
▁chew	-11.8466
▁provide	-11.8466
▁buzz	-11.8466
▁arrange	-11.8467
▁recognise	-11.8467
▁tremble	-11.8467
▁emerge	-11.8467
▁react	-11.8467
▁reflect	-11.8468
▁slash	-11.8469
▁obscur	-11.8469
▁scoop	-11.8469
Level	-11.8471
washed	-11.8471
Apparently	-11.8472
While	-11.8472
drawn	-11.8472
House	-11.8472
Scrimgeour	-11.8472
Petunia	-11.8472
Riddle	-11.8472
Quidditch	-11.8472
George	-11.8472
Ministry	-11.8472
Everything	-11.8472
six	-11.8472
OUT	-11.8473
▁stain	-11.8473
Nick	-11.8477
tail	-11.848
▁reluctant	-11.8483
▁coward	-11.8486
▁headmistress	-11.8491
▁refer	-11.8492
upport	-11.8493
▁sympathetic	-11.8493
eneath	-11.8493
▁incident	-11.8493
▁swap	-11.8493
▁drip	-11.8493
▁Slug	-11.8493
▁circu	-11.8494
COME	-11.8494
cogni	-11.8494
▁swim	-11.8494
▁mirth	-11.8494
▁tact	-11.8494
Absolutely	-11.8494
Cool	-11.8494
Explain	-11.8494
GRYFFINDOR	-11.8494
Protego	-11.8494
appropriate	-11.8494
▁Peakes	-11.8494
▁affronted	-11.8494
▁behaviour	-11.8494
▁contradict	-11.8494
▁ferocious	-11.8494
▁firewhisky	-11.8494
▁genuine	-11.8494
▁ignited	-11.8494
▁instinct	-11.8494
▁kidnap	-11.8494
▁league	-11.8494
▁obsession	-11.8494
▁obstacle	-11.8494
▁phrase	-11.8494
▁shaky	-11.8494
▁valley	-11.8494
SIRIUS	-11.8494
▁Cannons	-11.8494
▁Celestina	-11.8494
▁Club	-11.8494
▁Elixir	-11.8494
▁Flavor	-11.8494
▁Kwikspell	-11.8494
▁Marcus	-11.8494
▁Olympe	-11.8494
▁Perkins	-11.8494
▁Sensor	-11.8494
▁Snuffles	-11.8494
▁Solution	-11.8494
▁Suddenly	-11.8494
▁activity	-11.8494
▁admiration	-11.8494
▁admiring	-11.8494
▁assortment	-11.8494
▁blister	-11.8494
▁blossom	-11.8494
▁blunt	-11.8494
▁bracket	-11.8494
▁bristl	-11.8494
▁bullfrog	-11.8494
▁burden	-11.8494
▁comprised	-11.8494
▁cunning	-11.8494
▁derisive	-11.8494
▁dipped	-11.8494
▁disapproval	-11.8494
▁disbelieving	-11.8494
▁disrupt	-11.8494
▁draft	-11.8494
▁emblazoned	-11.8494
▁embrace	-11.8494
▁essence	-11.8494
▁forefinger	-11.8494
▁fortunate	-11.8494
▁furniture	-11.8494
▁genius	-11.8494
▁guarantee	-11.8494
▁identity	-11.8494
▁interjected	-11.8494
▁inviting	-11.8494
▁jumble	-11.8494
▁knobbly	-11.8494
▁mistletoe	-11.8494
▁neglect	-11.8494
▁observing	-11.8494
▁paralyz	-11.8494
▁pinstriped	-11.8494
▁rebellio	-11.8494
▁recruit	-11.8494
▁resolve	-11.8494
▁retired	-11.8494
▁satisfy	-11.8494
▁skeletal	-11.8494
▁snooz	-11.8494
▁subsided	-11.8494
▁supply	-11.8494
▁tarnish	-11.8494
▁throng	-11.8494
▁thwart	-11.8494
▁tinkling	-11.8494
▁turkey	-11.8494
▁unblinkingly	-11.8494
▁unconcerned	-11.8494
▁vulture	-11.8494
▁wheezing	-11.8494
▁wrapping	-11.8494
▁farewell	-11.8494
▁flailing	-11.8494
▁overcoat	-11.8494
▁renewed	-11.8494
▁reserve	-11.8494
▁resolutely	-11.8494
▁reverberat	-11.8494
ATION	-11.8494
Glass	-11.8494
clad	-11.8494
▁Prongs	-11.8494
▁crocodile	-11.8494
▁riot	-11.8494
▁strand	-11.8494
▁Evans	-11.8494
▁Jones	-11.8494
▁awestruck	-11.8494
▁snuff	-11.8494
▁vain	-11.8494
▁absentmindedly	-11.8494
▁battling	-11.8494
▁consol	-11.8494
▁tread	-11.8494
▁whack	-11.8494
▁Sisters	-11.8494
Fifty	-11.8494
▁plug	-11.8494
▁Boot	-11.8494
RUN	-11.8494
▁wincing	-11.8494
▁snogg	-11.8494
▁rosette	-11.8494
▁lectur	-11.8494
▁relish	-11.8494
▁Walk	-11.8494
▁dodging	-11.8494
▁mutinous	-11.8494
Cissy	-11.8494
▁apologetically	-11.8494
▁consent	-11.8494
▁pillowcase	-11.8494
▁hurl	-11.8494
▁-=-	-11.8494
▁Except	-11.8494
▁screen	-11.8494
▁ranks	-11.8494
▁priority	-11.8494
▁stomp	-11.8494
▁whipping	-11.8494
▁cheat	-11.8495
▁THIS	-11.8495
▁flitted	-11.8495
▁clung	-11.8495
▁Things	-11.8495
under	-11.8495
▁timetable	-11.8495
▁Underage	-11.8495
▁million	-11.8495
▁stung	-11.8496
▁Mother	-11.8496
▁bellowing	-11.8496
▁tripping	-11.8496
Serious	-11.8496
▁spear	-11.8496
▁flagon	-11.8496
▁blurted	-11.8496
▁staffroom	-11.8496
▁additional	-11.8497
▁headmistresses	-11.8497
▁conductor	-11.8497
▁transformation	-11.8497
▁zero	-11.8498
Calm	-11.8498
▁jam	-11.8498
▁bill	-11.8498
▁meself	-11.8499
▁twinge	-11.8499
Forget	-11.8499
▁flaw	-11.8499
▁Dangerous	-11.8499
▁truthfully	-11.8499
▁encouragingly	-11.85
RDER	-11.85
▁Snow	-11.85
▁drawling	-11.85
▁toadlike	-11.85
Coming	-11.8501
▁apron	-11.8501
▁tide	-11.8501
▁objection	-11.8501
duct	-11.8501
▁melt	-11.8501
▁eyeball	-11.8501
▁lifetime	-11.8503
▁patiently	-11.8503
▁MY	-11.8503
▁stifled	-11.8503
▁exposed	-11.8503
▁solution	-11.8504
▁Third	-11.8504
▁Close	-11.8504
▁blotch	-11.8504
▁healed	-11.8504
▁flinched	-11.8505
▁grayish	-11.8505
▁observed	-11.8506
▁qualified	-11.8506
▁elderly	-11.8507
Move	-11.8508
▁Puff	-11.8509
▁witnesses	-11.851
▁strangest	-11.851
▁awed	-11.851
▁latest	-11.8515
▁swirled	-11.8517
▁triumphantly	-11.8517
▁harshly	-11.8518
▁manager	-11.8518
▁Inter	-11.8519
▁slashed	-11.8519
▁smashing	-11.852
▁trainers	-11.8521
▁Told	-11.8522
▁developed	-11.8522
afe	-11.8523
▁creat	-11.8525
▁goodbye	-11.8528
▁stove	-11.8528
▁squealing	-11.8532
▁affected	-11.8533
▁airily	-11.8535
▁9	-11.8536
▁stroked	-11.8537
▁tensely	-11.8537
▁Accio	-11.8538
▁sprouted	-11.854
▁sherry	-11.8541
▁created	-11.8544
▁reappearing	-11.8545
▁driver	-11.8546
▁puffing	-11.8546
tual	-11.8549
▁moaning	-11.8554
▁splashing	-11.8557
▁matches	-11.8559
▁introduced	-11.8559
▁tasted	-11.856
▁coughed	-11.8562
▁tricky	-11.8563
▁hovered	-11.8565
▁delightedly	-11.8566
▁gin	-11.8569
▁failing	-11.8571
▁coughing	-11.8574
▁gifted	-11.8574
▁sucking	-11.8576
▁dresser	-11.8579
▁backside	-11.8585
▁resisting	-11.8587
▁flicking	-11.8588
▁messed	-11.8589
▁sickly	-11.859
▁imm	-11.8596
▁rocky	-11.8599
▁arch	-11.86
▁scare	-11.8631
ONE	-11.8636
rode	-11.8645
rice	-11.8648
skinned	-11.8665
secretary	-11.8665
▁hearth	-11.8669
▁laz	-11.8748
▁repress	-11.8762
▁radish	-11.8803
ERS	-11.882
▁litter	-11.8831
▁WHO	-11.8866
▁perus	-11.8879
▁sunli	-11.8891
bout	-11.892
eez	-11.8924
grown	-11.8946
▁soften	-11.9056
pressed	-11.9094
▁rob	-11.9121
▁buck	-11.9132
▁label	-11.9161
▁fleck	-11.9173
DON	-11.919
▁root	-11.9276
ELL	-11.9297
▁scrap	-11.9297
▁pupil	-11.9299
▁glove	-11.9299
▁visitor	-11.9338
ecked	-11.935
most	-11.9437
▁whimper	-11.944
▁swirl	-11.944
▁smash	-11.944
▁linger	-11.9441
▁clutch	-11.9442
▁chip	-11.9451
▁wink	-11.9454
▁wobble	-11.9458
agging	-11.9461
yeh	-11.9465
▁bruise	-11.9466
▁celebrate	-11.9466
▁strangle	-11.9467
▁file	-11.9467
▁resume	-11.9467
▁involve	-11.9467
▁cackle	-11.9467
▁dodge	-11.9468
▁resign	-11.9468
▁chatter	-11.9468
▁connect	-11.9468
▁rejoin	-11.9469
▁Restrict	-11.9469
▁mix	-11.9469
▁splutter	-11.9469
▁beckon	-11.9469
▁extend	-11.947
▁flank	-11.947
known	-11.947
house	-11.947
Silence	-11.9471
Mind	-11.9471
Merlin	-11.9472
Ollivander	-11.9472
Hedwig	-11.9472
Wormtail	-11.9472
Rita	-11.9472
haven	-11.9475
etti	-11.9476
▁arc	-11.9481
▁absolute	-11.9483
▁extreme	-11.9483
▁commit	-11.9491
ompletely	-11.9493
▁Mons	-11.9493
▁contempt	-11.9494
▁diamond	-11.9494
▁eff	-11.9494
................	-11.9494
IGHT	-11.9494
Reparo	-11.9494
Evidently	-11.9494
Exploding	-11.9494
MINISTRY	-11.9494
Penelope	-11.9494
Perfect	-11.9494
Petrificus	-11.9494
rearranged	-11.9494
▁Chudley	-11.9494
▁Cottage	-11.9494
▁DUMBLEDORE	-11.9494
▁Disposal	-11.9494
▁Fenrir	-11.9494
▁Future	-11.9494
▁Guide	-11.9494
▁Hospital	-11.9494
▁Injuries	-11.9494
▁KILL	-11.9494
▁Moony	-11.9494
▁Parselmouth	-11.9494
▁Poltergeist	-11.9494
▁Remembrall	-11.9494
▁Rubeus	-11.9494
▁STINKS	-11.9494
▁Underground	-11.9494
▁Unforgivable	-11.9494
▁Whether	-11.9494
▁affair	-11.9494
▁astounded	-11.9494
▁banisters	-11.9494
▁brilliance	-11.9494
▁character	-11.9494
▁clumsily	-11.9494
▁cobweb	-11.9494
▁computer	-11.9494
▁congratulate	-11.9494
▁crude	-11.9494
▁crumble	-11.9494
▁crumbling	-11.9494
▁culprit	-11.9494
▁dignified	-11.9494
▁discomfort	-11.9494
▁disembodied	-11.9494
▁dismissed	-11.9494
▁elephant	-11.9494
▁encouragement	-11.9494
▁engraved	-11.9494
▁expulsion	-11.9494
▁fabulous	-11.9494
▁fancied	-11.9494
▁fortnight	-11.9494
▁fragile	-11.9494
▁frankly	-11.9494
▁fudge	-11.9494
▁furrowed	-11.9494
▁gillyweed	-11.9494
▁glazed	-11.9494
▁guffaw	-11.9494
▁haughty	-11.9494
▁helmet	-11.9494
▁impatience	-11.9494
▁individual	-11.9494
▁inspiration	-11.9494
▁intrigued	-11.9494
▁keeled	-11.9494
▁luminous	-11.9494
▁moleskin	-11.9494
▁moonstone	-11.9494
▁outbreak	-11.9494
▁pamphlet	-11.9494
▁pineapple	-11.9494
▁poltergeist	-11.9494
▁probation	-11.9494
▁prowling	-11.9494
▁purchase	-11.9494
▁radio	-11.9494
▁refuge	-11.9494
▁reproving	-11.9494
▁reputation	-11.9494
▁revolted	-11.9494
▁ribbon	-11.9494
▁skidding	-11.9494
▁slouched	-11.9494
▁snoring	-11.9494
▁splendid	-11.9494
▁staggering	-11.9494
▁substitute	-11.9494
▁sufficient	-11.9494
▁swipe	-11.9494
▁temporary	-11.9494
▁torturing	-11.9494
▁trooped	-11.9494
▁turquoise	-11.9494
▁uneven	-11.9494
▁unfocused	-11.9494
▁unkempt	-11.9494
▁vacation	-11.9494
▁vibrate	-11.9494
▁violence	-11.9494
▁wheezed	-11.9494
▁whisker	-11.9494
▁worries	-11.9494
▁zigzagg	-11.9494
ITCH	-11.9494
X	-11.9494
▁White	-11.9494
▁cluster	-11.9494
▁dizzy	-11.9494
▁eventually	-11.9494
▁exploding	-11.9494
▁generations	-11.9494
▁identify	-11.9494
▁inhabitants	-11.9494
▁kip	-11.9494
▁products	-11.9494
▁regurgitat	-11.9494
▁route	-11.9494
▁sleet	-11.9494
▁submit	-11.9494
▁waistcoat	-11.9494
vacu	-11.9494
▁Bole	-11.9494
▁Dream	-11.9494
▁Susan	-11.9494
▁WITH	-11.9494
▁aggressively	-11.9494
▁glued	-11.9494
▁ornament	-11.9494
▁squelch	-11.9494
▁tumult	-11.9494
▁mousy	-11.9494
▁noisily	-11.9494
▁skimm	-11.9494
▁verge	-11.9494
▁spindly	-11.9494
▁brew	-11.9494
▁coiling	-11.9494
▁slippers	-11.9494
▁unwilling	-11.9494
▁introduction	-11.9494
▁smuggle	-11.9494
▁tennis	-11.9494
▁untied	-11.9494
Mount	-11.9494
▁Old	-11.9494
▁cobble	-11.9494
miling	-11.9494
▁lord	-11.9494
▁remainder	-11.9494
▁doorbell	-11.9494
▁slapped	-11.9494
▁punctuated	-11.9494
▁spurt	-11.9494
▁thinner	-11.9494
▁tinkle	-11.9494
estimate	-11.9494
▁wizened	-11.9494
▁reference	-11.9494
▁idly	-11.9494
▁remarkably	-11.9494
▁shrunken	-11.9494
▁plunging	-11.9494
▁Halfway	-11.9495
▁Snackboxes	-11.9495
▁beef	-11.9495
▁anticipation	-11.9495
▁shortcut	-11.9495
▁basement	-11.9495
▁foam	-11.9495
▁Shop	-11.9495
▁heatedly	-11.9495
▁dingy	-11.9495
▁rubies	-11.9496
▁cursing	-11.9496
Easy	-11.9496
▁travelled	-11.9496
▁interruption	-11.9496
▁Green	-11.9496
▁lemon	-11.9496
▁lean	-11.9496
▁Inferius	-11.9496
Such	-11.9497
▁panel	-11.9497
▁chap	-11.9497
▁WOR	-11.9497
▁executioner	-11.9497
▁Nymphadora	-11.9497
▁freeze	-11.9498
EAR	-11.9498
▁scratches	-11.9498
▁plus	-11.9498
▁pants	-11.9498
▁Down	-11.9498
▁OFF	-11.9499
▁childish	-11.9499
▁Cormac	-11.95
▁sale	-11.95
Barely	-11.95
▁cock	-11.95
▁villagers	-11.95
▁soothingly	-11.95
▁tug	-11.95
▁deposited	-11.95
Small	-11.9501
▁spit	-11.9502
▁peril	-11.9503
▁haul	-11.9503
▁spray	-11.9504
▁reassuringly	-11.9504
▁marvel	-11.9504
▁Anti	-11.9505
▁cowardly	-11.9506
▁Prefect	-11.9507
▁twirling	-11.9508
▁snarling	-11.9508
▁pang	-11.9508
▁imitated	-11.9508
▁splintered	-11.9508
sebleed	-11.9509
▁alarmingly	-11.951
▁absently	-11.951
Potty	-11.951
▁mini	-11.951
▁caf	-11.951
▁lain	-11.9511
▁carelessly	-11.9513
▁safest	-11.9513
▁Somewhere	-11.9513
▁abuse	-11.9514
▁belch	-11.9514
gray	-11.9516
▁shriveled	-11.9516
▁Pig	-11.9517
▁Mind	-11.9517
▁scarred	-11.9517
▁divided	-11.9518
▁Restricted	-11.9519
▁extended	-11.9519
▁rejoined	-11.9519
▁flanked	-11.9519
▁Level	-11.9519
▁flexing	-11.952
▁bruised	-11.9521
▁celebrated	-11.9521
osa	-11.9521
▁equally	-11.9522
tcher	-11.9522
Tea	-11.9522
▁startling	-11.9522
▁lingering	-11.9523
▁spraying	-11.9524
▁provided	-11.9524
▁careless	-11.9526
▁gratefully	-11.9526
ttled	-11.9526
▁create	-11.9527
▁clanged	-11.9527
▁grimaced	-11.9527
▁rasping	-11.9529
▁haunted	-11.953
▁passes	-11.9531
▁items	-11.9533
▁Anything	-11.9537
▁Hold	-11.9541
▁fainter	-11.9542
▁recovered	-11.9544
▁slower	-11.9546
▁prey	-11.9546
▁examiner	-11.9547
▁topic	-11.9554
▁warmer	-11.9561
▁workers	-11.9564
ttered	-11.9579
▁reminder	-11.9599
Sort	-11.9627
▁poker	-11.9634
▁resort	-11.9647
olly	-11.9672
▁Car	-11.9674
▁haste	-11.9695
Year	-11.9695
acious	-11.9699
Shame	-11.9744
KE	-11.9758
Joke	-11.9806
▁strengthen	-11.9818
math	-11.9832
ulent	-11.9833
open	-11.984
▁hack	-11.9853
dged	-11.9938
▁dispose	-11.9959
pologize	-11.997
Lovely	-12.0011
eval	-12.0051
▁alm	-12.0068
eemed	-12.0141
cold	-12.0162
DER	-12.0185
▁fatal	-12.0197
ridge	-12.0238
rian	-12.0249
▁Je	-12.029
▁enthusiastic	-12.0344
▁loo	-12.037
breeds	-12.0405
▁relative	-12.0408
▁guest	-12.0409
▁feature	-12.041
▁eyebrow	-12.0413
▁firework	-12.0426
Lost	-12.0428
▁accus	-12.0472
prints	-12.0474
imply	-12.0483
ION	-12.0527
THE	-12.0538
serving	-12.0542
▁quiver	-12.0552
▁yawn	-12.0552
▁dart	-12.0552
▁intend	-12.0558
▁flex	-12.0576
▁sweep	-12.0577
▁divide	-12.0577
▁impress	-12.0578
aunt	-12.0579
▁shrivel	-12.058
▁rattle	-12.058
▁clench	-12.0581
Impediment	-12.0582
Sometimes	-12.0582
Last	-12.0583
WHAT	-12.0583
▁attach	-12.0583
Minerva	-12.0583
Yaxley	-12.0583
Phineas	-12.0583
Dementors	-12.0583
yeah	-12.0583
Crabbe	-12.0583
people	-12.0583
Father	-12.0585
magical	-12.0585
fourth	-12.0587
Dark	-12.0589
▁Bulgaria	-12.0589
▁reassuring	-12.0594
▁indifferent	-12.0594
▁malicious	-12.0594
▁brisk	-12.0594
▁patient	-12.0594
▁current	-12.0594
▁wool	-12.0595
bright	-12.0598
Told	-12.0601
zzle	-12.0602
▁takin	-12.0602
▁plot	-12.0604
▁orphan	-12.0604
▁favour	-12.0605
▁aggressi	-12.0605
▁elect	-12.0605
Correct	-12.0605
Possibly	-12.0605
corpus	-12.0605
desirable	-12.0605
▁Expectations	-12.0605
▁PATRONU	-12.0605
▁channel	-12.0605
▁convenient	-12.0605
▁displeasure	-12.0605
▁qualities	-12.0605
▁regime	-12.0605
▁retaliat	-12.0605
▁unnecessary	-12.0605
▁unravel	-12.0605
Aguamenti	-12.0605
EXPECT	-12.0605
KEEP	-12.0605
satisfactory	-12.0605
▁*14	-12.0605
▁ABOUT	-12.0605
▁Basilisk	-12.0605
▁Belby	-12.0605
▁Body	-12.0605
▁Coote	-12.0605
▁Disillusionment	-12.0605
▁Filibuster	-12.0605
▁Fortescue	-12.0605
▁Gobstones	-12.0605
▁Ignotus	-12.0605
▁Improper	-12.0605
▁Maintenance	-12.0605
▁Maladies	-12.0605
▁Mullet	-12.0605
▁Patrick	-12.0605
▁Romania	-12.0605
▁Sinistra	-12.0605
▁Sorcery	-12.0605
▁airplane	-12.0605
▁altogether	-12.0605
▁ancestor	-12.0605
▁applauded	-12.0605
▁apply	-12.0605
▁avidly	-12.0605
▁bargain	-12.0605
▁beauty	-12.0605
▁blushed	-12.0605
▁blustered	-12.0605
▁boundaries	-12.0605
▁bramble	-12.0605
▁campaign	-12.0605
▁chalk	-12.0605
▁champagne	-12.0605
▁chortled	-12.0605
▁clammy	-12.0605
▁combination	-12.0605
▁communicating	-12.0605
▁comprehension	-12.0605
▁countercurse	-12.0605
▁crazy	-12.0605
▁debris	-12.0605
▁decipher	-12.0605
▁deduced	-12.0605
▁dignity	-12.0605
▁disconcerted	-12.0605
▁disdainful	-12.0605
▁drills	-12.0605
▁drool	-12.0605
▁entitled	-12.0605
▁establish	-12.0605
▁exclaim	-12.0605
▁fascinated	-12.0605
▁freckles	-12.0605
▁glossy	-12.0605
▁grapefruit	-12.0605
▁gruesome	-12.0605
▁hammered	-12.0605
▁impenetrable	-12.0605
▁imploringly	-12.0605
▁impulse	-12.0605
▁index	-12.0605
▁indistinct	-12.0605
▁intervals	-12.0605
▁knitting	-12.0605
▁lenses	-12.0605
▁lilac	-12.0605
▁ludicrous	-12.0605
▁margin	-12.0605
▁megaphone	-12.0605
▁mismatched	-12.0605
▁mundane	-12.0605
▁navel	-12.0605
▁navy	-12.0605
▁nickname	-12.0605
▁obediently	-12.0605
▁oblivious	-12.0605
▁opportunities	-12.0605
▁postpone	-12.0605
▁predicted	-12.0605
▁preparation	-12.0605
▁profile	-12.0605
▁provoke	-12.0605
▁pulsing	-12.0605
▁pursuit	-12.0605
▁quaver	-12.0605
▁receiving	-12.0605
▁ricochet	-12.0605
▁scheme	-12.0605
▁scrabbl	-12.0605
▁scruff	-12.0605
▁skeleton	-12.0605
▁smoky	-12.0605
▁soccer	-12.0605
▁spiked	-12.0605
▁squawk	-12.0605
▁studied	-12.0605
▁stumbling	-12.0605
▁surreptitiously	-12.0605
▁tantrum	-12.0605
▁terrifying	-12.0605
▁traffic	-12.0605
▁tremulous	-12.0605
▁trudged	-12.0605
▁twilight	-12.0605
▁unfurl	-12.0605
▁unique	-12.0605
▁unnerved	-12.0605
▁vacant	-12.0605
▁vicinity	-12.0605
▁weighed	-12.0605
▁weighing	-12.0605
▁withdrawing	-12.0605
▁wrestle	-12.0605
▁wriggled	-12.0605
▁wriggling	-12.0605
Exceeds	-12.0605
▁breach	-12.0605
▁eldest	-12.0605
▁linked	-12.0605
▁nicked	-12.0605
▁sidled	-12.0605
▁solitary	-12.0605
▁stinking	-12.0605
▁taut	-12.0605
OUGH	-12.0605
▁background	-12.0605
▁bulb	-12.0605
▁fiddl	-12.0605
▁guts	-12.0605
▁mangled	-12.0605
▁properties	-12.0605
▁ushered	-12.0605
Reckon	-12.0605
▁Troy	-12.0605
▁naked	-12.0605
▁tactics	-12.0605
▁welcoming	-12.0605
▁wringing	-12.0605
▁Lived	-12.0605
▁downfall	-12.0605
▁interfere	-12.0605
▁offense	-12.0605
▁siphon	-12.0605
▁tersely	-12.0605
Mimbu	-12.0605
▁Cream	-12.0605
Trust	-12.0605
▁Panting	-12.0605
▁crest	-12.0605
▁retching	-12.0605
▁DID	-12.0605
▁backfired	-12.0605
▁peg	-12.0605
▁Court	-12.0605
Either	-12.0605
▁descent	-12.0605
Straight	-12.0605
▁Disapparating	-12.0605
▁Unfogging	-12.0605
▁Tears	-12.0605
▁folds	-12.0605
▁lolling	-12.0605
▁render	-12.0605
▁nettle	-12.0605
▁bewitching	-12.0605
▁emanat	-12.0605
vestig	-12.0605
▁sunset	-12.0605
▁tryouts	-12.0605
▁soaked	-12.0605
▁='	-12.0605
▁chipped	-12.0605
▁nagging	-12.0605
▁ownership	-12.0606
▁sheaf	-12.0606
▁pork	-12.0606
▁sympathetically	-12.0606
▁stony	-12.0606
▁intervene	-12.0606
▁cannon	-12.0606
▁corpse	-12.0606
▁rotten	-12.0606
▁salt	-12.0606
▁referring	-12.0606
kidney	-12.0606
▁suitcase	-12.0606
▁exhaustion	-12.0606
▁sparkled	-12.0606
▁ladies	-12.0606
▁resignation	-12.0606
▁stripped	-12.0606
▁stowing	-12.0606
▁leered	-12.0607
▁Other	-12.0607
▁flock	-12.0607
▁resistance	-12.0607
scope	-12.0607
Ooooo	-12.0607
▁concealment	-12.0607
▁BACK	-12.0607
▁shard	-12.0608
▁Diddy	-12.0608
▁treatment	-12.0608
▁confession	-12.0608
▁haircut	-12.0608
▁shack	-12.0608
▁granted	-12.0609
▁coach	-12.0609
▁thus	-12.0609
▁Muffliato	-12.0609
▁Comm	-12.0609
Elf	-12.0609
▁Barry	-12.061
AKE	-12.061
▁slime	-12.061
elius	-12.061
▁murderous	-12.061
tip	-12.0611
Loads	-12.0612
▁Line	-12.0612
▁malevolently	-12.0612
▁testily	-12.0612
▁absorbed	-12.0612
▁engulfed	-12.0612
▁stup	-12.0613
▁Loony	-12.0614
▁fame	-12.0615
serted	-12.0615
▁lurked	-12.0615
▁Might	-12.0616
Ladi	-12.0616
Troll	-12.0617
▁wordlessly	-12.0618
▁detached	-12.0618
▁faltered	-12.0618
▁scrawled	-12.0618
▁receiver	-12.0619
▁Personally	-12.062
▁shrewdly	-12.062
▁restlessly	-12.0621
▁span	-12.0622
▁vent	-12.0623
▁secondhand	-12.0623
▁recovery	-12.0626
▁reasonable	-12.0626
▁Daddy	-12.0626
▁fearfully	-12.0628
▁THIN	-12.063
Stun	-12.0631
▁viciously	-12.0632
▁captain	-12.0633
▁tossed	-12.0634
▁fighters	-12.0634
▁wisely	-12.0635
Full	-12.0638
▁surly	-12.0639
▁watchful	-12.0641
▁moor	-12.0663
▁lank	-12.067
▁scru	-12.0672
▁chink	-12.0683
Gues	-12.069
▁Seer	-12.0692
▁undo	-12.0708
▁pine	-12.0712
▁deck	-12.0735
approved	-12.0787
Pass	-12.0815
sensitive	-12.0885
▁trie	-12.0893
utter	-12.0954
War	-12.1009
Fair	-12.1135
market	-12.1152
tray	-12.1307
Mine	-12.1345
▁purposeful	-12.1402
called	-12.1441
obbed	-12.1552
▁comb	-12.1558
▁nip	-12.1567
▁Antho	-12.1597
▁distinguish	-12.1616
▁Har	-12.162
▁ache	-12.1643
▁sausage	-12.1658
▁Carrow	-12.1659
▁instruc	-12.1674
▁Ear	-12.168
lready	-12.1711
Righ	-12.1768
▁charg	-12.1775
▁mount	-12.1801
▁threaten	-12.1805
▁gallop	-12.1826
▁achieve	-12.1826
▁dabb	-12.1827
▁increase	-12.1828
▁describe	-12.1828
▁pronounce	-12.1828
▁scribble	-12.1828
▁exhaust	-12.1829
▁flipp	-12.183
magic	-12.183
▁fumbl	-12.1831
▁faith	-12.1832
Char	-12.1832
Goblin	-12.1832
bolt	-12.1833
Somewhere	-12.1833
Marvolo	-12.1833
fast	-12.1833
feather	-12.1833
view	-12.1833
Meanwhile	-12.1833
Little	-12.1833
Viktor	-12.1833
Grindelwald	-12.1833
Aberforth	-12.1833
Lucius	-12.1833
everyone	-12.1833
keeping	-12.1833
Vernon	-12.1833
wind	-12.1834
wood	-12.1834
human	-12.1834
although	-12.1839
▁remote	-12.1844
▁actual	-12.1844
▁glum	-12.1846
law	-12.1847
▁earnest	-12.1847
▁conduct	-12.1851
Big	-12.1852
▁mornin	-12.1852
▁wire	-12.1853
rought	-12.1853
▁anticipat	-12.1854
eyond	-12.1854
▁feat	-12.1854
▁cavern	-12.1854
mpty	-12.1855
Rubbish	-12.1855
Accident	-12.1855
Tomorrow	-12.1855
▁French	-12.1855
▁Golgomath	-12.1855
▁Niffler	-12.1855
▁SPEW	-12.1855
▁Slinkhard	-12.1855
▁allegiance	-12.1855
▁correspond	-12.1855
▁disgrace	-12.1855
▁expensive	-12.1855
▁flobberworm	-12.1855
▁gradually	-12.1855
▁impostor	-12.1855
▁imprisonment	-12.1855
▁intact	-12.1855
▁intercepted	-12.1855
▁lunatic	-12.1855
▁morale	-12.1855
Aaah	-12.1855
Dimitrov	-12.1855
Ignoring	-12.1855
LEAVE	-12.1855
SHUT	-12.1855
]	-12.1855
available	-12.1855
encrusted	-12.1855
lumbering	-12.1855
plucked	-12.1855
quiringly	-12.1855
visibly	-12.1855
witted	-12.1855
▁*10	-12.1855
▁Bott	-12.1855
▁Championship	-12.1855
▁Cooperation	-12.1855
▁Cresswell	-12.1855
▁Despite	-12.1855
▁Gornuk	-12.1855
▁HOGWARTS	-12.1855
▁Misuse	-12.1855
▁Phlegm	-12.1855
▁Ripper	-12.1855
▁Sloper	-12.1855
▁Stinksap	-12.1855
▁Transfigure	-12.1855
▁accomplish	-12.1855
▁ambush	-12.1855
▁announcing	-12.1855
▁approving	-12.1855
▁binoculars	-12.1855
▁biscuit	-12.1855
▁classmates	-12.1855
▁coincidence	-12.1855
▁communication	-12.1855
▁competition	-12.1855
▁compliment	-12.1855
▁contrast	-12.1855
▁cradl	-12.1855
▁crestfallen	-12.1855
▁cronies	-12.1855
▁degree	-12.1855
▁demonstrating	-12.1855
▁destruction	-12.1855
▁discern	-12.1855
▁disheveled	-12.1855
▁drowsy	-12.1855
▁earmuffs	-12.1855
▁earsplitting	-12.1855
▁eccentric	-12.1855
▁emitted	-12.1855
▁entertaining	-12.1855
▁exclusive	-12.1855
▁genially	-12.1855
▁grotesque	-12.1855
▁headfirst	-12.1855
▁humiliation	-12.1855
▁impassive	-12.1855
▁indecent	-12.1855
▁invention	-12.1855
▁judgment	-12.1855
▁landscape	-12.1855
▁loftily	-12.1855
▁lyin	-12.1855
▁magenta	-12.1855
▁mattress	-12.1855
▁mimbletonia	-12.1855
▁misunderstood	-12.1855
▁monocle	-12.1855
▁necessarily	-12.1855
▁offensive	-12.1855
▁onlookers	-12.1855
▁parlor	-12.1855
▁patience	-12.1855
▁peacock	-12.1855
▁pitiful	-12.1855
▁plastered	-12.1855
▁plummeted	-12.1855
▁potential	-12.1855
▁premises	-12.1855
▁preoccupied	-12.1855
▁pretense	-12.1855
▁privilege	-12.1855
▁producing	-12.1855
▁raucous	-12.1855
▁rectangular	-12.1855
▁relinquish	-12.1855
▁replacing	-12.1855
▁representatives	-12.1855
▁resemblance	-12.1855
▁scabbed	-12.1855
▁scuffling	-12.1855
▁scuttling	-12.1855
▁section	-12.1855
▁sheepish	-12.1855
▁shepherd	-12.1855
▁society	-12.1855
▁spectators	-12.1855
▁sphinx	-12.1855
▁splattering	-12.1855
▁sprung	-12.1855
▁tattered	-12.1855
▁thirst	-12.1855
▁threadbare	-12.1855
▁tremendous	-12.1855
▁triangular	-12.1855
▁trundl	-12.1855
▁twelfth	-12.1855
▁unbeatable	-12.1855
▁unease	-12.1855
▁unfair	-12.1855
▁uninjured	-12.1855
▁unlucky	-12.1855
▁unnecessarily	-12.1855
▁unstead	-12.1855
▁untouched	-12.1855
▁valiant	-12.1855
▁versus	-12.1855
▁walrus	-12.1855
▁whirring	-12.1855
▁windshield	-12.1855
▁windswept	-12.1855
▁wisdom	-12.1855
▁wretched	-12.1855
▁Deathstick	-12.1855
▁Erised	-12.1855
▁Much	-12.1855
▁bleak	-12.1855
▁booklist	-12.1855
▁bookshelves	-12.1855
▁bulk	-12.1855
▁cheap	-12.1855
▁crease	-12.1855
▁dangled	-12.1855
▁darling	-12.1855
▁dribbl	-12.1855
▁element	-12.1855
▁garage	-12.1855
▁goggled	-12.1855
▁inventing	-12.1855
▁modified	-12.1855
▁oozing	-12.1855
▁skeptical	-12.1855
▁strateg	-12.1855
▁trance	-12.1855
▁vapor	-12.1855
▁Perce	-12.1855
▁brat	-12.1855
▁crave	-12.1855
▁fingertips	-12.1855
▁hesitant	-12.1855
▁rebounded	-12.1855
▁removing	-12.1855
▁Rain	-12.1855
▁chintz	-12.1855
▁flowerbed	-12.1855
▁folding	-12.1855
▁fortress	-12.1855
▁heavier	-12.1855
▁stale	-12.1855
▁wicked	-12.1855
▁frying	-12.1855
▁inquiry	-12.1855
▁Team	-12.1855
▁film	-12.1855
▁tidy	-12.1855
▁looming	-12.1855
▁treetops	-12.1855
▁zis	-12.1855
Password	-12.1855
▁oaf	-12.1855
▁average	-12.1855
▁bloodstained	-12.1855
▁gild	-12.1855
▁hinges	-12.1855
▁engage	-12.1855
▁refrain	-12.1855
▁tackle	-12.1855
▁Sports	-12.1855
▁lull	-12.1855
▁scalp	-12.1855
▁averted	-12.1855
proportion	-12.1855
Pretty	-12.1855
▁dodgy	-12.1855
▁adopt	-12.1855
▁unseen	-12.1855
▁unsure	-12.1855
Stupid	-12.1855
▁poles	-12.1855
▁*11	-12.1855
▁Inner	-12.1855
▁meddle	-12.1855
▁operate	-12.1855
▁settling	-12.1855
▁31	-12.1855
▁plaque	-12.1855
Beaky	-12.1855
▁childhood	-12.1855
▁chessmen	-12.1856
illusion	-12.1856
▁composed	-12.1856
▁Outside	-12.1856
▁redder	-12.1856
Filth	-12.1856
▁proving	-12.1856
Drink	-12.1856
▁conviction	-12.1856
▁national	-12.1856
▁tingling	-12.1856
▁incidentally	-12.1856
▁hillside	-12.1856
▁piggy	-12.1856
▁clipping	-12.1856
▁admirers	-12.1856
▁axe	-12.1856
▁fridge	-12.1856
▁giantess	-12.1856
▁headlights	-12.1856
▁poised	-12.1856
Forgive	-12.1857
▁torso	-12.1857
▁rubble	-12.1857
▁wireless	-12.1857
▁begging	-12.1857
ART	-12.1857
▁jerkily	-12.1857
▁distinctive	-12.1857
▁grace	-12.1857
▁snowball	-12.1858
▁portion	-12.1858
▁March	-12.1858
▁NOW	-12.1858
▁hourglass	-12.1859
▁continually	-12.1859
▁miraculously	-12.1859
Tonight	-12.186
raided	-12.186
▁Getting	-12.186
▁weakened	-12.186
▁chuckling	-12.186
▁stationary	-12.186
▁confine	-12.186
▁chant	-12.186
Step	-12.1861
▁sopping	-12.1861
▁Nine	-12.1861
▁tonic	-12.1862
▁moodily	-12.1862
▁drawled	-12.1863
▁defin	-12.1863
▁vine	-12.1863
▁harmless	-12.1864
AME	-12.1864
▁fistful	-12.1864
▁dismal	-12.1864
UST	-12.1865
amous	-12.1865
▁survivor	-12.1866
▁tipping	-12.1866
▁flap	-12.1866
▁winter	-12.1867
▁domed	-12.1867
▁suitable	-12.1867
▁soundlessly	-12.187
▁hitched	-12.187
▁fireside	-12.1871
▁triple	-12.1871
▁hail	-12.1873
Gro	-12.1874
▁Hermi	-12.188
▁south	-12.1883
▁Pol	-12.1884
Turner	-12.189
Almost	-12.1896
▁flit	-12.1897
▁muffl	-12.1903
▁etc	-12.1909
▁transferr	-12.1916
▁gash	-12.1941
lank	-12.1968
rising	-12.2018
▁convers	-12.2019
▁propelle	-12.2021
▁fruitless	-12.2027
▁comical	-12.2037
Odd	-12.2074
Enter	-12.2096
ology	-12.212
Alas	-12.2132
Writ	-12.2173
incomprehensible	-12.2181
▁combat	-12.2182
Hard	-12.2188
▁bobb	-12.2205
breath	-12.2207
Read	-12.2227
Deep	-12.2245
11	-12.2374
▁tinge	-12.2412
rained	-12.2414
teenth	-12.2474
etty	-12.2521
▁acknowledge	-12.2764
pelled	-12.2766
Aunt	-12.2961
fetched	-12.3044
sorted	-12.3044
▁tradition	-12.3113
shouldered	-12.3114
▁ladl	-12.318
▁surviv	-12.3182
Turn	-12.3222
hank	-12.3229
▁hoot	-12.323
▁float	-12.3231
▁troubl	-12.3248
zzing	-12.325
wolves	-12.3254
▁glisten	-12.3254
▁peel	-12.3255
▁bleed	-12.3256
▁swerve	-12.3256
▁glide	-12.3258
word	-12.3258
▁overhear	-12.3259
conscious	-12.3259
▁hush	-12.3259
▁depart	-12.3261
Conf	-12.3261
Somebody	-12.3261
balance	-12.3261
skirt	-12.3261
connected	-12.3261
proof	-12.3261
Finally	-12.3261
Daddy	-12.3261
Remus	-12.3262
Defense	-12.3262
brown	-12.3262
clothes	-12.3262
figure	-12.3262
Kingsley	-12.3262
Charlie	-12.3262
maybe	-12.3262
Diggory	-12.3262
Scabbers	-12.3262
control	-12.3262
perhaps	-12.3262
Filch	-12.3262
packed	-12.3262
match	-12.3262
▁Pot	-12.3263
Many	-12.3264
nothing	-12.3264
▁nudg	-12.3265
New	-12.3265
capable	-12.3265
▁fade	-12.3265
▁slim	-12.3266
hill	-12.3267
hanging	-12.3268
▁blot	-12.3271
▁frequent	-12.3272
▁feverish	-12.3272
▁defiant	-12.3272
▁thorough	-12.3273
▁exact	-12.3273
▁sulk	-12.3273
▁Snar	-12.3277
▁sandwich	-12.328
rdinary	-12.3281
=	-12.3282
rbert	-12.3282
▁cram	-12.3283
▁relation	-12.3283
▁Profes	-12.3283
Alohomora	-12.3283
▁Brut	-12.3283
▁harassed	-12.3283
ABLE	-12.3283
Acceptable	-12.3283
Congratulations	-12.3283
DUDLEY	-12.3283
eagled	-12.3283
nvincible	-12.3283
transfigure	-12.3283
▁*15	-12.3283
▁AGAIN	-12.3283
▁Arnold	-12.3283
▁Burbage	-12.3283
▁Cabinet	-12.3283
▁Castle	-12.3283
▁Chief	-12.3283
▁Decoy	-12.3283
▁Derrick	-12.3283
▁Frisbee	-12.3283
▁Goldstein	-12.3283
▁January	-12.3283
▁Junior	-12.3283
▁Knarl	-12.3283
▁Large	-12.3283
▁League	-12.3283
▁Mirror	-12.3283
▁Mulciber	-12.3283
▁Murtlap	-12.3283
▁Percival	-12.3283
▁Prophecy	-12.3283
▁Reasonable	-12.3283
▁Selwyn	-12.3283
▁Spellotape	-12.3283
▁Unbreakable	-12.3283
▁Vampires	-12.3283
▁Vector	-12.3283
▁WANT	-12.3283
▁Wheezy	-12.3283
▁Wisteria	-12.3283
▁abashed	-12.3283
▁advertisement	-12.3283
▁alchem	-12.3283
▁ambitious	-12.3283
▁apprehension	-12.3283
▁banshee	-12.3283
▁berserk	-12.3283
▁bickering	-12.3283
▁bloom	-12.3283
▁breast	-12.3283
▁brusquely	-12.3283
▁bubbling	-12.3283
▁bubotuber	-12.3283
▁candidate	-12.3283
▁chestnut	-12.3283
▁clamor	-12.3283
▁communicate	-12.3283
▁conscience	-12.3283
▁consumed	-12.3283
▁crisscross	-12.3283
▁critical	-12.3283
▁criticism	-12.3283
▁croon	-12.3283
▁custard	-12.3283
▁cutlery	-12.3283
▁daybreak	-12.3283
▁dazzled	-12.3283
▁description	-12.3283
▁diagram	-12.3283
▁disastrous	-12.3283
▁dislodged	-12.3283
▁draught	-12.3283
▁eardrums	-12.3283
▁entrust	-12.3283
▁escalator	-12.3283
▁exchanging	-12.3283
▁fiasco	-12.3283
▁forcibly	-12.3283
▁government	-12.3283
▁graffiti	-12.3283
▁grizzled	-12.3283
▁grumbling	-12.3283
▁halves	-12.3283
▁happiest	-12.3283
▁hearthrug	-12.3283
▁hinkypunk	-12.3283
▁horde	-12.3283
▁immobile	-12.3283
▁imperiously	-12.3283
▁inexplicable	-12.3283
▁intelligence	-12.3283
▁intensified	-12.3283
▁intensity	-12.3283
▁interference	-12.3283
▁interfering	-12.3283
▁involving	-12.3283
▁irritating	-12.3283
▁jowls	-12.3283
▁leisure	-12.3283
▁marmalade	-12.3283
▁morose	-12.3283
▁niche	-12.3283
▁nightdress	-12.3283
▁nonplussed	-12.3283
▁occupy	-12.3283
▁opaque	-12.3283
▁ounce	-12.3283
▁outburst	-12.3283
▁physical	-12.3283
▁placidly	-12.3283
▁plastic	-12.3283
▁precariously	-12.3283
▁predicting	-12.3283
▁prejudice	-12.3283
▁prudent	-12.3283
▁pummel	-12.3283
▁railings	-12.3283
▁reinforce	-12.3283
▁reinstate	-12.3283
▁revolting	-12.3283
▁revulsion	-12.3283
▁ruefully	-12.3283
▁salamander	-12.3283
▁sarcasm	-12.3283
▁scornfully	-12.3283
▁scrawny	-12.3283
▁sliver	-12.3283
▁snail	-12.3283
▁spattergroit	-12.3283
▁stalking	-12.3283
▁stifling	-12.3283
▁strut	-12.3283
▁supplie	-12.3283
▁tawny	-12.3283
▁tombstone	-12.3283
▁trash	-12.3283
▁trifle	-12.3283
▁turrets	-12.3283
▁twiddling	-12.3283
▁unbelievable	-12.3283
▁unceremoniously	-12.3283
▁ungrateful	-12.3283
▁unmistakably	-12.3283
▁unmistakeable	-12.3283
▁unnerving	-12.3283
▁vacated	-12.3283
▁valentine	-12.3283
▁vanquish	-12.3283
▁vapour	-12.3283
▁wastepaper	-12.3283
▁wrath	-12.3283
Dreadful	-12.3283
▁Animagi	-12.3283
▁Detonator	-12.3283
▁Dudders	-12.3283
▁Florean	-12.3283
▁Friar	-12.3283
▁Gurdyroot	-12.3283
▁Hunt	-12.3283
▁November	-12.3283
▁SCORE	-12.3283
▁Weatherby	-12.3283
▁abnormal	-12.3283
▁apologies	-12.3283
▁chimed	-12.3283
▁clash	-12.3283
▁combined	-12.3283
▁competing	-12.3283
▁crumpet	-12.3283
▁dank	-12.3283
▁devastated	-12.3283
▁fraud	-12.3283
▁hesitation	-12.3283
▁hopelessness	-12.3283
▁immortality	-12.3283
▁inflict	-12.3283
▁insect	-12.3283
▁jeers	-12.3283
▁jubilant	-12.3283
▁maimed	-12.3283
▁mistrust	-12.3283
▁nightfall	-12.3283
▁paralys	-12.3283
▁pencil	-12.3283
▁permanently	-12.3283
▁phial	-12.3283
▁pimples	-12.3283
▁protuberan	-12.3283
▁recollection	-12.3283
▁throbbed	-12.3283
▁throne	-12.3283
▁tilted	-12.3283
▁trespass	-12.3283
▁unscathed	-12.3283
WARD	-12.3283
|	-12.3283
▁Face	-12.3283
▁Girl	-12.3283
▁Sitting	-12.3283
▁denied	-12.3283
▁labor	-12.3283
▁pretence	-12.3283
▁reliable	-12.3283
▁semidarkness	-12.3283
▁spindle	-12.3283
▁sullen	-12.3283
▁yield	-12.3283
Eleven	-12.3283
Kept	-12.3283
Nasty	-12.3283
▁canceled	-12.3283
▁hungrily	-12.3283
▁behaving	-12.3283
▁mossy	-12.3283
▁squirt	-12.3283
hapter	-12.3284
▁mayhem	-12.3284
▁newcomer	-12.3284
▁passenger	-12.3284
▁reddening	-12.3284
▁Hardly	-12.3284
▁apology	-12.3284
▁coiled	-12.3284
▁flinging	-12.3284
▁gurgl	-12.3284
▁stress	-12.3284
grandson	-12.3284
▁goose	-12.3284
▁teeter	-12.3284
ascots	-12.3284
▁nonverbal	-12.3284
▁Cheering	-12.3284
▁bay	-12.3284
▁entry	-12.3284
▁Otherwise	-12.3284
▁tweed	-12.3284
▁initial	-12.3284
▁reddish	-12.3284
▁east	-12.3284
nfuriat	-12.3284
▁waitress	-12.3284
▁raven	-12.3284
▁Kiss	-12.3284
▁saucepan	-12.3284
▁golf	-12.3284
Sleep	-12.3284
▁Part	-12.3284
▁torrent	-12.3284
▁flopped	-12.3284
▁embarrassment	-12.3284
▁property	-12.3284
Ignore	-12.3284
▁gun	-12.3284
ECT	-12.3284
▁Brit	-12.3284
▁flurry	-12.3284
▁unconvincing	-12.3284
▁Hot	-12.3284
▁banished	-12.3284
HOW	-12.3284
▁disciplinar	-12.3284
▁slyly	-12.3284
▁cavernous	-12.3284
Running	-12.3284
▁announcement	-12.3284
Answer	-12.3284
▁impersonating	-12.3284
WAY	-12.3284
▁appraising	-12.3284
▁border	-12.3284
Meaning	-12.3285
flating	-12.3285
▁seventy	-12.3285
▁skipped	-12.3285
▁teenagers	-12.3285
▁failure	-12.3285
▁oven	-12.3285
▁toothless	-12.3285
▁instructed	-12.3285
▁Teddy	-12.3285
Plenty	-12.3285
▁thunderous	-12.3285
▁Puk	-12.3286
Worse	-12.3286
Drop	-12.3286
▁patrolling	-12.3286
▁spattered	-12.3286
▁shovel	-12.3286
▁aura	-12.3286
▁gust	-12.3286
▁procession	-12.3286
▁Hover	-12.3286
▁12	-12.3286
Finish	-12.3287
▁code	-12.3287
▁selection	-12.3287
Basic	-12.3287
▁mistaking	-12.3288
▁silkily	-12.3288
▁reopen	-12.3288
▁lament	-12.3288
Signed	-12.3288
▁panicking	-12.3288
▁deathday	-12.3288
▁warily	-12.3289
▁Vance	-12.3289
▁publicity	-12.3289
▁attraction	-12.329
▁drone	-12.329
▁doubtfully	-12.3291
▁duelling	-12.3291
▁regretted	-12.3292
▁Jan	-12.3293
▁Rose	-12.3298
▁gum	-12.3298
▁CAR	-12.3302
Check	-12.3308
Imperio	-12.3312
▁dila	-12.3318
▁Sea	-12.3321
lipped	-12.3326
Fanc	-12.3328
▁compress	-12.3333
Bog	-12.3336
minent	-12.3341
ridden	-12.3378
horn	-12.3385
▁peck	-12.339
HIS	-12.3392
BY	-12.3392
Tut	-12.3427
▁impose	-12.3428
cut	-12.3437
▁traditional	-12.3456
▁knob	-12.3533
Feel	-12.3539
distinguishable	-12.3567
dishes	-12.3599
ffling	-12.3611
inhabited	-12.3662
Igor	-12.3684
▁flavor	-12.3745
▁nineteen	-12.3785
▁Cra	-12.38
▁guid	-12.3889
Water	-12.3959
idded	-12.4084
verse	-12.4089
andra	-12.417
▁repos	-12.4223
Unti	-12.4297
eeming	-12.4395
reathing	-12.4461
hose	-12.4499
acco	-12.4633
▁Broomstick	-12.4757
▁instruction	-12.4759
▁bough	-12.4882
▁retreat	-12.4896
▁glitter	-12.4897
worth	-12.492
▁Summon	-12.4921
▁announce	-12.4922
▁confiscate	-12.4923
▁illuminate	-12.4924
▁scramble	-12.4924
▁hesitate	-12.4924
▁convict	-12.4924
▁imitat	-12.4925
▁enchant	-12.4925
▁splinter	-12.4925
worn	-12.4925
▁horrifi	-12.4927
Personally	-12.4927
Prefect	-12.4927
Wood	-12.4927
WHO	-12.4927
qualified	-12.4927
witnesses	-12.4927
Students	-12.4927
Sturgis	-12.4928
Again	-12.4928
Macnair	-12.4928
Zabini	-12.4928
Gregorovitch	-12.4928
Rosmerta	-12.4928
chart	-12.4928
security	-12.4928
awake	-12.4928
Cornelius	-12.4928
Longbottom	-12.4928
brother	-12.4928
Myrtle	-12.4928
Parvati	-12.4928
Potions	-12.4928
Crookshanks	-12.4928
girl	-12.4928
breaking	-12.4928
(	-12.4928
Minister	-12.4928
Uncle	-12.4928
morning	-12.4928
usual	-12.4929
Magic	-12.4929
Today	-12.4929
Next	-12.493
good	-12.4932
▁Pepper	-12.4934
order	-12.4935
▁malevolent	-12.4939
▁encouraging	-12.4939
▁soothing	-12.4939
▁scathing	-12.4939
▁timid	-12.4939
▁deliberate	-12.4939
▁incredulous	-12.4939
▁rapid	-12.4939
▁positive	-12.494
UFF	-12.4948
▁havin	-12.4948
▁corp	-12.4949
▁super	-12.4949
▁prior	-12.4949
▁wiz	-12.4949
ootsteps	-12.4949
▁unwrap	-12.4949
mione	-12.4949
rinkled	-12.4949
ield	-12.495
uddled	-12.495
Cruc	-12.495
craft	-12.495
mindedly	-12.495
▁import	-12.495
▁dumb	-12.495
▁throb	-12.495
Ooooh	-12.495
Tuney	-12.495
▁reptil	-12.495
Emmeline	-12.495
Fantastic	-12.495
Impervius	-12.495
Midnight	-12.495
OULD	-12.495
Protection	-12.495
STUPEF	-12.495
Search	-12.495
Sibyll	-12.495
Urgh	-12.495
ardium	-12.495
embossed	-12.495
hoodwinked	-12.495
natured	-12.495
ptitude	-12.495
twined	-12.495
▁Admittedly	-12.495
▁April	-12.495
▁Armando	-12.495
▁Bryce	-12.495
▁Feast	-12.495
▁Fungi	-12.495
▁HOUSE	-12.495
▁Hungarian	-12.495
▁Judging	-12.495
▁Jupiter	-12.495
▁Levski	-12.495
▁Liaison	-12.495
▁Liechtenstein	-12.495
▁Midge	-12.495
▁Mistress	-12.495
▁Nicholas	-12.495
▁Potterwatch	-12.495
▁Powder	-12.495
▁Quietly	-12.495
▁Ridgeback	-12.495
▁Silent	-12.495
▁Society	-12.495
▁Spinner	-12.495
▁Tornados	-12.495
▁Volkov	-12.495
▁WHAM	-12.495
▁Worple	-12.495
▁Yorkshire	-12.495
▁abilities	-12.495
▁ablaze	-12.495
▁abysmal	-12.495
▁admirable	-12.495
▁animatedly	-12.495
▁assault	-12.495
▁balaclava	-12.495
▁bathrobe	-12.495
▁bewilderment	-12.495
▁blearily	-12.495
▁blindfold	-12.495
▁breezy	-12.495
▁cardigan	-12.495
▁cheese	-12.495
▁chortling	-12.495
▁chute	-12.495
▁conjuring	-12.495
▁consequences	-12.495
▁convulsively	-12.495
▁criticize	-12.495
▁curfew	-12.495
▁defiance	-12.495
▁describing	-12.495
▁destiny	-12.495
▁devotion	-12.495
▁discard	-12.495
▁disentangle	-12.495
▁disobey	-12.495
▁ecstatic	-12.495
▁energetic	-12.495
▁equipment	-12.495
▁evasive	-12.495
▁excruciating	-12.495
▁explore	-12.495
▁extravagant	-12.495
▁extricate	-12.495
▁eyelashes	-12.495
▁fancies	-12.495
▁fantastic	-12.495
▁fidgeting	-12.495
▁firecracker	-12.495
▁folk	-12.495
▁foreboding	-12.495
▁goalhoop	-12.495
▁goggles	-12.495
▁grease	-12.495
▁griffin	-12.495
▁haughtily	-12.495
▁heirloom	-12.495
▁hobbled	-12.495
▁hurricane	-12.495
▁impact	-12.495
▁impartial	-12.495
▁imprint	-12.495
▁indifference	-12.495
▁intervening	-12.495
▁intimidating	-12.495
▁irresponsible	-12.495
▁jangling	-12.495
▁laundered	-12.495
▁lofty	-12.495
▁maggot	-12.495
▁malice	-12.495
▁marshal	-12.495
▁misshapen	-12.495
▁molten	-12.495
▁murky	-12.495
▁mushroom	-12.495
▁obituary	-12.495
▁obliged	-12.495
▁operating	-12.495
▁overflowing	-12.495
▁penetrating	-12.495
▁pepper	-12.495
▁pheasant	-12.495
▁playground	-12.495
▁podium	-12.495
▁possibilities	-12.495
▁presumably	-12.495
▁prince	-12.495
▁procedure	-12.495
▁professor	-12.495
▁puddle	-12.495
▁puppet	-12.495
▁rammed	-12.495
▁recapture	-12.495
▁reception	-12.495
▁recognizable	-12.495
▁refusal	-12.495
▁remedial	-12.495
▁reminiscent	-12.495
▁remnants	-12.495
▁removal	-12.495
▁retirement	-12.495
▁revising	-12.495
▁rival	-12.495
▁sample	-12.495
▁scrutini	-12.495
▁smudge	-12.495
▁sneeze	-12.495
▁somersault	-12.495
▁sorcerer	-12.495
▁spawn	-12.495
▁spiky	-12.495
▁striking	-12.495
▁strung	-12.495
▁stunning	-12.495
▁surname	-12.495
▁symptoms	-12.495
▁system	-12.495
▁talons	-12.495
▁temperature	-12.495
▁terribly	-12.495
▁toadstool	-12.495
▁tracing	-12.495
▁tragedy	-12.495
▁traipsed	-12.495
▁trepidation	-12.495
▁trestle	-12.495
▁tumbling	-12.495
▁unconvinced	-12.495
▁unfamiliar	-12.495
▁unhelpful	-12.495
▁unwelcome	-12.495
▁whiff	-12.495
▁whiskey	-12.495
Detention	-12.495
WAIT	-12.495
▁Draw	-12.495
▁Evil	-12.495
▁Prewett	-12.495
▁Pulling	-12.495
▁QUI	-12.495
▁Rowle	-12.495
▁Study	-12.495
▁Vicky	-12.495
▁commentator	-12.495
▁cords	-12.495
▁debating	-12.495
▁disregard	-12.495
▁dummy	-12.495
▁duties	-12.495
▁eerily	-12.495
▁heartstring	-12.495
▁injustice	-12.495
▁loaf	-12.495
▁orchard	-12.495
▁savour	-12.495
▁supper	-12.495
▁throttl	-12.495
▁tilting	-12.495
▁unbalanced	-12.495
▁walnut	-12.495
▁waltz	-12.495
uncharacteristic	-12.495
▁Barnab	-12.495
▁Jelly	-12.495
▁airborne	-12.495
▁altered	-12.495
▁crab	-12.495
▁embar	-12.495
▁erect	-12.495
▁forbid	-12.495
▁interior	-12.495
▁investigation	-12.495
▁mealtimes	-12.495
▁panicky	-12.495
▁unison	-12.495
▁expectantly	-12.495
▁jingling	-12.495
▁pantry	-12.495
▁stabbing	-12.495
▁style	-12.495
▁switched	-12.495
▁toppling	-12.495
counterclockwise	-12.495
▁confront	-12.495
▁ouch	-12.495
▁praise	-12.495
▁razor	-12.495
▁webbed	-12.495
Play	-12.495
▁Short	-12.495
Everard	-12.495
Later	-12.495
▁contend	-12.495
December	-12.495
Enchant	-12.495
▁Teach	-12.495
▁aquiver	-12.495
▁Treat	-12.495
▁forbidding	-12.495
▁foreseen	-12.495
▁fuming	-12.495
▁windowpane	-12.495
▁detour	-12.495
▁dumbstruck	-12.495
▁links	-12.495
▁extent	-12.495
▁blaming	-12.495
▁pleaded	-12.495
▁Tiny	-12.495
▁filter	-12.495
Further	-12.495
▁cruelty	-12.495
▁ivy	-12.495
▁yerself	-12.495
▁wages	-12.495
Tongue	-12.495
Family	-12.495
▁benign	-12.495
MENT	-12.495
▁flopping	-12.495
▁peppermint	-12.495
▁scorch	-12.495
▁unwrapping	-12.4951
▁detest	-12.4951
▁doormat	-12.4951
▁thudded	-12.4951
▁cowardice	-12.4951
▁speculation	-12.4951
▁stutter	-12.4951
▁midday	-12.4951
Double	-12.4951
▁hilltop	-12.4951
▁shins	-12.4951
▁gateway	-12.4951
▁clockwise	-12.4951
▁aerial	-12.4951
▁certainty	-12.4951
▁goatee	-12.4951
▁scampered	-12.4951
▁candlelit	-12.4951
▁proceedings	-12.4951
▁Cards	-12.4951
▁project	-12.4951
▁sweatshirt	-12.4952
▁clown	-12.4952
▁Jump	-12.4952
▁rosy	-12.4952
quaking	-12.4952
▁cantered	-12.4952
▁Herbs	-12.4952
▁flagged	-12.4952
▁stripping	-12.4952
Sweet	-12.4952
rived	-12.4953
FFLE	-12.4953
▁bodi	-12.4953
▁Bert	-12.4953
mashed	-12.4954
▁festiv	-12.4955
▁crane	-12.4955
lunging	-12.4955
ugat	-12.4956
tupefied	-12.4957
Pretend	-12.4957
Giving	-12.4957
nham	-12.4957
▁lethal	-12.4958
Rosier	-12.4962
▁slot	-12.4964
nspired	-12.4968
▁peo	-12.4973
berries	-12.4975
bias	-12.4985
▁sala	-12.4988
▁Totte	-12.4994
Mmm	-12.4999
▁smi	-12.5019
pattered	-12.503
rific	-12.5036
▁Dumb	-12.5074
Cause	-12.5081
organized	-12.5116
ification	-12.5134
▁infect	-12.5159
▁clip	-12.5163
ttractive	-12.5274
aaaah	-12.5468
labelled	-12.5505
flecked	-12.5528
warts	-12.5555
surprisingly	-12.5626
untie	-12.5628
ubble	-12.5643
rimming	-12.5889
dept	-12.594
▁regrow	-12.605
udding	-12.6056
▁inhabit	-12.6429
▁Bob	-12.6453
nky	-12.6574
▁Plu	-12.6675
robed	-12.6691
cluded	-12.6735
▁Numb	-12.6737
▁Dungbomb	-12.6753
growing	-12.6756
hater	-12.6837
visibility	-12.686
▁purpl	-12.6871
▁arrogan	-12.688
▁realiz	-12.6883
▁snarl	-12.6897
▁snigger	-12.6897
Faint	-12.6897
getting	-12.6912
▁twirl	-12.6921
▁skulk	-12.6921
voiced	-12.6922
▁observe	-12.6923
▁grope	-12.6923
▁collide	-12.6923
▁advance	-12.6923
▁indicate	-12.6923
▁plunge	-12.6923
▁doubl	-12.6924
▁scrawl	-12.6925
▁detach	-12.6925
▁flinch	-12.6925
▁falter	-12.6925
▁unroll	-12.6925
▁sprawl	-12.6925
▁clutter	-12.6926
hooting	-12.6927
Third	-12.6927
solution	-12.6927
stricken	-12.6927
Close	-12.6928
Dawlish	-12.6928
Trying	-12.6928
standard	-12.6928
related	-12.6928
Amos	-12.6928
Under	-12.6928
Apparition	-12.6928
Slowly	-12.6928
satisfied	-12.6928
Jordan	-12.6928
dementor	-12.6928
Fawkes	-12.6928
Morfin	-12.6928
Both	-12.6928
Ludo	-12.6928
Prince	-12.6928
laid	-12.6928
Granger	-12.6928
darkness	-12.6928
second	-12.6928
whether	-12.6928
McGonagall	-12.6928
school	-12.6928
passed	-12.6929
▁indignant	-12.6939
▁execution	-12.6943
▁educat	-12.6949
arried	-12.6949
▁flop	-12.6949
lancing	-12.695
▁shrug	-12.695
▁Bletchley	-12.695
▁Legilimens	-12.695
▁Mimsy	-12.695
▁Scrim	-12.695
▁fathom	-12.695
▁formidable	-12.695
▁infusion	-12.695
▁laundry	-12.695
▁magnet	-12.695
▁recommend	-12.695
▁succumb	-12.695
AAARGH	-12.695
Collo	-12.695
Diffindo	-12.695
Grindelvald	-12.695
HAGGER	-12.695
HAGRID	-12.695
Hundreds	-12.695
Mischief	-12.695
Obliviate	-12.695
Ogwarts	-12.695
Release	-12.695
Rodolphus	-12.695
SILENC	-12.695
STUBEFY	-12.695
Thirty	-12.695
Tricky	-12.695
Undoubtedly	-12.695
WIZARD	-12.695
Wrackspurt	-12.695
Wronski	-12.695
_	-12.695
ceilinged	-12.695
inadvertently	-12.695
jawed	-12.695
nceforth	-12.695
pprehended	-12.695
proclaimed	-12.695
▁ALBUS	-12.695
▁ATTACK	-12.695
▁Anglia	-12.695
▁Archie	-12.695
▁Beginners	-12.695
▁Between	-12.695
▁Blaise	-12.695
▁Catchpole	-12.695
▁Clearwater	-12.695
▁Cluster	-12.695
▁Confunded	-12.695
▁DARK	-12.695
▁Dervish	-12.695
▁Destiny	-12.695
▁Erumpent	-12.695
▁Europe	-12.695
▁FIREBOLT	-12.695
▁Feint	-12.695
▁Firewhisky	-12.695
▁Fortunately	-12.695
▁Furious	-12.695
▁Ghouls	-12.695
▁Gregory	-12.695
▁Grinning	-12.695
▁HELP	-12.695
▁Harpies	-12.695
▁Hopkirk	-12.695
▁Laughing	-12.695
▁MORE	-12.695
▁Malfay	-12.695
▁Mermish	-12.695
▁Nargles	-12.695
▁Nurmengard	-12.695
▁OWN	-12.695
▁Object	-12.695
▁Ottery	-12.695
▁President	-12.695
▁SCHOOL	-12.695
▁SERVANT	-12.695
▁Sanguini	-12.695
▁Services	-12.695
▁Squinting	-12.695
▁Status	-12.695
▁Strong	-12.695
▁Supplies	-12.695
▁Syllabary	-12.695
▁TALK	-12.695
▁Uranus	-12.695
▁Vulchanov	-12.695
▁WON	-12.695
▁Wellington	-12.695
▁accomplice	-12.695
▁advisable	-12.695
▁advising	-12.695
▁ascended	-12.695
▁audience	-12.695
▁autumn	-12.695
▁balancing	-12.695
▁barricade	-12.695
▁bawling	-12.695
▁bedspread	-12.695
▁beloved	-12.695
▁bespectacled	-12.695
▁bishop	-12.695
▁blouse	-12.695
▁brittle	-12.695
▁bullied	-12.695
▁catastrophe	-12.695
▁cereal	-12.695
▁chaos	-12.695
▁characteristic	-12.695
▁charred	-12.695
▁churning	-12.695
▁cigarette	-12.695
▁cockroach	-12.695
▁collapsing	-12.695
▁composition	-12.695
▁criticise	-12.695
▁criticizing	-12.695
▁dawdle	-12.695
▁decay	-12.695
▁delegation	-12.695
▁deluded	-12.695
▁demolished	-12.695
▁destabili	-12.695
▁device	-12.695
▁discipline	-12.695
▁discouraged	-12.695
▁dishevelled	-12.695
▁dishonor	-12.695
▁dissolving	-12.695
▁distaste	-12.695
▁emphasis	-12.695
▁enhance	-12.695
▁enquired	-12.695
▁ensuring	-12.695
▁entertainment	-12.695
▁excursion	-12.695
▁execute	-12.695
▁exhilarati	-12.695
▁expanse	-12.695
▁experiencing	-12.695
▁extraordinarily	-12.695
▁footfalls	-12.695
▁footstool	-12.695
▁frenz	-12.695
▁fruitcake	-12.695
▁furthest	-12.695
▁gawping	-12.695
▁gnaw	-12.695
▁gorilla	-12.695
▁gormless	-12.695
▁grandparents	-12.695
▁grudge	-12.695
▁handwritten	-12.695
▁hitherto	-12.695
▁humiliate	-12.695
▁ignorance	-12.695
▁ignorant	-12.695
▁impertinent	-12.695
▁imprisoning	-12.695
▁inclination	-12.695
▁incorporating	-12.695
▁innocence	-12.695
▁intriguing	-12.695
▁irksome	-12.695
▁irresistibl	-12.695
▁irritation	-12.695
▁jubilation	-12.695
▁labyrinth	-12.695
▁landlord	-12.695
▁levitating	-12.695
▁liberty	-12.695
▁librarian	-12.695
▁loincloth	-12.695
▁loophole	-12.695
▁lumbered	-12.695
▁lurid	-12.695
▁merchandise	-12.695
▁mercifully	-12.695
▁mermaid	-12.695
▁monkey	-12.695
▁moustache	-12.695
▁mullioned	-12.695
▁muscular	-12.695
▁necessity	-12.695
▁nibble	-12.695
▁obtained	-12.695
▁orchestra	-12.695
▁organisation	-12.695
▁outnumber	-12.695
▁padlock	-12.695
▁palomino	-12.695
▁paranoid	-12.695
▁participat	-12.695
▁penalties	-12.695
▁pewter	-12.695
▁phase	-12.695
▁picturing	-12.695
▁pockmarked	-12.695
▁policy	-12.695
▁ponytail	-12.695
▁population	-12.695
▁prickly	-12.695
▁principle	-12.695
▁profession	-12.695
▁providing	-12.695
▁quarry	-12.695
▁quilt	-12.695
▁quizzical	-12.695
▁raspberry	-12.695
▁reassurance	-12.695
▁resounding	-12.695
▁restricted	-12.695
▁retrac	-12.695
▁reunited	-12.695
▁reverie	-12.695
▁rhythm	-12.695
▁routine	-12.695
▁salute	-12.695
▁sardonic	-12.695
▁scaveng	-12.695
▁screwing	-12.695
▁secrecy	-12.695
▁senior	-12.695
▁sizzling	-12.695
▁slumping	-12.695
▁societies	-12.695
▁souveni	-12.695
▁spangled	-12.695
▁strangling	-12.695
▁stunt	-12.695
▁suffice	-12.695
▁suffocating	-12.695
▁sunrise	-12.695
▁sycophantically	-12.695
▁tabby	-12.695
▁tassel	-12.695
▁tattoo	-12.695
▁teashop	-12.695
▁thieves	-12.695
▁treachery	-12.695
▁tribute	-12.695
▁twiddled	-12.695
▁unbidden	-12.695
▁uncanny	-12.695
▁uncoil	-12.695
▁uncorked	-12.695
▁unctuous	-12.695
▁undergrowth	-12.695
▁undetected	-12.695
▁unearthed	-12.695
▁unleash	-12.695
▁unmarked	-12.695
▁unoccupied	-12.695
▁unprotected	-12.695
▁unsuccessful	-12.695
▁unsupported	-12.695
▁unwanted	-12.695
▁varied	-12.695
▁vindictive	-12.695
&	-12.695
Agrid	-12.695
Amazing	-12.695
Believe	-12.695
Liar	-12.695
egistration	-12.695
nspeakable	-12.695
olfsbane	-12.695
▁Banges	-12.695
▁Bank	-12.695
▁Basil	-12.695
▁Consider	-12.695
▁Dueling	-12.695
▁Euan	-12.695
▁France	-12.695
▁Puddifoot	-12.695
▁Saturn	-12.695
▁Sixty	-12.695
▁Valentine	-12.695
▁Widdershins	-12.695
▁accommodat	-12.695
▁adjusted	-12.695
▁aggravat	-12.695
▁antlers	-12.695
▁applicant	-12.695
▁banquet	-12.695
▁concoct	-12.695
▁confusing	-12.695
▁courteously	-12.695
▁craving	-12.695
▁discord	-12.695
▁displeased	-12.695
▁emphasiz	-12.695
▁excess	-12.695
▁exuberant	-12.695
▁feign	-12.695
▁generat	-12.695
▁gravy	-12.695
▁haff	-12.695
▁hallucination	-12.695
▁headdress	-12.695
▁honour	-12.695
▁jail	-12.695
▁lizard	-12.695
▁major	-12.695
▁parrot	-12.695
▁particle	-12.695
▁persistent	-12.695
▁rapping	-12.695
▁rebuil	-12.695
▁reindeer	-12.695
▁replica	-12.695
▁residence	-12.695
▁suffocate	-12.695
▁supervise	-12.695
▁swagger	-12.695
▁syllable	-12.695
▁undercover	-12.695
▁unscrew	-12.695
▁unstable	-12.695
▁wavy	-12.695
▁wiry	-12.695
▁wreath	-12.695
Sectumsempra	-12.695
▁Conjur	-12.695
▁Drooble	-12.695
▁brake	-12.695
▁crib	-12.695
▁dedicate	-12.695
▁devil	-12.695
▁flies	-12.695
▁historian	-12.695
▁lashed	-12.695
▁sanity	-12.695
▁wistful	-12.695
Violet	-12.695
▁DIED	-12.695
▁REAL	-12.695
▁daily	-12.695
▁fringe	-12.695
▁hedgerow	-12.695
▁internal	-12.695
▁salmon	-12.695
▁slab	-12.695
▁exceed	-12.695
▁goalposts	-12.695
▁mince	-12.695
▁minister	-12.695
▁resurfac	-12.695
▁stile	-12.695
▁Gryf	-12.695
▁rafters	-12.695
verlasting	-12.695
▁decree	-12.695
▁unkind	-12.695
▁Gadd	-12.695
▁teammate	-12.695
OTHER	-12.695
ninny	-12.695
▁tedious	-12.695
▁Dora	-12.695
▁copious	-12.695
▁downpour	-12.695
▁inclining	-12.695
▁jabbering	-12.695
▁Gray	-12.695
feit	-12.695
▁notorious	-12.695
Luckily	-12.695
Urgent	-12.695
▁Beast	-12.695
▁dashboard	-12.695
▁weeping	-12.695
▁Lib	-12.695
▁carving	-12.695
▁contest	-12.695
LESS	-12.695
▁error	-12.695
▁reeled	-12.695
ICE	-12.695
▁shoppers	-12.695
▁tiled	-12.695
▁realising	-12.695
▁edition	-12.695
▁Reducto	-12.695
▁hairpin	-12.695
Engorg	-12.695
▁carrot	-12.695
John	-12.6951
▁captor	-12.6951
▁Catch	-12.6951
▁recede	-12.6951
▁roved	-12.6951
▁Hermes	-12.6951
▁Wilki	-12.6951
Left	-12.6951
▁titter	-12.6951
▁tolerate	-12.6951
▁lounge	-12.6951
▁quake	-12.6951
▁angel	-12.6951
Locker	-12.6951
cheekbone	-12.6951
Coward	-12.6951
▁honey	-12.6951
Interesting	-12.6951
▁MAR	-12.6952
▁graze	-12.6952
Flesh	-12.6952
▁revert	-12.6952
flip	-12.6953
▁transp	-12.6953
tomato	-12.6953
PEE	-12.6954
▁swan	-12.6955
▁qualif	-12.6955
egian	-12.696
▁Slugho	-12.6963
Silencio	-12.6967
▁semi	-12.6981
Pay	-12.6982
persever	-12.6989
Panic	-12.7013
▁wobbl	-12.7025
lga	-12.7069
rnie	-12.7084
void	-12.7278
rayed	-12.7401
▁Friend	-12.7405
lagged	-12.7446
Chuck	-12.7547
Foul	-12.7552
▁Instant	-12.7565
detectable	-12.7575
Change	-12.7647
engthening	-12.7667
hopping	-12.7699
lanche	-12.8157
abbit	-12.8201
▁apologiz	-12.8266
nction	-12.8442
ubbed	-12.8592
Brain	-12.86
▁clea	-12.8609
aaaaa	-12.869
tensely	-12.8805
prone	-12.8871
Stuff	-12.89
deeds	-12.896
flamed	-12.9059
animat	-12.9074
xperimental	-12.9222
▁decoration	-12.9253
▁shoe	-12.9257
▁pajama	-12.9257
▁ingredient	-12.9257
▁Patronu	-12.9259
breaker	-12.9272
iddikulus	-12.9376
▁migh	-12.9376
▁involuntar	-12.9394
▁lurk	-12.9397
▁dash	-12.9397
▁crow	-12.941
▁achiev	-12.9419
▁twitter	-12.9421
▁shimmer	-12.9422
▁Silenc	-12.9422
▁stifle	-12.9423
▁emptie	-12.9423
▁drape	-12.9423
▁stumble	-12.9424
▁aroun	-12.9424
action	-12.9425
▁suspend	-12.9426
▁crook	-12.9426
▁desert	-12.9426
Loony	-12.9427
disguised	-12.9427
Together	-12.9428
Although	-12.9428
Blast	-12.9428
HAVE	-12.9428
drunk	-12.9428
Bode	-12.9428
School	-12.9428
Dolores	-12.9428
Neither	-12.9428
Travers	-12.9428
drops	-12.9428
Aragog	-12.9428
Barty	-12.9428
Headmaster	-12.9428
Marge	-12.9428
McLaggen	-12.9428
Firenze	-12.9428
Divination	-12.9428
Greyback	-12.9428
Ravenclaw	-12.9428
Angelina	-12.9428
Pettigrew	-12.9428
fixed	-12.9428
Buckbeak	-12.9428
Skeeter	-12.9428
Bagman	-12.9428
until	-12.9428
▁basi	-12.943
▁nasti	-12.9439
▁givin	-12.9448
ccasionally	-12.9448
▁explosi	-12.9448
▁impersona	-12.9449
▁shrunk	-12.9449
scribed	-12.9449
ractical	-12.9449
orrowed	-12.9449
onvinced	-12.9449
▁slap	-12.9449
▁apologetic	-12.9449
▁imagina	-12.945
orrified	-12.945
verbal	-12.945
mediate	-12.945
cowling	-12.945
ashio	-12.945
▁strawberry	-12.945
▁THREE	-12.945
resolute	-12.945
sempra	-12.945
▁ALONE	-12.945
▁Corresponden	-12.945
▁Counter	-12.945
▁SOME	-12.945
▁piano	-12.945
Balderdash	-12.945
▁emergency	-12.945
▁maddeningly	-12.945
▁monks	-12.945
▁sorrow	-12.945
$	-12.945
Abercrombie	-12.945
Actually	-12.945
Baddock	-12.945
Concentrating	-12.945
DDY	-12.945
DENTS	-12.945
Dissendium	-12.945
Especially	-12.945
Eurgh	-12.945
Farewell	-12.945
Fascinating	-12.945
Frightened	-12.945
Gerroff	-12.945
Horrible	-12.945
NEVER	-12.945
NOOOOOOO	-12.945
Nonsense	-12.945
Pathetic	-12.945
Penalty	-12.945
Philosopher	-12.945
Porpington	-12.945
RAVENCLAW	-12.945
ROPHE	-12.945
SLYTHERIN	-12.945
VOLDEMORT	-12.945
Visitor	-12.945
adequate	-12.945
bodied	-12.945
cromantula	-12.945
ffliction	-12.945
journalist	-12.945
libbering	-12.945
obedience	-12.945
onsequently	-12.945
plottable	-12.945
pplication	-12.945
uddleme	-12.945
▁*24	-12.945
▁AUNT	-12.945
▁Africa	-12.945
▁Algie	-12.945
▁Banshee	-12.945
▁Bewildered	-12.945
▁Bonaccord	-12.945
▁Cadwallader	-12.945
▁Clankers	-12.945
▁Colon	-12.945
▁Country	-12.945
▁Criminal	-12.945
▁Draft	-12.945
▁Eeylops	-12.945
▁FATHER	-12.945
▁Fancies	-12.945
▁Fawcett	-12.945
▁Fifteen	-12.945
▁Filius	-12.945
▁GOOD	-12.945
▁GREATE	-12.945
▁Goshawk	-12.945
▁Holyhead	-12.945
▁INQUISITOR	-12.945
▁Immediately	-12.945
▁Imperturb	-12.945
▁Incantatem	-12.945
▁Instinctively	-12.945
▁Kirke	-12.945
▁LAST	-12.945
▁LORD	-12.945
▁MASTER	-12.945
▁MUGGLE	-12.945
▁Malcolm	-12.945
▁Menagerie	-12.945
▁Miranda	-12.945
▁NUMBER	-12.945
▁Obliviator	-12.945
▁Occlumens	-12.945
▁PLEASE	-12.945
▁Pausing	-12.945
▁Pellets	-12.945
▁Permanent	-12.945
▁Plimpies	-12.945
▁Polkiss	-12.945
▁Reversal	-12.945
▁Robins	-12.945
▁Rowena	-12.945
▁SHOULD	-12.945
▁STILL	-12.945
▁SUPPO	-12.945
▁Spectrespecs	-12.945
▁Spiders	-12.945
▁Splinch	-12.945
▁Stoatshead	-12.945
▁Stonewall	-12.945
▁Stubby	-12.945
▁Surrey	-12.945
▁Tibbles	-12.945
▁Toffee	-12.945
▁Transylvania	-12.945
▁WRONG	-12.945
▁Warbeck	-12.945
▁Whizbee	-12.945
▁Xeno	-12.945
▁activities	-12.945
▁adolescen	-12.945
▁alternate	-12.945
▁artifacts	-12.945
▁assurances	-12.945
▁astride	-12.945
▁balcony	-12.945
▁baleful	-12.945
▁bartender	-12.945
▁bauble	-12.945
▁bawled	-12.945
▁blandly	-12.945
▁bloodstains	-12.945
▁bonnet	-12.945
▁boomslang	-12.945
▁buffeted	-12.945
▁bulldog	-12.945
▁buoyant	-12.945
▁cactus	-12.945
▁calculation	-12.945
▁cancelled	-12.945
▁casket	-12.945
▁casserole	-12.945
▁catcalls	-12.945
▁caterpillar	-12.945
▁cathedral	-12.945
▁celebrity	-12.945
▁cherub	-12.945
▁clumsy	-12.945
▁comparison	-12.945
▁conspicuous	-12.945
▁constitute	-12.945
▁contagious	-12.945
▁contaminated	-12.945
▁contribute	-12.945
▁cornflakes	-12.945
▁culminat	-12.945
▁deflated	-12.945
▁deliberation	-12.945
▁deluge	-12.945
▁delusion	-12.945
▁dessert	-12.945
▁destined	-12.945
▁devised	-12.945
▁disconsolate	-12.945
▁dismay	-12.945
▁dismounted	-12.945
▁dittany	-12.945
▁doughnut	-12.945
▁downcast	-12.945
▁dumbfounded	-12.945
▁editor	-12.945
▁elapsed	-12.945
▁elegant	-12.945
▁elusive	-12.945
▁emaciated	-12.945
▁encircled	-12.945
▁excitable	-12.945
▁exclamation	-12.945
>	-13.2783
~	-13.2783
[	-13.7783
%	-13.7783
^	-13.7783
<	-14.7777
–	-14.7778
‘	-14.7779
¦	-14.778
Q	-14.7781
̈	-14.7782
q	-14.7783
}	-14.7783
