<unk>	0
<s>	0
</s>	0
[PAD]	0
,	-2.94684
.	-3.25927
▁the	-3.42571
'	-3.61914
s	-3.95597
▁to	-4.00176
▁and	-4.06336
▁`	-4.22385
▁of	-4.22863
▁a	-4.25042
▁Harry	-4.45705
▁he	-4.50523
▁was	-4.54988
▁said	-4.6307
▁his	-4.67767
▁in	-4.76168
▁it	-4.81931
▁you	-4.86093
▁'	-4.94299
▁had	-4.95963
t	-4.99042
▁that	-5.00471
▁I	-5.02686
▁.	-5.04694
▁	-5.06027
▁at	-5.1872
,`	-5.20866
▁on	-5.34216
▁him	-5.35118
.`	-5.3698
▁as	-5.38727
-	-5.4317
▁with	-5.44337
▁Ron	-5.49641
▁for	-5.6084
▁her	-5.62368
▁Hermione	-5.67324
?`	-5.67586
▁they	-5.68927
▁not	-5.69322
▁He	-5.71209
▁be	-5.75554
I	-5.79775
▁out	-5.81342
▁up	-5.82428
▁-	-5.82788
▁were	-5.85103
ing	-5.8888
▁them	-5.88904
▁but	-5.89043
▁have	-5.89052
▁from	-5.9017
▁she	-5.93093
▁all	-5.93213
!`	-5.93367
d	-5.96479
;	-5.99037
ed	-6.05908
▁into	-6.06032
▁back	-6.11297
▁been	-6.12221
▁what	-6.13329
▁is	-6.15124
▁Dumbledore	-6.15224
▁The	-6.18947
▁we	-6.21774
▁me	-6.22197
?	-6.24668
▁could	-6.26528
▁who	-6.2773
▁this	-6.29777
re	-6.32479
▁so	-6.3435
▁their	-6.37166
▁over	-6.37393
▁an	-6.38361
▁there	-6.3846
▁about	-6.39785
▁one	-6.40757
ve	-6.4393
▁looked	-6.44605
▁like	-6.44762
▁down	-6.4492
n	-6.45147
▁know	-6.46155
▁would	-6.48285
▁do	-6.48489
▁now	-6.48865
m	-6.49066
▁around	-6.52129
?'	-6.54006
▁by	-6.54738
▁just	-6.56422
ll	-6.572
▁did	-6.58045
!	-6.59394
▁your	-6.59399
▁got	-6.59871
▁if	-6.61102
▁then	-6.61242
▁Hagrid	-6.65021
▁more	-6.65095
▁very	-6.65242
▁when	-6.65983
▁can	-6.66897
▁see	-6.66991
▁again	-6.68162
▁off	-6.68195
▁Professor	-6.68397
▁no	-6.70314
▁are	-6.71348
You	-6.71737
▁though	-6.72719
▁think	-6.7455
▁Snape	-6.7516
▁time	-6.75825
▁my	-6.77391
▁still	-6.80124
▁wand	-6.8107
▁eyes	-6.82648
▁get	-6.82751
▁face	-6.83683
▁don	-6.84455
▁It	-6.84855
▁looking	-6.8555
▁Weasley	-6.85855
▁through	-6.8719
ly	-6.87343
▁--	-6.88348
▁right	-6.88746
▁or	-6.89826
▁voice	-6.89865
y	-6.91297
▁going	-6.92211
...	-6.9286
▁which	-6.94889
▁before	-6.9652
▁than	-6.9677
:	-6.97314
▁go	-6.99429
▁̈C	-6.99733
▁didn	-7.00197
▁door	-7.00586
!'	-7.02146
▁will	-7.02147
▁too	-7.02212
▁room	-7.02306
▁They	-7.02631
▁Malfoy	-7.03537
▁head	-7.03661
▁thought	-7.04588
▁here	-7.04653
▁look	-7.05614
▁only	-7.07385
What	-7.07708
▁saw	-7.09879
He	-7.10001
▁how	-7.10569
▁Mr	-7.10764
▁hand	-7.1239
▁other	-7.13901
▁way	-7.13999
▁Voldemort	-7.14456
▁where	-7.17391
▁seemed	-7.17872
▁away	-7.18307
▁something	-7.18541
▁himself	-7.18719
▁behind	-7.1971
▁Potter	-7.19849
It	-7.20236
▁asked	-7.20259
▁told	-7.22657
▁come	-7.22688
Harry	-7.22769
▁turned	-7.23079
▁last	-7.23215
▁us	-7.24305
▁Sirius	-7.24387
▁A	-7.244
▁long	-7.24789
▁never	-7.25205
▁much	-7.2753
▁after	-7.27829
e	-7.2932
▁want	-7.29637
▁knew	-7.30311
er	-7.31528
▁You	-7.32182
▁She	-7.32618
But	-7.33166
▁once	-7.33671
▁And	-7.33684
▁little	-7.33902
▁first	-7.35175
▁tell	-7.3563
Well	-7.36908
▁two	-7.37424
▁made	-7.37545
▁heard	-7.37659
▁moment	-7.3781
▁left	-7.38169
▁But	-7.38398
▁even	-7.38757
▁any	-7.39053
`	-7.39381
▁say	-7.40442
And	-7.40656
The	-7.40761
▁felt	-7.41606
We	-7.42747
▁...	-7.42991
▁some	-7.43211
▁Fred	-7.43223
No	-7.43542
▁There	-7.44202
r	-7.44477
▁people	-7.44589
▁good	-7.46331
▁really	-7.46728
▁Hogwarts	-7.47065
▁well	-7.47584
▁might	-7.47895
.``	-7.48082
▁Mrs	-7.48748
▁has	-7.51682
▁front	-7.51811
▁ever	-7.52636
Oh	-7.5333
▁Lupin	-7.55267
▁toward	-7.55638
▁George	-7.56814
▁came	-7.56937
?``	-7.59121
▁feet	-7.59197
▁must	-7.59199
in	-7.59728
▁Neville	-7.60585
▁because	-7.60595
▁take	-7.62209
▁Ginny	-7.62244
▁let	-7.62477
▁McGonagall	-7.62622
▁took	-7.62669
a	-7.63552
▁open	-7.63802
▁make	-7.63822
▁sure	-7.63929
▁anything	-7.64873
▁old	-7.65999
l	-7.66339
▁trying	-7.6672
▁table	-7.66883
▁few	-7.67838
▁under	-7.68208
▁floor	-7.68214
▁inside	-7.69654
▁went	-7.69688
▁another	-7.69985
▁next	-7.71186
▁find	-7.71976
▁while	-7.73024
▁own	-7.74294
▁large	-7.74523
▁put	-7.74629
▁school	-7.75528
▁three	-7.75856
▁end	-7.76006
▁thing	-7.76221
▁its	-7.76254
▁house	-7.77022
▁found	-7.77105
▁great	-7.77595
A	-7.77668
▁need	-7.77731
c	-7.78994
▁Umbridge	-7.79087
▁course	-7.79399
p	-7.79569
▁gave	-7.80568
▁seen	-7.80718
▁hair	-7.81509
▁night	-7.8156
▁nothing	-7.81576
▁hear	-7.81708
▁mean	-7.82218
▁Gryffindor	-7.82396
▁stood	-7.82577
▁Ministry	-7.82928
▁-`	-7.83873
u	-7.84058
▁why	-7.84136
▁hands	-7.84994
▁man	-7.85043
▁pulled	-7.85193
▁our	-7.86826
▁Death	-7.87539
▁upon	-7.87966
Yes	-7.88439
▁light	-7.88585
▁bit	-7.88671
Yeah	-7.88889
▁air	-7.8891
▁across	-7.88922
▁wanted	-7.89126
▁place	-7.89126
▁side	-7.91278
▁each	-7.91456
▁both	-7.921
▁black	-7.92217
▁every	-7.92338
▁most	-7.92401
▁without	-7.93388
▁being	-7.93671
▁done	-7.94132
b	-7.94168
▁does	-7.94289
▁dark	-7.94661
▁happened	-7.94736
▁mind	-7.94855
▁help	-7.94922
▁quite	-7.95047
▁against	-7.95286
▁couldn	-7.95322
▁boy	-7.95499
▁Dark	-7.95638
▁wasn	-7.96305
o	-7.96982
▁better	-7.96994
▁His	-7.98067
▁doing	-7.98811
▁keep	-7.99012
▁else	-7.9998
▁enough	-8.00182
▁Vernon	-8.00191
▁wizard	-8.00257
▁along	-8.0051
▁second	-8.00524
▁bed	-8.0105
▁Moody	-8.01218
▁year	-8.01242
▁mouth	-8.01476
▁Then	-8.04169
▁hard	-8.04361
So	-8.04813
▁robes	-8.05034
▁already	-8.0519
▁set	-8.05211
▁walked	-8.05451
▁half	-8.0561
▁sat	-8.05873
▁years	-8.0593
▁staring	-8.06045
▁give	-8.06088
▁should	-8.06185
▁past	-8.06454
▁small	-8.06586
▁fell	-8.07093
▁Uncle	-8.07328
▁won	-8.09084
▁gone	-8.09119
▁those	-8.09299
▁rather	-8.09521
Who	-8.09549
▁day	-8.10109
▁between	-8.10414
▁whispered	-8.10472
▁Fudge	-8.10664
▁suddenly	-8.11345
▁standing	-8.11669
or	-8.11952
es	-8.12248
▁--`	-8.12259
▁am	-8.12678
▁began	-8.12686
▁until	-8.1292
▁these	-8.13
S	-8.13065
▁We	-8.13275
▁many	-8.13507
▁opened	-8.13524
That	-8.14402
▁full	-8.1444
▁window	-8.14515
▁tried	-8.14544
▁slightly	-8.15258
▁yet	-8.15266
▁onto	-8.154
▁sitting	-8.15484
▁Black	-8.15974
▁quickly	-8.16693
▁office	-8.16918
▁raised	-8.17177
▁same	-8.17388
h	-8.18111
▁reached	-8.18647
▁top	-8.18791
▁talking	-8.18809
▁Quidditch	-8.18857
▁Dudley	-8.18866
▁castle	-8.19092
▁new	-8.1957
She	-8.19699
▁things	-8.19799
▁started	-8.20201
▁arm	-8.2103
▁As	-8.21274
They	-8.21654
▁Lord	-8.21833
▁name	-8.22181
▁ground	-8.22188
▁wouldn	-8.22207
▁able	-8.22318
▁fire	-8.22326
How	-8.23212
▁.`	-8.23521
▁Slughorn	-8.2362
▁ter	-8.2374
▁feel	-8.23828
le	-8.24004
you	-8.24343
▁shouted	-8.24399
▁forward	-8.24568
▁always	-8.24621
▁Percy	-8.24922
g	-8.25465
f	-8.255
▁almost	-8.25661
▁anyone	-8.25672
▁Dobby	-8.25797
▁together	-8.26186
▁coming	-8.26254
▁called	-8.26578
▁work	-8.26649
▁later	-8.26738
▁father	-8.26978
▁rest	-8.27203
▁wall	-8.28024
▁far	-8.28045
▁yeh	-8.28328
al	-8.28466
▁idea	-8.28792
▁feeling	-8.2913
▁re	-8.29687
▁dead	-8.29834
▁however	-8.29946
▁stared	-8.29999
There	-8.30286
▁eye	-8.3044
▁sight	-8.3223
i	-8.32299
▁watching	-8.32342
▁quietly	-8.32469
▁believe	-8.32722
▁students	-8.33167
▁whole	-8.33186
▁mother	-8.33268
▁ask	-8.33305
▁beside	-8.33587
▁lot	-8.33652
▁d	-8.33698
▁stop	-8.34108
▁What	-8.34124
▁read	-8.3432
▁life	-8.34968
▁Hall	-8.35259
▁outside	-8.35298
....	-8.35666
▁S	-8.35707
▁Eaters	-8.35934
!``	-8.3718
▁caught	-8.37293
▁everything	-8.37296
▁close	-8.37758
▁Slytherin	-8.37782
▁kept	-8.38178
▁When	-8.38959
▁best	-8.39259
▁stopped	-8.39375
▁everyone	-8.39391
▁red	-8.39609
▁whether	-8.39679
▁slowly	-8.3969
and	-8.39848
▁Muggle	-8.39927
▁use	-8.40226
▁words	-8.40313
▁If	-8.40401
▁supposed	-8.40409
▁o	-8.40434
▁stone	-8.40578
▁passed	-8.40663
▁saying	-8.41023
▁muttered	-8.41195
▁scar	-8.41811
▁getting	-8.41877
▁cold	-8.41953
▁word	-8.42694
▁Luna	-8.42762
▁nose	-8.42829
▁class	-8.43001
▁try	-8.44016
▁Magic	-8.44272
▁someone	-8.44299
▁Crouch	-8.44317
▁taken	-8.44331
▁leave	-8.44597
▁sir	-8.44615
▁sound	-8.44726
▁talk	-8.44726
▁Madam	-8.44889
▁wizards	-8.45667
▁haven	-8.46031
▁empty	-8.46194
▁shoulder	-8.46474
▁holding	-8.4667
▁un	-8.46764
▁corridor	-8.46877
▁silence	-8.47175
...`	-8.47183
Don	-8.47353
▁moved	-8.47372
T	-8.47432
▁heart	-8.47475
▁crowd	-8.47579
If	-8.48211
is	-8.48358
it	-8.48581
▁since	-8.48796
▁Cedric	-8.49152
▁appeared	-8.49175
▁alone	-8.49457
▁loudly	-8.49868
▁making	-8.50149
on	-8.50261
▁wearing	-8.50532
▁remember	-8.50618
▁high	-8.50635
▁book	-8.50713
▁taking	-8.50797
▁Riddle	-8.50815
▁water	-8.51399
▁minutes	-8.51535
▁pointed	-8.5237
▁white	-8.52607
▁silver	-8.5342
▁followed	-8.5394
▁magic	-8.54197
▁morning	-8.54225
Why	-8.5428
▁sort	-8.54519
▁watched	-8.55121
▁corner	-8.55229
▁point	-8.55427
▁chair	-8.55473
▁pointing	-8.55536
▁arms	-8.5582
▁towards	-8.55831
▁hit	-8.55953
▁understand	-8.56397
▁This	-8.56782
E	-8.56795
▁closed	-8.56989
▁four	-8.57022
▁Cloak	-8.57034
▁Petunia	-8.57416
▁Bill	-8.57451
▁That	-8.57646
▁desk	-8.57647
▁common	-8.58114
▁team	-8.58196
less	-8.58866
▁P	-8.58931
▁cloak	-8.59126
▁several	-8.5957
▁Aunt	-8.59577
▁Minister	-8.59583
▁hall	-8.59607
▁thinking	-8.59853
▁such	-8.59939
▁having	-8.59939
▁yes	-8.60823
▁shaking	-8.6105
▁body	-8.61062
▁letter	-8.6108
D	-8.61251
Know	-8.61428
▁family	-8.61797
▁Filch	-8.61812
Not	-8.62627
▁speak	-8.62652
▁usual	-8.62839
▁ten	-8.62927
▁green	-8.63368
▁breath	-8.6349
but	-8.63712
▁watch	-8.63939
▁answer	-8.63945
▁lay	-8.64089
▁yelled	-8.64116
▁held	-8.64466
▁sorry	-8.6447
v	-8.6448
▁C	-8.64509
▁pain	-8.64804
▁others	-8.64888
▁given	-8.65129
▁parchment	-8.65232
▁wrong	-8.65621
▁owl	-8.6567
▁fact	-8.65677
▁used	-8.65785
▁fast	-8.6606
▁kitchen	-8.66404
il	-8.66547
▁kill	-8.66893
▁smile	-8.66935
▁move	-8.67763
▁continued	-8.68056
▁matter	-8.68091
▁hurried	-8.68284
w	-8.68357
▁bag	-8.6854
▁Lockhart	-8.68794
▁dear	-8.68804
▁added	-8.68828
▁Kreacher	-8.68945
▁telling	-8.69058
▁straight	-8.69183
▁moving	-8.69194
est	-8.69368
▁At	-8.69399
▁B	-8.69555
▁ran	-8.69711
▁lost	-8.70007
▁Trelawney	-8.70008
▁fingers	-8.70513
▁books	-8.70517
▁...`	-8.70868
P	-8.71007
▁deep	-8.71047
▁hope	-8.71371
Ron	-8.71474
▁low	-8.71573
▁shut	-8.7165
Hermione	-8.71846
▁round	-8.71906
▁either	-8.72062
▁gold	-8.72082
▁turn	-8.72241
▁died	-8.72677
▁snake	-8.73306
▁exactly	-8.7332
....`	-8.74014
▁In	-8.74155
▁themselves	-8.74165
▁foot	-8.74221
▁noise	-8.74415
▁Great	-8.74636
▁Krum	-8.74639
▁girl	-8.7484
▁real	-8.74944
▁run	-8.75506
▁bad	-8.7586
▁Goyle	-8.75876
as	-8.75982
▁Cho	-8.76007
▁spoke	-8.7615
▁five	-8.76355
▁kind	-8.7664
▁tiny	-8.76763
▁blood	-8.76795
▁loud	-8.77011
▁start	-8.77208
▁returned	-8.77363
▁days	-8.77392
▁seem	-8.77592
▁glass	-8.77643
▁sign	-8.77649
▁Tonks	-8.77657
em	-8.77681
▁nearly	-8.77708
▁shook	-8.78061
▁dropped	-8.78061
▁For	-8.78287
▁waiting	-8.78288
▁short	-8.7833
▁thick	-8.78398
▁chance	-8.78503
▁Bagman	-8.78512
▁Fleur	-8.78551
▁``	-8.78619
ness	-8.78744
▁above	-8.78946
▁parents	-8.79071
▁least	-8.79393
▁witch	-8.79407
▁case	-8.79893
▁turning	-8.80139
▁ago	-8.80191
▁Crabbe	-8.80316
▁noticed	-8.80426
▁burst	-8.80464
▁also	-8.81199
ers	-8.81432
▁hat	-8.81459
▁neck	-8.81656
▁darkness	-8.81705
▁Dursleys	-8.81966
▁All	-8.8197
▁home	-8.82111
▁lying	-8.82127
▁stairs	-8.82244
▁beneath	-8.82576
▁Draco	-8.82621
▁entered	-8.82638
▁steps	-8.82677
▁entrance	-8.83038
th	-8.83104
▁trouble	-8.83242
▁match	-8.83958
▁sent	-8.83977
▁golden	-8.83985
C	-8.84334
▁person	-8.84408
▁pocket	-8.84414
▁expression	-8.84913
▁finished	-8.84988
▁ceiling	-8.85386
▁staircase	-8.85386
▁clear	-8.8566
he	-8.85752
▁care	-8.8599
▁evening	-8.86107
▁stay	-8.8631
▁leaving	-8.8634
▁whose	-8.8637
ro	-8.86601
ar	-8.86854
▁please	-8.87106
ri	-8.87107
Come	-8.87155
▁free	-8.87261
▁friends	-8.87623
▁Dean	-8.87792
L	-8.87981
M	-8.88116
ur	-8.88118
▁shall	-8.88268
▁threw	-8.88277
▁son	-8.88449
This	-8.88629
R	-8.88898
▁t	-8.89043
▁flew	-8.8926
▁chest	-8.89264
▁arrived	-8.89289
▁hour	-8.89337
ic	-8.89708
My	-8.89717
▁stuff	-8.89741
▁number	-8.89779
▁grounds	-8.90013
Now	-8.90197
▁managed	-8.90312
▁So	-8.90357
Dumbledore	-8.90622
▁magical	-8.90711
▁legs	-8.90712
▁Christmas	-8.90753
▁potion	-8.90853
▁Now	-8.90891
▁ears	-8.91202
▁death	-8.91359
Er	-8.91516
▁except	-8.91761
▁near	-8.92079
▁running	-8.92273
▁glasses	-8.92814
▁trunk	-8.92919
▁soon	-8.92981
ion	-8.93232
B	-8.93268
Good	-8.93687
▁enormous	-8.93806
▁Hedwig	-8.93838
▁nobody	-8.94328
▁thin	-8.94349
▁glanced	-8.94437
▁friend	-8.94455
▁longer	-8.94684
▁stupid	-8.94739
▁became	-8.94845
▁world	-8.94845
en	-8.94873
▁seized	-8.94884
▁question	-8.95325
▁vanished	-8.95401
▁call	-8.95412
All	-8.95715
▁Invisibility	-8.95895
▁woman	-8.95896
▁wide	-8.96253
▁odd	-8.96854
▁perhaps	-8.96978
▁wait	-8.96984
▁within	-8.97056
▁part	-8.97231
▁walls	-8.97542
▁times	-8.97588
▁seat	-8.97794
▁sword	-8.98029
▁Wood	-8.98047
▁Wormtail	-8.98061
▁ready	-8.98215
▁car	-8.98442
▁doors	-8.98717
▁One	-8.98844
ting	-8.98919
Look	-8.99024
looking	-8.99026
▁herself	-8.99117
▁finally	-8.99156
▁show	-8.99247
▁walking	-8.99327
▁D	-8.99381
▁known	-8.9949
Where	-8.99573
▁angry	-8.99659
▁T	-8.99896
▁met	-8.9998
▁pulling	-9.00339
▁elf	-9.0066
▁repeated	-9.00789
▁return	-9.00811
▁happy	-9.01316
▁p	-9.02012
▁listening	-9.02071
▁How	-9.02145
▁killed	-9.02204
▁week	-9.02217
▁bright	-9.02366
▁angrily	-9.02437
▁job	-9.02437
▁Bellatrix	-9.0251
▁stand	-9.02517
▁broom	-9.02557
▁broken	-9.02594
▁flying	-9.02596
▁hurt	-9.02703
an	-9.02909
Did	-9.02947
▁says	-9.02965
▁Arts	-9.03002
▁instead	-9.03002
▁anyway	-9.03009
▁dementors	-9.03079
▁pale	-9.03089
we	-9.0311
▁Eater	-9.03375
▁broke	-9.03412
▁dragon	-9.03417
▁Prophet	-9.0357
▁smiling	-9.03571
▁tonight	-9.03572
▁clearly	-9.03694
▁portrait	-9.03949
ent	-9.0401
▁Snitch	-9.04142
▁memory	-9.04142
▁nodded	-9.04142
▁expect	-9.04143
▁Seamus	-9.04151
▁true	-9.04154
▁hold	-9.04506
▁No	-9.04532
Professor	-9.04661
▁looks	-9.04671
▁below	-9.04716
▁Azkaban	-9.04726
▁completely	-9.04762
▁laugh	-9.04774
▁Well	-9.04993
▁edge	-9.05034
▁suppose	-9.05036
▁less	-9.05116
▁lesson	-9.05148
▁spell	-9.05725
▁different	-9.05876
ation	-9.05993
▁spot	-9.06437
▁barely	-9.06477
▁windows	-9.06529
▁F	-9.06606
▁reckon	-9.06896
▁James	-9.07099
W	-9.07356
▁pair	-9.07507
▁meant	-9.07781
▁tears	-9.07955
▁trees	-9.08153
▁ought	-9.08236
at	-9.08327
▁forced	-9.08404
▁tent	-9.08584
▁quiet	-9.08731
▁shot	-9.08836
▁fine	-9.08844
▁Magical	-9.08883
▁train	-9.08904
▁teacher	-9.09383
▁happen	-9.09435
▁horrible	-9.09437
▁story	-9.09439
▁led	-9.09508
O	-9.09559
us	-9.09647
ter	-9.09697
able	-9.09747
ce	-9.09988
ful	-9.10021
▁Albus	-9.10103
▁young	-9.10179
▁ahead	-9.10251
▁f	-9.10331
▁sky	-9.10653
▁stepped	-9.10656
▁seconds	-9.10854
▁hundred	-9.11214
ish	-9.11249
▁big	-9.11252
▁master	-9.11267
▁blue	-9.11335
▁important	-9.11777
like	-9.11823
▁giving	-9.11884
▁snapped	-9.11884
▁lake	-9.11886
up	-9.11952
▁street	-9.12114
▁fear	-9.12259
▁late	-9.12336
▁middle	-9.12505
▁break	-9.12962
▁power	-9.13146
▁de	-9.13295
▁summer	-9.13759
▁hidden	-9.13759
▁sit	-9.14119
▁hours	-9.14296
▁forest	-9.14327
li	-9.14365
▁third	-9.14391
▁Order	-9.14394
Are	-9.14453
▁Muggles	-9.14584
``	-9.14671
▁rose	-9.15028
▁whom	-9.15162
ad	-9.15615
▁couple	-9.15669
▁cup	-9.15676
▁probably	-9.1568
▁bottle	-9.15689
▁silent	-9.16211
▁dangerous	-9.16213
▁Pomfrey	-9.16315
▁brought	-9.16315
the	-9.16325
▁pushed	-9.16371
▁yourself	-9.16966
Let	-9.16994
▁leg	-9.17013
▁carrying	-9.17066
▁roared	-9.17072
▁hardly	-9.17283
▁sounded	-9.17441
▁possible	-9.17618
▁during	-9.17618
▁giant	-9.17724
▁ear	-9.17913
▁sense	-9.18012
▁sister	-9.18277
Of	-9.18313
ow	-9.18452
▁dis	-9.18542
ity	-9.18543
um	-9.18596
▁tea	-9.18703
▁cried	-9.18938
▁tree	-9.1903
▁heads	-9.19177
▁points	-9.192
▁laughed	-9.19205
▁expected	-9.19206
▁worse	-9.19604
U	-9.19844
▁wands	-9.19899
▁nor	-9.19943
▁cat	-9.19987
▁hole	-9.20284
▁Crookshanks	-9.20299
ge	-9.20384
▁goblin	-9.20391
▁difficult	-9.20852
▁truth	-9.20948
▁Hogsmeade	-9.20962
▁laughter	-9.20965
▁yeah	-9.20988
▁Rita	-9.20992
▁Peeves	-9.21001
▁closer	-9.21084
▁covered	-9.21199
ul	-9.21301
▁M	-9.21431
▁mad	-9.21522
▁group	-9.21631
▁drew	-9.21632
▁Karkaroff	-9.21686
▁picked	-9.21723
▁jumped	-9.21747
ted	-9.21955
▁aren	-9.22188
▁meet	-9.22237
▁heavy	-9.22317
▁funny	-9.22318
▁become	-9.22353
▁reason	-9.22447
▁b	-9.22504
▁pleased	-9.22685
▁stomach	-9.23006
▁may	-9.23025
▁realized	-9.23149
ir	-9.23531
▁throat	-9.237
▁picture	-9.23883
ling	-9.24039
led	-9.24045
▁indeed	-9.244
▁simply	-9.24401
▁merely	-9.24426
▁walk	-9.24596
▁catch	-9.24836
▁Her	-9.24997
▁fight	-9.25526
▁Horcrux	-9.25782
▁field	-9.25814
▁gasped	-9.25883
Do	-9.25921
et	-9.25962
Ah	-9.25969
▁apart	-9.26062
▁knows	-9.26462
▁nice	-9.26529
▁screamed	-9.26688
▁wondered	-9.26693
▁plan	-9.26762
▁Ravenclaw	-9.2678
▁sleep	-9.2686
▁slid	-9.26899
▁note	-9.26975
▁Why	-9.27115
▁aside	-9.27122
▁myself	-9.27249
▁alive	-9.2725
▁Granger	-9.27268
▁dad	-9.27275
▁starting	-9.27707
▁surprise	-9.27713
▁dinner	-9.27972
▁teeth	-9.27972
▁breakfast	-9.27972
▁Winky	-9.28071
▁remained	-9.281
Just	-9.28158
▁joined	-9.28178
▁With	-9.28191
▁brother	-9.28274
▁girls	-9.28294
▁news	-9.285
▁die	-9.28582
▁somebody	-9.28704
▁actually	-9.28707
▁cut	-9.28717
▁House	-9.28751
ate	-9.2893
▁paper	-9.28988
▁direction	-9.28989
▁wing	-9.28993
▁laughing	-9.29065
lo	-9.29272
▁carefully	-9.29504
▁leapt	-9.29551
▁huge	-9.29591
▁needed	-9.29752
▁worry	-9.29762
▁Charm	-9.29765
▁dog	-9.29892
▁remembered	-9.29947
▁terrible	-9.30177
▁bent	-9.30227
Right	-9.3034
el	-9.30672
▁Against	-9.30926
▁somewhere	-9.30936
▁Lucius	-9.3096
to	-9.30965
▁tail	-9.30974
▁drink	-9.31396
▁smiled	-9.31415
▁safe	-9.31498
▁Lavender	-9.31676
▁cauldron	-9.31676
▁apparently	-9.31685
▁view	-9.31712
▁wish	-9.31898
▁Daily	-9.32433
▁twenty	-9.32433
▁beyond	-9.32434
▁Flitwick	-9.32445
▁Scrimgeour	-9.32484
▁G	-9.3256
k	-9.32707
▁knees	-9.32853
▁information	-9.33199
▁slipped	-9.332
▁clutching	-9.33217
▁climbed	-9.33251
▁sharply	-9.33267
▁allowed	-9.33275
▁tightly	-9.33298
▁teachers	-9.33325
ment	-9.33387
▁surprised	-9.3347
▁present	-9.33587
▁change	-9.33707
▁?	-9.33752
▁weren	-9.33762
▁Curse	-9.33966
▁attention	-9.33966
▁bottom	-9.33966
▁mirror	-9.33966
▁task	-9.33966
▁Diggory	-9.33998
▁single	-9.34004
▁decided	-9.34091
▁After	-9.3416
▁today	-9.34278
ch	-9.34281
▁piece	-9.34381
▁wind	-9.34685
▁classroom	-9.34747
▁Skeeter	-9.34758
▁Cup	-9.34764
elf	-9.34815
▁bring	-9.35253
ive	-9.35297
▁Potions	-9.35314
▁shock	-9.35402
▁tight	-9.35425
▁living	-9.35522
▁pink	-9.3553
▁working	-9.35558
▁itself	-9.35582
am	-9.35623
▁On	-9.35652
Hagrid	-9.35677
▁live	-9.35732
▁hasn	-9.35736
▁closely	-9.35797
ie	-9.36107
▁forehead	-9.3631
▁hospital	-9.3631
▁worried	-9.3631
▁forgotten	-9.36312
▁Griphook	-9.36368
▁lessons	-9.36538
▁listen	-9.36601
▁attack	-9.36735
▁backward	-9.36844
▁lit	-9.37021
▁upstairs	-9.37103
▁THE	-9.37152
▁hiding	-9.37173
▁speaking	-9.37687
▁strange	-9.37692
▁wants	-9.3776
▁happily	-9.37903
▁opposite	-9.37903
▁filled	-9.38043
Eye	-9.38062
▁following	-9.38112
▁egg	-9.38141
▁line	-9.38308
▁love	-9.38522
▁none	-9.38581
▁sudden	-9.38607
▁afraid	-9.3871
▁gazing	-9.38711
▁box	-9.38729
▁Parvati	-9.38738
▁er	-9.39091
▁faces	-9.39229
id	-9.39373
▁Scabbers	-9.39557
▁visit	-9.39791
▁join	-9.39827
▁touch	-9.3983
▁form	-9.40007
▁subject	-9.40059
▁trust	-9.40107
▁boys	-9.40176
▁swung	-9.40342
▁extremely	-9.40351
▁purple	-9.40372
▁marble	-9.41169
▁Buckbeak	-9.41187
▁Mundungus	-9.4123
▁seeing	-9.41278
▁c	-9.41297
▁secret	-9.41391
▁wondering	-9.41553
▁quill	-9.41758
be	-9.41758
▁r	-9.41793
▁grinning	-9.42004
▁disappeared	-9.42058
▁furiously	-9.42073
▁keeping	-9.42358
▁okay	-9.42843
▁practice	-9.42851
▁Quirrell	-9.42856
▁Angelina	-9.42861
▁finger	-9.42861
Very	-9.4305
▁placed	-9.43199
▁doubt	-9.43451
▁mention	-9.4346
Can	-9.43499
ies	-9.43662
▁dormitory	-9.4369
▁immediately	-9.43709
ap	-9.43999
▁To	-9.44173
▁co	-9.44194
▁six	-9.44206
▁step	-9.44347
ated	-9.44373
▁figure	-9.44394
▁hastily	-9.44545
▁strode	-9.44545
▁food	-9.44545
▁footsteps	-9.44545
▁knocked	-9.44638
▁whatever	-9.44645
▁Tom	-9.44708
▁weeks	-9.44877
As	-9.45075
▁send	-9.45136
▁page	-9.45232
▁minute	-9.45308
▁powerful	-9.45315
▁staff	-9.45404
▁bellowed	-9.45407
▁terrified	-9.45407
▁homework	-9.45414
▁E	-9.45535
▁Severus	-9.45575
▁waited	-9.45784
▁notice	-9.4614
se	-9.46197
▁library	-9.46276
▁copy	-9.46276
▁landed	-9.46318
z	-9.46502
▁attacked	-9.46531
ily	-9.46735
▁Dad	-9.4706
▁Not	-9.47068
▁path	-9.47161
▁bedroom	-9.47164
▁cage	-9.47174
▁fixed	-9.47219
▁rolled	-9.47276
F	-9.47345
▁L	-9.47523
▁Slytherins	-9.4754
▁H	-9.47776
▁term	-9.47834
▁W	-9.47897
▁conversation	-9.47941
▁afternoon	-9.48038
▁ball	-9.48077
▁nervously	-9.48128
▁nearer	-9.48154
In	-9.4817
▁Arthur	-9.48234
▁scared	-9.48735
▁Hufflepuff	-9.48811
▁garden	-9.48931
▁glad	-9.48941
▁Pettigrew	-9.48951
▁map	-9.48954
▁cannot	-9.48977
▁softly	-9.4902
▁bound	-9.49057
▁meeting	-9.4916
▁usually	-9.49176
im	-9.49223
▁rain	-9.49677
▁shop	-9.49709
ry	-9.49793
▁forget	-9.49821
▁problem	-9.49832
▁twelve	-9.49832
▁firmly	-9.49852
▁tall	-9.49888
▁means	-9.49996
▁beard	-9.50138
▁pass	-9.50194
▁whisper	-9.50231
▁Mad	-9.50314
▁bathroom	-9.50742
▁locket	-9.50747
▁earth	-9.50763
▁Myrtle	-9.50773
op	-9.50774
Be	-9.50955
▁playing	-9.50969
that	-9.51049
▁explain	-9.51144
G	-9.51516
ant	-9.51578
▁Firebolt	-9.51659
▁spent	-9.51668
▁particularly	-9.51693
▁Head	-9.52009
▁showed	-9.5205
▁curse	-9.52265
▁skin	-9.52331
▁deal	-9.52339
▁quick	-9.52413
▁normal	-9.5248
▁reading	-9.52556
▁prophecy	-9.52585
▁halfway	-9.52591
▁Nick	-9.52651
▁My	-9.52979
ig	-9.53416
▁brain	-9.53482
▁Katie	-9.53519
▁sideways	-9.53519
▁Tower	-9.53522
▁Fang	-9.53524
▁surface	-9.53526
ring	-9.53648
▁oh	-9.53737
▁O	-9.5378
▁force	-9.5383
Get	-9.53831
▁cast	-9.54204
ous	-9.5433
▁owls	-9.54345
▁worked	-9.54346
▁cabin	-9.54453
▁asleep	-9.54463
▁headmaster	-9.54463
▁waving	-9.54465
▁Forest	-9.54498
▁Lily	-9.54577
▁w	-9.54764
▁changed	-9.54781
▁St	-9.5498
▁Prime	-9.55415
▁heavily	-9.55415
▁diary	-9.55418
▁fallen	-9.55428
▁certainly	-9.55495
▁Miss	-9.55571
▁pro	-9.55708
clock	-9.55745
te	-9.5592
▁dare	-9.56124
▁save	-9.56169
▁rock	-9.56267
▁deserted	-9.56385
▁Ollivander	-9.56435
▁hot	-9.56651
▁fighting	-9.56754
▁An	-9.57025
▁fall	-9.57066
▁tone	-9.57132
▁Maxime	-9.57347
▁distant	-9.57348
▁broomstick	-9.5738
▁Charlie	-9.57388
▁approached	-9.5741
▁beaming	-9.57428
▁fer	-9.57451
▁crossed	-9.5746
▁Where	-9.575
▁missed	-9.57524
▁smell	-9.57525
▁Madame	-9.57562
▁spells	-9.57612
▁fly	-9.58218
▁sank	-9.58328
▁hoping	-9.5833
▁scarlet	-9.58337
▁leaned	-9.5835
▁row	-9.58394
▁gray	-9.58403
▁ill	-9.58433
▁brightly	-9.58509
▁throwing	-9.58513
▁hanging	-9.58557
▁falling	-9.58608
ave	-9.58999
ne	-9.59151
▁corridors	-9.59198
▁nasty	-9.59318
▁trembling	-9.59318
▁anger	-9.59319
▁grass	-9.59324
▁poor	-9.59333
▁frowning	-9.5935
▁unless	-9.59376
Snape	-9.59685
▁dream	-9.59782
▁seven	-9.60037
▁luck	-9.60222
▁Gr	-9.60275
▁maybe	-9.60372
▁stretched	-9.60399
▁Two	-9.60424
▁wonder	-9.60482
▁hurrying	-9.60532
▁Mum	-9.60567
When	-9.60696
▁attempt	-9.60915
▁often	-9.61231
▁shoulders	-9.61305
▁further	-9.61329
▁eagerly	-9.61362
▁muttering	-9.61366
▁perfectly	-9.61374
▁eyebrows	-9.61496
▁v	-9.61533
▁soul	-9.61594
▁crack	-9.6182
▁check	-9.61837
▁nervous	-9.62245
▁using	-9.6225
▁sun	-9.623
▁hung	-9.62343
▁fault	-9.62348
▁position	-9.62348
▁business	-9.62349
▁Department	-9.62365
▁busy	-9.62401
▁putting	-9.62441
▁ink	-9.62464
▁pitch	-9.62613
▁months	-9.6273
▁scream	-9.63021
▁facing	-9.63379
▁fifty	-9.63379
▁tomorrow	-9.63379
▁halt	-9.6338
▁split	-9.63382
▁Ernie	-9.63382
▁Lee	-9.63385
▁snarled	-9.6339
▁pressed	-9.63517
▁Even	-9.63542
Maybe	-9.63783
▁cover	-9.63917
▁YOU	-9.63966
▁teach	-9.64076
▁invisible	-9.64421
▁impatiently	-9.64437
▁inches	-9.64441
▁control	-9.64454
▁l	-9.64455
▁nearest	-9.64456
▁unable	-9.64458
▁waved	-9.64654
▁soft	-9.64802
▁R	-9.64913
▁shouldn	-9.65195
▁thank	-9.65259
▁echoed	-9.65474
▁neither	-9.65474
▁pretty	-9.65474
▁fit	-9.65498
▁hide	-9.6553
▁witches	-9.65547
▁Did	-9.65613
▁early	-9.6564
▁showing	-9.66012
▁follow	-9.66012
pe	-9.66323
▁flat	-9.66371
▁lips	-9.6652
▁cupboard	-9.66541
▁Oh	-9.66543
▁Greyback	-9.66562
▁frightened	-9.66578
▁thrown	-9.66653
▁drawing	-9.66712
▁goblet	-9.66752
ight	-9.66891
age	-9.67022
Your	-9.67104
▁handed	-9.67476
▁determined	-9.67506
▁danger	-9.67604
▁grabbed	-9.67613
▁emerged	-9.67642
▁growled	-9.67661
▁obviously	-9.67675
▁bin	-9.67692
▁screaming	-9.67902
▁seems	-9.68031
▁voices	-9.68474
Go	-9.68686
▁liked	-9.68701
▁hesitated	-9.68715
▁spotted	-9.68721
ag	-9.68736
▁Wizarding	-9.68782
▁asking	-9.68977
▁human	-9.69021
▁passing	-9.69033
▁Who	-9.6916
Have	-9.69204
▁en	-9.69274
▁lift	-9.69283
▁hissed	-9.69366
▁questions	-9.69373
▁snow	-9.697
▁sick	-9.69753
▁wood	-9.6979
▁warning	-9.69794
enophilius	-9.69799
▁shrieked	-9.69901
N	-9.69936
sh	-9.6994
▁badly	-9.70064
▁dungeon	-9.70094
▁rid	-9.70216
Because	-9.70265
▁reach	-9.70411
▁play	-9.70429
▁flames	-9.70643
if	-9.70666
ally	-9.70806
▁sharp	-9.70809
▁twice	-9.7091
▁carried	-9.7091
▁wake	-9.70914
▁anymore	-9.70918
▁yer	-9.70929
▁Kingsley	-9.70956
▁Potion	-9.71247
▁m	-9.71538
▁village	-9.72027
▁Sprout	-9.72033
▁fresh	-9.72033
▁writing	-9.72033
▁stuck	-9.72035
▁Mark	-9.72039
▁Patronus	-9.72079
▁grave	-9.721
▁Bludger	-9.72376
▁Dursley	-9.72398
▁guard	-9.72648
See	-9.72809
▁patch	-9.72905
▁Just	-9.72971
▁Weasleys	-9.73048
▁easy	-9.7317
▁familiar	-9.7317
▁midair	-9.73171
▁joke	-9.73171
▁definitely	-9.73188
▁interested	-9.73377
▁student	-9.73562
▁worth	-9.73639
▁pause	-9.7406
▁sounding	-9.74172
▁e	-9.74201
Mr	-9.7422
▁horror	-9.74319
▁worst	-9.74319
▁square	-9.7432
▁wooden	-9.74333
▁Longbottom	-9.7436
▁rising	-9.74374
▁Horcruxes	-9.74388
▁Nearly	-9.74426
▁pile	-9.74432
▁Every	-9.74434
▁mum	-9.74437
▁shouting	-9.74514
▁helped	-9.74556
▁Was	-9.74903
uff	-9.74926
▁act	-9.75009
▁pull	-9.75047
▁age	-9.75129
my	-9.75145
▁wave	-9.75307
▁mistake	-9.75324
▁cool	-9.75378
▁Chamber	-9.75482
▁downstairs	-9.75482
▁shining	-9.75482
▁birthday	-9.75482
▁eh	-9.75512
▁However	-9.75576
▁Wand	-9.75604
▁party	-9.75698
▁leading	-9.75738
Listen	-9.76009
Potter	-9.76025
▁clean	-9.76398
▁color	-9.76424
▁wild	-9.76555
▁warm	-9.76655
▁Privet	-9.76658
▁understood	-9.76658
▁Drive	-9.76659
▁platform	-9.76659
▁solid	-9.76659
▁Stone	-9.76664
▁tables	-9.76687
▁gleaming	-9.76693
Sorry	-9.76703
▁seriously	-9.76751
▁growing	-9.76792
ened	-9.76906
▁lifted	-9.76908
▁highly	-9.77024
▁coldly	-9.77057
▁creatures	-9.77192
co	-9.77251
▁glance	-9.77592
▁hearing	-9.77707
▁Quaffle	-9.77849
▁scene	-9.77849
▁excitement	-9.77849
▁glittering	-9.77867
▁excitedly	-9.77938
▁objects	-9.77945
ary	-9.7796
▁letters	-9.77978
▁sp	-9.77984
▁packed	-9.78026
▁louder	-9.7803
▁mark	-9.78338
Hi	-9.78478
▁seats	-9.78508
▁nine	-9.78662
▁bar	-9.78811
red	-9.78953
▁Triwizard	-9.79054
▁statue	-9.79054
▁swept	-9.79054
▁soared	-9.79055
▁game	-9.79059
▁properly	-9.79095
▁lucky	-9.79173
▁Once	-9.79214
▁Stan	-9.79464
▁goal	-9.79468
▁tip	-9.79621
Dobby	-9.79641
of	-9.79662
▁Dementors	-9.79676
▁bell	-9.79678
▁size	-9.79715
▁Charms	-9.79753
▁narrow	-9.79934
▁eat	-9.79995
▁ring	-9.80013
▁escape	-9.80014
▁thanks	-9.80029
▁fat	-9.80061
▁rang	-9.80089
▁strong	-9.801
▁furious	-9.80171
om	-9.80224
▁list	-9.80252
▁aware	-9.80273
▁famous	-9.80274
▁Gringotts	-9.80285
▁somehow	-9.80298
▁sighed	-9.80378
▁Three	-9.80434
▁burning	-9.80487
▁champions	-9.80559
tion	-9.80597
ick	-9.80968
▁avoid	-9.81072
haired	-9.81172
x	-9.81334
Then	-9.81382
▁certain	-9.81404
▁careful	-9.81433
▁grip	-9.81506
▁armchair	-9.81508
▁compartment	-9.81508
▁dunno	-9.81508
▁relief	-9.81508
▁smoke	-9.81508
▁fireplace	-9.81515
▁fellow	-9.81566
▁learned	-9.81672
▁post	-9.81811
▁deeply	-9.81821
▁saved	-9.81842
▁holidays	-9.82322
▁N	-9.82402
▁surely	-9.82423
▁circle	-9.82758
▁slammed	-9.82758
▁write	-9.82758
▁impression	-9.82759
▁anybody	-9.82762
▁Headless	-9.82783
▁Defense	-9.8281
▁recognized	-9.82884
Y	-9.83004
▁sped	-9.83012
▁shortly	-9.83052
▁lived	-9.83172
▁ghost	-9.83261
▁spider	-9.83374
▁lead	-9.83548
▁breathing	-9.83674
▁test	-9.83831
▁By	-9.83958
▁calmly	-9.84126
▁higher	-9.84275
▁order	-9.84538
▁interest	-9.84544
▁fun	-9.84597
▁names	-9.84678
ance	-9.84776
Here	-9.84913
▁support	-9.85054
▁calm	-9.85202
▁lunch	-9.85306
▁contact	-9.85306
▁uncle	-9.85306
▁everybody	-9.85308
▁mine	-9.85313
▁landing	-9.85379
▁miss	-9.85474
▁lowered	-9.85521
▁Do	-9.85577
▁bat	-9.85685
▁lie	-9.85733
▁effort	-9.85966
▁detention	-9.85972
▁win	-9.86191
▁hurry	-9.86327
▁final	-9.86501
▁written	-9.86604
▁risk	-9.86604
▁Room	-9.86606
▁expelled	-9.86607
▁passage	-9.86612
▁Transfiguration	-9.86617
▁Fat	-9.8663
▁clothes	-9.86667
▁anxiously	-9.86699
year	-9.86751
▁remain	-9.86787
▁thinks	-9.86828
▁con	-9.86895
▁prefect	-9.87315
▁knowing	-9.87325
▁creature	-9.87327
mon	-9.8746
▁double	-9.87659
▁tower	-9.87678
▁serious	-9.87817
▁complete	-9.87817
▁brave	-9.87912
▁panic	-9.87918
▁money	-9.8792
▁yellow	-9.87947
▁silvery	-9.883
all	-9.88452
▁happening	-9.88528
der	-9.88614
Voldemort	-9.88621
▁rage	-9.8864
▁drop	-9.88651
▁movement	-9.88685
faced	-9.88703
▁twins	-9.88965
▁realize	-9.89011
▁suit	-9.89247
▁extra	-9.89253
▁Pensieve	-9.89254
▁feast	-9.89254
▁distance	-9.89254
▁dragged	-9.89254
▁sounds	-9.89254
▁anywhere	-9.89276
▁doorway	-9.89279
▁dozen	-9.8928
▁desperately	-9.89338
old	-9.89481
▁weight	-9.89498
▁escaped	-9.89538
▁moments	-9.89671
▁bet	-9.89763
▁likely	-9.89796
▁cleared	-9.8991
▁shadow	-9.89945
elves	-9.89953
For	-9.90017
▁headed	-9.90026
ran	-9.90038
▁ha	-9.90318
▁blank	-9.90492
▁sc	-9.90512
▁Lady	-9.90605
▁impossible	-9.90605
▁space	-9.90605
▁flung	-9.90606
▁protection	-9.90614
▁nearby	-9.90615
▁directly	-9.90628
ine	-9.90664
▁missing	-9.90899
▁Come	-9.91034
▁wings	-9.91428
▁jump	-9.91465
▁members	-9.91846
ING	-9.91907
▁ugly	-9.91975
▁sometimes	-9.91975
oo	-9.91983
▁werewolf	-9.91997
per	-9.92006
▁Cornelius	-9.92023
▁peering	-9.92034
▁Phineas	-9.9205
▁suggested	-9.92118
▁agreed	-9.9216
▁state	-9.92262
▁Everyone	-9.92267
▁attempted	-9.92292
▁month	-9.92846
▁roar	-9.92851
▁believed	-9.93256
▁excited	-9.9326
▁mood	-9.93358
▁vault	-9.93364
▁Lovegood	-9.93364
▁children	-9.93364
▁panted	-9.93368
▁jet	-9.9337
▁Grawp	-9.93386
▁fury	-9.9341
▁locked	-9.93551
▁Perhaps	-9.93583
▁Their	-9.9375
▁curtains	-9.94191
▁loads	-9.94323
An	-9.9445
▁murder	-9.94463
ating	-9.94496
ver	-9.94634
▁Borgin	-9.94772
▁choice	-9.94772
▁essay	-9.94772
▁level	-9.94772
▁everywhere	-9.94786
▁Divination	-9.94804
ingly	-9.94875
▁pure	-9.94896
▁explained	-9.95132
▁touched	-9.95176
our	-9.95192
▁harder	-9.95218
▁mo	-9.95498
Never	-9.95562
out	-9.95573
Nothing	-9.95587
▁finish	-9.95685
▁rat	-9.95805
▁g	-9.96002
▁anxious	-9.96097
▁dust	-9.96107
▁among	-9.96188
▁innocent	-9.96201
▁journey	-9.96201
▁struggling	-9.96201
▁confused	-9.96201
▁glancing	-9.96201
▁Alley	-9.96209
▁Firenze	-9.96233
▁thoughts	-9.96408
▁paused	-9.96525
Thank	-9.96545
▁shocked	-9.96628
▁Galleons	-9.96721
▁interesting	-9.96804
▁breaking	-9.9689
▁heading	-9.9701
▁flash	-9.97107
me	-9.97121
ee	-9.97172
▁bang	-9.97321
▁spread	-9.97368
▁gaze	-9.9739
▁trick	-9.97461
▁previous	-9.97544
▁opening	-9.97591
▁Colin	-9.9765
▁Ogden	-9.9765
▁World	-9.9765
▁raising	-9.9765
▁surrounding	-9.9765
▁Sorting	-9.9765
▁favorite	-9.97651
▁appearance	-9.97655
▁basin	-9.97658
▁marched	-9.977
▁Aberforth	-9.9772
▁dived	-9.97773
▁wished	-9.98102
▁Your	-9.98271
ped	-9.98308
RE	-9.98407
▁hoped	-9.98572
▁crash	-9.98603
▁Of	-9.98643
▁throw	-9.98684
▁imagine	-9.9886
▁lower	-9.98885
▁handle	-9.98947
▁slip	-9.99112
▁London	-9.99121
▁delighted	-9.99122
▁message	-9.99124
▁twisted	-9.99157
▁Ludo	-9.99163
▁brown	-9.99228
▁Gryffindors	-9.99333
▁Nobody	-9.99335
▁lose	-9.99407
▁forwards	-9.99627
ack	-9.99668
ble	-9.99897
Sirius	-9.99981
▁lamp	-10.0019
▁pay	-10.0033
▁goblins	-10.0036
iv	-10.0046
Okay	-10.0061
▁Creatures	-10.0061
▁Frank	-10.0061
▁Godric	-10.0061
▁spiral	-10.0061
▁visible	-10.0061
▁therefore	-10.0061
▁keen	-10.0061
▁ripped	-10.0061
▁demanded	-10.0066
▁swallowed	-10.0067
▁murmured	-10.0067
▁settled	-10.0067
▁although	-10.0069
▁fourth	-10.0076
▁hundreds	-10.0076
▁burned	-10.0083
▁effect	-10.0087
His	-10.0089
Must	-10.0114
▁shadows	-10.0124
▁helping	-10.0127
▁slow	-10.0172
▁stick	-10.0175
do	-10.018
▁speed	-10.0185
▁continue	-10.0187
▁reveal	-10.0189
▁echoing	-10.0213
▁newspaper	-10.0213
▁whistle	-10.0213
▁Marge	-10.0217
▁Prince	-10.0217
▁useful	-10.0219
▁sea	-10.022
▁failed	-10.0223
▁Don	-10.023
▁gazed	-10.024
▁wear	-10.0255
▁mist	-10.026
ard	-10.0264
▁beat	-10.0266
ned	-10.0285
▁expecting	-10.0304
one	-10.0313
▁appear	-10.0315
▁plate	-10.033
▁champion	-10.0331
▁unpleasant	-10.0356
▁Let	-10.0364
▁forgot	-10.0366
▁baby	-10.0367
▁tired	-10.0367
▁Gaunt	-10.0367
▁grinned	-10.0367
▁station	-10.0367
▁panting	-10.0367
▁leaning	-10.0371
▁awake	-10.0372
▁ignored	-10.0382
▁checking	-10.0409
▁Or	-10.0428
▁chairs	-10.0429
▁bow	-10.0432
rs	-10.0442
▁st	-10.0447
▁count	-10.0479
▁Hat	-10.048
▁upward	-10.0504
▁brilliant	-10.0512
▁Burrow	-10.0523
▁envelope	-10.0523
▁private	-10.0523
▁nodding	-10.0523
▁bank	-10.0526
▁McLaggen	-10.0526
▁lap	-10.0527
▁peered	-10.0529
▁received	-10.0531
▁kicked	-10.0535
▁caused	-10.0538
▁crying	-10.0549
▁Hallows	-10.0552
▁moon	-10.0552
▁teaching	-10.0565
▁dragons	-10.0566
▁attempting	-10.0566
▁burn	-10.0631
no	-10.0647
▁photograph	-10.065
▁decide	-10.0656
ier	-10.0656
▁buy	-10.066
▁slight	-10.0671
ab	-10.0677
▁Place	-10.0682
▁easily	-10.0682
▁eleven	-10.0682
▁Saturday	-10.0682
▁crystal	-10.0682
▁examining	-10.0682
▁dropping	-10.0682
▁eight	-10.0682
▁Durmstrang	-10.0683
▁amount	-10.0684
▁grin	-10.0684
▁dressed	-10.0704
▁pretending	-10.0705
pa	-10.073
▁hate	-10.0739
▁Yes	-10.0765
One	-10.0786
▁ex	-10.0812
ED	-10.0821
man	-10.0825
▁admit	-10.0842
▁Seeker	-10.0843
▁knife	-10.0843
▁wife	-10.0843
▁excellent	-10.0845
▁abruptly	-10.0846
▁dirty	-10.0846
▁smashed	-10.0847
▁handsome	-10.0847
▁weak	-10.0847
▁Some	-10.0853
▁V	-10.0857
▁Narcissa	-10.0857
end	-10.0882
ence	-10.0898
▁mu	-10.0916
ook	-10.0916
▁shout	-10.0927
▁jus	-10.094
Kreacher	-10.0943
for	-10.097
▁inch	-10.0971
▁cry	-10.0981
▁faint	-10.0988
▁......	-10.099
▁desperate	-10.0996
▁Requirement	-10.1007
▁difference	-10.1007
▁simple	-10.1007
▁stadium	-10.1007
▁tournament	-10.1007
▁wrote	-10.1007
▁History	-10.1007
▁glaring	-10.1007
▁toilet	-10.1007
▁dying	-10.1007
▁leaves	-10.1009
▁security	-10.1013
ten	-10.1013
▁curled	-10.1014
cr	-10.1014
▁realised	-10.102
▁classes	-10.1023
▁pushing	-10.1024
▁difficulty	-10.1031
▁notes	-10.1034
▁Something	-10.1037
ke	-10.1057
▁wizarding	-10.1067
▁h	-10.1068
▁calling	-10.1095
ph	-10.1099
▁dress	-10.1108
▁i	-10.1112
▁roll	-10.1123
▁report	-10.1126
▁finding	-10.1141
▁Re	-10.1142
▁dementor	-10.1156
Thanks	-10.1162
▁Elder	-10.1174
▁grew	-10.1174
▁hippogriff	-10.1174
▁phoenix	-10.1174
▁welcome	-10.1174
▁battle	-10.1174
▁floating	-10.1177
Hello	-10.1177
▁bought	-10.118
▁Most	-10.1187
▁removed	-10.1187
▁wildly	-10.1188
▁figures	-10.1212
bye	-10.1213
▁socks	-10.1225
▁temper	-10.123
▁badge	-10.1244
▁draw	-10.1289
▁enter	-10.1294
▁wanting	-10.1301
▁fist	-10.132
▁stare	-10.1332
▁clever	-10.1336
▁dull	-10.1337
▁Pansy	-10.1343
▁dancing	-10.1343
▁striding	-10.1343
▁Delacour	-10.1343
ubbly	-10.1343
▁weird	-10.1344
▁upset	-10.1345
▁overhead	-10.135
▁Bathilda	-10.1357
▁tied	-10.136
▁instructions	-10.1361
▁wonderful	-10.1372
▁Had	-10.1376
▁bowl	-10.138
▁stands	-10.1408
ink	-10.1408
▁lives	-10.1415
▁orders	-10.1428
▁clearing	-10.1443
ock	-10.1447
▁pick	-10.1466
▁accept	-10.1492
▁carriage	-10.1495
▁lock	-10.1503
▁aunt	-10.1503
ame	-10.1514
▁Nigellus	-10.1515
▁gigantic	-10.1515
▁possibly	-10.1515
▁rubbish	-10.1515
▁stunned	-10.1515
▁gently	-10.1515
▁company	-10.1515
▁tongue	-10.1516
▁terror	-10.1516
▁taught	-10.1516
▁blame	-10.1516
▁planning	-10.1516
▁filthy	-10.1518
▁Grimmauld	-10.1518
▁clutched	-10.1519
▁Fawkes	-10.152
▁Morfin	-10.152
▁frozen	-10.1526
▁squeaked	-10.1527
▁jinx	-10.1528
H	-10.1533
▁King	-10.1538
▁Molly	-10.1541
▁rolling	-10.1544
▁Be	-10.1551
▁mentioned	-10.1563
▁Master	-10.1569
▁sleeping	-10.1583
aking	-10.1591
▁staying	-10.1616
▁answered	-10.1621
work	-10.1623
▁men	-10.1629
▁learn	-10.1639
▁stars	-10.1641
▁fully	-10.1645
▁carry	-10.1666
▁mass	-10.1674
▁object	-10.1675
▁excuse	-10.1691
▁midnight	-10.1691
▁monster	-10.1691
▁skull	-10.1691
▁surrounded	-10.1691
▁tunnel	-10.1691
▁Mungo	-10.1691
▁zoomed	-10.1691
▁Norris	-10.1691
ched	-10.1691
▁losing	-10.1691
ning	-10.1703
▁considered	-10.1703
Really	-10.1704
▁sprinted	-10.1704
▁becoming	-10.1704
▁struggled	-10.1705
▁discovered	-10.1707
▁oddly	-10.1725
▁eating	-10.1732
light	-10.1772
▁Secrets	-10.1772
▁clock	-10.1809
▁breathed	-10.1814
▁dreams	-10.1853
▁obvious	-10.1859
▁fool	-10.1868
Blimey	-10.1869
Course	-10.1869
▁disappointed	-10.1869
▁folded	-10.1869
▁fought	-10.1869
▁measure	-10.1869
▁unicorn	-10.1869
▁road	-10.1869
Plank	-10.187
▁wound	-10.187
▁lawn	-10.187
▁dry	-10.1875
▁croaked	-10.1875
▁interrupted	-10.1877
▁convinced	-10.1878
▁cave	-10.188
▁whenever	-10.1882
▁reminded	-10.1882
▁Before	-10.1884
▁OK	-10.192
ered	-10.192
eyed	-10.192
go	-10.1923
▁sending	-10.1928
king	-10.194
▁stuffed	-10.1954
ti	-10.1959
EN	-10.1978
blood	-10.1987
▁toad	-10.2003
▁charm	-10.2016
▁smooth	-10.2017
ta	-10.204
▁sleeve	-10.2041
▁troll	-10.2041
▁frame	-10.2042
▁crept	-10.2051
▁memories	-10.2051
▁special	-10.2051
▁vision	-10.2051
▁damage	-10.2051
▁Figg	-10.2051
▁scrambled	-10.2054
▁applause	-10.2055
▁Headmaster	-10.2055
▁Both	-10.2057
▁ones	-10.2057
▁Grindelwald	-10.206
min	-10.2064
ou	-10.2077
▁bowed	-10.2079
▁Keeper	-10.2079
▁deeper	-10.2081
ia	-10.2115
▁Can	-10.2118
▁coat	-10.2123
ever	-10.2133
ping	-10.2136
▁spiders	-10.2146
▁po	-10.2177
▁horse	-10.2189
▁ages	-10.2189
▁study	-10.2208
▁hang	-10.2209
gu	-10.221
▁protect	-10.2211
▁bird	-10.2226
▁fair	-10.2227
▁Hollow	-10.2236
▁elbow	-10.2236
▁including	-10.2236
▁pleasure	-10.2236
▁shrugged	-10.2236
▁swear	-10.2236
▁package	-10.2237
▁sunlight	-10.2237
▁straightened	-10.2239
▁laid	-10.2242
▁entirely	-10.2243
▁horn	-10.2244
▁refused	-10.2246
▁warned	-10.2251
▁Half	-10.2251
▁People	-10.2256
▁From	-10.2256
▁beak	-10.2261
ible	-10.2261
▁struck	-10.2263
▁drawn	-10.2267
▁imagined	-10.2269
▁date	-10.2276
▁sparks	-10.2279
▁sh	-10.2283
▁goes	-10.2315
▁lights	-10.2319
born	-10.236
Please	-10.2361
▁blow	-10.2381
▁brooms	-10.2385
ial	-10.2386
At	-10.24
▁law	-10.2411
Which	-10.2425
▁aloud	-10.2425
▁Alicia	-10.2425
▁Cauldron	-10.2425
▁Hooch	-10.2425
▁barrier	-10.2425
▁clue	-10.2425
▁evidence	-10.2425
▁fifth	-10.2425
▁staggered	-10.2425
▁clapped	-10.2425
▁OF	-10.2426
▁massive	-10.2426
▁fake	-10.2426
▁thoroughly	-10.2426
▁cabinet	-10.2427
▁Auror	-10.2428
▁self	-10.2428
▁Diagon	-10.2428
▁Muriel	-10.2428
▁vaguely	-10.2428
▁dance	-10.2429
▁TO	-10.2429
▁bitterly	-10.243
▁prepared	-10.2431
▁weather	-10.2432
▁glared	-10.2434
▁powers	-10.2434
▁singing	-10.2441
▁boat	-10.2444
▁cracked	-10.2469
▁whispering	-10.2484
▁contents	-10.2487
▁seventeen	-10.2499
by	-10.2505
Or	-10.2506
▁due	-10.256
▁pretend	-10.2566
▁poison	-10.2583
▁bus	-10.2584
▁agree	-10.2591
▁lip	-10.261
▁accident	-10.2617
quot	-10.2617
▁Regulus	-10.2617
▁Several	-10.2617
▁Tournament	-10.2617
▁beautiful	-10.2617
▁causing	-10.2617
▁closing	-10.2617
▁Peter	-10.2617
▁desire	-10.2617
▁relieved	-10.2617
▁pumpkin	-10.2618
▁source	-10.2618
▁country	-10.2618
▁Beauxbatons	-10.2618
na	-10.2618
▁dashed	-10.2619
▁pot	-10.262
▁muffled	-10.2621
▁impressed	-10.2621
▁Remus	-10.2626
▁wore	-10.2626
▁Viktor	-10.2627
▁makes	-10.2627
▁shown	-10.2674
ew	-10.2684
▁bringing	-10.2687
▁bear	-10.2688
VE	-10.2714
▁darkly	-10.2723
▁DA	-10.2751
down	-10.2755
▁rules	-10.2757
▁raise	-10.2788
▁proud	-10.2803
▁curious	-10.2803
▁cloud	-10.281
ear	-10.2812
▁High	-10.2814
▁Lestrange	-10.2814
▁families	-10.2814
▁plenty	-10.2814
▁speech	-10.2814
▁trace	-10.2814
▁till	-10.2814
▁passageway	-10.2814
▁evil	-10.2814
▁jar	-10.2815
kin	-10.2818
▁building	-10.2822
▁spectacles	-10.2823
▁counter	-10.2824
▁pub	-10.2841
▁picking	-10.2845
▁offered	-10.2846
▁kindly	-10.2861
▁mate	-10.2861
well	-10.2876
▁portraits	-10.288
▁places	-10.2895
fully	-10.2898
▁older	-10.2905
▁per	-10.2909
▁marks	-10.2928
▁brothers	-10.2937
Ginny	-10.295
▁crowded	-10.2956
ise	-10.2959
▁cross	-10.2968
▁steal	-10.2985
▁sink	-10.2987
To	-10.2988
▁shape	-10.2997
▁shake	-10.2998
Excellent	-10.3014
▁chamber	-10.3014
▁irritably	-10.3014
▁steam	-10.3014
▁wiping	-10.3014
▁wrapped	-10.3014
▁vast	-10.3014
▁mumbled	-10.3014
▁tap	-10.3018
▁grimly	-10.302
▁pounding	-10.3021
▁prove	-10.3021
▁dreadful	-10.3023
▁centaur	-10.3024
▁knocking	-10.304
▁spat	-10.3053
▁checked	-10.306
▁plates	-10.3062
▁Anyway	-10.3066
▁j	-10.3073
Got	-10.3076
--	-10.3082
▁Only	-10.31
▁ice	-10.3101
ST	-10.314
▁trunks	-10.3161
▁eggs	-10.3161
Sir	-10.3162
▁discuss	-10.3164
▁search	-10.3166
▁gap	-10.3183
ade	-10.3185
gg	-10.3186
▁centaurs	-10.3207
▁painful	-10.3213
▁powder	-10.3218
▁serpent	-10.3218
▁Ariana	-10.3218
▁Defence	-10.3218
▁Imperius	-10.3218
▁Pigwidgeon	-10.3218
▁buried	-10.3218
▁chocolate	-10.3218
▁cousin	-10.3218
▁pool	-10.3218
▁replied	-10.3218
▁rubbing	-10.3218
▁weapon	-10.3218
▁occurred	-10.3218
▁unconscious	-10.3218
▁Jordan	-10.3224
▁fiercely	-10.3224
▁wrenched	-10.3224
▁nowhere	-10.3225
▁Next	-10.3225
▁blinked	-10.3226
▁curiously	-10.3228
▁dusty	-10.3232
▁exam	-10.3233
▁Spell	-10.3233
Wait	-10.3233
▁song	-10.3246
▁band	-10.3247
▁silently	-10.3251
▁roots	-10.3256
▁di	-10.328
▁larger	-10.3294
▁born	-10.3323
▁Un	-10.3337
▁n	-10.3356
Master	-10.3363
▁Though	-10.3365
▁yell	-10.3389
▁length	-10.3394
▁persuade	-10.3399
ther	-10.3401
▁destroy	-10.3403
▁giants	-10.3407
▁charge	-10.3408
▁exams	-10.3411
▁bottles	-10.342
she	-10.3423
▁Hog	-10.3426
▁Cattermole	-10.3426
▁Mysteries	-10.3426
▁godfather	-10.3426
▁ignoring	-10.3426
▁sensation	-10.3426
▁wedding	-10.3426
▁shelves	-10.3427
▁flight	-10.3427
▁foolish	-10.3427
▁branches	-10.3427
▁seventh	-10.3429
▁jacket	-10.3429
▁Rosmerta	-10.3433
▁trip	-10.3438
▁setting	-10.344
▁younger	-10.3449
▁safely	-10.3455
▁member	-10.3461
Me	-10.3463
▁remaining	-10.3471
OR	-10.3476
▁handing	-10.3481
▁ch	-10.3491
▁Sir	-10.3498
▁ended	-10.3522
▁stayed	-10.3529
▁card	-10.3548
▁abou	-10.357
Like	-10.3574
so	-10.3576
▁knock	-10.3581
par	-10.3582
▁rush	-10.3587
ious	-10.3612
▁prefer	-10.3637
▁pu	-10.3637
▁K	-10.3637
▁child	-10.3637
▁exist	-10.3638
▁Occlumency	-10.3639
▁Phoenix	-10.3639
▁article	-10.3639
▁idiot	-10.3639
▁thirteen	-10.3639
▁velvet	-10.3639
▁key	-10.3639
▁ourselves	-10.3639
Named	-10.3639
▁hint	-10.3639
▁foul	-10.3639
▁bleeding	-10.3643
▁startled	-10.3644
▁snatched	-10.3647
▁instantly	-10.3647
▁Yaxley	-10.365
▁chosen	-10.3653
▁beamed	-10.3654
ors	-10.3657
side	-10.3663
▁grown	-10.3663
▁searching	-10.3668
▁pages	-10.3685
qui	-10.3712
▁ward	-10.3714
od	-10.3727
▁backed	-10.3732
▁Nothing	-10.3736
▁lo	-10.3766
▁Have	-10.3775
▁Care	-10.3786
▁strength	-10.3788
Malfoy	-10.3793
Only	-10.3801
▁pack	-10.3806
▁woke	-10.3841
▁Binns	-10.3856
▁Marauder	-10.3856
▁Thomas	-10.3856
▁arrival	-10.3856
▁bewildered	-10.3856
▁decision	-10.3856
▁circular	-10.3856
▁carpet	-10.3856
▁password	-10.3856
▁tapped	-10.3857
▁icy	-10.3857
▁Doge	-10.3858
K	-10.3858
▁sentence	-10.3858
▁Barty	-10.3861
▁breathlessly	-10.3861
▁hopefully	-10.3863
▁grunted	-10.3865
▁Justin	-10.3866
▁moaned	-10.3867
▁board	-10.3871
▁barked	-10.3872
▁blankly	-10.3873
▁enjoying	-10.3879
pose	-10.3884
▁yelling	-10.3885
years	-10.3893
▁bearing	-10.3903
▁bother	-10.392
▁thud	-10.3935
▁lies	-10.3963
▁meaning	-10.3996
▁hated	-10.4007
ny	-10.4009
Yeh	-10.4014
Weasley	-10.4015
white	-10.4015
▁pictures	-10.402
▁suggest	-10.4025
ng	-10.4047
▁complain	-10.405
▁blast	-10.4056
▁rise	-10.4063
long	-10.4066
▁wet	-10.4068
▁daughter	-10.4078
▁injured	-10.4078
▁juice	-10.4078
▁permission	-10.4078
▁replaced	-10.4078
▁sprang	-10.4078
▁treasure	-10.4078
▁wrist	-10.4078
▁knowledge	-10.4078
▁presence	-10.4078
▁changing	-10.4078
▁whipped	-10.4079
▁mustache	-10.4079
▁bodies	-10.4079
▁indignantly	-10.4079
▁forcing	-10.408
▁weekend	-10.408
▁Parkinson	-10.4081
▁Herbology	-10.4082
▁clenched	-10.4083
▁Aragog	-10.4083
▁Map	-10.4083
▁sweeping	-10.4084
ging	-10.4085
▁greatest	-10.4102
Fine	-10.4103
zing	-10.4108
▁played	-10.4126
▁knot	-10.4126
▁Someone	-10.413
aw	-10.4134
▁listened	-10.4146
▁spoken	-10.4161
▁backwards	-10.4171
ked	-10.4186
▁imp	-10.42
▁bu	-10.4205
▁plans	-10.4227
hand	-10.4237
Would	-10.4242
▁See	-10.4246
▁U	-10.4258
▁glow	-10.4259
▁tin	-10.4275
▁promise	-10.4279
▁gulp	-10.4282
▁Go	-10.4289
▁perfect	-10.4296
▁cheerful	-10.4296
▁Forbidden	-10.4306
▁choked	-10.4306
▁wardrobe	-10.4306
▁orange	-10.4306
▁spun	-10.4306
▁interview	-10.4306
▁connection	-10.4306
▁rude	-10.4306
▁evidently	-10.4306
▁heaved	-10.4306
▁hedge	-10.4307
▁spare	-10.4307
▁damp	-10.4307
▁faded	-10.431
▁exploded	-10.4313
▁annoyed	-10.4314
▁soaring	-10.4314
▁loose	-10.4315
▁jerked	-10.4317
▁exchanged	-10.4317
Hang	-10.4323
▁concerned	-10.4324
▁alarmed	-10.4327
▁armor	-10.4333
OK	-10.4333
▁sinking	-10.4337
▁cheek	-10.4344
▁allow	-10.4346
▁forever	-10.4351
ice	-10.4355
V	-10.4365
▁quills	-10.4373
▁lined	-10.438
▁BE	-10.4399
▁sixteen	-10.4409
▁training	-10.4412
▁noises	-10.4414
...``	-10.4437
▁bite	-10.4457
what	-10.4469
▁si	-10.4475
▁matters	-10.4479
Hey	-10.448
▁regret	-10.4484
▁sneak	-10.4486
▁stream	-10.451
▁prevent	-10.4514
▁sack	-10.4516
▁chose	-10.4522
ach	-10.4525
▁occasion	-10.4535
▁respect	-10.4537
▁height	-10.4537
abini	-10.4538
▁Moaning	-10.4538
▁Smith	-10.4538
▁diadem	-10.4538
▁gargoyle	-10.4538
▁handkerchief	-10.4538
▁record	-10.4538
▁servant	-10.4538
▁ancient	-10.4538
▁leather	-10.4538
▁insult	-10.4538
▁sobbed	-10.4538
▁Gilderoy	-10.454
▁enchanted	-10.4541
▁horrified	-10.4541
▁dislike	-10.4542
▁loss	-10.4542
▁sobbing	-10.4545
▁guilty	-10.4545
▁sneered	-10.4547
▁brains	-10.4548
▁Finally	-10.4548
▁Little	-10.4549
▁stolen	-10.455
▁tray	-10.455
▁coolly	-10.4559
▁balls	-10.4575
▁possession	-10.4581
▁duel	-10.4581
▁beating	-10.4634
▁pieces	-10.4649
are	-10.4662
▁J	-10.4691
aged	-10.4695
▁killing	-10.4705
▁righ	-10.4707
▁gasp	-10.4726
▁toast	-10.473
▁glimpse	-10.475
▁Entrance	-10.4776
▁International	-10.4776
▁Portkey	-10.4776
▁argument	-10.4776
▁emerging	-10.4776
▁feeble	-10.4776
▁liquid	-10.4776
▁situation	-10.4776
▁uncomfortable	-10.4776
▁forgive	-10.4776
▁grey	-10.4776
▁stories	-10.4776
▁dragging	-10.4776
▁jaw	-10.4777
▁noticing	-10.4777
▁rapidly	-10.4778
▁stopping	-10.478
▁oak	-10.4781
▁erupted	-10.4783
▁metal	-10.479
uck	-10.479
▁gotten	-10.4797
▁outline	-10.4799
▁ma	-10.48
▁track	-10.4801
▁war	-10.4802
▁strangely	-10.4808
▁upside	-10.481
▁De	-10.4815
▁Still	-10.4819
▁twin	-10.4828
▁Mudblood	-10.4842
av	-10.4852
▁signs	-10.4856
▁wishing	-10.4865
▁lines	-10.4867
ron	-10.487
▁catching	-10.4873
ake	-10.4909
ure	-10.493
▁gates	-10.495
Anyway	-10.4956
▁guess	-10.4968
▁bald	-10.4992
▁Apparate	-10.4993
▁storm	-10.4997
▁la	-10.5007
ite	-10.5019
▁Creevey	-10.502
▁butterbeer	-10.502
▁cottage	-10.502
▁earlier	-10.502
▁examination	-10.502
▁extraordinary	-10.502
▁miserable	-10.502
▁miserably	-10.502
▁mysterious	-10.502
▁opportunity	-10.502
▁honor	-10.502
▁rattling	-10.502
▁silly	-10.502
▁sofa	-10.502
▁spinning	-10.502
Shut	-10.5021
▁dangling	-10.5021
▁awful	-10.5021
▁briskly	-10.5022
▁lightning	-10.5026
▁torn	-10.5026
▁add	-10.5028
▁squealed	-10.5028
▁Fire	-10.5028
▁overheard	-10.5029
▁Gregorovitch	-10.5029
▁wiped	-10.5031
▁concealed	-10.5033
▁pockets	-10.5034
▁wine	-10.5035
▁weakly	-10.5036
▁curses	-10.5036
▁Broomsticks	-10.5047
▁murdered	-10.5061
▁dressing	-10.5061
▁lately	-10.5062
▁hats	-10.5062
▁sweet	-10.5064
▁yard	-10.5074
▁acting	-10.508
▁feather	-10.5089
▁?'	-10.5093
▁fork	-10.5113
▁keeps	-10.5127
About	-10.5128
▁cl	-10.517
▁flame	-10.5177
gra	-10.5181
air	-10.5183
▁pre	-10.5196
▁talked	-10.5203
With	-10.5206
After	-10.5207
because	-10.5207
Give	-10.5208
▁se	-10.5211
Was	-10.5214
▁tha	-10.5216
▁alarm	-10.5218
▁shriek	-10.5219
ak	-10.5224
let	-10.5228
▁ra	-10.5234
-`	-10.5236
▁possess	-10.5245
AN	-10.5245
▁manage	-10.5247
On	-10.5254
▁chin	-10.5255
▁bench	-10.5267
cent	-10.5269
▁Express	-10.527
▁Finnigan	-10.527
▁Nimbus	-10.527
▁accompanied	-10.527
▁easier	-10.527
▁future	-10.527
▁horribly	-10.527
▁chicken	-10.527
▁fifteen	-10.527
▁paid	-10.527
▁prospect	-10.527
▁ensure	-10.527
▁reply	-10.527
▁Bones	-10.527
▁shield	-10.527
▁center	-10.527
▁safety	-10.527
▁string	-10.5271
▁hungry	-10.5272
▁defend	-10.5272
▁Quibbler	-10.5273
▁punishment	-10.5273
▁sadly	-10.5276
▁squeezed	-10.5278
▁clicked	-10.528
▁hitting	-10.528
lit	-10.5281
▁suspected	-10.5284
▁Look	-10.5286
▁Captain	-10.5286
Nice	-10.5287
▁ingredients	-10.5288
▁approaching	-10.529
▁examined	-10.5292
▁Yet	-10.5294
▁fists	-10.5302
ably	-10.5311
▁gang	-10.5314
▁faster	-10.5314
▁sticking	-10.5317
▁Good	-10.533
▁thousand	-10.5331
▁Would	-10.5341
▁fangs	-10.5342
ump	-10.5348
not	-10.5349
▁loved	-10.5352
gged	-10.5358
▁bones	-10.5367
▁sliding	-10.5369
ang	-10.537
▁needs	-10.5429
ound	-10.5436
gy	-10.5438
▁Very	-10.5463
Neville	-10.5463
pitched	-10.5469
ied	-10.5489
▁mess	-10.549
▁ignore	-10.5501
▁recognize	-10.5501
▁discover	-10.5503
sized	-10.5504
▁Spells	-10.5507
▁froze	-10.5511
▁suspicious	-10.5516
▁cared	-10.552
▁Monday	-10.5527
▁Thousand	-10.5527
▁boggart	-10.5527
▁dormitories	-10.5527
▁drank	-10.5527
▁explanation	-10.5527
▁flesh	-10.5527
▁illegal	-10.5527
▁necklace	-10.5527
▁opinion	-10.5527
▁outstretched	-10.5527
▁progress	-10.5527
▁ribs	-10.5527
▁symbol	-10.5527
▁telephone	-10.5527
▁truly	-10.5527
▁underneath	-10.5527
▁veela	-10.5527
▁Boy	-10.5527
▁swooped	-10.5527
▁frantically	-10.5527
▁crate	-10.5527
▁positively	-10.5528
▁amongst	-10.5529
▁Bertha	-10.5531
▁sixth	-10.5531
▁reflected	-10.5533
▁ducked	-10.554
▁perched	-10.5541
▁groaned	-10.5542
▁Bell	-10.5543
▁shadowy	-10.5546
▁offer	-10.5546
▁pressing	-10.5549
▁ga	-10.5553
▁store	-10.5553
▁sooner	-10.5561
▁chain	-10.5571
▁jumping	-10.5579
▁cloaks	-10.5582
▁horses	-10.5594
IN	-10.5602
▁club	-10.5634
▁candles	-10.5637
St	-10.5648
▁returning	-10.5658
▁com	-10.5666
▁rounded	-10.5674
Could	-10.5726
▁sweat	-10.5733
▁enjoy	-10.5737
▁push	-10.5739
off	-10.5744
▁screams	-10.5751
▁drive	-10.576
▁greet	-10.5761
ung	-10.5761
ward	-10.5775
time	-10.5777
▁unusual	-10.578
▁Brown	-10.579
▁Marietta	-10.579
▁ashamed	-10.579
▁bulging	-10.579
▁choose	-10.579
▁yesterday	-10.579
▁ordinary	-10.579
▁star	-10.5791
▁supporters	-10.5793
▁illuminated	-10.5794
▁Polyjuice	-10.5794
▁Dolores	-10.5796
▁Neither	-10.5796
▁quivering	-10.5796
▁collapsed	-10.5798
▁conjured	-10.5798
▁action	-10.5799
▁boxes	-10.58
▁proof	-10.5802
ient	-10.5811
▁letting	-10.5817
▁dim	-10.5829
▁flashed	-10.5833
▁friendly	-10.5843
sion	-10.5852
▁sides	-10.5857
▁fla	-10.5864
▁rule	-10.5867
▁gate	-10.5868
▁casting	-10.5869
▁smaller	-10.5872
▁sigh	-10.5953
Take	-10.5997
poster	-10.6
turn	-10.6001
Mum	-10.6002
een	-10.602
▁cart	-10.6022
▁correct	-10.6025
▁rows	-10.6045
▁numb	-10.6047
▁plain	-10.6052
Certainly	-10.606
▁Cross	-10.606
▁Leaky	-10.606
▁basilisk	-10.606
▁hollow	-10.606
▁seizing	-10.606
▁slumped	-10.606
▁steady	-10.606
▁tapestry	-10.606
▁hood	-10.6061
▁lack	-10.6061
lic	-10.6061
▁crouched	-10.6062
▁Aurors	-10.6062
▁bunch	-10.6064
▁Flint	-10.6064
▁bedside	-10.6065
▁cutting	-10.6066
lessly	-10.6066
▁Travers	-10.6066
▁involved	-10.6067
▁gathered	-10.6069
▁feelings	-10.607
▁suspiciously	-10.6071
▁shivering	-10.6071
▁mountain	-10.6071
▁shooting	-10.6072
▁cause	-10.6072
▁nostrils	-10.6074
▁stronger	-10.6075
▁bending	-10.6076
▁guessed	-10.6086
▁destroyed	-10.6091
▁normally	-10.6091
▁AND	-10.6092
quarters	-10.6098
Stop	-10.6103
▁fan	-10.6104
▁gets	-10.6114
▁lied	-10.6117
▁Could	-10.6127
▁visited	-10.6138
ening	-10.6145
▁Ted	-10.6176
ugh	-10.6178
▁load	-10.6186
▁ghosts	-10.6203
iest	-10.6208
colored	-10.6274
Someone	-10.6274
mber	-10.6282
▁perform	-10.6285
▁spend	-10.6311
▁dawn	-10.6314
▁instant	-10.6327
▁particular	-10.6327
▁triumph	-10.6337
▁favor	-10.6337
▁Instead	-10.6338
▁bloke	-10.6338
▁crumpled	-10.6338
▁husband	-10.6338
▁stool	-10.6338
▁pouring	-10.6338
▁racing	-10.6338
▁beetle	-10.6338
▁Stunning	-10.6338
▁trapped	-10.6338
▁shade	-10.6338
▁shame	-10.6338
legged	-10.6341
▁Bulgarian	-10.6342
bl	-10.6342
▁hurtled	-10.6343
▁exhausted	-10.6343
▁distinctly	-10.6343
▁swirling	-10.6345
▁inter	-10.6347
ple	-10.6348
▁released	-10.6349
▁bolt	-10.6351
▁wherever	-10.6353
▁swinging	-10.6355
▁wheeled	-10.6355
▁faintly	-10.6356
▁misty	-10.6356
▁sweater	-10.6356
▁traveling	-10.6358
▁bored	-10.6363
enthusiastically	-10.637
▁stranger	-10.6371
▁pretended	-10.6372
dy	-10.6378
▁upper	-10.6398
▁tie	-10.6404
▁Please	-10.6433
ide	-10.6448
▁prefects	-10.6468
▁cap	-10.6468
▁heels	-10.6471
ching	-10.6486
▁Maybe	-10.6512
▁rag	-10.652
aded	-10.6529
▁OWL	-10.6552
room	-10.6556
Arthur	-10.656
▁stretch	-10.6572
▁thrust	-10.6595
▁Are	-10.6595
▁screech	-10.66
▁survive	-10.661
▁stiff	-10.6613
▁broad	-10.6613
▁clouds	-10.6614
▁chuck	-10.6622
▁silk	-10.6623
acharias	-10.6623
▁Behind	-10.6623
▁absence	-10.6623
▁emerald	-10.6623
▁fragment	-10.6623
▁happier	-10.6623
▁magnificent	-10.6623
▁parcel	-10.6623
▁screwed	-10.6623
▁squinting	-10.6623
▁various	-10.6623
▁clipboard	-10.6623
▁Norbert	-10.6624
▁hut	-10.6624
▁reflection	-10.6624
▁motionless	-10.6625
▁paw	-10.6625
▁comment	-10.6627
▁otherwise	-10.6629
▁personal	-10.6629
▁beds	-10.6632
▁twisting	-10.6632
▁smirking	-10.6633
▁ho	-10.6638
▁Minerva	-10.6639
▁dully	-10.664
▁addressed	-10.6642
▁blond	-10.6642
▁Disapparated	-10.6642
▁More	-10.6649
▁searched	-10.6657
▁madly	-10.6668
▁widely	-10.6681
▁miles	-10.6683
▁thickly	-10.6692
▁nerve	-10.6721
▁rope	-10.6724
▁holiday	-10.6725
▁purpose	-10.6733
▁aim	-10.6739
Mad	-10.6754
▁hurting	-10.6768
▁HE	-10.677
tle	-10.6774
lus	-10.6776
▁signed	-10.6778
▁insides	-10.6794
▁fur	-10.6809
▁ropes	-10.6816
▁bags	-10.6839
how	-10.6842
black	-10.6855
▁pin	-10.6858
sen	-10.6861
▁flick	-10.6865
▁remembering	-10.6867
▁cheeks	-10.6868
den	-10.6876
▁resist	-10.6888
▁clatter	-10.6889
▁share	-10.6892
▁gift	-10.6894
▁concern	-10.6894
Exactly	-10.6918
▁Dolohov	-10.6918
▁Oliver	-10.6918
▁Patil	-10.6918
▁advice	-10.6918
▁continuing	-10.6918
▁depths	-10.6918
▁gliding	-10.6918
▁happiness	-10.6918
▁magazine	-10.6918
Indeed	-10.6918
▁account	-10.6918
▁partner	-10.6918
▁lane	-10.6918
▁winning	-10.6919
▁Willow	-10.6919
▁tipped	-10.6919
▁iron	-10.6919
▁grab	-10.6919
▁farther	-10.6921
▁uncertainly	-10.6921
▁alongside	-10.6922
▁hero	-10.6923
▁urgently	-10.6925
▁afterward	-10.6925
▁satisfied	-10.6926
▁pop	-10.6927
▁roughly	-10.6927
▁harm	-10.6928
▁smoothly	-10.6935
▁performed	-10.6943
▁hooded	-10.6943
▁flatly	-10.6947
▁waste	-10.6948
▁rushed	-10.695
▁discussing	-10.6958
▁mud	-10.6964
▁happens	-10.6967
▁Tell	-10.6978
▁towering	-10.6981
ign	-10.6987
▁dreamed	-10.6988
▁Here	-10.7004
▁beg	-10.701
▁cake	-10.7027
▁belong	-10.7046
▁details	-10.7061
▁presents	-10.7065
tering	-10.7105
▁houses	-10.7121
right	-10.7138
▁owner	-10.7153
que	-10.7156
Blood	-10.7156
Everyone	-10.7157
Fred	-10.716
▁potions	-10.7162
Does	-10.7168
headed	-10.7176
▁quarter	-10.7178
▁examine	-10.7181
▁warn	-10.7189
▁comfort	-10.719
▁kick	-10.7197
▁insist	-10.7197
▁pipe	-10.7199
ize	-10.72
▁limp	-10.7205
▁bore	-10.7206
▁entire	-10.721
▁eager	-10.721
▁broomsticks	-10.721
▁chill	-10.7211
▁public	-10.7213
▁proper	-10.7214
pect	-10.7219
Dunno	-10.7221
▁Frog	-10.7221
▁Montague	-10.7221
▁frog	-10.7221
▁maze	-10.7221
▁steadily	-10.7221
▁swayed	-10.7221
▁threshold	-10.7221
▁crammed	-10.7221
▁shiny	-10.7221
▁duty	-10.7221
▁shrugging	-10.7221
▁accidentally	-10.7222
▁ze	-10.7222
▁NOT	-10.7222
▁protective	-10.7222
▁sake	-10.7222
▁suspended	-10.7223
▁race	-10.7223
▁hushed	-10.7225
▁darted	-10.7227
▁School	-10.7228
▁drifted	-10.7228
▁proceeded	-10.723
▁painting	-10.7232
▁thoughtfully	-10.7234
▁Meanwhile	-10.7236
▁While	-10.7241
▁pajamas	-10.7242
▁upright	-10.7251
▁pie	-10.7257
▁dive	-10.7258
▁mistaken	-10.7263
▁cheer	-10.7273
▁mug	-10.7281
▁Will	-10.7285
▁avoiding	-10.729
▁pairs	-10.7291
▁tense	-10.7293
▁reaching	-10.7298
▁rumors	-10.7327
▁stag	-10.7332
▁fetch	-10.7335
▁judge	-10.7338
▁kids	-10.7388
▁plant	-10.7398
▁poster	-10.7401
▁hissing	-10.7447
▁dungeons	-10.7449
▁chains	-10.745
Tell	-10.7469
Lupin	-10.747
NO	-10.7472
▁attract	-10.7478
▁dread	-10.7491
▁anti	-10.75
▁argue	-10.7506
▁urge	-10.7507
▁remove	-10.7507
▁sprint	-10.751
▁punch	-10.7511
▁delight	-10.7512
▁hid	-10.7513
▁stole	-10.7519
▁ginger	-10.7523
▁lump	-10.7524
▁threatening	-10.7529
▁Horntail	-10.7533
▁behavior	-10.7533
▁kettle	-10.7533
▁lantern	-10.7533
▁puzzled	-10.7533
▁ridiculous	-10.7533
▁schedule	-10.7533
▁tentatively	-10.7533
▁umbrella	-10.7533
Accio	-10.7533
▁blew	-10.7533
▁instance	-10.7533
▁curtly	-10.7533
▁married	-10.7533
▁impressive	-10.7533
▁talent	-10.7533
▁yourselves	-10.7534
▁cellar	-10.7534
▁poking	-10.7534
▁gloomily	-10.7534
▁veil	-10.7534
▁slipping	-10.7534
▁Healer	-10.7534
▁retrieve	-10.7534
▁gripped	-10.7534
▁decent	-10.7534
▁beast	-10.7535
▁incredulously	-10.7535
▁crooked	-10.7536
▁hello	-10.7536
▁lurking	-10.7536
▁swiftly	-10.7537
▁faithful	-10.7538
▁trembled	-10.7542
▁Slowly	-10.7542
▁drained	-10.7543
▁plainly	-10.7545
▁Many	-10.7547
▁snorted	-10.7548
▁blinking	-10.7548
▁painfully	-10.7552
▁connected	-10.7554
▁blocked	-10.7554
▁shoes	-10.7555
▁filling	-10.7559
▁snowy	-10.7562
▁stretching	-10.7564
▁breathe	-10.7564
Leave	-10.757
Making	-10.7587
▁narrowed	-10.7594
owing	-10.7603
▁bloody	-10.7606
cur	-10.764
▁These	-10.765
ey	-10.7654
men	-10.7657
▁edged	-10.7678
▁curtain	-10.7678
▁player	-10.768
Mrs	-10.7684
oke	-10.7688
ER	-10.7705
▁mere	-10.7706
▁DO	-10.7721
▁papers	-10.7729
▁players	-10.773
▁career	-10.7738
▁useless	-10.7751
▁remind	-10.7773
Out	-10.7792
Severus	-10.7792
ball	-10.7798
▁kiss	-10.7804
▁IN	-10.7804
▁climb	-10.7804
▁press	-10.7809
▁hex	-10.7816
ech	-10.7816
▁detect	-10.782
▁experience	-10.7829
▁struggle	-10.783
▁neat	-10.7845
▁rough	-10.7845
▁spy	-10.7854
▁thirty	-10.7856
▁Merope	-10.7856
▁antidote	-10.7856
▁astonished	-10.7856
▁breeze	-10.7856
▁contrary	-10.7856
▁daresay	-10.7856
▁emotion	-10.7856
▁jeans	-10.7856
▁pouch	-10.7856
▁satisfaction	-10.7856
▁undoubtedly	-10.7856
▁slamming	-10.7856
▁zooming	-10.7856
▁bewitched	-10.7856
▁mixture	-10.7856
▁swam	-10.7856
▁Halloween	-10.7856
▁fuss	-10.7856
▁pudding	-10.7856
▁image	-10.7856
ified	-10.7857
▁Law	-10.7857
▁comfortable	-10.7857
▁shelf	-10.7857
▁button	-10.7858
▁stumbled	-10.7859
▁shimmering	-10.7859
▁shrilly	-10.7861
▁Chocolate	-10.7861
▁occasionally	-10.7861
ities	-10.7864
▁Apparition	-10.7865
▁recently	-10.7866
▁clambered	-10.7866
▁descended	-10.7866
▁abandoned	-10.7866
Shall	-10.7868
▁reappeared	-10.787
▁birds	-10.7874
▁belonged	-10.7881
▁kissing	-10.7884
▁gulped	-10.7889
▁blasted	-10.789
line	-10.789
▁promised	-10.7893
▁streaming	-10.7895
▁cur	-10.7902
▁Hufflepuffs	-10.7903
▁banging	-10.7919
▁roaring	-10.7922
▁Ten	-10.7941
▁secrets	-10.7952
▁Like	-10.7954
there	-10.7967
▁grow	-10.7987
▁results	-10.7994
▁bits	-10.7995
▁remains	-10.801
▁ca	-10.8013
HE	-10.8021
bling	-10.8027
▁faced	-10.8035
take	-10.8038
▁tips	-10.8047
▁hairy	-10.8051
io	-10.8054
▁directions	-10.8058
cy	-10.8096
▁feathers	-10.8111
▁comes	-10.8124
green	-10.8126
▁squeak	-10.8127
borns	-10.8134
▁collect	-10.8135
▁consider	-10.8136
▁fill	-10.8138
thing	-10.8147
▁suck	-10.8162
▁concentrate	-10.8162
▁deliver	-10.8165
▁hover	-10.8166
▁theory	-10.8167
De	-10.8174
▁recent	-10.8182
▁snap	-10.8188
▁kneel	-10.8189
▁tale	-10.8189
▁Goblet	-10.8189
▁Macmillan	-10.8189
▁Office	-10.8189
▁Owlery	-10.8189
▁Parseltongue	-10.8189
▁Squib	-10.8189
▁appreciate	-10.8189
▁arguing	-10.8189
▁brass	-10.8189
▁community	-10.8189
▁luggage	-10.8189
▁shuffled	-10.8189
▁cautiously	-10.8189
▁poured	-10.8189
▁archway	-10.8189
▁clapping	-10.8189
▁unknown	-10.819
▁patting	-10.819
▁manner	-10.819
▁deny	-10.8191
▁daring	-10.8191
▁lace	-10.8191
▁slimy	-10.8191
▁admitted	-10.8191
▁mail	-10.8191
▁amused	-10.8191
▁spite	-10.8192
▁pig	-10.8193
▁skill	-10.8196
▁bath	-10.8198
▁hoarsely	-10.8198
▁unlikely	-10.8198
▁Auntie	-10.8198
▁drowned	-10.8199
▁fluttered	-10.8199
▁strained	-10.8201
▁dimly	-10.8202
▁risen	-10.8213
con	-10.8218
▁climbing	-10.8218
▁cheering	-10.822
▁grim	-10.822
amp	-10.8227
▁En	-10.8227
▁Over	-10.8227
▁lovely	-10.8233
▁First	-10.8241
▁counting	-10.825
▁howling	-10.8252
▁beam	-10.8274
▁aback	-10.8281
▁lamps	-10.8285
▁bark	-10.8297
▁winged	-10.8298
▁vo	-10.8306
▁sing	-10.8315
own	-10.8318
▁spirits	-10.832
▁knee	-10.8361
▁shower	-10.8375
Re	-10.8387
▁turns	-10.8389
unch	-10.8404
▁Ravenclaws	-10.8419
round	-10.8427
sk	-10.8447
▁Thanks	-10.8459
pot	-10.8466
Will	-10.8469
Something	-10.847
▁treat	-10.8481
▁shudder	-10.8482
▁disappear	-10.8482
▁cough	-10.8482
can	-10.8491
▁giggle	-10.8507
▁separate	-10.8508
▁seize	-10.8508
▁inform	-10.851
▁realise	-10.8511
▁grasp	-10.8511
▁pet	-10.8515
▁total	-10.8517
▁regular	-10.8523
▁casual	-10.8523
▁honest	-10.8523
▁fierce	-10.8523
they	-10.8528
▁Advanced	-10.8534
▁Decree	-10.8534
▁Felix	-10.8534
▁brandishing	-10.8534
▁disbelief	-10.8534
▁graveyard	-10.8534
▁indicated	-10.8534
▁lopsided	-10.8534
▁milk	-10.8534
▁shabby	-10.8534
▁squinted	-10.8534
▁steak	-10.8534
▁swaying	-10.8534
▁television	-10.8534
▁Bane	-10.8534
▁nightmare	-10.8534
▁scroll	-10.8534
▁waist	-10.8534
▁alleyway	-10.8534
▁sought	-10.8534
▁capture	-10.8534
▁blurred	-10.8534
▁display	-10.8534
▁moonlight	-10.8535
▁wandering	-10.8535
▁gripping	-10.8535
▁midst	-10.8535
▁slightest	-10.8538
▁plunged	-10.8538
▁begin	-10.854
▁gown	-10.8541
▁shattered	-10.8543
▁recognised	-10.8544
▁intently	-10.8544
▁awkwardly	-10.8544
▁Bus	-10.8545
▁twitched	-10.8545
▁suffered	-10.8546
▁glinting	-10.8546
▁scratching	-10.8546
▁fish	-10.8553
▁Apparently	-10.8558
▁insisted	-10.8561
▁shaken	-10.8562
▁seek	-10.8567
▁survived	-10.8571
▁Me	-10.8571
▁None	-10.8577
▁glowing	-10.8577
▁proved	-10.858
▁outta	-10.8595
▁speeding	-10.8599
▁flashing	-10.8602
▁marked	-10.8602
oving	-10.8611
bu	-10.8615
cid	-10.8632
TH	-10.8636
▁attacking	-10.8658
▁drinking	-10.8665
▁feared	-10.8667
▁mis	-10.8673
▁kid	-10.8696
▁worrying	-10.8733
▁.``	-10.8736
▁Deathly	-10.8741
▁pit	-10.8747
aving	-10.8748
use	-10.8753
▁sa	-10.8753
▁judges	-10.8754
▁pr	-10.8762
▁pan	-10.8781
▁Bludgers	-10.8781
gar	-10.8788
rous	-10.8794
ark	-10.8794
ory	-10.8797
▁hug	-10.8815
Keep	-10.8816
board	-10.8817
▁tracks	-10.8818
▁attend	-10.8824
shaped	-10.8826
Still	-10.8827
▁fail	-10.8839
▁approach	-10.884
▁block	-10.884
▁whi	-10.8854
▁hi	-10.8859
▁transform	-10.8866
▁focus	-10.8867
▁borrow	-10.8867
▁claw	-10.8867
▁main	-10.8869
▁shapes	-10.8873
▁bare	-10.8876
▁false	-10.888
▁gloom	-10.888
▁natural	-10.888
▁awkward	-10.8881
▁guilt	-10.8881
AL	-10.8888
▁success	-10.8889
▁Flamel	-10.8891
▁Nagini	-10.8891
▁Wizengamot	-10.8891
▁amazement	-10.8891
▁caretaker	-10.8891
▁confidence	-10.8891
▁gruffly	-10.8891
▁meanwhile	-10.8891
▁pacing	-10.8891
▁penetrate	-10.8891
▁popular	-10.8891
▁possibility	-10.8891
▁request	-10.8891
▁slept	-10.8891
▁suspicion	-10.8891
▁uncomfortably	-10.8891
▁thumb	-10.8891
▁swimming	-10.8891
▁roof	-10.8891
▁protest	-10.8891
▁Floo	-10.8891
▁blazing	-10.8891
▁flask	-10.8891
shirt	-10.8891
▁trolley	-10.8891
▁popping	-10.8892
▁bump	-10.8893
▁mental	-10.8894
▁absolutely	-10.8895
▁rip	-10.8895
rap	-10.8895
▁scribbled	-10.8898
▁sternly	-10.8898
▁utterly	-10.89
▁pleasantly	-10.89
Anything	-10.89
▁chilly	-10.8903
▁broadly	-10.8904
▁leaping	-10.8914
▁according	-10.8915
▁intent	-10.8915
▁OUT	-10.8916
▁hill	-10.892
▁slide	-10.8926
ments	-10.8932
▁Think	-10.8935
▁bothered	-10.8938
▁handful	-10.894
▁Dear	-10.8944
oping	-10.8944
▁revealed	-10.8947
▁crashed	-10.8949
▁entering	-10.8952
▁ordered	-10.8958
▁informed	-10.8962
▁tear	-10.8963
▁photographs	-10.8964
▁area	-10.8979
▁comp	-10.8979
▁enchantments	-10.8981
jo	-10.899
▁cursed	-10.8995
▁desks	-10.8999
▁skrewts	-10.9017
▁Mar	-10.9033
▁ankles	-10.9046
▁Never	-10.9056
▁sorts	-10.9059
▁drops	-10.9062
▁Wizard	-10.9068
ised	-10.9079
▁stuffing	-10.9098
▁lightly	-10.9103
▁heat	-10.9116
▁bursting	-10.9118
where	-10.9143
ius	-10.9144
face	-10.9172
▁reasons	-10.9182
▁Ha	-10.9193
just	-10.9198
▁vanish	-10.921
moon	-10.9211
▁Right	-10.9211
▁deserve	-10.9235
▁address	-10.9238
▁wheel	-10.9238
term	-10.9239
▁awoke	-10.9245
▁grateful	-10.9251
▁strip	-10.9261
▁gentle	-10.9261
▁Butterbeer	-10.9261
▁Friday	-10.9261
▁Honeydukes	-10.9261
▁Ireland	-10.9261
▁Knight	-10.9261
▁amazed	-10.9261
▁basket	-10.9261
▁concentrating	-10.9261
▁despite	-10.9261
▁extinguished	-10.9261
▁habit	-10.9261
▁jolt	-10.9261
▁necessary	-10.9261
▁rumbling	-10.9261
▁scattered	-10.9261
▁strike	-10.9261
▁substance	-10.9261
▁swollen	-10.9261
▁underground	-10.9261
▁revolv	-10.9261
▁rigid	-10.9261
▁service	-10.9261
▁bigger	-10.9261
▁forbidden	-10.9261
▁giggling	-10.9261
▁orphanage	-10.9262
▁coins	-10.9262
▁shone	-10.9263
▁prisoners	-10.9263
▁mid	-10.9263
▁wearily	-10.9263
▁straightening	-10.9264
▁spring	-10.9264
Say	-10.9264
▁eyeing	-10.9267
▁floated	-10.9267
▁traitor	-10.9268
▁beckoned	-10.927
▁cost	-10.927
▁blonde	-10.927
▁frowned	-10.9272
▁drifting	-10.9273
▁distracted	-10.9273
▁honestly	-10.9273
▁disturbed	-10.9273
▁fluttering	-10.9275
▁assured	-10.9278
▁contained	-10.9278
▁clicking	-10.9279
▁pity	-10.9279
May	-10.9279
▁curly	-10.928
▁narrowly	-10.9294
▁whoever	-10.93
Stand	-10.93
ify	-10.9303
▁adding	-10.9304
▁gaped	-10.9305
ition	-10.9309
▁goodness	-10.9311
▁learning	-10.9322
▁avoided	-10.9333
▁acted	-10.9338
▁Blood	-10.9341
▁guarding	-10.9355
▁blankets	-10.9355
▁hurriedly	-10.9361
▁Chang	-10.9362
▁covering	-10.9363
▁Ma	-10.9365
ES	-10.9369
j	-10.9373
▁Thestrals	-10.9377
▁heap	-10.9386
Hold	-10.9388
Un	-10.939
▁touching	-10.9391
▁attacks	-10.942
▁Chasers	-10.943
▁bubble	-10.9449
▁pillow	-10.9449
▁posts	-10.9468
▁secure	-10.9485
▁works	-10.9496
▁cheers	-10.95
▁goin	-10.9521
▁humans	-10.9551
▁sweets	-10.956
Percy	-10.9583
Miss	-10.9583
Bill	-10.9583
▁punish	-10.9618
▁score	-10.962
▁sniff	-10.9622
▁groan	-10.9623
▁stack	-10.9623
▁confident	-10.9635
▁fond	-10.9635
▁polite	-10.9636
▁music	-10.9643
▁chat	-10.9646
Expelliarmus	-10.9646
▁Davies	-10.9646
▁Deluminator	-10.9646
▁Felicis	-10.9646
▁Hepzibah	-10.9646
▁Johnson	-10.9646
▁Jorkins	-10.9646
▁September	-10.9646
▁concentration	-10.9646
▁consult	-10.9646
▁grandmother	-10.9646
▁merpeople	-10.9646
▁momentarily	-10.9646
▁official	-10.9646
▁practise	-10.9646
▁respond	-10.9646
▁telescope	-10.9646
▁valuable	-10.9646
▁campsite	-10.9646
▁hugged	-10.9646
▁neighbor	-10.9646
▁tucked	-10.9646
▁battered	-10.9646
▁canvas	-10.9646
▁drove	-10.9646
▁snore	-10.9646
▁alert	-10.9646
▁tugging	-10.9646
▁Stunned	-10.9646
▁carved	-10.9646
▁sparkling	-10.9646
▁history	-10.9647
▁patted	-10.9647
▁chuckled	-10.9647
▁embarrassed	-10.9648
▁fence	-10.9649
▁Book	-10.965
▁sniggered	-10.965
▁advanced	-10.9651
▁benches	-10.9651
▁announced	-10.9652
▁precisely	-10.9652
▁firelight	-10.9652
▁POTTER	-10.9652
▁jinxes	-10.9653
▁bushy	-10.9655
▁violently	-10.9656
▁Nor	-10.966
▁cheerfully	-10.9664
▁poked	-10.9665
▁whirled	-10.9666
ian	-10.9666
▁bowler	-10.9668
▁Father	-10.9668
▁tortured	-10.9671
▁Everything	-10.9673
▁kissed	-10.9674
▁blocking	-10.9676
Won	-10.968
▁wo	-10.9681
▁Four	-10.9682
▁taste	-10.9685
▁Looking	-10.9691
▁sneaking	-10.9693
▁protected	-10.9696
▁rushing	-10.9698
▁badges	-10.9701
▁meetings	-10.9705
▁blinding	-10.9705
▁studying	-10.9705
OO	-10.9706
▁non	-10.9716
▁paying	-10.972
▁gloves	-10.972
▁Beaters	-10.9751
cc	-10.9755
▁Al	-10.9757
▁mead	-10.9767
▁print	-10.977
▁bangs	-10.9772
▁corners	-10.9813
ries	-10.9819
▁animal	-10.985
▁detail	-10.9854
▁award	-10.986
worthy	-10.9889
Sp	-10.9898
▁cakes	-10.9901
ously	-10.9913
▁lid	-10.992
▁understanding	-10.9961
Perhaps	-10.9982
Muggle	-10.9983
hot	-10.9983
Even	-10.9983
Our	-10.9991
▁hum	-11.0012
made	-11.0013
▁torture	-11.002
▁Disapparate	-11.002
▁distract	-11.0022
▁mountains	-11.0029
▁general	-11.0035
▁hoarse	-11.0036
▁pleasant	-11.0036
▁tart	-11.0045
lunk	-11.0045
▁Fluffy	-11.0046
▁Hannah	-11.0046
▁Horace	-11.0046
▁Malkin	-11.0046
▁Roberts	-11.0046
▁Whomping	-11.0046
▁advantage	-11.0046
▁bounced	-11.0046
▁bouncing	-11.0046
▁claim	-11.0046
▁compared	-11.0046
▁courage	-11.0046
▁despair	-11.0046
▁disappointment	-11.0046
▁eagle	-11.0046
▁feebly	-11.0046
▁gamekeeper	-11.0046
▁grief	-11.0046
▁gritted	-11.0046
▁incantation	-11.0046
▁knuckles	-11.0046
▁muscle	-11.0046
▁patronum	-11.0046
▁resembled	-11.0046
▁smart	-11.0046
▁spectacular	-11.0046
▁steep	-11.0046
▁withdrew	-11.0046
Excuse	-11.0046
Expecto	-11.0046
Probably	-11.0046
▁crime	-11.0046
▁funeral	-11.0046
▁grindylow	-11.0046
▁injuries	-11.0046
▁pavement	-11.0046
▁resentful	-11.0046
▁toppled	-11.0046
▁begun	-11.0046
▁deafening	-11.0046
▁Irish	-11.0046
▁series	-11.0046
▁fancy	-11.0046
Said	-11.0046
▁ragged	-11.0046
▁flickered	-11.0047
▁stirred	-11.0047
▁pinned	-11.0047
▁muddy	-11.0047
▁boring	-11.0047
▁Astronomy	-11.0047
▁permitted	-11.0047
▁ferret	-11.0047
▁saving	-11.0047
▁nu	-11.0048
▁crouching	-11.0049
▁agony	-11.0049
▁unlike	-11.005
▁realizing	-11.0051
▁yawned	-11.0054
▁gloomy	-11.0057
▁betrayed	-11.0059
▁creaked	-11.006
▁shoved	-11.0061
▁streaked	-11.0061
Put	-11.0061
▁underage	-11.0064
▁Pro	-11.0064
▁invited	-11.0065
▁proudly	-11.0068
▁grasped	-11.0074
▁flicked	-11.0078
now	-11.0079
▁ghostly	-11.008
▁FOR	-11.0081
▁tearing	-11.0082
▁intended	-11.0109
▁pupils	-11.0123
▁ringing	-11.0142
▁su	-11.0164
Number	-11.0169
RA	-11.0172
▁rats	-11.0192
▁formed	-11.0211
▁colored	-11.0222
head	-11.0224
▁sobs	-11.0239
who	-11.024
▁detentions	-11.0246
▁owned	-11.0246
▁Wizards	-11.0262
▁Secret	-11.0269
▁Dementor	-11.027
LL	-11.0273
▁cars	-11.0278
Her	-11.0313
▁nod	-11.0315
▁Get	-11.0338
coming	-11.0368
▁blind	-11.0388
▁-``	-11.0394
Remember	-11.0398
First	-11.0398
four	-11.0405
▁Ch	-11.0407
Dad	-11.0411
▁boo	-11.0412
▁colour	-11.0414
▁attempts	-11.0422
▁cards	-11.0425
▁yells	-11.0429
▁boil	-11.0436
▁introduce	-11.0436
▁require	-11.0436
▁suspect	-11.0439
▁jug	-11.044
▁gain	-11.0446
ley	-11.0447
▁utter	-11.0448
▁equal	-11.0452
▁violent	-11.0452
qua	-11.0454
▁prison	-11.0461
part	-11.0462
▁chess	-11.0463
Quite	-11.0463
▁Arithmancy	-11.0463
▁Committee	-11.0463
▁Extendable	-11.0463
▁Michael	-11.0463
▁Nevertheless	-11.0463
▁Sneakoscope	-11.0463
▁Sorcerer	-11.0463
▁ambition	-11.0463
▁bacon	-11.0463
▁bike	-11.0463
▁blunder	-11.0463
▁brick	-11.0463
▁brutal	-11.0463
▁centuries	-11.0463
▁church	-11.0463
▁cliff	-11.0463
▁curiosity	-11.0463
▁defense	-11.0463
▁encounter	-11.0463
▁fountain	-11.0463
▁joking	-11.0463
▁pausing	-11.0463
▁promptly	-11.0463
▁rucksack	-11.0463
▁thief	-11.0463
▁thread	-11.0463
▁trapdoor	-11.0463
▁trial	-11.0463
▁twinkling	-11.0463
▁unnatural	-11.0463
▁command	-11.0463
▁cream	-11.0463
▁mingled	-11.0463
▁model	-11.0463
▁swelling	-11.0463
▁Ern	-11.0463
▁amusing	-11.0463
▁pride	-11.0463
▁lazily	-11.0463
▁bucket	-11.0463
▁queue	-11.0463
▁clunk	-11.0464
▁sunken	-11.0464
▁price	-11.0464
▁stir	-11.0464
▁friendship	-11.0464
▁camp	-11.0464
▁hopeful	-11.0464
▁preferred	-11.0464
Stay	-11.0464
▁torches	-11.0464
▁devoted	-11.0465
▁planned	-11.0466
▁currently	-11.0466
▁exasperated	-11.0467
▁Ro	-11.0469
▁departed	-11.0469
▁plump	-11.047
▁mounted	-11.047
▁IT	-11.0471
▁darting	-11.0473
▁politely	-11.0474
▁huddled	-11.0476
▁neatly	-11.0476
▁flown	-11.0477
▁bitter	-11.0478
▁stiffly	-11.0478
▁gathering	-11.0479
▁twitching	-11.0479
▁flushed	-11.048
▁snatching	-11.0481
▁endure	-11.0483
▁thundering	-11.0485
▁maintain	-11.0485
Anyone	-11.0485
▁rare	-11.0485
▁trolls	-11.0486
▁fairly	-11.0487
▁sad	-11.0487
▁lookout	-11.0489
▁Use	-11.0492
▁taller	-11.0494
▁separated	-11.0495
▁Without	-11.05
▁Time	-11.0504
▁spending	-11.0506
▁glimpsed	-11.0509
▁Those	-11.0511
▁`--	-11.0522
▁Keep	-11.0528
Wow	-11.053
oon	-11.053
▁Vol	-11.0531
▁lowering	-11.0544
▁upwards	-11.0562
▁reckons	-11.0573
▁dared	-11.0579
▁Yeh	-11.0586
▁soup	-11.0589
▁watery	-11.0589
▁flu	-11.0598
▁ev	-11.0603
▁subjects	-11.0611
▁tu	-11.0617
▁Sh	-11.0639
▁greater	-11.064
ft	-11.0651
▁movements	-11.0657
Want	-11.0663
▁sob	-11.0671
▁Th	-11.0686
ized	-11.0698
▁Chaser	-11.0702
▁bars	-11.072
hu	-11.0724
▁tough	-11.0746
▁OWLs	-11.0753
....``	-11.0799
▁leap	-11.0801
▁deaths	-11.0806
▁goblets	-11.0809
ipping	-11.082
▁bo	-11.0829
covered	-11.083
Another	-11.0833
struck	-11.0834
Molly	-11.0834
fact	-11.0834
Sit	-11.0835
Nobody	-11.0835
van	-11.0843
▁disgust	-11.0845
▁fix	-11.0845
Some	-11.0845
▁splash	-11.0869
▁creep	-11.0869
▁chas	-11.0871
▁arrive	-11.0872
▁conceal	-11.0873
place	-11.0875
ending	-11.0878
handed	-11.088
▁Under	-11.0883
▁harsh	-11.0887
▁immense	-11.0887
▁brand	-11.0887
▁urgent	-11.0887
▁bush	-11.0892
▁perch	-11.0893
▁heel	-11.0894
▁tank	-11.0897
▁Inquisitor	-11.0897
▁motion	-11.0897
▁August	-11.0897
▁Cruciatus	-11.0897
▁Dedalus	-11.0897
▁Errol	-11.0897
▁Shacklebolt	-11.0897
▁Sunday	-11.0897
▁afford	-11.0897
▁attitude	-11.0897
▁chandelier	-11.0897
▁chunk	-11.0897
▁dazzling	-11.0897
▁fiery	-11.0897
▁imagining	-11.0897
▁incredible	-11.0897
▁nature	-11.0897
▁period	-11.0897
▁piercing	-11.0897
▁practicing	-11.0897
▁prediction	-11.0897
▁scales	-11.0897
▁skidded	-11.0897
▁surveyed	-11.0897
▁swore	-11.0897
▁teacup	-11.0897
▁transparent	-11.0897
▁venom	-11.0897
▁vivid	-11.0897
▁crunch	-11.0897
▁enemy	-11.0897
▁insane	-11.0897
▁pearly	-11.0897
▁session	-11.0897
▁shawl	-11.0897
▁swelled	-11.0897
▁HIM	-11.0897
Shh	-11.0897
▁flickering	-11.0897
▁Shield	-11.0897
▁damn	-11.0898
▁bundle	-11.0898
▁sugar	-11.0898
▁tugged	-11.0898
▁pressure	-11.0898
▁Easter	-11.0898
▁department	-11.0898
▁existence	-11.0898
▁Wizardry	-11.0898
▁grade	-11.0898
▁forcefully	-11.0899
▁fleeting	-11.0899
Hmm	-11.09
▁discussion	-11.09
Ready	-11.0901
▁sub	-11.0901
▁widened	-11.0902
▁emptied	-11.0902
▁warmth	-11.0903
▁tick	-11.0903
▁hatred	-11.0904
▁lady	-11.0904
▁unfortunately	-11.0905
▁werewolves	-11.0906
UM	-11.0907
▁yawning	-11.0908
Wha	-11.0909
▁achieved	-11.091
▁Amos	-11.091
▁Ah	-11.0911
▁polished	-11.0911
▁hoisted	-11.0912
▁thumping	-11.0912
▁directed	-11.0915
▁unusually	-11.0915
▁conscious	-11.0916
▁fashion	-11.092
▁Ex	-11.0921
Hand	-11.0922
▁charms	-11.0923
▁Merlin	-11.0925
▁woken	-11.093
▁screeched	-11.0934
▁blown	-11.0935
▁sacked	-11.0942
eek	-11.0944
▁hotly	-11.0946
▁eaten	-11.0953
▁wise	-11.0954
▁packing	-11.0955
▁ship	-11.0956
▁Another	-11.0963
▁magically	-11.0999
▁ability	-11.0999
▁cleaning	-11.1004
▁mend	-11.1005
▁twigs	-11.1008
ture	-11.1019
▁doubted	-11.1021
▁recall	-11.1034
ished	-11.1058
ically	-11.1058
▁deadly	-11.107
Ha	-11.1094
▁howl	-11.1101
day	-11.1107
▁elves	-11.1111
▁Lo	-11.1114
▁pace	-11.1128
▁aching	-11.1128
▁restrain	-11.1136
▁cushion	-11.1156
▁ankle	-11.1157
▁candle	-11.1158
▁result	-11.1159
Back	-11.1164
▁Ronan	-11.1227
▁...``	-11.1235
cause	-11.1254
▁im	-11.1256
foot	-11.1264
wise	-11.1281
two	-11.1288
Winky	-11.1288
will	-11.1289
said	-11.1289
▁longing	-11.1291
▁wan	-11.1295
bound	-11.1295
▁jerk	-11.1299
▁fog	-11.1302
▁moan	-11.1304
▁feed	-11.1324
▁scann	-11.1324
▁swing	-11.1324
▁assume	-11.1325
▁squash	-11.1328
▁stroll	-11.1328
▁whirl	-11.1329
▁mask	-11.1329
▁repeat	-11.1329
▁hangings	-11.1333
▁duck	-11.1334
▁brief	-11.1341
▁unexpected	-11.1341
▁firm	-11.1342
▁immediate	-11.1342
▁triumphant	-11.1342
Stupef	-11.1347
▁branch	-11.1349
▁cloth	-11.1349
▁blur	-11.135
▁gesture	-11.1351
▁fright	-11.1352
brush	-11.1352
▁jabb	-11.1352
Avada	-11.1352
▁Bagshot	-11.1352
▁Britain	-11.1352
▁Dirk	-11.1352
▁Through	-11.1352
▁amazing	-11.1352
▁appointment	-11.1352
▁atmosphere	-11.1352
▁bizarre	-11.1352
▁circumstances	-11.1352
▁complex	-11.1352
▁dazed	-11.1352
▁delicate	-11.1352
▁engine	-11.1352
▁eyelids	-11.1352
▁female	-11.1352
▁limb	-11.1352
▁material	-11.1352
▁peculiar	-11.1352
▁prickling	-11.1352
▁pursue	-11.1352
▁refusing	-11.1352
▁rustling	-11.1352
▁serenely	-11.1352
▁stooped	-11.1352
▁thrill	-11.1352
▁uncontrollably	-11.1352
▁whereabouts	-11.1352
▁Squad	-11.1352
▁bread	-11.1352
▁nevertheless	-11.1352
▁snout	-11.1352
▁nail	-11.1352
Ouch	-11.1352
▁slope	-11.1352
▁curved	-11.1352
▁flaming	-11.1352
▁grabbing	-11.1352
▁favourite	-11.1352
Always	-11.1352
▁practical	-11.1352
▁explosion	-11.1352
▁banned	-11.1352
▁ruddy	-11.1352
▁knight	-11.1353
Conf	-11.1353
Better	-11.1353
▁Feeling	-11.1353
▁mopping	-11.1353
▁tapping	-11.1353
▁lime	-11.1353
▁cries	-11.1353
▁compete	-11.1353
▁surge	-11.1353
▁earshot	-11.1354
▁barman	-11.1354
▁skinny	-11.1354
▁Baron	-11.1354
▁sto	-11.1354
▁bushes	-11.1355
▁UP	-11.1356
▁earnestly	-11.1356
▁Inside	-11.1356
▁reward	-11.1356
▁nudged	-11.1359
▁immensely	-11.1363
▁spilled	-11.1364
▁resumed	-11.1364
▁chattering	-11.1365
▁distractedly	-11.1365
▁headline	-11.1365
▁Everybody	-11.1366
▁issued	-11.1366
▁ruined	-11.1369
▁outraged	-11.137
▁suffering	-11.1371
▁deepest	-11.1371
▁stray	-11.1372
▁prize	-11.1372
▁frightening	-11.1373
▁traveled	-11.1374
▁rack	-11.1377
this	-11.1379
▁required	-11.1381
▁disgusting	-11.1382
▁unpleasantly	-11.1384
▁sneering	-11.1388
▁experienced	-11.139
▁noble	-11.1391
▁enjoyed	-11.1393
▁NO	-11.1398
▁glowed	-11.14
▁shrieking	-11.1404
▁offering	-11.1405
▁Five	-11.142
ath	-11.1429
▁features	-11.1431
▁Any	-11.1433
▁bowing	-11.1438
▁visitors	-11.1442
▁spreading	-11.1442
▁Out	-11.1443
▁sting	-11.1446
▁AT	-11.1456
yes	-11.1472
his	-11.1491
aring	-11.1493
▁explaining	-11.1496
▁heaving	-11.1496
unc	-11.1516
▁flowers	-11.1542
▁rear	-11.1554
oh	-11.1573
used	-11.1579
▁animals	-11.158
ration	-11.1585
way	-11.1593
ude	-11.1594
▁north	-11.1614
▁Because	-11.1626
▁slit	-11.1634
▁Has	-11.1655
▁flower	-11.1669
iness	-11.1688
▁meal	-11.1704
▁aid	-11.1709
▁pointless	-11.1728
ship	-11.1762
Three	-11.1765
▁flow	-11.1765
Bellatrix	-11.1765
free	-11.1766
Dear	-11.177
▁shift	-11.1776
▁land	-11.1788
▁Bar	-11.1798
▁refuse	-11.1802
▁summon	-11.1804
▁fo	-11.1805
cept	-11.1813
▁vicious	-11.1817
▁defensive	-11.1818
ckle	-11.1818
▁confess	-11.1827
▁Inferi	-11.1827
▁sell	-11.1827
▁rub	-11.1827
▁cruel	-11.1828
nfortunately	-11.1828
Level	-11.1828
hearted	-11.1828
▁June	-11.1828
▁Kedavra	-11.1828
▁Kendra	-11.1828
▁Omnioculars	-11.1828
▁Padma	-11.1828
▁Warrington	-11.1828
▁accompany	-11.1828
▁arriving	-11.1828
▁bezoar	-11.1828
▁companion	-11.1828
▁dissolved	-11.1828
▁escort	-11.1828
▁essential	-11.1828
▁fluffy	-11.1828
▁identical	-11.1828
▁indicating	-11.1828
▁invitation	-11.1828
▁jealous	-11.1828
▁judging	-11.1828
▁language	-11.1828
▁launched	-11.1828
▁mantelpiece	-11.1828
▁scribbling	-11.1828
▁sinister	-11.1828
▁sleek	-11.1828
▁smoking	-11.1828
▁stubbornly	-11.1828
▁surveying	-11.1828
▁unaware	-11.1828
▁untidy	-11.1828
▁whatsoever	-11.1828
Kill	-11.1828
▁collar	-11.1828
▁method	-11.1828
▁swig	-11.1828
▁version	-11.1828
▁lungs	-11.1828
▁random	-11.1828
▁foreign	-11.1828
strewn	-11.1828
Nah	-11.1828
▁swooping	-11.1828
▁ladder	-11.1829
▁bunk	-11.1829
▁beginning	-11.1829
▁affection	-11.1829
▁reaction	-11.1829
▁stock	-11.1829
▁Headquarters	-11.183
▁ease	-11.183
duct	-11.183
▁dug	-11.183
▁shopping	-11.1831
▁hopelessly	-11.1831
▁freezing	-11.1831
▁boss	-11.1832
▁Secrecy	-11.1833
▁hammering	-11.1833
▁creat	-11.1833
▁blackboard	-11.1833
▁collided	-11.1834
▁gleefully	-11.1834
▁retreated	-11.1835
▁exit	-11.1835
▁handbag	-11.1835
▁followers	-11.1836
▁Summoning	-11.1836
▁Rookwood	-11.1836
▁bobbing	-11.1838
▁automatically	-11.1839
▁Bode	-11.1839
▁rarely	-11.184
▁scowled	-11.184
▁palm	-11.1843
▁casually	-11.1843
▁blackened	-11.1844
▁flattened	-11.1844
▁forgetting	-11.1844
▁succeeded	-11.1845
▁flooding	-11.1845
▁worn	-11.1846
▁defeated	-11.1847
▁tangled	-11.1848
▁Thank	-11.185
▁hooked	-11.1851
▁hooting	-11.1851
▁express	-11.1856
▁sleeves	-11.1856
▁shifting	-11.1856
▁sniffed	-11.1858
▁shuddered	-11.1861
▁treated	-11.1861
▁gotta	-11.1868
▁largest	-11.187
▁Up	-11.1877
.'`	-11.1878
▁carriages	-11.1885
▁angle	-11.1886
▁events	-11.1887
SE	-11.1892
▁shops	-11.1894
▁gaping	-11.1896
▁sleepy	-11.1896
▁git	-11.1901
▁blowing	-11.1901
▁Remember	-11.1903
▁crashing	-11.1922
new	-11.1922
ime	-11.1926
rent	-11.1928
▁que	-11.1931
▁gagg	-11.1939
▁Burkes	-11.195
▁victims	-11.196
▁trusted	-11.1969
Has	-11.1984
▁winding	-11.2007
▁sensed	-11.2025
▁parted	-11.2045
▁seated	-11.2049
Thought	-11.2053
▁efforts	-11.207
ome	-11.2074
▁Y	-11.2074
▁mistress	-11.2096
Make	-11.2097
▁YOUR	-11.2102
Wish	-11.2112
ical	-11.212
▁spirit	-11.2132
▁bone	-11.2138
▁cornered	-11.2159
▁answering	-11.2191
▁pat	-11.2191
▁thousands	-11.2207
ower	-11.2252
Should	-11.2263
glass	-11.2263
Luna	-11.2265
seven	-11.2265
please	-11.2265
▁gl	-11.2266
▁travel	-11.2274
▁gestur	-11.2276
Keeper	-11.2279
▁disguise	-11.2301
▁produce	-11.2302
▁exchange	-11.2302
▁sprout	-11.2304
▁yelp	-11.2304
▁lurch	-11.2304
▁repair	-11.2304
▁snort	-11.2305
▁stump	-11.2305
▁hook	-11.2306
▁sur	-11.2308
port	-11.2309
▁brow	-11.2312
over	-11.2312
▁ominous	-11.2317
▁stern	-11.2318
▁bend	-11.2318
▁frantic	-11.2328
ject	-11.2328
Lumos	-11.2328
▁Twenty	-11.2328
Ended	-11.2328
▁Blotts	-11.2328
▁Cadogan	-11.2328
▁Flourish	-11.2328
▁Leanne	-11.2328
▁Roger	-11.2328
▁Sickles	-11.2328
▁appeal	-11.2328
▁circling	-11.2328
▁crush	-11.2328
▁demonstrate	-11.2328
▁enthusiasm	-11.2328
▁especially	-11.2328
▁fortune	-11.2328
▁greasy	-11.2328
▁grumpily	-11.2328
▁interrogat	-11.2328
▁jewel	-11.2328
▁livid	-11.2328
▁lunged	-11.2328
▁motorbike	-11.2328
▁neighbour	-11.2328
▁original	-11.2328
▁photo	-11.2328
▁revenge	-11.2328
▁rippling	-11.2328
▁shakily	-11.2328
▁throbbing	-11.2328
▁wisp	-11.2328
▁Cole	-11.2328
▁sphere	-11.2328
▁fading	-11.2328
▁title	-11.2328
▁headstone	-11.2328
▁issuing	-11.2328
▁Day	-11.2328
▁droop	-11.2328
▁rich	-11.2328
▁Howler	-11.2328
▁camera	-11.2328
▁undertone	-11.2328
▁blaze	-11.2328
▁aisle	-11.2329
▁taunt	-11.2329
▁cork	-11.2329
▁ruffled	-11.2329
▁stew	-11.2329
Naturally	-11.233
▁girlfriend	-11.233
▁prat	-11.233
▁reasonably	-11.233
▁trap	-11.233
▁park	-11.2331
▁widening	-11.2332
▁grandfather	-11.2333
▁wig	-11.2336
Mind	-11.2336
▁mildly	-11.2337
▁daylight	-11.2337
aught	-11.234
▁heartily	-11.2341
▁smirked	-11.2342
▁patches	-11.2342
▁ME	-11.2343
▁painted	-11.2343
▁scratched	-11.2343
▁greenish	-11.2343
▁winking	-11.2344
▁scowling	-11.2344
▁Again	-11.2345
▁Macnair	-11.2347
▁named	-11.2348
▁creaking	-11.2349
Watch	-11.2349
▁sealed	-11.235
▁skirt	-11.235
▁Marvolo	-11.2353
▁personally	-11.2354
▁squashed	-11.2354
▁strolled	-11.2354
▁masked	-11.2354
▁trickle	-11.2355
▁WHAT	-11.2357
▁mouthful	-11.2357
▁creeping	-11.2361
▁wandered	-11.2362
▁boiling	-11.2362
▁previously	-11.2365
▁vanishing	-11.2367
▁blackness	-11.2371
▁possessed	-11.2376
▁stormed	-11.2377
▁sneaked	-11.238
▁Heads	-11.2381
▁wider	-11.2386
▁Quick	-11.2387
▁Should	-11.2394
▁pal	-11.2396
▁Ears	-11.2405
▁el	-11.2407
▁slowed	-11.2408
▁banged	-11.2412
▁robe	-11.2414
▁Our	-11.2418
▁shouts	-11.2422
▁pen	-11.2472
▁slits	-11.2539
▁cushions	-11.2549
▁gi	-11.2554
▁questioning	-11.2572
▁pillows	-11.2591
wn	-11.2591
▁kn	-11.2626
Bin	-11.2634
▁DON	-11.2647
▁Galleon	-11.2661
▁nerves	-11.2675
▁drawer	-11.2679
▁piles	-11.2679
some	-11.2686
▁th	-11.271
cap	-11.2711
did	-11.2732
▁peace	-11.2751
back	-11.2763
Whatever	-11.2765
▁ride	-11.2768
Wonder	-11.2789
Think	-11.279
YOU	-11.2791
Krum	-11.2791
boy	-11.2791
floor	-11.2791
which	-11.2791
Once	-11.2793
▁puff	-11.2797
▁thunder	-11.2802
▁reappear	-11.2802
▁contain	-11.2803
▁Bl	-11.2807
tained	-11.2808
▁receive	-11.2822
▁arrest	-11.2831
▁extract	-11.2831
▁distinct	-11.2843
▁health	-11.2845
▁Sure	-11.2849
▁threat	-11.2852
▁select	-11.2853
Second	-11.2853
▁permit	-11.2853
oc	-11.2854
▁smug	-11.2854
▁Box	-11.2854
▁Dennis	-11.2854
▁English	-11.2854
▁Marchbanks	-11.2854
▁October	-11.2854
▁Rufus	-11.2854
▁Shunpike	-11.2854
▁Thicknesse	-11.2854
▁Thursday	-11.2854
▁Tuesday	-11.2854
▁WILL	-11.2854
▁Wednesday	-11.2854
▁adventure	-11.2854
▁boulder	-11.2854
▁confusion	-11.2854
▁copies	-11.2854
▁exceptionally	-11.2854
▁exciting	-11.2854
▁glimmer	-11.2854
▁gnarled	-11.2854
▁limit	-11.2854
▁lonely	-11.2854
▁petrified	-11.2854
▁precious	-11.2854
▁protruding	-11.2854
▁rustle	-11.2854
▁scurrying	-11.2854
▁sloping	-11.2854
▁spellbooks	-11.2854
▁stammered	-11.2854
▁stroking	-11.2854
▁temple	-11.2854
▁uneasy	-11.2854
▁vampire	-11.2854
▁vomit	-11.2854
▁writhing	-11.2854
▁Pince	-11.2854
▁sallow	-11.2854
▁bustled	-11.2855
▁bustling	-11.2855
▁regard	-11.2855
▁sidecar	-11.2855
▁built	-11.2855
▁decorated	-11.2855
▁transport	-11.2855
▁banner	-11.2855
▁bully	-11.2855
▁river	-11.2855
▁behave	-11.2855
▁kit	-11.2855
Hurry	-11.2855
▁placing	-11.2855
▁women	-11.2855
▁clamp	-11.2855
▁authority	-11.2855
▁shelter	-11.2855
▁tiptoe	-11.2856
▁tripped	-11.2856
▁mound	-11.2856
▁topmost	-11.2856
▁ripping	-11.2856
▁starry	-11.2856
▁Ronald	-11.2857
▁suggestion	-11.2858
▁deliberately	-11.2858
▁defiantly	-11.2858
▁anythin	-11.2858
▁Grim	-11.2859
▁whip	-11.286
▁dashing	-11.286
▁scarves	-11.286
▁beaten	-11.2861
▁lion	-11.2862
▁glided	-11.2864
▁overgrown	-11.2864
▁fumbled	-11.2864
▁wandmaker	-11.2864
▁attached	-11.2865
▁lingered	-11.2867
▁briefly	-11.2867
▁drunk	-11.2867
▁gleamed	-11.2868
▁winked	-11.2868
▁somewhat	-11.2869
▁youngest	-11.287
▁naturally	-11.287
▁witnessed	-11.2872
▁shivered	-11.2873
▁chart	-11.2874
▁forty	-11.2875
▁standard	-11.2875
▁grate	-11.2875
▁Today	-11.2875
▁sweaty	-11.2875
▁dodged	-11.2876
▁crawled	-11.2877
▁marching	-11.2877
▁relaxed	-11.2877
▁Turn	-11.2878
▁shifted	-11.2881
▁containing	-11.2883
▁jerking	-11.2888
▁wandlight	-11.2889
▁borrowed	-11.289
▁transformed	-11.289
▁deserved	-11.2892
▁smallest	-11.2897
▁lawns	-11.2898
▁biting	-11.2912
posed	-11.2914
thin	-11.2915
▁bothering	-11.2925
▁owe	-11.2929
▁crossing	-11.2931
▁charged	-11.2932
▁pod	-11.2932
▁Carrows	-11.2935
▁counted	-11.2937
▁fourteen	-11.2938
▁doe	-11.294
▁guests	-11.2946
▁howled	-11.2948
▁buying	-11.2951
▁appearing	-11.2954
▁Take	-11.2987
▁fri	-11.2995
▁dreaming	-11.3008
Jus	-11.3022
,'`	-11.3023
▁boots	-11.3043
▁darker	-11.3046
▁forming	-11.3054
Madam	-11.3059
▁drawers	-11.306
▁bla	-11.3069
▁growl	-11.3088
itch	-11.3109
▁Sc	-11.317
J	-11.3175
AND	-11.3176
▁Skrewt	-11.3192
▁plants	-11.3208
▁gnome	-11.3212
▁heaven	-11.3214
▁skrewt	-11.3215
▁rumor	-11.3215
Unless	-11.3225
other	-11.3237
▁mane	-11.3255
▁owners	-11.3265
▁rot	-11.327
▁yards	-11.3287
▁Mudbloods	-11.3299
▁poke	-11.3311
▁Eye	-11.3318
▁ban	-11.3343
post	-11.3343
angle	-11.3343
friend	-11.3345
Quick	-11.3345
Those	-11.3346
blue	-11.3347
Fleur	-11.3347
Great	-11.3347
Slughorn	-11.3347
Fudge	-11.3347
great	-11.3347
when	-11.3347
away	-11.3351
case	-11.3355
Lily	-11.3356
▁grunt	-11.3358
hold	-11.3359
▁wail	-11.3359
▁boot	-11.336
fashioned	-11.3381
▁leak	-11.3381
Had	-11.3384
▁invite	-11.3384
▁wipe	-11.3384
▁convince	-11.3384
▁police	-11.3384
▁glare	-11.3384
▁interrupt	-11.3385
▁suppress	-11.3386
▁relax	-11.3386
▁crawl	-11.3386
▁flush	-11.3389
Any	-11.3397
CK	-11.3399
▁dirt	-11.34
Yer	-11.3405
▁flee	-11.3408
▁remark	-11.341
▁zoo	-11.341
▁constrict	-11.341
▁Animagus	-11.341
▁Atrium	-11.341
▁BANG	-11.341
▁Crack	-11.341
▁Magnolia	-11.341
▁Magorian	-11.341
▁Mandrake	-11.341
▁Peverell	-11.341
▁astonishment	-11.341
▁clanking	-11.341
▁conclusion	-11.341
▁contract	-11.341
▁courtyard	-11.341
▁crossbow	-11.341
▁disagree	-11.341
▁disgruntled	-11.341
▁doorknob	-11.341
▁driving	-11.341
▁eerie	-11.341
▁invented	-11.341
▁jeering	-11.341
▁keyhole	-11.341
▁magnified	-11.341
▁monstrous	-11.341
▁nonsense	-11.341
▁preparing	-11.341
▁shaggy	-11.341
▁squirm	-11.341
▁strict	-11.341
▁transfixed	-11.341
▁violet	-11.341
Welcome	-11.341
▁electric	-11.341
▁remorse	-11.341
▁starving	-11.341
▁Army	-11.341
▁dais	-11.341
▁ajar	-11.341
▁etched	-11.341
▁Witchcraft	-11.341
▁worm	-11.341
▁clasp	-11.341
▁windowsill	-11.341
▁booming	-11.341
Point	-11.341
▁imagination	-11.341
▁kidding	-11.341
▁silhouette	-11.341
▁billowing	-11.341
▁maroon	-11.341
▁flapping	-11.341
▁Killing	-11.341
▁glory	-11.341
▁noisy	-11.341
▁gaunt	-11.341
▁mortal	-11.341
▁binding	-11.341
▁hostage	-11.341
▁propped	-11.3411
▁candlelight	-11.3411
▁ripple	-11.3411
▁gettin	-11.3411
▁Witch	-11.3411
▁spoon	-11.3411
▁spitting	-11.3411
▁disappearance	-11.3411
▁chapter	-11.3411
▁stirring	-11.3411
Follow	-11.3412
▁dense	-11.3412
▁inspect	-11.3412
▁hallway	-11.3412
▁sail	-11.3413
▁ruff	-11.3413
▁complicated	-11.3414
▁feverishly	-11.3414
▁schoolbag	-11.3414
▁lure	-11.3414
▁raw	-11.3416
▁hip	-11.3417
▁groped	-11.3417
ather	-11.3417
--``	-11.342
▁HAVE	-11.3423
▁obscured	-11.3424
▁whizz	-11.3424
▁whimpering	-11.3426
aster	-11.3427
▁flooded	-11.3427
▁spilling	-11.3427
▁buzzing	-11.3427
▁arrogant	-11.3428
▁trailing	-11.3429
▁amid	-11.3433
▁served	-11.3434
▁straining	-11.3434
▁sheet	-11.3435
▁cooking	-11.3437
▁murderer	-11.3437
▁punished	-11.3445
▁driven	-11.3445
▁Top	-11.3446
▁delivered	-11.345
▁disappearing	-11.3456
▁urged	-11.3458
▁reminding	-11.346
▁shared	-11.3461
▁limping	-11.3463
▁chased	-11.3464
▁clattering	-11.3465
eaten	-11.3465
▁HARRY	-11.3468
Somewhere	-11.3468
▁aiming	-11.3468
▁greeting	-11.3471
▁Surely	-11.3472
▁trot	-11.3474
▁gasping	-11.3478
▁stealing	-11.3491
▁clearer	-11.3491
▁reported	-11.3491
▁seeking	-11.3498
▁leader	-11.3499
▁dangerously	-11.3505
Ten	-11.3512
▁supported	-11.3516
▁finishing	-11.3523
lend	-11.3524
▁fate	-11.3529
▁allowing	-11.3531
▁instruments	-11.3553
▁tickets	-11.3565
▁Give	-11.3565
▁Du	-11.3572
▁dealing	-11.3586
cha	-11.3587
▁conditions	-11.3588
▁shaped	-11.3589
ACK	-11.3595
▁greenhouses	-11.3599
▁joining	-11.3609
▁town	-11.3626
▁fed	-11.3632
▁art	-11.3641
Tha	-11.3663
▁cow	-11.3672
Ask	-11.3685
▁bubbles	-11.3704
▁ir	-11.3707
▁Listen	-11.373
▁din	-11.3737
mouthed	-11.3759
cal	-11.379
▁stage	-11.3795
▁greenhouse	-11.3802
▁Fi	-11.3804
▁content	-11.3805
▁mop	-11.3837
▁fasten	-11.3851
ative	-11.3859
▁forth	-11.3862
▁gra	-11.3876
▁wasted	-11.3877
▁Love	-11.3884
▁possessions	-11.3893
come	-11.3899
▁surprising	-11.39
▁firs	-11.393
though	-11.3932
Every	-11.3934
People	-11.3934
From	-11.3934
Two	-11.3935
Dudley	-11.3935
Umbridge	-11.3935
why	-11.3935
▁sport	-11.3935
Over	-11.394
count	-11.394
under	-11.3944
▁curl	-11.3945
▁murmur	-11.3946
▁blink	-11.3947
▁click	-11.3948
▁severe	-11.3961
▁direct	-11.3963
▁recover	-11.3964
▁pla	-11.3968
None	-11.397
▁stroke	-11.3971
▁rescue	-11.3971
rry	-11.3971
▁affect	-11.3973
▁assure	-11.3974
▁cook	-11.3974
▁defeat	-11.3975
▁apprehensive	-11.3988
▁constant	-11.3988
▁savage	-11.3988
▁plum	-11.3988
▁potato	-11.3995
▁drag	-11.3996
uzz	-11.3998
▁deaf	-11.3998
onko	-11.3998
Dragon	-11.3998
Fletchley	-11.3998
Honestly	-11.3998
▁Ancient	-11.3998
▁Argus	-11.3998
▁Bowtruckle	-11.3998
▁Doxy	-11.3998
▁Enforcement	-11.3998
▁Hokey	-11.3998
▁Knut	-11.3998
▁Scabior	-11.3998
▁Seven	-11.3998
▁Spinnet	-11.3998
▁Trevor	-11.3998
▁Whinging	-11.3998
▁believing	-11.3998
▁celebration	-11.3998
▁chimney	-11.3998
▁colleague	-11.3998
▁contorted	-11.3998
▁cubicle	-11.3998
▁desperation	-11.3998
▁disapproving	-11.3998
▁employ	-11.3998
▁injury	-11.3998
▁instinctively	-11.3998
▁pillar	-11.3998
▁porridge	-11.3998
▁response	-11.3998
▁similar	-11.3998
▁straw	-11.3998
▁stride	-11.3998
▁vegetable	-11.3998
▁vigorously	-11.3998
▁leprechaun	-11.3998
▁reproachful	-11.3998
▁Beedle	-11.3998
▁adult	-11.3998
▁contemptuous	-11.3998
▁knives	-11.3998
▁liking	-11.3998
▁rubber	-11.3998
▁freedom	-11.3998
▁bloodshot	-11.3998
▁winced	-11.3998
▁dried	-11.3998
▁pathetic	-11.3998
▁departure	-11.3998
▁pleading	-11.3998
▁dripping	-11.3999
▁Weird	-11.3999
▁defence	-11.3999
▁snapping	-11.3999
▁mouse	-11.3999
▁reverse	-11.3999
▁squat	-11.3999
▁lunchtime	-11.4
Poor	-11.4
▁laden	-11.4
▁considerable	-11.4
▁stall	-11.4
▁Each	-11.4
▁collection	-11.4001
▁legend	-11.4002
harp	-11.4002
▁sunk	-11.4002
▁lick	-11.4003
Arry	-11.4003
▁Side	-11.4003
▁yellowish	-11.4003
▁draped	-11.4004
▁crackling	-11.4004
▁hexes	-11.4004
▁inner	-11.4007
ould	-11.4007
▁Amycus	-11.4008
▁severely	-11.4009
▁Dippet	-11.4009
▁hurtling	-11.4009
▁meantime	-11.4009
▁pronounced	-11.401
▁hic	-11.4011
▁described	-11.4011
▁shallow	-11.4011
▁spluttered	-11.4012
▁rattled	-11.4012
▁Blast	-11.4012
▁littered	-11.4013
▁filed	-11.4014
▁generally	-11.4014
▁scraping	-11.4014
▁belt	-11.4014
▁snakelike	-11.4015
▁arranged	-11.4015
▁skip	-11.4016
▁mainly	-11.4016
▁Vanishing	-11.4016
▁stamped	-11.4018
▁breathless	-11.4018
▁fled	-11.402
▁swarming	-11.402
▁prodding	-11.402
▁descending	-11.4022
▁stamping	-11.4022
▁invisibility	-11.4023
▁wishes	-11.4024
▁repaired	-11.4026
▁frames	-11.4028
▁restore	-11.4028
▁web	-11.4029
▁highest	-11.4029
▁poisonous	-11.403
filled	-11.4031
put	-11.4032
▁scanning	-11.4035
▁Str	-11.4037
▁punched	-11.4044
▁throughout	-11.4044
▁signal	-11.4045
▁limped	-11.4045
▁considering	-11.4049
▁LI	-11.4054
▁bomb	-11.4055
▁gestured	-11.4061
▁sweating	-11.4063
▁boarded	-11.4064
▁jog	-11.4067
▁oldest	-11.407
▁dueling	-11.4074
▁complaining	-11.4075
▁persuaded	-11.4075
▁accepted	-11.4081
▁sausages	-11.4089
Having	-11.4096
▁relatives	-11.4102
▁pinch	-11.4102
▁smelled	-11.4146
▁lifting	-11.4155
Erm	-11.4189
▁AN	-11.4192
lock	-11.4201
maker	-11.4202
Off	-11.4204
skin	-11.4205
▁visiting	-11.421
▁heavens	-11.4212
▁sheets	-11.4213
▁range	-11.4259
▁newly	-11.4261
▁paces	-11.4262
pan	-11.4272
▁Stun	-11.4272
▁Heir	-11.4274
▁sip	-11.4276
▁breed	-11.4288
▁orb	-11.433
▁squ	-11.4353
▁troubled	-11.4359
▁Got	-11.4389
▁belongs	-11.4393
▁greatly	-11.4401
▁condition	-11.4426
▁hoop	-11.4427
▁Thestral	-11.4428
run	-11.4428
▁sock	-11.4434
fingered	-11.4452
bag	-11.4476
bility	-11.4478
bbing	-11.4527
▁sneer	-11.455
HARRY	-11.4558
Albus	-11.456
Slytherin	-11.456
point	-11.456
Draco	-11.456
Crouch	-11.456
Hogwarts	-11.456
witch	-11.456
large	-11.4562
▁streak	-11.4571
▁snatch	-11.4572
▁peer	-11.4573
▁frighten	-11.4574
Five	-11.4577
Hu	-11.458
▁spin	-11.4587
▁hunt	-11.4595
▁shoot	-11.4595
▁serve	-11.4597
▁release	-11.4597
▁tangle	-11.4599
▁obey	-11.4599
▁ruin	-11.46
▁swallow	-11.46
▁settle	-11.4605
▁chase	-11.4607
▁Ball	-11.4611
▁unfortunate	-11.4613
▁mild	-11.4613
▁vague	-11.4613
▁abrupt	-11.4613
▁definite	-11.4613
▁shrill	-11.4613
Ho	-11.4616
▁wad	-11.4621
▁moth	-11.4622
▁wreck	-11.4623
▁leaf	-11.4623
▁delay	-11.4623
Brilliant	-11.4623
Funny	-11.4623
Imagine	-11.4623
Prefect	-11.4623
True	-11.4623
rimmed	-11.4623
▁Abbott	-11.4623
▁Class	-11.4623
▁Confederation	-11.4623
▁Defensive	-11.4623
▁Demelza	-11.4623
▁Fletcher	-11.4623
▁Jinx	-11.4623
▁Mafalda	-11.4623
▁Millicent	-11.4623
▁Nicolas	-11.4623
▁Shrieking	-11.4623
▁advancing	-11.4623
▁agitated	-11.4623
▁appalled	-11.4623
▁biggest	-11.4623
▁bronze	-11.4623
▁coffee	-11.4623
▁crisp	-11.4623
▁delicious	-11.4623
▁determination	-11.4623
▁enclosure	-11.4623
▁fraction	-11.4623
▁frost	-11.4623
▁frustration	-11.4623
▁grubby	-11.4623
▁indignation	-11.4623
▁inherited	-11.4623
▁investigate	-11.4623
▁irritated	-11.4623
▁loathed	-11.4623
▁niffler	-11.4623
▁paddock	-11.4623
▁perfume	-11.4623
▁puncture	-11.4623
▁responsible	-11.4623
▁rummaged	-11.4623
▁rummaging	-11.4623
▁signature	-11.4623
▁significant	-11.4623
▁slack	-11.4623
▁squeezing	-11.4623
▁stalked	-11.4623
▁tramp	-11.4623
▁treacle	-11.4623
▁turban	-11.4623
▁unfolded	-11.4623
▁value	-11.4623
▁whistling	-11.4623
Yep	-11.4623
▁Corner	-11.4623
▁diff	-11.4623
▁freak	-11.4623
▁Finch	-11.4623
▁Runes	-11.4623
▁cowering	-11.4623
▁mercy	-11.4623
▁Disarm	-11.4623
▁prickle	-11.4623
▁glowering	-11.4623
▁boomed	-11.4623
▁depend	-11.4623
▁sarcastically	-11.4623
▁managing	-11.4623
Oooh	-11.4623
▁blade	-11.4623
▁Piers	-11.4623
▁forearm	-11.4623
▁greed	-11.4623
▁importance	-11.4623
▁brushed	-11.4623
▁perplexed	-11.4623
▁rubbed	-11.4623
▁flapped	-11.4624
tain	-11.4624
▁brushing	-11.4624
▁recit	-11.4624
▁warlock	-11.4624
▁responsibility	-11.4624
▁Tale	-11.4624
▁sworn	-11.4624
▁dramatically	-11.4624
▁sharing	-11.4624
▁cozy	-11.4624
▁hugging	-11.4624
▁joy	-11.4624
▁Monster	-11.4624
▁socket	-11.4624
Outstanding	-11.4624
▁panicked	-11.4625
ssuming	-11.4625
▁seared	-11.4626
▁intruder	-11.4628
▁scum	-11.4628
▁controlled	-11.4629
▁Romilda	-11.463
▁steering	-11.463
▁faintest	-11.463
▁sprawled	-11.463
Merry	-11.4631
▁GO	-11.4631
▁mission	-11.4631
▁goggling	-11.4631
▁increasingly	-11.4631
▁sold	-11.4631
▁glittered	-11.4632
▁hooted	-11.4633
▁swerved	-11.4634
▁savagely	-11.4635
▁puffy	-11.4635
▁threatened	-11.4636
▁increased	-11.4636
▁comin	-11.4636
▁galloping	-11.4637
▁mixed	-11.4638
▁Although	-11.4638
▁bitten	-11.4639
▁strangled	-11.464
▁scooped	-11.464
▁overcome	-11.4642
▁chewing	-11.4643
▁pounded	-11.4643
▁dial	-11.4643
▁advised	-11.4643
Except	-11.4646
▁earned	-11.4648
▁assistant	-11.4648
▁locker	-11.4649
▁sweetly	-11.4651
▁stumped	-11.4653
▁capable	-11.4653
▁wary	-11.4655
▁Best	-11.4655
▁ARE	-11.4656
▁curling	-11.4656
▁resting	-11.466
▁tune	-11.466
Break	-11.4661
▁scored	-11.4667
▁Mom	-11.4669
▁giggled	-11.4672
▁shuddering	-11.4676
▁strongly	-11.4679
▁corrected	-11.468
▁dreading	-11.4681
▁seal	-11.4681
▁messing	-11.4697
▁balding	-11.4698
▁discussed	-11.4698
▁scrape	-11.4699
▁paler	-11.47
tended	-11.4701
▁God	-11.4702
▁port	-11.4711
opping	-11.4716
▁shorter	-11.4723
▁outrage	-11.4724
▁fireworks	-11.4734
▁onward	-11.4742
▁peaceful	-11.475
EL	-11.4754
▁annoying	-11.4763
▁hag	-11.4784
▁shov	-11.4787
Daddy	-11.4803
▁slugs	-11.4811
RY	-11.4823
▁hoops	-11.4825
dore	-11.4849
▁gnomes	-11.4851
▁dish	-11.4872
▁trained	-11.4882
▁army	-11.4886
▁Wi	-11.4887
▁oil	-11.4973
▁WE	-11.5022
▁lookin	-11.5048
lar	-11.5051
Wo	-11.5059
▁HA	-11.5078
gue	-11.508
▁slug	-11.5093
▁sorted	-11.5098
▁stair	-11.5099
▁parent	-11.5099
▁fang	-11.5106
▁annoy	-11.5119
formed	-11.5138
▁gri	-11.5173
▁cure	-11.5181
length	-11.5226
jinx	-11.5226
Nearly	-11.5226
Black	-11.5227
three	-11.5227
Time	-11.5229
Yet	-11.5231
power	-11.5232
Cho	-11.5236
▁creak	-11.5238
▁strain	-11.5238
▁suffer	-11.5238
▁shiver	-11.5238
▁march	-11.5239
lank	-11.5241
▁accord	-11.5245
▁ski	-11.5249
five	-11.525
was	-11.5258
backed	-11.5259
▁build	-11.5262
▁register	-11.5266
▁succeed	-11.5266
▁demand	-11.5267
▁dwell	-11.527
▁organ	-11.5272
▁precise	-11.5279
▁impatient	-11.528
▁gran	-11.5283
ax	-11.5283
▁author	-11.5289
GH	-11.5289
▁patrol	-11.5289
▁cell	-11.529
Happy	-11.529
Obviously	-11.529
Personally	-11.529
STOP	-11.529
▁Apparating	-11.529
▁Bogrod	-11.529
▁Cleansweep	-11.529
▁Egypt	-11.529
▁MAGIC	-11.529
▁NEWT	-11.529
▁Network	-11.529
▁Padfoot	-11.529
▁Snorkack	-11.529
▁aghast	-11.529
▁autograph	-11.529
▁blushing	-11.529
▁cackling	-11.529
▁caution	-11.529
▁challenge	-11.529
▁contemplat	-11.529
▁crimson	-11.529
▁dagger	-11.529
▁destination	-11.529
▁enclosed	-11.529
▁fascinating	-11.529
▁fervently	-11.529
▁flustered	-11.529
▁frail	-11.529
▁ghoul	-11.529
▁glorious	-11.529
▁gratitude	-11.529
▁grilles	-11.529
▁grudgingly	-11.529
▁hooves	-11.529
▁illuminating	-11.529
▁inclined	-11.529
▁influence	-11.529
▁irritable	-11.529
▁loathing	-11.529
▁marquee	-11.529
▁moldy	-11.529
▁mournful	-11.529
▁obsessed	-11.529
▁overwhelm	-11.529
▁pelted	-11.529
▁pincers	-11.529
▁precaution	-11.529
▁reduced	-11.529
▁represent	-11.529
▁roast	-11.529
▁shuffling	-11.529
▁slippery	-11.529
▁slithering	-11.529
▁snide	-11.529
▁superior	-11.529
▁temporarily	-11.529
▁thrashing	-11.529
▁tiara	-11.529
▁toffee	-11.529
▁trousers	-11.529
▁unhappy	-11.529
▁utmost	-11.529
▁Lynch	-11.529
▁Snatcher	-11.529
▁expert	-11.529
▁misery	-11.529
▁reassure	-11.529
▁reckless	-11.529
▁rug	-11.529
▁tentacle	-11.529
▁tragic	-11.529
▁latter	-11.529
▁snuff	-11.529
▁stowed	-11.529
Lucky	-11.529
▁Owl	-11.529
▁hysterical	-11.529
▁trod	-11.529
▁whoosh	-11.529
▁haze	-11.529
▁bemused	-11.529
▁July	-11.529
▁loyal	-11.529
▁coast	-11.529
OUR	-11.529
▁base	-11.529
▁hilt	-11.529
▁bond	-11.529
▁hind	-11.529
▁arrangements	-11.529
▁apple	-11.529
▁season	-11.529
▁courtroom	-11.529
▁dusk	-11.529
▁rabbit	-11.529
▁waft	-11.529
▁holly	-11.529
▁leaflet	-11.529
▁edging	-11.529
▁hastened	-11.5291
▁Shack	-11.5291
▁committed	-11.5291
Since	-11.5291
▁HERE	-11.5291
▁Trace	-11.5291
▁wax	-11.5291
▁travelling	-11.5291
▁superb	-11.5291
▁Seconds	-11.5292
▁basic	-11.5292
▁flared	-11.5292
▁Road	-11.5292
▁marry	-11.5292
▁popped	-11.5292
▁shred	-11.5292
▁enjoyable	-11.5293
▁effective	-11.5294
▁frequently	-11.5295
▁omen	-11.5295
▁cuff	-11.5295
▁tightened	-11.5295
▁breakout	-11.5295
▁attic	-11.5296
▁beads	-11.5296
▁weakness	-11.5297
▁dung	-11.5297
▁askew	-11.5298
▁darkening	-11.5299
▁tomb	-11.53
▁Reg	-11.5302
▁constantly	-11.5302
oi	-11.5303
▁peeling	-11.5304
▁defensively	-11.5305
▁resigned	-11.5306
▁unexpectedly	-11.5306
▁Together	-11.5306
▁spotting	-11.5307
▁blindly	-11.5307
▁cackled	-11.5307
▁related	-11.531
Open	-11.5312
▁swishing	-11.5313
▁ray	-11.5319
▁wailed	-11.5319
▁arrested	-11.5321
▁thundered	-11.5321
▁lurched	-11.5322
▁murmuring	-11.5323
▁Soon	-11.5323
▁wailing	-11.5325
▁produced	-11.5326
▁pea	-11.5326
▁crossly	-11.5327
▁gained	-11.5329
▁assumed	-11.533
▁rotting	-11.5331
▁downward	-11.5332
▁focused	-11.5335
▁decorations	-11.5339
▁gas	-11.5339
▁cheered	-11.5343
▁balance	-11.5346
▁collecting	-11.5348
▁UN	-11.5348
▁aimed	-11.535
▁Dungbombs	-11.5352
▁chained	-11.5353
▁Bard	-11.5358
▁Age	-11.5366
coloured	-11.537
▁charming	-11.5398
▁tut	-11.5408
▁soot	-11.541
▁tested	-11.542
Scar	-11.5433
▁ideal	-11.5437
▁lad	-11.5444
▁Tra	-11.546
▁veins	-11.5464
▁bared	-11.5478
▁intense	-11.5492
ational	-11.5517
▁sour	-11.5556
Bye	-11.5559
SH	-11.5603
▁fewer	-11.5613
▁brim	-11.5618
gal	-11.5626
▁expel	-11.5659
ral	-11.57
bled	-11.5701
otted	-11.572
▁towel	-11.5723
arry	-11.5749
nog	-11.5787
▁victim	-11.5808
▁ticket	-11.5809
▁Beater	-11.5809
Though	-11.5882
▁shocking	-11.59
▁ON	-11.5929
rate	-11.5929
water	-11.5936
Help	-11.5939
Surely	-11.5939
hood	-11.594
play	-11.594
blond	-11.594
More	-11.594
Narcissa	-11.594
minute	-11.5941
wizard	-11.5941
James	-11.5941
Tonks	-11.5941
Moody	-11.5941
with	-11.5941
high	-11.5941
▁squeal	-11.5952
▁descend	-11.5952
▁stamp	-11.5953
▁mutter	-11.5954
▁gather	-11.5954
▁twitch	-11.5955
▁await	-11.5976
▁rumble	-11.5977
▁witness	-11.5977
▁haunt	-11.598
▁regain	-11.598
▁clamber	-11.5981
▁hoist	-11.5981
▁wrench	-11.5981
▁croak	-11.5981
▁mar	-11.5984
▁flatten	-11.5986
▁Street	-11.599
▁absent	-11.5993
▁occasional	-11.6002
These	-11.6002
▁process	-11.6003
▁glee	-11.6003
▁occur	-11.6004
Morning	-11.6004
Precisely	-11.6004
▁custom	-11.6004
▁eavesdrop	-11.6004
▁horizon	-11.6004
▁interpret	-11.6004
▁research	-11.6004
▁sacrifice	-11.6004
▁tablecloth	-11.6004
▁tempted	-11.6004
▁textbook	-11.6004
Special	-11.6004
▁Boggart	-11.6004
▁Crescent	-11.6004
▁Headmistress	-11.6004
▁Karkus	-11.6004
▁Legilimency	-11.6004
▁Moran	-11.6004
▁Studies	-11.6004
▁THAT	-11.6004
▁Veritaserum	-11.6004
▁Warlock	-11.6004
▁absurd	-11.6004
▁applauding	-11.6004
▁approval	-11.6004
▁belief	-11.6004
▁boarhound	-11.6004
▁brace	-11.6004
▁chorus	-11.6004
▁copper	-11.6004
▁credit	-11.6004
▁criminal	-11.6004
▁crown	-11.6004
▁crucial	-11.6004
▁dismissively	-11.6004
▁distress	-11.6004
▁enemies	-11.6004
▁energy	-11.6004
▁exasperation	-11.6004
▁flourish	-11.6004
▁handwriting	-11.6004
▁merrily	-11.6004
▁miniature	-11.6004
▁motorcycle	-11.6004
▁occupant	-11.6004
▁opponent	-11.6004
▁pardon	-11.6004
▁persisted	-11.6004
▁pixie	-11.6004
▁practising	-11.6004
▁pyjamas	-11.6004
▁quantit	-11.6004
▁rusty	-11.6004
▁scuttled	-11.6004
▁spoil	-11.6004
▁temptation	-11.6004
▁trophy	-11.6004
▁uniform	-11.6004
▁wheezy	-11.6004
▁wrestling	-11.6004
OUCH	-11.6004
knitted	-11.6004
▁Standard	-11.6004
▁blackthorn	-11.6004
▁doorstep	-11.6004
▁rapped	-11.6004
▁stabbed	-11.6004
▁subdue	-11.6004
▁type	-11.6004
▁Hestia	-11.6004
▁conquer	-11.6004
▁drum	-11.6004
▁matted	-11.6004
▁modest	-11.6004
▁jammed	-11.6004
▁scaly	-11.6004
▁filing	-11.6004
▁cease	-11.6004
Crucio	-11.6004
▁canopy	-11.6004
▁slapping	-11.6004
Devil	-11.6004
▁offended	-11.6004
▁united	-11.6004
▁ornate	-11.6004
▁slopp	-11.6004
▁locate	-11.6004
▁clinging	-11.6004
Knock	-11.6004
▁island	-11.6004
ARD	-11.6005
▁stubby	-11.6005
▁grinding	-11.6005
GET	-11.6005
▁tuft	-11.6005
▁ninety	-11.6005
▁sincerely	-11.6005
▁disturbance	-11.6005
▁tying	-11.6005
▁imitation	-11.6005
▁bony	-11.6005
▁sixty	-11.6005
▁tankard	-11.6005
▁plotting	-11.6005
▁fulfill	-11.6005
▁purse	-11.6006
▁commentary	-11.6006
▁improvement	-11.6006
▁sandwiches	-11.6006
▁solve	-11.6006
▁sickening	-11.6006
▁bracingly	-11.6006
▁stab	-11.6006
▁teapot	-11.6006
▁tartan	-11.6006
▁mice	-11.6007
Hope	-11.6007
▁GOT	-11.6007
▁mock	-11.6007
▁stepping	-11.6008
▁waking	-11.6008
▁potatoes	-11.6008
▁underwater	-11.6009
▁trickling	-11.6009
▁scrubb	-11.601
▁glumly	-11.601
▁dreamily	-11.601
▁boast	-11.6011
▁Control	-11.6012
▁Gold	-11.6012
▁nest	-11.6012
▁sleepily	-11.6013
▁reluctantly	-11.6013
▁rim	-11.6013
▁male	-11.6014
▁convicted	-11.6014
▁conf	-11.6016
▁According	-11.6017
▁Elphias	-11.6017
Cheer	-11.6017
▁apprehensively	-11.6017
▁healthy	-11.6018
TER	-11.6018
▁Bella	-11.6019
▁china	-11.6019
▁accused	-11.602
▁dabbing	-11.602
▁mounting	-11.602
▁flashes	-11.602
▁labeled	-11.6021
▁confirmed	-11.6025
▁bless	-11.6025
▁Dawlish	-11.6026
▁shrinking	-11.6027
▁grimy	-11.6027
▁lumpy	-11.6028
▁regained	-11.6028
▁cheery	-11.6029
▁gingerly	-11.6029
▁draining	-11.6031
▁Sturgis	-11.6031
▁correctly	-11.6033
▁awoken	-11.6036
▁streaking	-11.6037
▁Goblin	-11.6041
▁dining	-11.6043
▁mended	-11.6044
▁disgusted	-11.6044
▁betray	-11.6045
▁conclude	-11.6045
▁paced	-11.6048
▁Theory	-11.6049
▁feeding	-11.605
▁Trying	-11.6051
▁du	-11.606
▁included	-11.606
▁argued	-11.6067
▁dawned	-11.6067
▁scarf	-11.6069
Educational	-11.6072
▁planted	-11.6073
▁warningly	-11.6077
By	-11.6078
▁prevented	-11.608
▁spine	-11.6081
▁founders	-11.6081
▁wa	-11.6082
▁Apparated	-11.6085
▁smoothed	-11.6101
LY	-11.6133
Gone	-11.6149
▁disarm	-11.6155
▁stupidly	-11.6156
▁colder	-11.6169
--`	-11.6173
▁piled	-11.6176
▁Does	-11.6182
▁riding	-11.6196
OY	-11.6199
▁cracking	-11.6213
▁bid	-11.6229
▁boa	-11.6233
Dead	-11.6262
▁meat	-11.6264
Wh	-11.6273
CH	-11.6315
▁badger	-11.6356
▁Fo	-11.6392
▁Too	-11.6406
Lo	-11.6406
▁ye	-11.6462
▁guide	-11.6465
▁bun	-11.6505
lent	-11.654
otes	-11.6548
ONS	-11.6562
cross	-11.6565
▁instrument	-11.6576
▁Burke	-11.6577
▁twig	-11.6578
▁enchantment	-11.6579
▁vein	-11.6581
▁blanket	-11.6584
▁earn	-11.6586
ext	-11.6591
armed	-11.6596
▁endless	-11.6645
Been	-11.6665
dict	-11.6673
▁TR	-11.669
▁abandon	-11.6708
ALL	-11.6708
balance	-11.6709
Wizard	-11.6709
Half	-11.671
Before	-11.671
Bathilda	-11.671
Most	-11.671
Karkaroff	-11.671
Gryffindor	-11.671
Cedric	-11.671
half	-11.671
after	-11.671
fire	-11.671
Without	-11.671
FOR	-11.6713
Four	-11.6713
▁scratch	-11.6718
▁drown	-11.6721
Ex	-11.6721
▁glint	-11.6721
▁drain	-11.6721
▁flood	-11.6721
▁flutter	-11.6722
▁pound	-11.6726
more	-11.6731
Wand	-11.6741
▁improve	-11.6745
▁swarm	-11.6745
▁include	-11.6747
▁collapse	-11.6747
▁conjure	-11.6747
▁squeeze	-11.6747
▁prepare	-11.6747
▁disturb	-11.6749
▁proceed	-11.6749
▁retort	-11.6749
▁polish	-11.675
▁clang	-11.675
gone	-11.6756
Up	-11.6758
Bit	-11.6762
▁swift	-11.6763
ggling	-11.6763
▁filth	-11.6764
▁elder	-11.6764
▁Snap	-11.6765
Six	-11.6769
▁torch	-11.6771
▁prodd	-11.6772
▁admire	-11.6773
▁birth	-11.6773
▁slam	-11.6773
Cormac	-11.6773
▁Albania	-11.6773
▁Alecto	-11.6773
▁Diggle	-11.6773
▁FROM	-11.6773
▁Gabrielle	-11.6773
▁Gellert	-11.6773
▁Gurg	-11.6773
▁Hangleton	-11.6773
▁Hippogriff	-11.6773
▁Memory	-11.6773
▁Mostafa	-11.6773
▁Petrified	-11.6773
▁Podmore	-11.6773
▁Pucey	-11.6773
▁Quill	-11.6773
▁Regulation	-11.6773
▁Resurrection	-11.6773
▁Runcorn	-11.6773
▁Smelting	-11.6773
▁Statute	-11.6773
▁Wheezes	-11.6773
▁Yule	-11.6773
▁access	-11.6773
▁alternative	-11.6773
▁anguished	-11.6773
▁anxiety	-11.6773
▁appointed	-11.6773
▁associat	-11.6773
▁audible	-11.6773
▁benefit	-11.6773
▁budge	-11.6773
▁bullet	-11.6773
▁celebrating	-11.6773
▁century	-11.6773
▁choking	-11.6773
▁choosing	-11.6773
▁commotion	-11.6773
▁digging	-11.6773
▁diversion	-11.6773
▁drenched	-11.6773
▁dwarf	-11.6773
▁escaping	-11.6773
▁frustrated	-11.6773
▁governors	-11.6773
▁gracious	-11.6773
▁grumpy	-11.6773
▁hiccup	-11.6773
▁imprisoned	-11.6773
▁jostl	-11.6773
▁location	-11.6773
▁minuscule	-11.6773
▁pierced	-11.6773
▁plinth	-11.6773
▁program	-11.6773
▁prowled	-11.6773
▁purring	-11.6773
▁resentment	-11.6773
▁revive	-11.6773
▁rooster	-11.6773
▁slithered	-11.6773
▁smack	-11.6773
▁splattered	-11.6773
▁summat	-11.6773
▁target	-11.6773
▁unmistakable	-11.6773
▁unnoticed	-11.6773
▁vibrating	-11.6773
▁virtu	-11.6773
▁volume	-11.6773
▁volunteer	-11.6773
HERMIONE	-11.6773
▁Levi	-11.6773
▁Terry	-11.6773
▁blackmail	-11.6773
▁craning	-11.6773
▁knelt	-11.6773
▁pattern	-11.6773
▁pompous	-11.6773
▁unlocked	-11.6773
Horned	-11.6773
▁Crumple	-11.6773
▁furtive	-11.6773
▁tucking	-11.6773
▁firing	-11.6773
▁aloft	-11.6774
▁thestral	-11.6774
▁reread	-11.6774
▁uproar	-11.6774
▁zat	-11.6774
▁Mason	-11.6774
▁loyalty	-11.6774
▁humming	-11.6774
▁liar	-11.6774
▁pulse	-11.6774
▁Avery	-11.6774
▁sodden	-11.6774
▁gracefully	-11.6774
▁briefcase	-11.6774
▁unwrapped	-11.6774
▁nutter	-11.6774
▁brandished	-11.6774
LET	-11.6774
▁prominent	-11.6774
▁centre	-11.6774
▁swapped	-11.6774
▁wrought	-11.6774
▁education	-11.6774
▁speck	-11.6774
Loony	-11.6774
▁stitch	-11.6774
▁Inquisitorial	-11.6774
▁comfortably	-11.6774
▁clump	-11.6774
▁referee	-11.6774
▁wreckage	-11.6774
▁accusation	-11.6774
▁Standing	-11.6774
▁fox	-11.6774
▁squid	-11.6775
▁rapt	-11.6775
▁eighteen	-11.6775
▁slice	-11.6775
▁sustain	-11.6775
▁countryside	-11.6775
▁performance	-11.6775
▁racket	-11.6775
atic	-11.6775
▁inspection	-11.6775
▁sunny	-11.6776
▁Grade	-11.6776
▁chatting	-11.6776
▁poring	-11.6777
▁tottering	-11.6777
Kind	-11.6777
▁Snare	-11.6777
▁skies	-11.6777
▁pond	-11.6777
Clear	-11.6777
▁searing	-11.6778
▁timidly	-11.6778
▁statement	-11.6779
▁musical	-11.6779
▁humor	-11.678
▁tension	-11.678
▁remotely	-11.678
▁somethin	-11.678
▁indifferently	-11.6781
▁maliciously	-11.6781
Riddikulus	-11.6781
▁woolly	-11.6781
▁twittering	-11.6782
mort	-11.6782
▁fitted	-11.6782
▁rocket	-11.6783
▁menacingly	-11.6783
Speak	-11.6783
▁sniggering	-11.6784
▁floorboard	-11.6784
▁reside	-11.6786
▁retreating	-11.6786
▁glistening	-11.6788
▁quivered	-11.679
▁ominously	-11.679
Knew	-11.6793
▁melted	-11.6794
▁intending	-11.6794
Find	-11.6794
▁confidently	-11.6795
▁fondly	-11.6795
▁retorted	-11.6798
▁confided	-11.6798
▁darkened	-11.6798
mature	-11.68
▁improved	-11.68
▁Dumble	-11.68
▁threateningly	-11.6801
▁registered	-11.6801
▁obeyed	-11.6803
▁awaiting	-11.6805
Oi	-11.6806
▁dwelling	-11.6807
▁extracted	-11.6809
▁hunting	-11.6809
▁puffed	-11.6809
▁reared	-11.6815
▁Impediment	-11.6818
▁Sometimes	-11.6818
▁Last	-11.6819
▁uttered	-11.6819
▁facedown	-11.6819
▁clawed	-11.6826
▁Big	-11.6827
▁collected	-11.683
▁quicker	-11.6832
▁longingly	-11.6837
▁safer	-11.6837
▁treating	-11.6839
▁loop	-11.6841
▁doze	-11.6847
▁alley	-11.6849
▁piped	-11.685
▁Help	-11.6852
▁determinedly	-11.6853
▁tracked	-11.6854
▁massag	-11.6859
▁sporting	-11.6859
▁guessing	-11.6867
▁poisoned	-11.6873
▁plea	-11.6876
▁suggesting	-11.6876
▁powerfully	-11.6877
rk	-11.6881
eeling	-11.6882
▁reporter	-11.6894
▁needle	-11.691
▁rate	-11.691
▁importantly	-11.6912
▁repel	-11.6926
▁patched	-11.6943
▁doubled	-11.6945
▁freely	-11.6951
▁prod	-11.6967
▁log	-11.7003
Night	-11.7014
▁medi	-11.7016
▁flatter	-11.7028
RON	-11.704
▁conv	-11.7042
▁chop	-11.7054
Run	-11.7087
ok	-11.7114
Too	-11.7181
▁una	-11.7203
smelling	-11.7245
idden	-11.7262
▁develop	-11.7333
Bad	-11.7394
Eat	-11.7398
▁spark	-11.7413
Fight	-11.7456
▁refill	-11.7467
▁Leav	-11.7508
ister	-11.7529
Mudblood	-11.7543
Mundungus	-11.7543
giant	-11.7543
Griphook	-11.7543
Peeves	-11.7543
Lord	-11.7544
Death	-11.7544
telling	-11.7544
nosed	-11.7545
▁trail	-11.7554
▁smirk	-11.7555
▁frown	-11.7555
▁prop	-11.7556
However	-11.7556
gold	-11.7561
▁swish	-11.7578
▁thump	-11.7579
still	-11.7579
▁grimace	-11.758
▁confide	-11.758
▁advise	-11.758
▁issue	-11.758
▁huddle	-11.758
▁explode	-11.7581
▁confirm	-11.7583
▁shatter	-11.7583
▁erupt	-11.7585
▁Try	-11.7591
▁shrewd	-11.7596
▁menacing	-11.7596
▁increasing	-11.7596
▁uncertain	-11.7596
▁apparent	-11.7596
▁gleeful	-11.7598
▁addition	-11.7605
▁mill	-11.7606
▁swoo	-11.7606
▁dramatic	-11.7606
US	-11.7606
urried	-11.7606
▁court	-11.7607
▁sauce	-11.7607
Accident	-11.7607
Definitely	-11.7607
▁Alastor	-11.7607
▁Bulstrode	-11.7607
▁Sybill	-11.7607
▁Vane	-11.7607
▁elaborate	-11.7607
▁generous	-11.7607
▁gossip	-11.7607
▁hiccough	-11.7607
▁simper	-11.7607
▁slaughter	-11.7607
▁straggl	-11.7607
Enough	-11.7607
Nymphadora	-11.7607
WEASLEY	-11.7607
▁Draught	-11.7607
▁Edgecombe	-11.7607
▁February	-11.7607
▁KNOW	-11.7607
▁Life	-11.7607
▁Oracle	-11.7607
▁Salazar	-11.7607
▁Section	-11.7607
▁Tofty	-11.7607
▁Twice	-11.7607
▁Twycross	-11.7607
▁Weekly	-11.7607
▁abroad	-11.7607
▁accurate	-11.7607
▁amusement	-11.7607
▁angrier	-11.7607
▁applied	-11.7607
▁assembled	-11.7607
▁babble	-11.7607
▁blimey	-11.7607
▁brood	-11.7607
▁clinking	-11.7607
▁column	-11.7607
▁copied	-11.7607
▁despise	-11.7607
▁dustbin	-11.7607
▁embroider	-11.7607
▁emitting	-11.7607
▁exercise	-11.7607
▁fumes	-11.7607
▁gloating	-11.7607
▁groping	-11.7607
▁hunched	-11.7607
▁immersed	-11.7607
▁incredibly	-11.7607
▁jagged	-11.7607
▁jeered	-11.7607
▁junk	-11.7607
▁leering	-11.7607
▁miracle	-11.7607
▁mystery	-11.7607
▁napkin	-11.7607
▁occupied	-11.7607
▁pallid	-11.7607
▁pelting	-11.7607
▁penalty	-11.7607
▁pursuing	-11.7607
▁quality	-11.7607
▁revision	-11.7607
▁scattering	-11.7607
▁scrambling	-11.7607
▁sensible	-11.7607
▁shamrock	-11.7607
▁shrank	-11.7607
▁shunt	-11.7607
▁solemnly	-11.7607
▁sunshine	-11.7607
▁sympathy	-11.7607
▁tethered	-11.7607
▁variety	-11.7607
▁vertical	-11.7607
▁victory	-11.7607
▁wolf	-11.7607
▁wrapper	-11.7607
▁writhe	-11.7607
▁Totalu	-11.7607
▁WAS	-11.7607
▁deciding	-11.7607
▁lousy	-11.7607
▁dumb	-11.7607
▁gush	-11.7607
▁loomed	-11.7607
▁relentless	-11.7607
▁option	-11.7607
▁barrel	-11.7607
▁gonna	-11.7607
▁vase	-11.7607
▁relationship	-11.7607
ricket	-11.7607
▁bidding	-11.7607
▁minor	-11.7607
▁Beans	-11.7607
▁maniac	-11.7607
operation	-11.7607
▁planets	-11.7607
▁thunderstruck	-11.7607
▁cramped	-11.7607
▁nurse	-11.7607
▁wrinkled	-11.7607
lbert	-11.7607
▁Harper	-11.7607
▁hopped	-11.7607
Glad	-11.7607
▁beady	-11.7607
▁gentlemen	-11.7607
▁assistance	-11.7607
ampered	-11.7607
▁annoyance	-11.7608
▁considerably	-11.7608
▁bridge	-11.7608
▁buckled	-11.7608
▁sagging	-11.7608
▁example	-11.7608
▁strap	-11.7608
▁Somehow	-11.7608
uddy	-11.7608
▁guardian	-11.7608
▁balloon	-11.7608
opped	-11.7609
▁clap	-11.7609
▁noticeboard	-11.7609
▁furry	-11.7609
▁appreciatively	-11.7609
▁pureblood	-11.7609
▁straightaway	-11.7609
▁stout	-11.761
▁bury	-11.761
▁nastily	-11.761
▁achievement	-11.761
▁unwise	-11.7611
▁agreement	-11.7611
▁Dung	-11.7612
▁pump	-11.7612
▁bravery	-11.7612
▁scathingly	-11.7612
▁fearful	-11.7612
▁sang	-11.7612
▁sulky	-11.7613
▁steered	-11.7614
▁convincing	-11.7616
kiving	-11.7616
▁enable	-11.7616
▁cluttered	-11.7616
▁unrolled	-11.7616
▁washing	-11.7618
▁skulking	-11.7618
▁host	-11.7619
▁confiscated	-11.762
making	-11.762
▁parties	-11.762
▁nighttime	-11.7621
▁worthless	-11.7622
▁embarrassing	-11.7622
▁flipped	-11.7623
▁flowery	-11.7625
▁nothin	-11.7626
▁whimpered	-11.7627
▁brandy	-11.7627
trip	-11.7627
▁madness	-11.7627
▁rooted	-11.7627
▁topped	-11.7627
oooo	-11.7627
▁reacted	-11.7629
lining	-11.7631
▁stained	-11.7631
▁trailed	-11.7631
▁stricken	-11.7633
▁glinted	-11.7633
▁squeaky	-11.7633
▁regularly	-11.7633
▁knocker	-11.7635
Talk	-11.7637
▁drowning	-11.7638
▁Students	-11.7639
▁suppressed	-11.7644
▁Somebody	-11.7645
▁rescued	-11.7645
▁severed	-11.7646
▁Patronuses	-11.7646
▁New	-11.7647
▁yelped	-11.7648
▁summoned	-11.765
bandoning	-11.765
▁grunting	-11.7651
▁leaking	-11.7651
▁cloudy	-11.7652
▁def	-11.7657
▁selling	-11.7658
▁stacked	-11.766
▁fixing	-11.7663
▁Silence	-11.7664
▁experiment	-11.7671
▁disguised	-11.7673
Long	-11.7674
▁squeaking	-11.7681
▁washed	-11.7682
▁spying	-11.7683
▁belly	-11.7687
▁accusing	-11.7688
▁comforting	-11.7688
▁thrusting	-11.7693
▁alarming	-11.7695
▁dreamy	-11.7696
▁performing	-11.7696
▁Char	-11.7703
▁Wonder	-11.7713
▁assist	-11.7716
▁goat	-11.7747
▁fray	-11.775
▁cope	-11.7753
▁Star	-11.7786
▁guarded	-11.7791
▁tearful	-11.7871
▁teenage	-11.7892
Careful	-11.7902
▁attacker	-11.7967
skinned	-11.7967
Ju	-11.7984
secretary	-11.7997
your	-11.8017
▁killer	-11.8024
▁vote	-11.8086
▁stub	-11.812
hone	-11.8165
▁Bit	-11.818
any	-11.8187
tempered	-11.8203
Fi	-11.8258
Sort	-11.8319
gling	-11.832
▁mile	-11.8321
▁rob	-11.8346
▁WH	-11.8386
ONE	-11.8395
raying	-11.8399
rice	-11.841
standing	-11.8415
▁fruit	-11.8419
heard	-11.8444
▁wha	-11.8448
washed	-11.845
Apparently	-11.8452
While	-11.8452
Everything	-11.8452
drawn	-11.8452
Scrimgeour	-11.8452
Petunia	-11.8453
Riddle	-11.8453
Quidditch	-11.8453
Ministry	-11.8453
George	-11.8453
House	-11.8453
six	-11.8453
OUT	-11.8453
Nick	-11.8457
tail	-11.8461
▁spill	-11.8464
▁scowl	-11.8464
▁drift	-11.8464
▁gleam	-11.8464
▁twist	-11.8465
eck	-11.8475
▁shrink	-11.8487
▁Vanish	-11.8488
▁provide	-11.8489
▁chew	-11.8489
▁arrange	-11.8489
▁buzz	-11.8489
▁recognise	-11.849
▁tremble	-11.849
▁emerge	-11.849
▁react	-11.849
▁reflect	-11.8491
▁swivel	-11.8491
▁slash	-11.8492
▁obscur	-11.8492
▁scoop	-11.8492
▁stain	-11.8494
Forget	-11.8495
▁reluctant	-11.8505
▁coward	-11.8508
▁headmistress	-11.8513
▁refer	-11.8514
▁sympathetic	-11.8515
▁incident	-11.8515
eneath	-11.8515
▁swap	-11.8515
▁drip	-11.8516
COME	-11.8516
▁swim	-11.8516
▁tact	-11.8516
▁mirth	-11.8516
Absolutely	-11.8516
appropriate	-11.8516
▁Marcus	-11.8516
▁admiration	-11.8516
▁admiring	-11.8516
▁blister	-11.8516
▁blunt	-11.8516
▁contradict	-11.8516
▁disbelieving	-11.8516
▁disrupt	-11.8516
▁ferocious	-11.8516
▁ignited	-11.8516
▁obstacle	-11.8516
▁paralyz	-11.8516
▁rebellio	-11.8516
▁unconcerned	-11.8516
▁vulture	-11.8516
Cool	-11.8516
Explain	-11.8516
Muffliato	-11.8516
Protego	-11.8516
SIRIUS	-11.8516
cogni	-11.8516
▁Cannons	-11.8516
▁Celestina	-11.8516
▁Club	-11.8516
▁Elixir	-11.8516
▁Flavor	-11.8516
▁Kwikspell	-11.8516
▁Olympe	-11.8516
▁Peakes	-11.8516
▁Perkins	-11.8516
▁Sensor	-11.8516
▁Snuffles	-11.8516
▁Solution	-11.8516
▁Suddenly	-11.8516
▁activity	-11.8516
▁affronted	-11.8516
▁assortment	-11.8516
▁behaviour	-11.8516
▁blossom	-11.8516
▁bracket	-11.8516
▁bristl	-11.8516
▁bullfrog	-11.8516
▁burden	-11.8516
▁comprised	-11.8516
▁crocodile	-11.8516
▁cunning	-11.8516
▁derisive	-11.8516
▁dipped	-11.8516
▁disapproval	-11.8516
▁draft	-11.8516
▁emblazoned	-11.8516
▁embrace	-11.8516
▁essence	-11.8516
▁farewell	-11.8516
▁firewhisky	-11.8516
▁flagon	-11.8516
▁forefinger	-11.8516
▁fortunate	-11.8516
▁furniture	-11.8516
▁genius	-11.8516
▁genuine	-11.8516
▁guarantee	-11.8516
▁identity	-11.8516
▁instinct	-11.8516
▁interjected	-11.8516
▁inviting	-11.8516
▁jumble	-11.8516
▁kidnap	-11.8516
▁knobbly	-11.8516
▁league	-11.8516
▁lectur	-11.8516
▁mistletoe	-11.8516
▁neglect	-11.8516
▁observing	-11.8516
▁obsession	-11.8516
▁phrase	-11.8516
▁pinstriped	-11.8516
▁recruit	-11.8516
▁resolve	-11.8516
▁retired	-11.8516
▁reverberat	-11.8516
▁satisfy	-11.8516
▁shaky	-11.8516
▁skeletal	-11.8516
▁snooz	-11.8516
▁subsided	-11.8516
▁supply	-11.8516
▁throng	-11.8516
▁thwart	-11.8516
▁tinkling	-11.8516
▁turkey	-11.8516
▁unblinkingly	-11.8516
▁valley	-11.8516
▁wheezing	-11.8516
▁wrapping	-11.8516
GRYFFINDOR	-11.8516
Glass	-11.8516
▁Prongs	-11.8516
▁renewed	-11.8516
ATION	-11.8516
clad	-11.8516
▁flailing	-11.8516
▁overcoat	-11.8516
▁resolutely	-11.8516
▁riot	-11.8516
▁strand	-11.8516
Fifty	-11.8516
RUN	-11.8516
▁Jones	-11.8516
▁Evans	-11.8516
▁awestruck	-11.8516
▁consol	-11.8516
▁snogg	-11.8516
▁Sisters	-11.8516
▁absentmindedly	-11.8516
▁battling	-11.8516
▁tread	-11.8516
▁whack	-11.8516
Cissy	-11.8516
▁Boot	-11.8516
▁wincing	-11.8516
▁plug	-11.8516
▁relish	-11.8516
▁rosette	-11.8516
▁Walk	-11.8516
▁dodging	-11.8516
▁mutinous	-11.8516
▁consent	-11.8516
▁apologetically	-11.8516
▁pillowcase	-11.8516
▁hurl	-11.8516
▁ranks	-11.8516
▁screen	-11.8516
▁priority	-11.8516
Serious	-11.8516
▁stomp	-11.8517
▁whipping	-11.8517
▁THIS	-11.8517
▁cheat	-11.8517
▁flitted	-11.8517
▁clung	-11.8517
upport	-11.8517
▁Things	-11.8517
▁timetable	-11.8517
▁Underage	-11.8517
Calm	-11.8517
▁million	-11.8517
▁stung	-11.8517
▁tripping	-11.8518
▁bellowing	-11.8518
▁Mother	-11.8518
Coming	-11.8518
▁blurted	-11.8518
▁staffroom	-11.8519
▁spear	-11.8519
▁additional	-11.8519
▁transformation	-11.8519
▁conductor	-11.8519
▁jam	-11.852
▁headmistresses	-11.852
▁zero	-11.852
▁bill	-11.852
Move	-11.8521
▁meself	-11.8521
▁twinge	-11.8521
▁truthfully	-11.8521
▁encouragingly	-11.8522
▁Snow	-11.8522
▁drawling	-11.8522
▁tide	-11.8522
▁toadlike	-11.8522
▁flaw	-11.8523
▁melt	-11.8523
▁objection	-11.8523
▁eyeball	-11.8523
▁apron	-11.8524
▁MY	-11.8524
▁patiently	-11.8525
▁exposed	-11.8525
▁lifetime	-11.8525
▁stifled	-11.8525
▁Slug	-11.8526
▁healed	-11.8526
▁blotch	-11.8526
▁flinched	-11.8526
▁grayish	-11.8527
▁observed	-11.8527
▁elderly	-11.8529
▁awed	-11.8531
▁Puff	-11.8532
▁Dangerous	-11.8532
▁strangest	-11.8532
RDER	-11.8532
▁latest	-11.8537
▁swirled	-11.8538
▁triumphantly	-11.8538
▁manager	-11.8539
▁harshly	-11.8539
▁slashed	-11.854
▁vain	-11.8542
▁smashing	-11.8542
▁trainers	-11.8543
▁developed	-11.8543
afe	-11.8544
▁Inter	-11.8544
▁solution	-11.8544
▁Third	-11.8544
▁Close	-11.8545
▁stove	-11.855
▁goodbye	-11.855
▁qualified	-11.8551
▁squealing	-11.8553
▁affected	-11.8554
▁witnesses	-11.8555
▁stroked	-11.8558
▁airily	-11.8559
▁sprouted	-11.8561
▁created	-11.8563
▁driver	-11.8563
▁sherry	-11.8563
▁reappearing	-11.8567
▁puffing	-11.8567
▁moaning	-11.8575
▁tensely	-11.8576
tual	-11.8577
▁splashing	-11.8578
▁Told	-11.8579
▁introduced	-11.858
▁matches	-11.8581
▁tasted	-11.8581
▁coughed	-11.8582
▁gin	-11.8582
▁tricky	-11.8583
▁hovered	-11.8584
▁delightedly	-11.8585
Ow	-11.8591
▁failing	-11.8592
▁concentrated	-11.8592
▁gifted	-11.8593
▁coughing	-11.8595
▁dresser	-11.8596
▁sucking	-11.8597
▁messed	-11.8608
▁resisting	-11.8608
▁flicking	-11.8608
▁sickly	-11.8609
▁Wa	-11.8611
▁rocky	-11.8617
▁backside	-11.8619
▁arch	-11.8628
▁scare	-11.8661
ELL	-11.8678
▁hearth	-11.8687
Oo	-11.8766
▁repress	-11.8786
▁laz	-11.8787
ERS	-11.8831
▁perus	-11.8847
▁litter	-11.8861
▁radish	-11.8863
▁imm	-11.8897
▁sunli	-11.8916
zy	-11.8917
approved	-11.894
grown	-11.8941
▁WHO	-11.8961
eez	-11.9001
War	-11.9005
▁approve	-11.9067
pressed	-11.907
▁buck	-11.9093
▁soften	-11.9094
DON	-11.9132
▁root	-11.9298
▁pupil	-11.932
▁glove	-11.932
ttered	-11.9321
ecked	-11.9348
▁visitor	-11.9358
▁scrap	-11.9367
▁label	-11.9382
market	-11.9392
osa	-11.9429
most	-11.9439
▁wobble	-11.9445
yeh	-11.9447
Silence	-11.945
known	-11.945
house	-11.9451
Merlin	-11.9451
Ollivander	-11.9452
Rita	-11.9452
Wormtail	-11.9452
Hedwig	-11.9452
box	-11.9453
haven	-11.9459
▁whimper	-11.9463
▁smash	-11.9464
▁swirl	-11.9464
▁clutch	-11.9465
▁linger	-11.9465
▁lean	-11.9468
▁wink	-11.9476
▁chip	-11.9476
▁bruise	-11.9489
▁celebrate	-11.9489
▁strangle	-11.9489
▁file	-11.9489
▁resume	-11.949
▁cackle	-11.949
▁involve	-11.949
▁dodge	-11.949
▁chatter	-11.9491
▁resign	-11.9491
▁connect	-11.9491
▁Restrict	-11.9492
▁rejoin	-11.9492
▁mix	-11.9492
▁splutter	-11.9492
▁beckon	-11.9492
▁extend	-11.9493
▁flank	-11.9494
gray	-11.9495
agging	-11.9498
▁arc	-11.9499
▁absolute	-11.9505
▁extreme	-11.9506
▁commit	-11.9514
ompletely	-11.9515
▁Mons	-11.9515
▁scandal	-11.9516
▁contempt	-11.9516
................	-11.9516
▁tumult	-11.9516
Evidently	-11.9516
Exploding	-11.9516
MINISTRY	-11.9516
Penelope	-11.9516
Perfect	-11.9516
Petrificus	-11.9516
rearranged	-11.9516
▁Chudley	-11.9516
▁Cottage	-11.9516
▁Disposal	-11.9516
▁Fenrir	-11.9516
▁Future	-11.9516
▁Guide	-11.9516
▁Hospital	-11.9516
▁Injuries	-11.9516
▁Moony	-11.9516
▁Parselmouth	-11.9516
▁Poltergeist	-11.9516
▁Remembrall	-11.9516
▁Rubeus	-11.9516
▁STINKS	-11.9516
▁Underground	-11.9516
▁Unforgivable	-11.9516
▁affair	-11.9516
▁astounded	-11.9516
▁banisters	-11.9516
▁brilliance	-11.9516
▁character	-11.9516
▁clumsily	-11.9516
▁congratulate	-11.9516
▁crumble	-11.9516
▁crumbling	-11.9516
▁culprit	-11.9516
▁dignified	-11.9516
▁discomfort	-11.9516
▁disembodied	-11.9516
▁dismissed	-11.9516
▁eff	-11.9516
▁elephant	-11.9516
▁encouragement	-11.9516
▁engraved	-11.9516
▁eventually	-11.9516
▁expulsion	-11.9516
▁fabulous	-11.9516
▁fancied	-11.9516
▁fortnight	-11.9516
▁fragile	-11.9516
▁frankly	-11.9516
▁fudge	-11.9516
▁furrowed	-11.9516
▁gillyweed	-11.9516
▁glazed	-11.9516
▁guffaw	-11.9516
▁haughty	-11.9516
▁helmet	-11.9516
▁identify	-11.9516
▁impatience	-11.9516
▁individual	-11.9516
▁inhabitants	-11.9516
▁inspiration	-11.9516
▁intrigued	-11.9516
▁keeled	-11.9516
▁kip	-11.9516
▁moleskin	-11.9516
▁moonstone	-11.9516
▁outbreak	-11.9516
▁pamphlet	-11.9516
▁pineapple	-11.9516
▁poltergeist	-11.9516
▁probation	-11.9516
▁prowling	-11.9516
▁purchase	-11.9516
▁radio	-11.9516
▁refuge	-11.9516
▁regurgitat	-11.9516
▁reputation	-11.9516
▁revolted	-11.9516
▁ribbon	-11.9516
▁skidding	-11.9516
▁sleet	-11.9516
▁slouched	-11.9516
▁snoring	-11.9516
▁splendid	-11.9516
▁staggering	-11.9516
▁substitute	-11.9516
▁swipe	-11.9516
▁temporary	-11.9516
▁torturing	-11.9516
▁trooped	-11.9516
▁turquoise	-11.9516
▁uneven	-11.9516
▁unfocused	-11.9516
▁unkempt	-11.9516
▁vacation	-11.9516
▁vibrate	-11.9516
▁violence	-11.9516
▁wheezed	-11.9516
▁worries	-11.9516
▁zigzagg	-11.9516
ITCH	-11.9516
Reparo	-11.9516
▁WITH	-11.9516
▁White	-11.9516
▁cluster	-11.9516
▁cobweb	-11.9516
▁computer	-11.9516
▁crude	-11.9516
▁diamond	-11.9516
▁reproving	-11.9516
▁route	-11.9516
▁waistcoat	-11.9516
▁whisker	-11.9516
IGHT	-11.9516
▁Bole	-11.9516
▁Susan	-11.9516
▁aggressively	-11.9516
▁glued	-11.9516
▁mousy	-11.9516
▁ornament	-11.9516
▁squelch	-11.9516
▁submit	-11.9516
vacu	-11.9516
▁exploding	-11.9516
▁noisily	-11.9516
▁rasping	-11.9516
▁Dream	-11.9516
▁skimm	-11.9516
▁brew	-11.9516
▁spindly	-11.9516
▁coiling	-11.9516
▁verge	-11.9516
▁slippers	-11.9516
▁smuggle	-11.9516
▁tennis	-11.9516
▁unwilling	-11.9516
▁introduction	-11.9516
▁lemon	-11.9516
▁generations	-11.9516
▁cobble	-11.9516
▁lord	-11.9516
▁doorbell	-11.9516
▁slapped	-11.9516
▁untied	-11.9516
Mount	-11.9516
▁punctuated	-11.9516
▁tinkle	-11.9516
▁thinner	-11.9516
▁spurt	-11.9516
estimate	-11.9516
▁wizened	-11.9516
▁reference	-11.9516
▁shrunken	-11.9516
▁remarkably	-11.9516
▁Old	-11.9516
▁dizzy	-11.9517
Easy	-11.9517
▁plunging	-11.9517
▁Halfway	-11.9517
▁Snackboxes	-11.9517
▁beef	-11.9517
Such	-11.9517
▁idly	-11.9517
▁anticipation	-11.9517
▁shortcut	-11.9517
▁basement	-11.9517
▁heatedly	-11.9517
▁dingy	-11.9518
▁cursing	-11.9518
▁Shop	-11.9518
▁rubies	-11.9518
miling	-11.9518
Barely	-11.9518
▁travelled	-11.9518
▁foam	-11.9518
Small	-11.9518
▁interruption	-11.9518
▁Green	-11.9519
▁Inferius	-11.9519
▁chap	-11.9519
▁executioner	-11.9519
▁WOR	-11.952
▁freeze	-11.952
▁scratches	-11.952
▁pants	-11.952
▁OFF	-11.952
▁remainder	-11.952
▁plus	-11.952
Potty	-11.9521
▁Down	-11.9521
▁cock	-11.9521
▁childish	-11.9522
▁villagers	-11.9522
▁soothingly	-11.9522
▁deposited	-11.9522
▁tug	-11.9522
▁sale	-11.9524
▁haul	-11.9525
▁peril	-11.9525
▁reassuringly	-11.9526
▁spit	-11.9527
▁marvel	-11.9527
▁Anti	-11.9527
▁cowardly	-11.9528
▁pang	-11.9529
▁twirling	-11.953
▁snarling	-11.953
▁imitated	-11.953
▁splintered	-11.953
▁caf	-11.9531
▁alarmingly	-11.9531
sebleed	-11.9531
▁absently	-11.9531
▁carelessly	-11.9532
▁abuse	-11.9533
▁spray	-11.9534
▁safest	-11.9535
▁belch	-11.9536
Tea	-11.9537
▁Pig	-11.9538
▁shriveled	-11.9538
▁lain	-11.9538
▁scarred	-11.9539
▁divided	-11.954
▁Restricted	-11.954
▁flanked	-11.954
▁rejoined	-11.954
▁extended	-11.9541
ttled	-11.9542
▁flexing	-11.9542
▁startling	-11.9543
▁equally	-11.9543
▁celebrated	-11.9543
▁bruised	-11.9543
▁lingering	-11.9545
▁spraying	-11.9546
▁provided	-11.9546
tcher	-11.9546
▁gratefully	-11.9547
▁clanged	-11.9548
▁careless	-11.9548
▁grimaced	-11.9549
▁haunted	-11.9551
▁passes	-11.9553
▁mini	-11.9553
▁rumbled	-11.9555
▁grand	-11.9555
▁items	-11.9555
▁fainter	-11.956
▁prey	-11.9561
▁examiner	-11.9564
▁slower	-11.9564
▁recovered	-11.9565
etti	-11.9569
footed	-11.9571
▁warmer	-11.9578
Year	-11.9578
▁topic	-11.958
▁workers	-11.9584
▁sticky	-11.9587
▁brilliantly	-11.9588
Shame	-11.9594
bout	-11.9612
acious	-11.9617
▁reminder	-11.9617
Joke	-11.9623
KE	-11.9637
▁poker	-11.9659
math	-11.9667
▁resort	-11.967
▁haste	-11.9676
surprisingly	-11.9689
eval	-11.9709
▁Car	-11.9747
Lovely	-11.9757
Aha	-11.976
Lost	-11.9761
ulent	-11.9762
olly	-11.979
ridge	-11.98
Cur	-11.9822
▁hack	-11.9833
▁strengthen	-11.9848
open	-11.9892
dged	-11.9922
rode	-11.9924
pologize	-12.0003
gent	-12.007
▁alm	-12.0085
breeds	-12.009
eemed	-12.0144
▁span	-12.0221
rian	-12.0233
prints	-12.0264
DER	-12.0289
cold	-12.0336
▁loo	-12.0369
▁Je	-12.0399
▁relative	-12.043
▁guest	-12.043
▁feature	-12.0431
▁eyebrow	-12.0434
▁firework	-12.0448
▁Hallow	-12.0476
imply	-12.0488
▁accus	-12.0499
THE	-12.0501
▁Har	-12.0514
▁enthusiastic	-12.0538
ION	-12.0555
aunt	-12.056
Sometimes	-12.0561
Impediment	-12.0561
Last	-12.0562
WHAT	-12.0562
Minerva	-12.0563
Yaxley	-12.0563
Phineas	-12.0563
Dementors	-12.0563
figure	-12.0563
yeah	-12.0564
Crabbe	-12.0564
people	-12.0564
Father	-12.0564
magical	-12.0566
racked	-12.0567
fourth	-12.0568
serving	-12.0568
Dark	-12.057
▁quiver	-12.0575
▁yawn	-12.0575
▁dart	-12.0576
bright	-12.0578
Told	-12.058
▁intend	-12.0581
tip	-12.0593
▁flex	-12.0598
▁sweep	-12.0599
▁divide	-12.06
▁impress	-12.0601
▁rattle	-12.0603
▁shrivel	-12.0603
▁clench	-12.0604
▁attach	-12.0606
▁Bulgaria	-12.0611
▁reassuring	-12.0616
▁indifferent	-12.0616
▁malicious	-12.0616
▁brisk	-12.0617
▁patient	-12.0617
▁current	-12.0617
▁wool	-12.0617
▁takin	-12.0624
▁plot	-12.0626
▁orphan	-12.0626
▁favour	-12.0627
fessor	-12.0627
▁elect	-12.0627
▁aggressi	-12.0627
▁exclaim	-12.0627
▁ricochet	-12.0627
Correct	-12.0627
Possibly	-12.0627
corpus	-12.0627
▁Expectations	-12.0627
▁bargain	-12.0627
▁boundaries	-12.0627
▁bramble	-12.0627
▁clammy	-12.0627
▁decipher	-12.0627
▁displeasure	-12.0627
▁megaphone	-12.0627
▁navy	-12.0627
▁postpone	-12.0627
▁retaliat	-12.0627
▁scheme	-12.0627
▁scrabbl	-12.0627
▁scruff	-12.0627
▁squawk	-12.0627
Aguamenti	-12.0627
Exceeds	-12.0627
KEEP	-12.0627
Mimbu	-12.0627
Reckon	-12.0627
desirable	-12.0627
satisfactory	-12.0627
sensitive	-12.0627
▁ABOUT	-12.0627
▁Basilisk	-12.0627
▁Belby	-12.0627
▁Body	-12.0627
▁Coote	-12.0627
▁Disillusionment	-12.0627
▁Filibuster	-12.0627
▁Fortescue	-12.0627
▁Gobstones	-12.0627
▁Ignotus	-12.0627
▁Improper	-12.0627
▁Maintenance	-12.0627
▁Maladies	-12.0627
▁Mullet	-12.0627
▁Patrick	-12.0627
▁Romania	-12.0627
▁Sinistra	-12.0627
▁Sorcery	-12.0627
▁airplane	-12.0627
▁altogether	-12.0627
▁ancestor	-12.0627
▁applauded	-12.0627
▁apply	-12.0627
▁avidly	-12.0627
▁beauty	-12.0627
▁blushed	-12.0627
▁blustered	-12.0627
▁breach	-12.0627
▁campaign	-12.0627
▁chalk	-12.0627
▁champagne	-12.0627
▁channel	-12.0627
▁chortled	-12.0627
▁combination	-12.0627
▁communicating	-12.0627
▁comprehension	-12.0627
▁convenient	-12.0627
▁countercurse	-12.0627
▁crazy	-12.0627
▁debris	-12.0627
▁deduced	-12.0627
▁dignity	-12.0627
▁disconcerted	-12.0627
▁disdainful	-12.0627
▁drills	-12.0627
▁drool	-12.0627
▁entitled	-12.0627
▁establish	-12.0627
▁fiddl	-12.0627
▁freckles	-12.0627
▁glossy	-12.0627
▁grapefruit	-12.0627
▁gruesome	-12.0627
▁impenetrable	-12.0627
▁imploringly	-12.0627
▁impulse	-12.0627
▁index	-12.0627
▁indistinct	-12.0627
▁intervals	-12.0627
▁knitting	-12.0627
▁lenses	-12.0627
▁lilac	-12.0627
▁ludicrous	-12.0627
▁margin	-12.0627
▁mismatched	-12.0627
▁mundane	-12.0627
▁navel	-12.0627
▁nickname	-12.0627
▁obediently	-12.0627
▁oblivious	-12.0627
▁opportunities	-12.0627
▁predicted	-12.0627
▁preparation	-12.0627
▁profile	-12.0627
▁pulsing	-12.0627
▁pursuit	-12.0627
▁qualities	-12.0627
▁receiving	-12.0627
▁regime	-12.0627
▁skeleton	-12.0627
▁slanting	-12.0627
▁smoky	-12.0627
▁spiked	-12.0627
▁studied	-12.0627
▁stumbling	-12.0627
▁surreptitiously	-12.0627
▁tantrum	-12.0627
▁terrifying	-12.0627
▁traffic	-12.0627
▁trudged	-12.0627
▁twilight	-12.0627
▁unique	-12.0627
▁unnecessary	-12.0627
▁unnerved	-12.0627
▁unravel	-12.0627
▁vacant	-12.0627
▁vicinity	-12.0627
▁weighed	-12.0627
▁weighing	-12.0627
▁withdrawing	-12.0627
▁wrestle	-12.0627
▁wriggled	-12.0627
▁wriggling	-12.0627
OUGH	-12.0627
▁PATRONU	-12.0627
▁eldest	-12.0627
▁linked	-12.0627
▁nicked	-12.0627
▁sidled	-12.0627
▁solitary	-12.0627
▁stinking	-12.0627
▁taut	-12.0627
▁tremulous	-12.0627
Trust	-12.0627
▁background	-12.0627
▁bulb	-12.0627
▁mangled	-12.0627
▁naked	-12.0627
▁properties	-12.0627
▁quaver	-12.0627
▁ushered	-12.0627
▁Troy	-12.0627
▁offense	-12.0627
▁tactics	-12.0627
▁welcoming	-12.0627
▁wringing	-12.0627
▁Lived	-12.0627
▁downfall	-12.0627
▁interfere	-12.0627
▁soccer	-12.0627
▁Cream	-12.0627
▁tersely	-12.0627
Straight	-12.0627
▁guts	-12.0627
▁siphon	-12.0627
▁Panting	-12.0627
Either	-12.0627
▁retching	-12.0627
vestig	-12.0627
▁backfired	-12.0627
▁descent	-12.0627
▁Court	-12.0627
▁leered	-12.0627
▁DID	-12.0627
▁crest	-12.0627
▁Disapparating	-12.0627
▁Unfogging	-12.0627
▁Tears	-12.0627
▁render	-12.0627
▁bewitching	-12.0627
▁folds	-12.0627
▁lolling	-12.0627
▁emanat	-12.0627
▁peg	-12.0627
▁sunset	-12.0627
kidney	-12.0627
▁tryouts	-12.0627
▁nagging	-12.0627
▁salt	-12.0627
▁ownership	-12.0628
▁chipped	-12.0628
▁sheaf	-12.0628
▁nettle	-12.0628
▁pork	-12.0628
▁sympathetically	-12.0628
▁corpse	-12.0628
▁intervene	-12.0628
▁stony	-12.0628
ECTO	-12.0628
▁cannon	-12.0628
▁rotten	-12.0628
▁referring	-12.0628
▁suitcase	-12.0628
scope	-12.0628
▁exhaustion	-12.0628
▁resignation	-12.0628
▁sparkled	-12.0628
▁ladies	-12.0628
Elf	-12.0629
▁stripped	-12.0629
▁stowing	-12.0629
Loads	-12.0629
▁granted	-12.0629
▁resistance	-12.0629
▁flock	-12.0629
▁concealment	-12.0629
▁shard	-12.063
▁shack	-12.063
▁Diddy	-12.063
▁treatment	-12.063
▁thus	-12.063
EAR	-12.063
▁haircut	-12.063
▁confession	-12.063
▁Comm	-12.063
▁BACK	-12.0631
▁coach	-12.0631
Troll	-12.0632
▁Barry	-12.0632
AKE	-12.0632
▁slime	-12.0633
elius	-12.0633
▁murderous	-12.0633
▁malevolently	-12.0634
▁Line	-12.0634
▁absorbed	-12.0634
▁engulfed	-12.0634
▁testily	-12.0635
serted	-12.0635
▁stup	-12.0635
Ladi	-12.0636
▁fame	-12.0637
▁wordlessly	-12.0637
▁hammered	-12.0637
▁lurked	-12.0637
▁restlessly	-12.0639
Full	-12.0639
▁detached	-12.064
▁faltered	-12.064
▁scrawled	-12.064
▁receiver	-12.064
▁shrewdly	-12.0642
▁deflected	-12.0643
▁secondhand	-12.0645
▁expanded	-12.0646
▁vent	-12.0646
▁reasonable	-12.0647
▁recovery	-12.0647
▁fearfully	-12.0649
▁sputtered	-12.0649
▁surly	-12.0652
▁viciously	-12.0653
▁captain	-12.0654
Gues	-12.0655
▁tossed	-12.0655
▁fighters	-12.0655
▁wisely	-12.0656
▁swiveled	-12.0657
▁falsely	-12.0662
▁watchful	-12.0663
▁cleverer	-12.0675
Ooooo	-12.068
▁moor	-12.0686
▁scru	-12.0691
▁THIN	-12.0694
Pass	-12.0703
▁chink	-12.0705
▁Seer	-12.0706
▁undo	-12.0721
▁steel	-12.0723
▁pine	-12.0735
▁panel	-12.075
▁deck	-12.0763
Fair	-12.0824
▁trie	-12.0868
Mine	-12.0933
▁unfurl	-12.094
Stun	-12.0954
▁BO	-12.1034
dishes	-12.1133
Whose	-12.1208
tray	-12.1298
▁fleck	-12.1375
inhabited	-12.138
▁purposeful	-12.1388
called	-12.1417
utter	-12.1513
▁nip	-12.1548
▁comb	-12.1571
Enter	-12.1574
Gro	-12.1582
obbed	-12.1598
▁Antho	-12.162
rotting	-12.1661
▁ache	-12.1669
▁sausage	-12.168
▁Carrow	-12.168
rained	-12.1691
▁Ear	-12.1703
▁instruc	-12.1704
lready	-12.1734
Righ	-12.1788
▁distinguish	-12.1796
▁charg	-12.1798
magic	-12.1811
Goblin	-12.1811
Char	-12.1812
Marvolo	-12.1812
bolt	-12.1812
feather	-12.1813
Meanwhile	-12.1813
Little	-12.1813
fast	-12.1813
Viktor	-12.1813
Grindelwald	-12.1813
view	-12.1813
Aberforth	-12.1813
Lucius	-12.1814
everyone	-12.1814
Vernon	-12.1814
keeping	-12.1814
wind	-12.1814
wood	-12.1814
human	-12.1815
although	-12.1819
▁mount	-12.1825
▁threaten	-12.1828
Big	-12.1831
▁gallop	-12.1849
▁achieve	-12.1849
▁dabb	-12.185
▁increase	-12.185
▁describe	-12.185
▁pronounce	-12.1851
▁scribble	-12.1851
▁exhaust	-12.1852
▁sputter	-12.1853
▁flipp	-12.1854
▁fumbl	-12.1854
▁faith	-12.1855
▁remote	-12.1866
▁actual	-12.1867
▁glum	-12.1869
▁earnest	-12.187
▁conduct	-12.1874
▁mornin	-12.1874
▁wire	-12.1875
rought	-12.1875
▁anticipat	-12.1876
▁cavern	-12.1876
eyond	-12.1876
▁feat	-12.1876
▁circu	-12.1877
▁relinquish	-12.1877
Rubbish	-12.1877
Tomorrow	-12.1877
▁HOGWARTS	-12.1877
▁Transfigure	-12.1877
▁ambush	-12.1877
▁biscuit	-12.1877
▁competition	-12.1877
▁compliment	-12.1877
▁contrast	-12.1877
▁correspond	-12.1877
▁cradl	-12.1877
▁degree	-12.1877
▁discern	-12.1877
▁dribbl	-12.1877
▁expensive	-12.1877
▁humiliation	-12.1877
▁impostor	-12.1877
▁indecent	-12.1877
▁intercepted	-12.1877
▁onlookers	-12.1877
▁peacock	-12.1877
▁sphinx	-12.1877
▁unease	-12.1877
▁unstead	-12.1877
Aaah	-12.1877
Dimitrov	-12.1877
Ignoring	-12.1877
LEAVE	-12.1877
SHUT	-12.1877
Senior	-12.1877
available	-12.1877
encrusted	-12.1877
lumbering	-12.1877
plucked	-12.1877
quiringly	-12.1877
visibly	-12.1877
witted	-12.1877
▁Championship	-12.1877
▁Cooperation	-12.1877
▁Cresswell	-12.1877
▁Despite	-12.1877
▁French	-12.1877
▁Golgomath	-12.1877
▁Gornuk	-12.1877
▁Misuse	-12.1877
▁Niffler	-12.1877
▁Phlegm	-12.1877
▁Ripper	-12.1877
▁SPEW	-12.1877
▁Slinkhard	-12.1877
▁Sloper	-12.1877
▁Stinksap	-12.1877
▁accomplish	-12.1877
▁allegiance	-12.1877
▁announcing	-12.1877
▁approving	-12.1877
▁binoculars	-12.1877
▁bulk	-12.1877
▁classmates	-12.1877
▁coincidence	-12.1877
▁communication	-12.1877
▁crease	-12.1877
▁crestfallen	-12.1877
▁cronies	-12.1877
▁demonstrating	-12.1877
▁destruction	-12.1877
▁disgrace	-12.1877
▁disheveled	-12.1877
▁drowsy	-12.1877
▁earmuffs	-12.1877
▁earsplitting	-12.1877
▁eccentric	-12.1877
▁emitted	-12.1877
▁entertaining	-12.1877
▁exclusive	-12.1877
▁flobberworm	-12.1877
▁genially	-12.1877
▁gradually	-12.1877
▁grotesque	-12.1877
▁headfirst	-12.1877
▁hesitant	-12.1877
▁impassive	-12.1877
▁imprisonment	-12.1877
▁intact	-12.1877
▁judgment	-12.1877
▁landscape	-12.1877
▁loftily	-12.1877
▁lunatic	-12.1877
▁magenta	-12.1877
▁mattress	-12.1877
▁mimbletonia	-12.1877
▁misunderstood	-12.1877
▁monocle	-12.1877
▁morale	-12.1877
▁necessarily	-12.1877
▁offensive	-12.1877
▁parlor	-12.1877
▁patience	-12.1877
▁pitiful	-12.1877
▁plastered	-12.1877
▁plummeted	-12.1877
▁potential	-12.1877
▁premises	-12.1877
▁preoccupied	-12.1877
▁pretense	-12.1877
▁privilege	-12.1877
▁producing	-12.1877
▁raucous	-12.1877
▁rectangular	-12.1877
▁replacing	-12.1877
▁representatives	-12.1877
▁resemblance	-12.1877
▁scabbed	-12.1877
▁scuffling	-12.1877
▁scuttling	-12.1877
▁section	-12.1877
▁sheepish	-12.1877
▁shepherd	-12.1877
▁society	-12.1877
▁spectators	-12.1877
▁splattering	-12.1877
▁sprung	-12.1877
▁tattered	-12.1877
▁thirst	-12.1877
▁threadbare	-12.1877
▁treetops	-12.1877
▁tremendous	-12.1877
▁triangular	-12.1877
▁trundl	-12.1877
▁twelfth	-12.1877
▁unbeatable	-12.1877
▁unfair	-12.1877
▁uninjured	-12.1877
▁unlucky	-12.1877
▁unnecessarily	-12.1877
▁untouched	-12.1877
▁valiant	-12.1877
▁vapor	-12.1877
▁versus	-12.1877
▁walrus	-12.1877
▁whirring	-12.1877
▁windshield	-12.1877
▁windswept	-12.1877
▁wisdom	-12.1877
▁wretched	-12.1877
▁Deathstick	-12.1877
▁Much	-12.1877
▁booklist	-12.1877
▁bookshelves	-12.1877
▁brat	-12.1877
▁cheap	-12.1877
▁darling	-12.1877
▁element	-12.1877
▁goggled	-12.1877
▁inventing	-12.1877
▁invention	-12.1877
▁modified	-12.1877
▁skeptical	-12.1877
▁strateg	-12.1877
▁trance	-12.1877
mpty	-12.1877
▁Bott	-12.1877
▁bleak	-12.1877
▁dangled	-12.1877
▁fingertips	-12.1877
▁garage	-12.1877
▁oozing	-12.1877
▁rebounded	-12.1877
▁removing	-12.1877
▁wicked	-12.1877
▁Erised	-12.1877
▁Perce	-12.1877
▁Rain	-12.1877
▁chintz	-12.1877
▁flowerbed	-12.1877
▁folding	-12.1877
▁fortress	-12.1877
▁heavier	-12.1877
▁stale	-12.1877
▁inquiry	-12.1877
▁tidy	-12.1877
▁crave	-12.1877
▁frying	-12.1877
Password	-12.1877
▁film	-12.1877
▁looming	-12.1877
▁oaf	-12.1877
Pretty	-12.1877
proportion	-12.1877
▁hinges	-12.1877
▁bloodstained	-12.1877
▁gild	-12.1877
▁average	-12.1877
▁tackle	-12.1877
▁engage	-12.1877
Stupid	-12.1877
▁Sports	-12.1877
▁refrain	-12.1877
▁scalp	-12.1877
▁Team	-12.1877
▁lull	-12.1877
Fortuna	-12.1877
▁averted	-12.1877
Beaky	-12.1877
▁dodgy	-12.1877
▁unseen	-12.1877
▁zis	-12.1877
▁adopt	-12.1877
▁unsure	-12.1877
illusion	-12.1877
Filth	-12.1877
▁operate	-12.1877
▁Inner	-12.1877
▁poles	-12.1877
▁meddle	-12.1877
Drink	-12.1877
▁settling	-12.1877
▁plaque	-12.1878
Forgive	-12.1878
▁childhood	-12.1878
▁composed	-12.1878
▁chessmen	-12.1878
▁tingling	-12.1878
▁proving	-12.1878
▁national	-12.1878
ART	-12.1878
▁Outside	-12.1878
▁conviction	-12.1878
▁admirers	-12.1878
▁incidentally	-12.1878
▁clipping	-12.1878
▁piggy	-12.1878
▁axe	-12.1878
▁hillside	-12.1878
▁giantess	-12.1878
▁headlights	-12.1878
▁poised	-12.1878
raided	-12.1878
▁fridge	-12.1878
▁torso	-12.1879
Tonight	-12.1879
▁rubble	-12.1879
▁wireless	-12.1879
▁begging	-12.1879
Step	-12.1879
▁distinctive	-12.1879
▁grace	-12.1879
▁jerkily	-12.1879
▁sopping	-12.188
▁snowball	-12.188
▁portion	-12.188
▁March	-12.188
▁NOW	-12.1881
▁continually	-12.1881
▁miraculously	-12.1881
▁hourglass	-12.1881
▁lyin	-12.1881
▁chuckling	-12.1882
▁Getting	-12.1882
▁weakened	-12.1882
▁chant	-12.1882
▁stationary	-12.1882
▁confine	-12.1882
▁Nine	-12.1883
▁vine	-12.1885
▁moodily	-12.1885
▁drawled	-12.1885
rasped	-12.1885
▁tonic	-12.1885
▁defin	-12.1886
▁harmless	-12.1886
▁fistful	-12.1886
▁dismal	-12.1887
▁tipping	-12.1887
UST	-12.1888
AME	-12.1888
▁survivor	-12.1888
▁successfully	-12.1888
▁soundlessly	-12.1888
amous	-12.1889
▁domed	-12.1889
▁steely	-12.1889
▁suitable	-12.1889
▁buff	-12.1889
▁winter	-12.189
Almost	-12.1891
winner	-12.1891
▁Way	-12.1892
▁hitched	-12.1892
▁triple	-12.1895
▁fireside	-12.1895
▁hail	-12.1895
▁helplessly	-12.1895
▁flap	-12.1898
▁betting	-12.1898
▁Hermi	-12.1902
▁Pol	-12.1903
▁south	-12.1905
Turner	-12.1911
▁flit	-12.1922
▁muffl	-12.1922
▁transferr	-12.1939
▁etc	-12.1957
Odd	-12.1957
▁gash	-12.196
incomprehensible	-12.1977
Alas	-12.1987
rising	-12.1993
Writ	-12.2002
▁fruitless	-12.2014
Deep	-12.2023
Read	-12.2026
▁convers	-12.2027
▁comical	-12.2065
▁propelle	-12.2107
ology	-12.2141
disposed	-12.2145
Remove	-12.2164
breath	-12.2186
angling	-12.2193
▁bobb	-12.2206
▁combat	-12.2214
tarnished	-12.2278
nky	-12.2325
teenth	-12.237
flecked	-12.2405
ridden	-12.2417
etty	-12.242
BY	-12.2504
pelling	-12.252
lagged	-12.2588
▁tinge	-12.266
acco	-12.2677
▁Bra	-12.2691
fetched	-12.2752
pelled	-12.2766
▁acknowledge	-12.277
shouldered	-12.2802
▁reserve	-12.2907
Aunt	-12.2923
sorted	-12.3022
▁tradition	-12.313
Hard	-12.3141
hank	-12.3155
Turn	-12.3202
▁surviv	-12.3205
▁ladl	-12.3217
conscious	-12.3239
Somebody	-12.324
word	-12.324
skirt	-12.3241
connected	-12.3241
proof	-12.3242
Finally	-12.3242
Remus	-12.3242
brown	-12.3242
clothes	-12.3242
Defense	-12.3242
Kingsley	-12.3242
Charlie	-12.3242
maybe	-12.3242
control	-12.3242
Scabbers	-12.3242
Diggory	-12.3242
packed	-12.3242
perhaps	-12.3242
Filch	-12.3242
match	-12.3243
capable	-12.3244
Many	-12.3244
nothing	-12.3245
New	-12.3245
hill	-12.3247
hanging	-12.3248
▁hoot	-12.3254
▁float	-12.3254
▁troubl	-12.3271
zzing	-12.3272
wolves	-12.3276
▁glisten	-12.3277
▁peel	-12.3277
▁swerve	-12.3279
▁bleed	-12.3279
▁glide	-12.3281
▁expand	-12.3281
▁overhear	-12.3281
▁hush	-12.3282
▁depart	-12.3283
▁nudg	-12.3287
▁fade	-12.3288
▁slim	-12.3288
▁frequent	-12.3295
▁feverish	-12.3295
▁defiant	-12.3295
▁blot	-12.3295
▁thorough	-12.3295
▁exact	-12.3295
▁sulk	-12.3296
▁Snar	-12.3299
▁successful	-12.33
▁Pot	-12.33
▁sandwich	-12.3302
rdinary	-12.3303
rbert	-12.3304
ECT	-12.3305
▁cram	-12.3305
▁relation	-12.3305
▁Profes	-12.3306
▁Brut	-12.3306
▁SCORE	-12.3306
▁apologies	-12.3306
▁bloom	-12.3306
▁border	-12.3306
▁clash	-12.3306
▁entrust	-12.3306
▁graffiti	-12.3306
▁inflict	-12.3306
▁paralys	-12.3306
ABLE	-12.3306
Acceptable	-12.3306
Alohomora	-12.3306
DUDLEY	-12.3306
Dreadful	-12.3306
eagled	-12.3306
nvincible	-12.3306
▁AGAIN	-12.3306
▁Animagi	-12.3306
▁Arnold	-12.3306
▁Burbage	-12.3306
▁Cabinet	-12.3306
▁Castle	-12.3306
▁Chief	-12.3306
▁Decoy	-12.3306
▁Derrick	-12.3306
▁Florean	-12.3306
▁Goldstein	-12.3306
▁Hunt	-12.3306
▁January	-12.3306
▁Junior	-12.3306
▁Large	-12.3306
▁League	-12.3306
▁Mirror	-12.3306
▁Mulciber	-12.3306
▁Murtlap	-12.3306
▁Otherwise	-12.3306
▁Percival	-12.3306
▁Prophecy	-12.3306
▁Reasonable	-12.3306
▁Selwyn	-12.3306
▁Spellotape	-12.3306
▁Unbreakable	-12.3306
▁Vampires	-12.3306
▁Vector	-12.3306
▁WANT	-12.3306
▁Weatherby	-12.3306
▁Wheezy	-12.3306
▁Wisteria	-12.3306
▁abashed	-12.3306
▁advertisement	-12.3306
▁alchem	-12.3306
▁ambitious	-12.3306
▁apprehension	-12.3306
▁banshee	-12.3306
▁berserk	-12.3306
▁bickering	-12.3306
▁breast	-12.3306
▁brusquely	-12.3306
▁bubbling	-12.3306
▁bubotuber	-12.3306
▁candidate	-12.3306
▁chestnut	-12.3306
▁clamor	-12.3306
▁communicate	-12.3306
▁conscience	-12.3306
▁consumed	-12.3306
▁crisscross	-12.3306
▁critical	-12.3306
▁criticism	-12.3306
▁custard	-12.3306
▁cutlery	-12.3306
▁daybreak	-12.3306
▁declare	-12.3306
▁description	-12.3306
▁devastated	-12.3306
▁diagram	-12.3306
▁disastrous	-12.3306
▁dislodged	-12.3306
▁draught	-12.3306
▁eardrums	-12.3306
▁escalator	-12.3306
▁exchanging	-12.3306
▁fiasco	-12.3306
▁forcibly	-12.3306
▁fraud	-12.3306
▁government	-12.3306
▁grizzled	-12.3306
▁grumbling	-12.3306
▁halves	-12.3306
▁happiest	-12.3306
▁harassed	-12.3306
▁hearthrug	-12.3306
▁horde	-12.3306
▁immobile	-12.3306
▁imperiously	-12.3306
▁inexplicable	-12.3306
▁intelligence	-12.3306
▁intensified	-12.3306
▁intensity	-12.3306
▁interference	-12.3306
▁interfering	-12.3306
▁involving	-12.3306
▁irritating	-12.3306
▁jowls	-12.3306
▁jubilant	-12.3306
▁marmalade	-12.3306
▁mistrust	-12.3306
▁morose	-12.3306
▁niche	-12.3306
▁nightdress	-12.3306
▁nonplussed	-12.3306
▁occupy	-12.3306
▁opaque	-12.3306
▁ounce	-12.3306
▁outburst	-12.3306
▁passenger	-12.3306
▁permanently	-12.3306
▁physical	-12.3306
▁pimples	-12.3306
▁placidly	-12.3306
▁plastic	-12.3306
▁precariously	-12.3306
▁predicting	-12.3306
▁prejudice	-12.3306
▁prudent	-12.3306
▁pummel	-12.3306
▁railings	-12.3306
▁reinforce	-12.3306
▁reinstate	-12.3306
▁revolting	-12.3306
▁revulsion	-12.3306
▁ruefully	-12.3306
▁salamander	-12.3306
▁sarcasm	-12.3306
▁scrawny	-12.3306
▁sliver	-12.3306
▁snail	-12.3306
▁spattergroit	-12.3306
▁stalking	-12.3306
▁stifling	-12.3306
▁supplie	-12.3306
▁tawny	-12.3306
▁tombstone	-12.3306
▁trash	-12.3306
▁trifle	-12.3306
▁turrets	-12.3306
▁twiddling	-12.3306
▁unbelievable	-12.3306
▁unceremoniously	-12.3306
▁ungrateful	-12.3306
▁unmistakably	-12.3306
▁unmistakeable	-12.3306
▁unnerving	-12.3306
▁unscathed	-12.3306
▁vacated	-12.3306
▁vanquish	-12.3306
▁vapour	-12.3306
▁wastepaper	-12.3306
▁wrath	-12.3306
Congratulations	-12.3306
Nasty	-12.3306
▁Detonator	-12.3306
▁Dudders	-12.3306
▁Friar	-12.3306
▁Frisbee	-12.3306
▁Girl	-12.3306
▁Gurdyroot	-12.3306
▁Knarl	-12.3306
▁November	-12.3306
▁abnormal	-12.3306
▁chimed	-12.3306
▁combined	-12.3306
▁crumpet	-12.3306
▁hesitation	-12.3306
▁hinkypunk	-12.3306
▁hopelessness	-12.3306
▁insect	-12.3306
▁jeers	-12.3306
▁leisure	-12.3306
▁maimed	-12.3306
▁nightfall	-12.3306
▁pencil	-12.3306
▁protuberan	-12.3306
▁recollection	-12.3306
▁reliable	-12.3306
▁scornfully	-12.3306
▁spindle	-12.3306
▁sullen	-12.3306
▁throbbed	-12.3306
▁throne	-12.3306
▁tilted	-12.3306
▁trespass	-12.3306
▁valentine	-12.3306
Brazil	-12.3306
Eleven	-12.3306
Kept	-12.3306
▁Face	-12.3306
▁competing	-12.3306
▁croon	-12.3306
▁dank	-12.3306
▁denied	-12.3306
▁labor	-12.3306
▁newcomer	-12.3306
▁phial	-12.3306
▁pretence	-12.3306
▁strut	-12.3306
▁gurgl	-12.3306
▁semidarkness	-12.3306
▁canceled	-12.3306
▁hungrily	-12.3306
▁behaving	-12.3306
▁mossy	-12.3306
▁Sitting	-12.3306
▁mayhem	-12.3306
▁yield	-12.3306
▁goose	-12.3306
▁squirt	-12.3306
▁apology	-12.3306
▁coiled	-12.3306
▁flinging	-12.3306
▁reddening	-12.3306
▁stress	-12.3306
▁teeter	-12.3306
Sleep	-12.3306
▁Hardly	-12.3306
▁bay	-12.3306
▁nonverbal	-12.3306
▁tweed	-12.3306
ascots	-12.3306
Ignore	-12.3306
HOW	-12.3306
▁reddish	-12.3306
▁initial	-12.3306
▁east	-12.3306
nfuriat	-12.3306
▁entry	-12.3306
▁raven	-12.3306
▁waitress	-12.3306
▁saucepan	-12.3306
▁desktop	-12.3306
▁golf	-12.3306
WAY	-12.3306
hapter	-12.3306
Answer	-12.3306
▁Kiss	-12.3306
▁slyly	-12.3306
▁Part	-12.3306
▁flopped	-12.3306
▁property	-12.3306
▁torrent	-12.3306
▁embarrassment	-12.3306
Meaning	-12.3306
▁Cheering	-12.3306
▁Brit	-12.3306
Plenty	-12.3306
▁banished	-12.3306
▁flurry	-12.3306
▁unconvincing	-12.3306
▁disciplinar	-12.3306
lipped	-12.3306
▁immortality	-12.3306
▁announcement	-12.3306
Worse	-12.3306
▁impersonating	-12.3306
Running	-12.3306
▁cavernous	-12.3306
▁appraising	-12.3307
▁gun	-12.3307
▁seventy	-12.3307
flating	-12.3307
▁spattered	-12.3307
▁toothless	-12.3307
Finish	-12.3307
▁skipped	-12.3307
▁failure	-12.3307
Drop	-12.3307
▁instructed	-12.3307
▁oven	-12.3307
▁teenagers	-12.3307
Signed	-12.3307
▁Teddy	-12.3307
▁Hot	-12.3307
▁thunderous	-12.3308
▁aura	-12.3308
▁Puk	-12.3308
▁patrolling	-12.3308
▁Hover	-12.3308
Basic	-12.3308
▁shovel	-12.3308
▁procession	-12.3308
▁gust	-12.3309
▁code	-12.3309
▁selection	-12.331
ngenious	-12.331
▁mistaking	-12.331
grandson	-12.331
▁reopen	-12.331
▁silkily	-12.331
▁panicking	-12.331
▁deathday	-12.331
▁warily	-12.3311
▁Vance	-12.3311
▁publicity	-12.3311
▁lament	-12.3311
▁bitterness	-12.3312
▁sadness	-12.3312
▁Switch	-12.3312
Check	-12.3312
▁doubtfully	-12.3312
▁attraction	-12.3312
Imperio	-12.3313
▁duelling	-12.3313
▁drone	-12.3313
▁regretted	-12.3313
▁respectable	-12.3313
▁Jan	-12.3316
▁gum	-12.3319
▁Rose	-12.332
Bog	-12.3321
Fanc	-12.3322
▁CAR	-12.3324
horn	-12.3324
▁tame	-12.3326
▁scent	-12.3327
▁dila	-12.3348
▁Sea	-12.3349
HIS	-12.3355
▁compress	-12.3356
Tut	-12.3359
minent	-12.3369
distinguishable	-12.3399
▁impose	-12.3412
Unti	-12.3416
▁peck	-12.3422
Water	-12.3444
Igor	-12.3445
▁traditional	-12.3484
Feel	-12.3545
▁knob	-12.3553
ffling	-12.3567
cut	-12.3579
idded	-12.3818
▁nineteen	-12.3819
▁Cra	-12.385
▁guid	-12.3926
▁repos	-12.4107
verse	-12.4115
▁flavor	-12.4264
andra	-12.4318
eeming	-12.4463
hose	-12.4484
reathing	-12.4486
▁Broomstick	-12.4778
▁instruction	-12.478
body	-12.4872
dept	-12.4882
worth	-12.4902
▁bough	-12.4904
WHO	-12.4906
qualified	-12.4906
witnesses	-12.4906
Students	-12.4906
worn	-12.4907
Sturgis	-12.4907
Again	-12.4907
Macnair	-12.4907
chart	-12.4908
Gregorovitch	-12.4908
Rosmerta	-12.4908
security	-12.4909
Cornelius	-12.4909
Longbottom	-12.4909
brother	-12.4909
breaking	-12.4909
Myrtle	-12.4909
Parvati	-12.4909
Wood	-12.4909
Today	-12.4909
girl	-12.4909
Crookshanks	-12.4909
Potions	-12.4909
Minister	-12.4909
Uncle	-12.4909
morning	-12.4909
Magic	-12.4909
usual	-12.4909
Next	-12.491
awake	-12.4911
good	-12.4912
▁retreat	-12.492
▁glitter	-12.4921
▁Summon	-12.4944
▁announce	-12.4945
▁confiscate	-12.4945
▁illuminate	-12.4946
▁scramble	-12.4946
▁hesitate	-12.4946
▁convict	-12.4947
▁imitat	-12.4947
▁enchant	-12.4948
▁deflect	-12.4948
▁splinter	-12.4948
▁horrifi	-12.495
▁Pepper	-12.4955
▁malevolent	-12.4961
▁encouraging	-12.4961
▁soothing	-12.4961
▁scathing	-12.4962
▁timid	-12.4962
▁deliberate	-12.4962
▁incredulous	-12.4962
▁rapid	-12.4962
▁positive	-12.4962
UFF	-12.4969
▁havin	-12.497
▁super	-12.4971
nspired	-12.4971
▁corp	-12.4971
ootsteps	-12.4971
▁prior	-12.4971
▁wiz	-12.4971
▁unwrap	-12.4971
mione	-12.4972
rinkled	-12.4972
ield	-12.4972
uddled	-12.4972
Cruc	-12.4972
▁import	-12.4972
craft	-12.4972
mindedly	-12.4972
▁forbid	-12.4972
▁throb	-12.4972
Golpalott	-12.4972
Tuney	-12.4972
▁Midge	-12.4972
▁Mistress	-12.4972
▁Spinner	-12.4972
▁bewilderment	-12.4972
▁prince	-12.4972
▁sneeze	-12.4972
Emmeline	-12.4972
Fantastic	-12.4972
Impervius	-12.4972
Midnight	-12.4972
OULD	-12.4972
Ooooh	-12.4972
Protection	-12.4972
Search	-12.4972
Sibyll	-12.4972
Urgh	-12.4972
WAIT	-12.4972
ardium	-12.4972
embossed	-12.4972
hoodwinked	-12.4972
natured	-12.4972
ptitude	-12.4972
uncharacteristic	-12.4972
▁Admittedly	-12.4972
▁Armando	-12.4972
▁Barnab	-12.4972
▁Bryce	-12.4972
▁Feast	-12.4972
▁Fungi	-12.4972
▁HOUSE	-12.4972
▁Hungarian	-12.4972
▁Liaison	-12.4972
▁Liechtenstein	-12.4972
▁Nicholas	-12.4972
▁Powder	-12.4972
▁Prewett	-12.4972
▁Quietly	-12.4972
▁Ridgeback	-12.4972
▁Society	-12.4972
▁Study	-12.4972
▁Tornados	-12.4972
▁Volkov	-12.4972
▁WHAM	-12.4972
▁Worple	-12.4972
▁Yorkshire	-12.4972
▁ablaze	-12.4972
▁abysmal	-12.4972
▁admirable	-12.4972
▁animatedly	-12.4972
▁assault	-12.4972
▁balaclava	-12.4972
▁bathrobe	-12.4972
▁blearily	-12.4972
▁breezy	-12.4972
▁cardigan	-12.4972
▁cheese	-12.4972
▁chortling	-12.4972
▁chute	-12.4972
▁commentator	-12.4972
▁conjuring	-12.4972
▁consequences	-12.4972
▁convulsively	-12.4972
▁criticize	-12.4972
▁curfew	-12.4972
▁describing	-12.4972
▁destiny	-12.4972
▁devotion	-12.4972
▁discard	-12.4972
▁disentangle	-12.4972
▁disobey	-12.4972
▁disregard	-12.4972
▁ecstatic	-12.4972
▁equipment	-12.4972
▁erect	-12.4972
▁excruciating	-12.4972
▁explore	-12.4972
▁extravagant	-12.4972
▁extricate	-12.4972
▁eyelashes	-12.4972
▁fancies	-12.4972
▁fantastic	-12.4972
▁fidgeting	-12.4972
▁firecracker	-12.4972
▁foreboding	-12.4972
▁goalhoop	-12.4972
▁goggles	-12.4972
▁grease	-12.4972
▁griffin	-12.4972
▁haughtily	-12.4972
▁heirloom	-12.4972
▁hobbled	-12.4972
▁hurricane	-12.4972
▁impact	-12.4972
▁impartial	-12.4972
▁imprint	-12.4972
▁indifference	-12.4972
▁intervening	-12.4972
▁intimidating	-12.4972
▁irresponsible	-12.4972
▁lofty	-12.4972
▁maggot	-12.4972
▁malice	-12.4972
▁marshal	-12.4972
▁misshapen	-12.4972
▁molten	-12.4972
▁murky	-12.4972
▁mushroom	-12.4972
▁obituary	-12.4972
▁obliged	-12.4972
▁operating	-12.4972
▁overflowing	-12.4972
▁penetrating	-12.4972
▁pepper	-12.4972
▁playground	-12.4972
▁possibilities	-12.4972
▁presumably	-12.4972
▁procedure	-12.4972
▁puddle	-12.4972
▁rammed	-12.4972
▁razor	-12.4972
▁recapture	-12.4972
▁reception	-12.4972
▁recognizable	-12.4972
▁refusal	-12.4972
▁remedial	-12.4972
▁reminiscent	-12.4972
▁remnants	-12.4972
▁removal	-12.4972
▁reptil	-12.4972
▁revising	-12.4972
▁rival	-12.4972
▁sample	-12.4972
▁savour	-12.4972
▁smudge	-12.4972
▁somersault	-12.4972
▁sorcerer	-12.4972
▁spiky	-12.4972
▁striking	-12.4972
▁strung	-12.4972
▁stunning	-12.4972
▁supper	-12.4972
▁surname	-12.4972
▁symptoms	-12.4972
▁system	-12.4972
▁talons	-12.4972
▁temperature	-12.4972
▁terribly	-12.4972
▁throttl	-12.4972
▁toadstool	-12.4972
▁tracing	-12.4972
▁tragedy	-12.4972
▁traipsed	-12.4972
▁trepidation	-12.4972
▁trestle	-12.4972
▁trumpet	-12.4972
▁tumbling	-12.4972
▁unfamiliar	-12.4972
▁unhelpful	-12.4972
▁unwelcome	-12.4972
▁walnut	-12.4972
▁waltz	-12.4972
▁whiff	-12.4972
▁whiskey	-12.4972
Detention	-12.4972
Play	-12.4972
▁Draw	-12.4972
▁Pulling	-12.4972
▁QUI	-12.4972
▁Rowle	-12.4972
▁Vicky	-12.4972
▁blindfold	-12.4972
▁cords	-12.4972
▁debating	-12.4972
▁defiance	-12.4972
▁dummy	-12.4972
▁duties	-12.4972
▁eerily	-12.4972
▁energetic	-12.4972
▁evasive	-12.4972
▁heartstring	-12.4972
▁injustice	-12.4972
▁loaf	-12.4972
▁orchard	-12.4972
▁pheasant	-12.4972
▁podium	-12.4972
▁puppet	-12.4972
▁retirement	-12.4972
▁switched	-12.4972
▁tilting	-12.4972
▁unconvinced	-12.4972
Enchant	-12.4972
Everard	-12.4972
counterclockwise	-12.4972
twined	-12.4972
▁Jelly	-12.4972
▁Silent	-12.4972
▁altered	-12.4972
▁interior	-12.4972
▁investigation	-12.4972
▁mealtimes	-12.4972
▁panicky	-12.4972
▁scrutini	-12.4972
▁spawn	-12.4972
▁unison	-12.4972
December	-12.4972
▁airborne	-12.4972
▁confront	-12.4972
▁expectantly	-12.4972
▁hilltop	-12.4972
▁jingling	-12.4972
▁pantry	-12.4972
▁praise	-12.4972
▁stabbing	-12.4972
▁toppling	-12.4972
STUPEF	-12.4972
▁crab	-12.4972
▁style	-12.4972
▁webbed	-12.4972
▁embar	-12.4972
▁rosy	-12.4972
Later	-12.4972
▁Treat	-12.4972
▁aquiver	-12.4972
▁forbidding	-12.4972
▁foreseen	-12.4972
▁fuming	-12.4972
▁ouch	-12.4972
▁windowpane	-12.4972
▁Short	-12.4972
Tongue	-12.4972
▁detour	-12.4972
Family	-12.4972
▁extent	-12.4972
▁links	-12.4972
Further	-12.4972
▁blaming	-12.4972
▁pleaded	-12.4972
▁contend	-12.4972
▁Tiny	-12.4972
▁Teach	-12.4972
MENT	-12.4972
▁cruelty	-12.4973
▁yerself	-12.4973
▁filter	-12.4973
▁wages	-12.4973
▁benign	-12.4973
▁flopping	-12.4973
▁scorch	-12.4973
Double	-12.4973
▁peppermint	-12.4973
▁detest	-12.4973
▁unwrapping	-12.4973
▁doormat	-12.4973
▁jangling	-12.4973
▁thudded	-12.4973
▁cowardice	-12.4973
Sweet	-12.4973
▁speculation	-12.4973
▁stutter	-12.4973
▁midday	-12.4973
▁ivy	-12.4973
mashed	-12.4973
▁aerial	-12.4973
▁shins	-12.4973
▁gateway	-12.4973
▁certainty	-12.4973
▁scampered	-12.4973
▁goatee	-12.4973
▁candlelit	-12.4973
▁surging	-12.4973
▁proceedings	-12.4974
pattered	-12.4974
▁Cards	-12.4974
▁sweatshirt	-12.4974
▁clown	-12.4974
lunging	-12.4974
quaking	-12.4974
▁ANY	-12.4974
▁legendary	-12.4974
▁Herbs	-12.4974
▁cantered	-12.4974
▁stripping	-12.4974
▁Jump	-12.4974
▁hike	-12.4974
rived	-12.4975
▁mould	-12.4975
Giving	-12.4975
▁Bert	-12.4975
FFLE	-12.4975
▁bodi	-12.4975
Rosier	-12.4976
▁festiv	-12.4977
▁rash	-12.4977
▁slot	-12.4978
▁crane	-12.4978
▁ashen	-12.4978
ugat	-12.4979
nham	-12.4979
▁lethal	-12.498
berries	-12.498
bias	-12.4984
Mmm	-12.4991
▁sala	-12.4992
tupefied	-12.4993
▁smi	-12.5003
Cause	-12.5009
organized	-12.5019
▁Totte	-12.5023
provoked	-12.5024
▁peo	-12.5046
▁clip	-12.507
Pretend	-12.5085
▁Dumb	-12.5108
rific	-12.5113
ification	-12.5129
▁prim	-12.5152
labelled	-12.5165
▁infect	-12.522
warts	-12.5222
ttractive	-12.5286
aaaah	-12.5511
untie	-12.5629
ubble	-12.5679
Brain	-12.5731
securely	-12.5754
rimming	-12.5985
▁regrow	-12.6042
udding	-12.6217
▁tarnish	-12.6339
deeds	-12.6342
robed	-12.6352
Change	-12.64
▁Bob	-12.6456
hater	-12.6645
growing	-12.6739
cluded	-12.6761
▁Dungbomb	-12.6774
prone	-12.6788
Faint	-12.6818
visibility	-12.6882
voiced	-12.689
▁purpl	-12.6894
▁arrogan	-12.6902
▁realiz	-12.6906
Third	-12.6906
solution	-12.6906
Close	-12.6906
stricken	-12.6906
Dawlish	-12.6907
Trying	-12.6907
related	-12.6907
standard	-12.6907
Amos	-12.6908
Everybody	-12.6908
Apparition	-12.6908
hooting	-12.6908
Slowly	-12.6908
satisfied	-12.6908
Jordan	-12.6908
dementor	-12.6908
Both	-12.6909
Fawkes	-12.6909
Morfin	-12.6909
laid	-12.6909
Prince	-12.6909
Ludo	-12.6909
Granger	-12.6909
darkness	-12.6909
second	-12.6909
whether	-12.6909
school	-12.6909
McGonagall	-12.6909
passed	-12.6909
▁snarl	-12.692
▁snigger	-12.692
getting	-12.693
▁twirl	-12.6943
▁skulk	-12.6944
▁observe	-12.6945
▁grope	-12.6946
▁collide	-12.6946
▁advance	-12.6946
▁plunge	-12.6946
▁doubl	-12.6948
▁scrawl	-12.6948
▁detach	-12.6948
▁flinch	-12.6948
▁falter	-12.6948
▁unroll	-12.6948
▁sprawl	-12.6948
▁clutter	-12.6949
▁indignant	-12.6962
▁execution	-12.6965
▁educat	-12.6971
▁immortal	-12.6971
▁flop	-12.6971
arried	-12.6972
lancing	-12.6972
▁shrug	-12.6972
Thirty	-12.6972
flip	-12.6972
Amazing	-12.6972
HAGRID	-12.6972
nspeakable	-12.6972
▁Puddifoot	-12.6972
▁Valentine	-12.6972
▁exhilarati	-12.6972
▁frenz	-12.6972
▁labyrinth	-12.6972
▁laundry	-12.6972
▁reindeer	-12.6972
▁rhythm	-12.6972
Agrid	-12.6972
Believe	-12.6972
Collo	-12.6972
Grindelvald	-12.6972
Hundreds	-12.6972
Mischief	-12.6972
Ogwarts	-12.6972
Release	-12.6972
Rodolphus	-12.6972
STUBEFY	-12.6972
Tricky	-12.6972
Undoubtedly	-12.6972
Wrackspurt	-12.6972
Wronski	-12.6972
ceilinged	-12.6972
inadvertently	-12.6972
jawed	-12.6972
nceforth	-12.6972
olfsbane	-12.6972
pprehended	-12.6972
proclaimed	-12.6972
▁ALBUS	-12.6972
▁Anglia	-12.6972
▁Archie	-12.6972
▁Banges	-12.6972
▁Beginners	-12.6972
▁Between	-12.6972
▁Blaise	-12.6972
▁Bletchley	-12.6972
▁Clearwater	-12.6972
▁Confunded	-12.6972
▁Conjur	-12.6972
▁DARK	-12.6972
▁Dervish	-12.6972
▁Destiny	-12.6972
▁Drooble	-12.6972
▁Erumpent	-12.6972
▁Europe	-12.6972
▁FIREBOLT	-12.6972
▁Feint	-12.6972
▁Furious	-12.6972
▁Gregory	-12.6972
▁Grinning	-12.6972
▁Harpies	-12.6972
▁Hopkirk	-12.6972
▁Laughing	-12.6972
▁MORE	-12.6972
▁Malfay	-12.6972
▁Mermish	-12.6972
▁Mimsy	-12.6972
▁Nargles	-12.6972
▁Nurmengard	-12.6972
▁OWN	-12.6972
▁Object	-12.6972
▁President	-12.6972
▁SCHOOL	-12.6972
▁SERVANT	-12.6972
▁Sanguini	-12.6972
▁Services	-12.6972
▁Sixty	-12.6972
▁Squinting	-12.6972
▁Status	-12.6972
▁Supplies	-12.6972
▁Syllabary	-12.6972
▁TALK	-12.6972
▁Uranus	-12.6972
▁Vulchanov	-12.6972
▁WON	-12.6972
▁Wellington	-12.6972
▁Widdershins	-12.6972
▁accommodat	-12.6972
▁advisable	-12.6972
▁advising	-12.6972
▁aggravat	-12.6972
▁applicant	-12.6972
▁ascended	-12.6972
▁audience	-12.6972
▁balancing	-12.6972
▁barricade	-12.6972
▁bawling	-12.6972
▁bedspread	-12.6972
▁beloved	-12.6972
▁bespectacled	-12.6972
▁bishop	-12.6972
▁bullied	-12.6972
▁cereal	-12.6972
▁chaos	-12.6972
▁characteristic	-12.6972
▁charred	-12.6972
▁churning	-12.6972
▁cigarette	-12.6972
▁cockroach	-12.6972
▁collapsing	-12.6972
▁composition	-12.6972
▁concoct	-12.6972
▁copious	-12.6972
▁crib	-12.6972
▁criticise	-12.6972
▁criticizing	-12.6972
▁decay	-12.6972
▁delegation	-12.6972
▁deluded	-12.6972
▁device	-12.6972
▁diminished	-12.6972
▁discipline	-12.6972
▁discord	-12.6972
▁discouraged	-12.6972
▁dishevelled	-12.6972
▁dissolving	-12.6972
▁distaste	-12.6972
▁elongated	-12.6972
▁emphasis	-12.6972
▁emphasiz	-12.6972
▁enhance	-12.6972
▁enquired	-12.6972
▁ensuring	-12.6972
▁entertainment	-12.6972
▁excursion	-12.6972
▁expanse	-12.6972
▁experiencing	-12.6972
▁extraordinarily	-12.6972
▁exuberant	-12.6972
▁fathom	-12.6972
▁fidgeted	-12.6972
▁footfalls	-12.6972
▁footstool	-12.6972
▁formidable	-12.6972
▁fruitcake	-12.6972
▁furthest	-12.6972
▁gawping	-12.6972
▁generat	-12.6972
▁gormless	-12.6972
▁grandparents	-12.6972
▁grudge	-12.6972
▁hallucination	-12.6972
▁handwritten	-12.6972
▁hitherto	-12.6972
▁humiliate	-12.6972
▁ignorance	-12.6972
▁impertinent	-12.6972
▁imprisoning	-12.6972
▁inclination	-12.6972
▁incorporating	-12.6972
▁infusion	-12.6972
▁innocence	-12.6972
▁intriguing	-12.6972
▁irksome	-12.6972
▁irresistibl	-12.6972
▁irritation	-12.6972
▁jubilation	-12.6972
▁landlord	-12.6972
▁levitating	-12.6972
▁liberty	-12.6972
▁librarian	-12.6972
▁lizard	-12.6972
▁loincloth	-12.6972
▁loophole	-12.6972
▁lumbered	-12.6972
▁lurid	-12.6972
▁magnet	-12.6972
▁major	-12.6972
▁merchandise	-12.6972
▁mercifully	-12.6972
▁mermaid	-12.6972
▁monitored	-12.6972
▁mullioned	-12.6972
▁muscular	-12.6972
▁necessity	-12.6972
▁nibble	-12.6972
▁obtained	-12.6972
▁orchestra	-12.6972
▁organisation	-12.6972
▁outnumber	-12.6972
▁padlock	-12.6972
▁palomino	-12.6972
▁paranoid	-12.6972
▁parrot	-12.6972
▁participat	-12.6972
▁penalties	-12.6972
▁picturing	-12.6972
▁pockmarked	-12.6972
▁policy	-12.6972
▁ponytail	-12.6972
▁population	-12.6972
▁prickly	-12.6972
▁providing	-12.6972
▁quarry	-12.6972
▁quizzical	-12.6972
▁raspberry	-12.6972
▁reassurance	-12.6972
▁recommend	-12.6972
▁resounding	-12.6972
▁restricted	-12.6972
▁retrac	-12.6972
▁reunited	-12.6972
▁reverie	-12.6972
▁routine	-12.6972
▁salute	-12.6972
▁screwing	-12.6972
▁secrecy	-12.6972
▁senior	-12.6972
▁sizzling	-12.6972
▁slumping	-12.6972
▁societies	-12.6972
▁strangling	-12.6972
▁stunt	-12.6972
▁suffice	-12.6972
▁suffocating	-12.6972
▁sunrise	-12.6972
▁swagger	-12.6972
▁sycophantically	-12.6972
▁syllable	-12.6972
▁tabby	-12.6972
▁tattoo	-12.6972
▁teashop	-12.6972
▁thieves	-12.6972
▁thrashed	-12.6972
▁transfigured	-12.6972
▁tribute	-12.6972
▁twiddled	-12.6972
▁unbidden	-12.6972
▁uncorked	-12.6972
▁unctuous	-12.6972
▁undergrowth	-12.6972
▁undetected	-12.6972
▁unearthed	-12.6972
▁unleash	-12.6972
▁unmarked	-12.6972
▁unoccupied	-12.6972
▁unprotected	-12.6972
▁unscrew	-12.6972
▁unsuccessful	-12.6972
▁unsupported	-12.6972
▁unwanted	-12.6972
▁varied	-12.6972
▁vindictive	-12.6972
Diffindo	-12.6972
HAGGER	-12.6972
Liar	-12.6972
Violet	-12.6972
egistration	-12.6972
▁Bank	-12.6972
▁Broke	-12.6972
▁Catchpole	-12.6972
▁Cluster	-12.6972
▁Dueling	-12.6972
▁Euan	-12.6972
▁Firewhisky	-12.6972
▁France	-12.6972
▁Ghouls	-12.6972
▁Saturn	-12.6972
▁accomplice	-12.6972
▁adjusted	-12.6972
▁antlers	-12.6972
▁autumn	-12.6972
▁banquet	-12.6972
▁blouse	-12.6972
▁brittle	-12.6972
▁confusing	-12.6972
▁dawdle	-12.6972
▁demolished	-12.6972
▁destabili	-12.6972
▁dishonor	-12.6972
▁displeased	-12.6972
▁enslaved	-12.6972
▁excess	-12.6972
▁execute	-12.6972
▁gorilla	-12.6972
▁gravy	-12.6972
▁haff	-12.6972
▁headdress	-12.6972
▁honour	-12.6972
▁ignorant	-12.6972
▁jail	-12.6972
▁monkey	-12.6972
▁persistent	-12.6972
▁principle	-12.6972
▁quilt	-12.6972
▁rebuil	-12.6972
▁replica	-12.6972
▁residence	-12.6972
▁roved	-12.6972
▁salmon	-12.6972
▁sanity	-12.6972
▁sardonic	-12.6972
▁scaveng	-12.6972
▁slab	-12.6972
▁souveni	-12.6972
▁succumb	-12.6972
▁suffocate	-12.6972
▁supervise	-12.6972
▁tassel	-12.6972
▁treachery	-12.6972
▁uncanny	-12.6972
▁undercover	-12.6972
▁unstable	-12.6972
▁wavy	-12.6972
▁wreath	-12.6972
AAARGH	-12.6972
Obliviate	-12.6972
SILENC	-12.6972
▁Basil	-12.6972
▁Scrim	-12.6972
▁brake	-12.6972
▁craving	-12.6972
▁dedicate	-12.6972
▁devil	-12.6972
▁feign	-12.6972
▁gnaw	-12.6972
▁hedgerow	-12.6972
▁historian	-12.6972
▁lashed	-12.6972
▁particle	-12.6972
▁profession	-12.6972
▁rapping	-12.6972
▁uncoil	-12.6972
▁wiry	-12.6972
▁wistful	-12.6972
Sectumsempra	-12.6972
▁daily	-12.6972
▁fringe	-12.6972
▁internal	-12.6972
▁resurfac	-12.6972
▁stile	-12.6972
Urgent	-12.6972
▁REAL	-12.6972
▁courteously	-12.6972
▁exceed	-12.6972
▁goalposts	-12.6972
▁DIED	-12.6972
▁decree	-12.6972
▁rafters	-12.6972
Luckily	-12.6972
OTHER	-12.6972
verlasting	-12.6972
▁minister	-12.6972
▁unkind	-12.6972
ninny	-12.6972
▁Gadd	-12.6972
▁Gryf	-12.6972
LESS	-12.6972
▁inclining	-12.6972
▁jabbering	-12.6972
▁teammate	-12.6972
▁downpour	-12.6972
▁mince	-12.6972
▁Dora	-12.6972
▁tedious	-12.6972
▁Gray	-12.6972
▁notorious	-12.6972
Engorg	-12.6972
feit	-12.6972
John	-12.6972
▁dashboard	-12.6972
▁Beast	-12.6972
▁weeping	-12.6972
Left	-12.6972
cheekbone	-12.6972
▁carving	-12.6972
▁contest	-12.6972
Locker	-12.6972
▁error	-12.6972
▁reeled	-12.6972
Coward	-12.6973
▁shoppers	-12.6973
ICE	-12.6973
▁hairpin	-12.6973
▁realising	-12.6973
▁smuggling	-12.6973
▁tiled	-12.6973
▁scandalized	-12.6973
▁captor	-12.6973
Interesting	-12.6973
▁carrot	-12.6973
▁recede	-12.6973
▁Hermes	-12.6973
▁Catch	-12.6973
▁lounge	-12.6973
▁Wilki	-12.6973
▁tolerate	-12.6973
▁angel	-12.6973
Flesh	-12.6973
slung	-12.6973
▁Reducto	-12.6973
▁debt	-12.6973
▁berth	-12.6973
tomato	-12.6973
▁titter	-12.6973
▁honey	-12.6973
PEE	-12.6974
▁swan	-12.6974
▁quake	-12.6974
▁graze	-12.6974
▁MAR	-12.6974
▁transp	-12.6974
▁revert	-12.6974
ainly	-12.6975
Silencio	-12.6978
Pay	-12.6983
egian	-12.6984
persever	-12.6985
▁Slugho	-12.6986
▁Plu	-12.6987
▁qualif	-12.6988
Panic	-12.6994
▁semi	-12.6997
Yourself	-12.7
void	-12.7001
rnie	-12.7111
lga	-12.7123
▁wobbl	-12.7124
Foul	-12.7175
Chuck	-12.7177
detectable	-12.7214
conversationally	-12.7237
reserved	-12.7267
rayed	-12.7359
hopping	-12.743
engthening	-12.753
▁Instant	-12.7649
animat	-12.7873
▁apologiz	-12.8265
abbit	-12.827
nction	-12.8324
OWLS	-12.8335
flamed	-12.8427
lanche	-12.8434
▁Friend	-12.8504
ubbed	-12.8541
▁clea	-12.8602
tensely	-12.8609
▁Numb	-12.8653
aaaaa	-12.8683
▁Lib	-12.886
breaker	-12.8965
paneled	-12.919
xperimental	-12.9266
▁decoration	-12.9275
▁shoe	-12.9278
▁pajama	-12.9278
▁ingredient	-12.9279
▁Patronu	-12.928
▁migh	-12.9399
▁pip	-12.9405
action	-12.9406
disguised	-12.9406
Together	-12.9407
Although	-12.9407
Blast	-12.9407
HAVE	-12.9407
drunk	-12.9408
Bode	-12.9408
School	-12.9408
Travers	-12.9408
drops	-12.9408
Neither	-12.9408
Dolores	-12.9408
Aragog	-12.9408
Barty	-12.9408
Auror	-12.9409
Headmaster	-12.9409
McLaggen	-12.9409
Marge	-12.9409
Divination	-12.9409
Firenze	-12.9409
Greyback	-12.9409
Ravenclaw	-12.9409
fixed	-12.9409
Pettigrew	-12.9409
Angelina	-12.9409
Buckbeak	-12.9409
Skeeter	-12.9409
true	-12.9409
Bagman	-12.9409
until	-12.9409
▁involuntar	-12.9414
voked	-12.9417
▁hammer	-12.942
▁steer	-12.942
▁dash	-12.9421
▁lurk	-12.9421
▁achiev	-12.9441
▁twitter	-12.9444
▁shimmer	-12.9444
▁stifle	-12.9445
▁drape	-12.9446
▁emptie	-12.9446
▁stumble	-12.9446
iddikulus	-12.9446
▁aroun	-12.9447
▁suspend	-12.9449
▁crook	-12.9449
▁desert	-12.9449
▁intrude	-12.9452
▁basi	-12.9453
▁Silenc	-12.9458
▁nasti	-12.9462
▁givin	-12.947
ccasionally	-12.947
▁explosi	-12.947
▁impersona	-12.9471
▁shrunk	-12.9471
ractical	-12.9471
scribed	-12.9471
▁slap	-12.9471
onvinced	-12.9471
▁apologetic	-12.9472
▁imagina	-12.9472
orrified	-12.9472
verbal	-12.9472
mediate	-12.9472
resolute	-12.9472
NOOOOOOO	-12.9472
▁magni	-12.9472
▁THREE	-12.9472
▁strawberry	-12.9472
ashio	-12.9472
▁McKinnon	-12.9472
▁emergency	-12.9472
▁piano	-12.9472
▁vehement	-12.9472
Abercrombie	-12.9472
Actually	-12.9472
Baddock	-12.9472
Balderdash	-12.9472
Concentrating	-12.9472
DDY	-12.9472
DENTS	-12.9472
Especially	-12.9472
Fascinating	-12.9472
Frightened	-12.9472
Gerroff	-12.9472
NEVER	-12.9472
Nonsense	-12.9472
Pathetic	-12.9472
Penalty	-12.9472
Porpington	-12.9472
Visitor	-12.9472
adequate	-12.9472
bodied	-12.9472
cromantula	-12.9472
ilemma	-12.9472
journalist	-12.9472
libbering	-12.9472
obedience	-12.9472
onsequently	-12.9472
plottable	-12.9472
pplication	-12.9472
sempra	-12.9472
uddleme	-12.9472
▁AUNT	-12.9472
▁Africa	-12.9472
▁Algie	-12.9472
▁Banshee	-12.9472
▁Bewildered	-12.9472
▁Bonaccord	-12.9472
▁Cadwallader	-12.9472
▁Clankers	-12.9472
▁Colon	-12.9472
▁Criminal	-12.9472
▁Draft	-12.9472
▁Eeylops	-12.9472
▁FATHER	-12.9472
▁Fabian	-12.9472
▁Fifteen	-12.9472
▁GREATE	-12.9472
▁Goshawk	-12.9472
▁Holyhead	-12.9472
▁INQUISITOR	-12.9472
▁Immediately	-12.9472
▁Incantatem	-12.9472
▁Kirke	-12.9472
▁LAST	-12.9472
▁LORD	-12.9472
▁MASTER	-12.9472
▁MUGGLE	-12.9472
▁Menagerie	-12.9472
▁Miranda	-12.9472
▁NUMBER	-12.9472
▁Obliviator	-12.9472
▁Occlumens	-12.9472
▁Pausing	-12.9472
▁Permanent	-12.9472
▁Reversal	-12.9472
▁Robins	-12.9472
▁Rowena	-12.9472
▁SHOULD	-12.9472
▁SOME	-12.9472
▁STILL	-12.9472
▁SUPPO	-12.9472
▁Spectrespecs	-12.9472
▁Splinch	-12.9472
▁Stoatshead	-12.9472
▁Stonewall	-12.9472
▁Stubby	-12.9472
▁Surrey	-12.9472
▁Taboo	-12.9472
▁Tibbles	-12.9472
▁Toffee	-12.9472
▁Transylvania	-12.9472
▁Umbndge	-12.9472
▁Venus	-12.9472
▁Whizbee	-12.9472
▁adolescen	-12.9472
▁alternate	-12.9472
▁artifacts	-12.9472
▁assurances	-12.9472
▁astride	-12.9472
▁balcony	-12.9472
▁baleful	-12.9472
▁bartender	-12.9472
▁bauble	-12.9472
▁bawled	-12.9472
▁bedstead	-12.9472
▁blandly	-12.9472
▁bloodstains	-12.9472
▁bonnet	-12.9472
▁boomslang	-12.9472
▁bulldog	-12.9472
▁buoyant	-12.9472
▁burial	-12.9472
▁cactus	-12.9472
▁calculation	-12.9472
▁cancelled	-12.9472
▁casket	-12.9472
▁casserole	-12.9472
▁catcalls	-12.9472
▁caterpillar	-12.9472
▁cathedral	-12.9472
▁cherub	-12.9472
▁clumsy	-12.9472
▁conspicuous	-12.9472
▁constitute	-12.9472
▁construct	-12.9472
▁contagious	-12.9472
▁contaminated	-12.9472
▁cornflakes	-12.9472
▁cotton	-12.9472
▁culminat	-12.9472
▁deflated	-12.9472
▁deliberation	-12.9472
▁deluge	-12.9472
▁dessert	-12.9472
▁destined	-12.9472
▁devised	-12.9472
▁devour	-12.9472
▁disconsolate	-12.9472
▁discredit	-12.9472
▁dismay	-12.9472
▁dismounted	-12.9472
▁dittany	-12.9472
▁doughnut	-12.9472
▁editor	-12.9472
▁elapsed	-12.9472
▁elegant	-12.9472
▁elusive	-12.9472
▁emaciated	-12.9472
▁encircled	-12.9472
▁excitable	-12.9472
▁extensive	-12.9472
▁external	-12.9472
▁flounc	-12.9472
▁gambling	-12.9472
▁generosity	-12.9472
▁grandeur	-12.9472
▁grievous	-12.9472
▁groggy	-12.9472
▁hamburger	-12.9472
▁haphazardly	-12.9472
▁havoc	-12.9472
▁hawk	-12.9472
▁hawthorn	-12.9472
▁haywire	-12.9472
▁hazard	-12.9472
▁hedgehog	-12.9472
▁icicle	-12.9472
▁identification	-12.9472
▁immobilized	-12.9472
▁incredulity	-12.9472
▁independen	-12.9472
▁indication	-12.9472
▁indignity	-12.9472
▁inexpressibl	-12.9472
▁infirmary	-12.9472
▁innumerable	-12.9472
▁inscrutabl	-12.9472
▁insignificant	-12.9472
▁insubstantial	-12.9472
▁isolated	-12.9472
▁jovially	-12.9472
▁juicy	-12.9472
▁kappa	-12.9472
▁ketchup	-12.9472
▁knickerbocker	-12.9472
▁maddeningly	-12.9472
▁mahogany	-12.9472
▁manacle	-12.9472
▁marriage	-12.9472
▁mediocre	-12.9472
▁memorial	-12.9472
▁mesmerized	-12.9472
▁midriff	-12.9472
▁misfortune	-12.9472
▁misgivings	-12.9472
▁misleading	-12.9472
▁misunderstand	-12.9472
▁monks	-12.9472
▁mortified	-12.9472
▁mourning	-12.9472
▁naughty	-12.9472
▁negotiat	-12.9472
▁ninth	-12.9472
▁nonexistent	-12.9472
▁nonstop	-12.9472
▁numerous	-12.9472
▁obliterated	-12.9472
▁obliterating	-12.9472
▁oblivion	-12.9472
▁observation	-12.9472
▁obsessive	-12.9472
▁obstruct	-12.9472
▁opposition	-12.9472
▁ordeal	-12.9472
▁organization	-12.9472
▁ostentatiously	-12.9472
▁palace	-12.9472
▁palmistry	-12.9472
▁passersby	-12.9472
▁peaky	-12.9472
▁peanuts	-12.9472
▁pellet	-12.9472
▁persecut	-12.9472
▁perturbed	-12.9472
▁plummeting	-12.9472
Q	-14.7794
̈	-14.7795
q	-14.7796
