<unk>	0
<s>	0
</s>	0
,	-2.9402
.	-3.23342
▁the	-3.39176
'	-3.66605
▁to	-3.96907
▁and	-4.02869
▁`	-4.19149
▁of	-4.19386
▁a	-4.23656
s	-4.33571
▁Harry	-4.42321
▁he	-4.47538
▁was	-4.5169
▁said	-4.59571
▁his	-4.64336
▁in	-4.74154
▁it	-4.79371
▁you	-4.82722
▁had	-4.92496
▁'	-4.94933
▁that	-4.97028
▁I	-5.00196
▁.	-5.11864
t	-5.12947
▁at	-5.15659
,`	-5.17427
▁on	-5.31049
▁him	-5.31618
.`	-5.32781
▁as	-5.3412
-	-5.39614
▁with	-5.41052
▁Ron	-5.46259
▁	-5.54288
▁for	-5.57965
▁her	-5.588
▁Hermione	-5.63893
▁they	-5.65179
?`	-5.65201
▁not	-5.658
▁He	-5.68398
▁be	-5.74464
▁out	-5.78579
▁up	-5.79457
▁were	-5.81556
I	-5.81875
▁-	-5.82654
▁them	-5.84969
▁have	-5.85624
▁but	-5.86083
▁from	-5.86669
▁all	-5.89927
!`	-5.90134
▁she	-5.90243
;	-5.96208
▁into	-6.02633
▁been	-6.08727
▁back	-6.09236
▁what	-6.09853
▁Dumbledore	-6.11981
▁is	-6.12244
▁The	-6.1597
▁we	-6.20141
▁me	-6.20736
?	-6.20993
▁could	-6.23017
▁who	-6.2473
▁this	-6.26341
▁their	-6.3374
▁so	-6.34037
▁there	-6.3483
▁an	-6.35976
▁about	-6.36295
d	-6.3701
▁over	-6.37127
▁one	-6.38768
▁looked	-6.41031
▁down	-6.41993
▁like	-6.42548
▁know	-6.43863
▁would	-6.44778
▁now	-6.45444
▁do	-6.48229
ve	-6.48499
▁around	-6.48656
re	-6.49321
?'	-6.50047
▁by	-6.51286
,'	-6.51772
ing	-6.52183
▁just	-6.53602
▁did	-6.5454
▁got	-6.56386
!	-6.56763
▁if	-6.57642
▁your	-6.58197
▁then	-6.58437
▁more	-6.616
▁Hagrid	-6.61628
▁very	-6.61778
▁when	-6.62498
▁can	-6.64114
▁see	-6.64374
▁again	-6.64673
ll	-6.64935
▁Professor	-6.65325
▁off	-6.65833
You	-6.66893
▁are	-6.67664
▁no	-6.68532
▁though	-6.69224
▁Snape	-6.72005
▁think	-6.72011
▁time	-6.73082
▁my	-6.74793
▁still	-6.77111
n	-6.7893
▁eyes	-6.78982
▁wand	-6.79846
▁get	-6.80094
▁don	-6.80963
▁face	-6.81536
▁looking	-6.82093
m	-6.82823
▁Weasley	-6.83174
▁It	-6.83558
▁through	-6.83688
▁--	-6.86189
▁right	-6.86263
▁voice	-6.87151
▁or	-6.87307
▁going	-6.88588
▁which	-6.91828
▁than	-6.93282
▁before	-6.93451
...	-6.93898
:	-6.94837
▁didn	-6.96715
▁go	-6.97653
▁̈C	-6.97659
!'	-6.97929
▁door	-6.97978
▁They	-6.99479
▁room	-7.00606
▁will	-7.00699
ed	-7.00845
▁too	-7.01352
▁Malfoy	-7.01733
▁here	-7.01955
▁thought	-7.02771
What	-7.02838
▁look	-7.03017
▁head	-7.03454
▁only	-7.03479
▁saw	-7.06379
▁how	-7.07137
He	-7.0756
▁Mr	-7.08082
▁other	-7.11196
▁hand	-7.11512
▁Voldemort	-7.11808
▁way	-7.13586
▁where	-7.13933
▁seemed	-7.14347
▁away	-7.14868
▁something	-7.15044
▁himself	-7.15228
It	-7.16188
▁behind	-7.16211
▁asked	-7.16724
Harry	-7.1745
▁told	-7.19259
▁turned	-7.19576
▁Potter	-7.19709
▁come	-7.20025
▁Sirius	-7.20973
▁never	-7.21715
▁last	-7.21902
▁us	-7.21913
▁long	-7.22317
▁much	-7.24028
▁after	-7.24534
▁knew	-7.26808
.'	-7.27121
▁want	-7.27311
But	-7.2838
▁once	-7.30127
▁little	-7.304
▁She	-7.30516
▁You	-7.31555
Well	-7.32049
▁And	-7.32072
▁first	-7.32499
▁two	-7.33956
▁made	-7.34102
▁heard	-7.34104
▁tell	-7.34319
▁left	-7.34672
▁moment	-7.35432
▁any	-7.35669
▁But	-7.36435
▁A	-7.36699
And	-7.36801
The	-7.36839
▁even	-7.37248
▁felt	-7.38111
▁say	-7.38819
▁Fred	-7.39773
▁some	-7.40412
We	-7.40437
▁people	-7.41105
No	-7.41542
▁There	-7.4166
▁good	-7.43141
▁really	-7.43221
▁Hogwarts	-7.43601
▁Mrs	-7.44237
.``	-7.44315
▁might	-7.4441
▁well	-7.44558
▁front	-7.48345
▁ever	-7.49102
▁has	-7.49374
Oh	-7.49516
▁...	-7.50541
▁Lupin	-7.51822
▁toward	-7.52832
▁George	-7.53335
▁came	-7.5346
▁feet	-7.55716
▁Neville	-7.57157
▁because	-7.57172
?``	-7.57342
▁must	-7.57906
▁its	-7.58433
▁Ginny	-7.58837
▁McGonagall	-7.59132
▁took	-7.59181
▁let	-7.59594
▁sure	-7.60521
▁make	-7.6137
▁anything	-7.61382
▁take	-7.61879
▁open	-7.62207
▁old	-7.62821
▁trying	-7.63151
▁table	-7.64332
▁few	-7.64355
▁went	-7.66231
▁another	-7.66496
▁inside	-7.67603
▁next	-7.6769
▁floor	-7.68511
▁while	-7.69852
▁under	-7.70244
▁find	-7.70797
▁large	-7.7101
▁own	-7.71183
`	-7.71607
▁put	-7.71745
▁three	-7.72577
▁thing	-7.74045
▁school	-7.74845
▁great	-7.74884
▁found	-7.75087
▁Umbridge	-7.75626
▁house	-7.75804
▁course	-7.75925
▁need	-7.76783
▁gave	-7.77065
▁seen	-7.77263
▁hear	-7.78731
▁stood	-7.79088
▁Ministry	-7.79454
▁nothing	-7.79636
▁Gryffindor	-7.7968
▁hands	-7.80148
▁-`	-7.80562
▁why	-7.80687
▁mean	-7.80907
▁end	-7.81348
▁pulled	-7.81671
▁night	-7.81968
▁hair	-7.82149
y	-7.82732
Yes	-7.8368
▁Death	-7.84134
▁upon	-7.84639
▁wanted	-7.85372
▁across	-7.85421
▁our	-7.85467
ly	-7.85498
▁bit	-7.86262
▁man	-7.86333
▁place	-7.86419
▁air	-7.87388
Yeah	-7.87741
▁each	-7.88047
▁both	-7.88659
▁black	-7.89097
▁being	-7.89108
▁without	-7.89972
▁every	-7.90287
▁side	-7.91007
▁done	-7.91137
▁happened	-7.91192
▁most	-7.91374
▁quite	-7.9155
▁does	-7.91596
▁against	-7.91825
▁couldn	-7.91897
▁Dark	-7.92195
▁dark	-7.9241
▁light	-7.93079
▁wasn	-7.93402
▁better	-7.93497
▁boy	-7.93755
▁doing	-7.94684
▁His	-7.94989
▁help	-7.95784
▁mind	-7.96288
▁enough	-7.9668
▁Vernon	-7.96712
▁along	-7.97027
▁else	-7.97693
▁second	-7.9776
▁Moody	-7.99305
▁wizard	-7.99428
▁keep	-7.99608
▁year	-7.99737
So	-8.00322
▁bed	-8.00557
▁Then	-8.01004
▁robes	-8.0151
▁already	-8.0169
▁years	-8.01797
▁walked	-8.01906
▁staring	-8.02536
▁should	-8.02719
▁half	-8.0299
▁small	-8.03129
▁hard	-8.03328
▁Uncle	-8.03843
▁fell	-8.03862
▁sat	-8.04129
▁set	-8.04321
▁mouth	-8.04648
▁those	-8.0581
▁gone	-8.06004
▁rather	-8.0603
Who	-8.06621
▁won	-8.06649
▁past	-8.06911
▁between	-8.06913
▁whispered	-8.06935
▁Fudge	-8.07217
▁suddenly	-8.07824
▁day	-8.07854
▁standing	-8.08126
▁give	-8.08367
▁--`	-8.08845
▁began	-8.09184
▁until	-8.0943
That	-8.09476
▁opened	-8.09806
▁these	-8.09832
▁many	-8.09963
▁tried	-8.11057
▁slightly	-8.11748
e	-8.11797
▁yet	-8.11838
▁sitting	-8.1198
▁onto	-8.12387
▁full	-8.13059
▁—	-8.13116
▁window	-8.13169
▁quickly	-8.13177
▁raised	-8.13672
▁Black	-8.13771
▁same	-8.13905
▁office	-8.1405
▁top	-8.14168
▁things	-8.14945
She	-8.15006
▁reached	-8.15118
▁talking	-8.15204
▁Quidditch	-8.15393
▁Dudley	-8.15421
▁We	-8.1575
▁castle	-8.15895
▁am	-8.16346
They	-8.16609
▁started	-8.16622
▁new	-8.17296
▁As	-8.1732
How	-8.18293
▁Lord	-8.18578
▁wouldn	-8.18766
▁able	-8.18876
you	-8.18955
▁ground	-8.19425
▁name	-8.20017
▁Slughorn	-8.20514
▁shouted	-8.20881
▁always	-8.21126
▁Percy	-8.21512
▁forward	-8.21796
▁almost	-8.22177
▁anyone	-8.22212
▁Dobby	-8.22589
▁together	-8.22695
▁coming	-8.22747
▁called	-8.23034
▁later	-8.2324
▁ter	-8.23741
A	-8.24337
▁yeh	-8.2486
There	-8.25272
▁father	-8.25449
▁arm	-8.25459
▁fire	-8.26207
▁feeling	-8.26254
▁however	-8.26453
▁feel	-8.26459
▁stared	-8.26476
▁far	-8.26496
....	-8.26653
▁work	-8.26678
▁wall	-8.27397
▁dead	-8.2753
▁watching	-8.28732
▁quietly	-8.28933
▁students	-8.29503
▁beside	-8.30305
▁whole	-8.30589
▁mother	-8.31377
▁Hall	-8.31822
▁rest	-8.31877
▁ask	-8.3202
▁Eaters	-8.32075
▁eye	-8.32674
▁idea	-8.3276
▁sight	-8.3359
▁outside	-8.33748
▁caught	-8.3379
▁everything	-8.3381
▁life	-8.34085
!``	-8.34301
▁stop	-8.34485
▁believe	-8.34541
▁read	-8.34644
▁kept	-8.3469
▁Slytherin	-8.3506
▁lot	-8.35238
▁What	-8.35783
▁When	-8.35871
▁stopped	-8.35874
▁everyone	-8.35943
▁words	-8.36104
▁slowly	-8.36173
▁whether	-8.36198
▁close	-8.37056
▁saying	-8.37124
▁passed	-8.37131
▁Muggle	-8.37202
▁muttered	-8.37688
▁supposed	-8.37765
▁If	-8.37826
▁best	-8.37926
▁getting	-8.38347
▁Luna	-8.39344
▁cold	-8.39515
▁word	-8.39984
▁class	-8.40142
▁Magic	-8.40796
▁someone	-8.40849
▁taken	-8.40852
▁Crouch	-8.40884
▁wizards	-8.41034
▁sir	-8.41195
▁Madam	-8.41276
▁leave	-8.41878
▁stone	-8.41939
▁sound	-8.42249
▁use	-8.42347
▁.`	-8.42404
...`	-8.42759
▁haven	-8.42799
Don	-8.42832
▁holding	-8.43088
If	-8.43112
▁moved	-8.43847
▁nose	-8.44048
▁corridor	-8.44108
▁shoulder	-8.44204
▁red	-8.44993
▁silence	-8.45032
▁since	-8.45481
▁try	-8.4557
▁appeared	-8.45665
▁Cedric	-8.45709
▁alone	-8.45969
▁loudly	-8.46309
▁making	-8.46707
▁empty	-8.46835
▁talk	-8.46838
▁wearing	-8.47007
▁taking	-8.47347
▁crowd	-8.47478
▁minutes	-8.47768
▁high	-8.47958
▁remember	-8.48777
▁(	-8.48971
Why	-8.49403
▁scar	-8.49642
▁silver	-8.49958
▁followed	-8.50392
▁towards	-8.50418
▁morning	-8.50752
▁magic	-8.50804
▁arms	-8.51215
▁watched	-8.51491
▁pointing	-8.5189
and	-8.51922
▁white	-8.52341
▁chair	-8.5272
▁pointed	-8.52888
▁heart	-8.53159
▁point	-8.53176
▁Riddle	-8.5321
▁sort	-8.53375
▁closed	-8.53451
▁corner	-8.53924
▁This	-8.54318
▁Petunia	-8.54322
▁o	-8.54338
▁Cloak	-8.54452
▁common	-8.54619
▁book	-8.54755
▁desk	-8.5491
▁understand	-8.55022
▁Bill	-8.55058
▁hit	-8.55249
▁thinking	-8.55444
▁several	-8.56067
▁Aunt	-8.56115
▁four	-8.56218
▁Minister	-8.56244
▁That	-8.56333
▁cloak	-8.56378
▁such	-8.5645
▁having	-8.56476
▁water	-8.56621
▁hall	-8.56734
▁shaking	-8.57571
▁body	-8.57648
▁yes	-8.57827
Not	-8.57999
▁others	-8.58065
▁family	-8.583
▁Filch	-8.58345
er	-8.59163
▁usual	-8.59427
▁green	-8.60039
▁yelled	-8.60588
▁letter	-8.60803
▁sorry	-8.60996
▁held	-8.61197
▁given	-8.61629
▁used	-8.61704
▁parchment	-8.6173
▁team	-8.63457
but	-8.64012
▁speak	-8.64385
▁continued	-8.64555
▁hurried	-8.64855
▁telling	-8.65037
▁owl	-8.65286
▁Lockhart	-8.65303
▁added	-8.65371
▁moving	-8.65695
▁breath	-8.65712
▁Kreacher	-8.65781
▁fast	-8.65836
▁wrong	-8.66129
▁kill	-8.66158
Hermione	-8.66236
Ron	-8.66251
▁lay	-8.6639
▁smile	-8.66396
▁Trelawney	-8.66518
▁lost	-8.66568
▁fingers	-8.66608
▁ten	-8.66744
▁watch	-8.66973
▁books	-8.67051
▁move	-8.67571
▁answer	-8.67598
Know	-8.67816
▁At	-8.67823
▁either	-8.68579
▁fact	-8.68653
▁gold	-8.68662
▁low	-8.6869
▁pain	-8.68852
▁deep	-8.6889
▁died	-8.6912
▁shut	-8.69231
▁dear	-8.69267
▁ran	-8.6937
▁matter	-8.69392
▁...`	-8.69445
▁bag	-8.6959
▁exactly	-8.69815
....`	-8.69919
▁themselves	-8.70671
▁kitchen	-8.70798
▁turn	-8.71213
▁Great	-8.71238
▁Krum	-8.71244
▁straight	-8.72318
▁Goyle	-8.72388
▁days	-8.7247
▁.'	-8.72665
▁five	-8.7297
▁spoke	-8.73122
▁tiny	-8.73248
▁round	-8.73695
▁returned	-8.73752
▁nearly	-8.7415
S	-8.74211
▁Tonks	-8.74237
▁noise	-8.74275
▁dropped	-8.74557
▁shook	-8.74558
▁waiting	-8.74674
▁Bagman	-8.75033
▁bad	-8.75052
▁Fleur	-8.75157
▁girl	-8.75172
▁hope	-8.75409
▁above	-8.75451
▁parents	-8.75499
▁blood	-8.75796
▁least	-8.75894
▁turning	-8.76491
▁loud	-8.76736
▁ago	-8.76778
▁Crabbe	-8.76869
▁noticed	-8.76915
▁witch	-8.77488
▁short	-8.77636
▁also	-8.77695
▁Cho	-8.77775
▁foot	-8.78135
▁glass	-8.78169
▁Dursleys	-8.78179
▁darkness	-8.78208
▁seem	-8.78282
▁``	-8.78378
▁start	-8.78444
▁lying	-8.78705
▁stairs	-8.78747
▁steps	-8.78824
▁real	-8.79006
▁beneath	-8.79078
▁entered	-8.79103
▁kind	-8.79189
▁Draco	-8.79218
▁burst	-8.79293
▁snake	-8.79426
▁All	-8.79681
▁home	-8.79948
▁golden	-8.80485
▁d	-8.80654
▁case	-8.80846
▁sign	-8.80849
▁person	-8.80929
▁finished	-8.8146
▁sent	-8.81524
▁ceiling	-8.81886
Come	-8.82331
▁clear	-8.82539
▁leaving	-8.82853
▁whose	-8.83
▁entrance	-8.83393
▁trouble	-8.83422
▁friends	-8.83444
This	-8.8371
▁please	-8.83771
▁For	-8.83841
▁staircase	-8.84222
▁run	-8.84225
▁Dean	-8.84333
▁In	-8.8451
▁threw	-8.84774
My	-8.84779
▁shall	-8.84826
▁grounds	-8.851
Now	-8.85272
▁chance	-8.85352
▁flew	-8.85753
▁arrived	-8.85787
▁stay	-8.8583
Dumbledore	-8.86037
▁neck	-8.86102
▁hour	-8.86112
▁stuff	-8.86528
▁legs	-8.86617
▁managed	-8.86794
▁ears	-8.87263
▁Christmas	-8.87269
▁magical	-8.87315
▁times	-8.8748
▁thick	-8.87595
▁potion	-8.88113
▁free	-8.88192
▁pocket	-8.88352
▁chest	-8.88731
▁running	-8.88767
▁evening	-8.89238
▁Now	-8.89247
▁glasses	-8.89364
▁soon	-8.89785
▁doors	-8.89884
▁trunk	-8.90152
▁—`	-8.90162
▁Hedwig	-8.90405
▁nobody	-8.90831
Good	-8.90879
▁glanced	-8.90899
▁longer	-8.91042
▁death	-8.91202
▁S	-8.91306
▁world	-8.9134
▁seized	-8.91373
▁became	-8.91373
All	-8.91523
▁match	-8.91559
▁near	-8.91658
▁vanished	-8.91879
▁hat	-8.92272
▁number	-8.92353
▁Invisibility	-8.92393
▁woman	-8.924
▁walls	-8.92426
▁So	-8.93025
▁expression	-8.93365
▁perhaps	-8.93527
looking	-8.9391
▁except	-8.93993
▁wide	-8.94272
▁within	-8.94339
▁care	-8.9437
▁friend	-8.94381
▁enormous	-8.9449
Er	-8.94569
▁Wood	-8.94592
▁Wormtail	-8.94633
Where	-8.94657
▁ready	-8.94797
▁finally	-8.95621
▁herself	-8.9566
▁walking	-8.95724
▁says	-8.95738
▁stupid	-8.96123
▁angry	-8.96155
▁One	-8.96206
▁known	-8.96226
▁son	-8.9658
▁looks	-8.96679
▁thin	-8.96749
▁pulling	-8.96766
▁met	-8.97389
▁call	-8.97708
▁seat	-8.97786
▁sword	-8.97791
▁happy	-8.97837
▁wait	-8.98089
▁listening	-8.98474
Did	-8.98515
▁killed	-8.98588
▁return	-8.98706
▁elf	-8.98823
▁angrily	-8.98933
▁odd	-8.98997
▁flying	-8.99012
▁broken	-8.99109
▁Bellatrix	-8.99171
▁dementors	-8.99341
▁question	-8.99369
Professor	-8.99397
▁week	-8.99464
▁pale	-8.9948
▁instead	-8.99497
▁anyway	-8.99524
▁Arts	-8.99536
▁broom	-8.99627
)	-8.99892
▁broke	-8.99909
▁smiling	-9.00074
▁clearly	-9.00104
▁tonight	-9.0028
▁Eater	-9.00584
▁memory	-9.00638
▁nodded	-9.00645
▁Seamus	-9.0067
▁true	-9.00695
▁stand	-9.01101
▁portrait	-9.01178
▁windows	-9.01185
▁completely	-9.01226
▁Azkaban	-9.01246
▁below	-9.01275
▁s	-9.01368
▁suppose	-9.01586
a	-9.01615
▁How	-9.01865
▁Prophet	-9.0193
▁Snitch	-9.02346
▁lesson	-9.02379
▁car	-9.02575
▁barely	-9.0296
▁less	-9.03431
▁repeated	-9.03532
▁James	-9.03708
▁spell	-9.03824
▁trees	-9.03974
▁meant	-9.04106
▁un	-9.04743
▁pair	-9.04786
▁forced	-9.04865
Look	-9.05189
▁seconds	-9.05199
▁dragon	-9.05354
▁Magical	-9.05365
▁job	-9.05399
▁reckon	-9.05847
▁hurt	-9.0588
▁shot	-9.0591
▁horrible	-9.05936
▁story	-9.05955
▁tears	-9.06137
▁fine	-9.06571
▁teacher	-9.06589
▁Albus	-9.06731
▁laugh	-9.06823
▁ahead	-9.06842
▁stepped	-9.07156
▁train	-9.07411
▁ought	-9.07651
▁wands	-9.08111
▁show	-9.08164
▁different	-9.08355
▁important	-9.08359
▁snapped	-9.08391
▁giving	-9.08398
▁big	-9.08398
▁happen	-9.08634
▁Well	-9.08778
▁middle	-9.09011
▁heads	-9.09192
▁young	-9.09223
Are	-9.09281
▁lake	-9.09495
▁quiet	-9.09551
▁Muggles	-9.09674
▁expect	-9.0969
▁hundred	-9.09722
▁hours	-9.0985
▁blue	-9.09854
▁hold	-9.10114
▁hidden	-9.10331
▁third	-9.10909
▁sky	-9.10914
▁Order	-9.10923
▁knows	-9.11005
▁whom	-9.11026
▁summer	-9.11217
▁late	-9.12075
Let	-9.12081
▁edge	-9.12099
▁probably	-9.12197
▁led	-9.12589
▁forest	-9.12606
▁silent	-9.12787
▁dangerous	-9.12791
▁Pomfrey	-9.12809
▁brought	-9.12823
▁pushed	-9.12845
▁bottle	-9.1293
▁roared	-9.13494
▁yourself	-9.13513
▁carrying	-9.1353
▁hardly	-9.13552
▁power	-9.13611
▁sounded	-9.13659
Of	-9.14106
▁during	-9.14114
▁possible	-9.14134
▁t	-9.14237
▁points	-9.14425
▁giant	-9.15042
▁part	-9.15068
▁bright	-9.15147
in	-9.15405
▁cried	-9.15434
▁laughed	-9.15535
▁expected	-9.15551
▁No	-9.15897
▁worse	-9.16136
▁couple	-9.16139
he	-9.16305
▁tree	-9.16337
▁nor	-9.16639
▁break	-9.16707
▁Crookshanks	-9.16853
▁sit	-9.17014
▁laughter	-9.17459
▁Hogsmeade	-9.17487
▁yeah	-9.17566
the	-9.17574
▁Rita	-9.17579
▁closer	-9.17586
▁Peeves	-9.17608
▁goblin	-9.17639
▁rose	-9.17743
▁covered	-9.17773
▁spot	-9.17999
▁drew	-9.18146
▁jumped	-9.18166
▁picked	-9.18183
▁aren	-9.18615
▁leg	-9.18783
▁Karkaroff	-9.1881
▁funny	-9.1881
▁heavy	-9.18815
▁meet	-9.18822
▁pleased	-9.19123
▁fear	-9.19153
▁may	-9.19561
▁realized	-9.19612
▁truth	-9.20174
em	-9.20519
▁difficult	-9.20821
▁simply	-9.20898
▁stomach	-9.20907
▁merely	-9.2091
▁indeed	-9.2091
▁sister	-9.21164
▁tent	-9.21474
D	-9.21747
Ah	-9.22085
▁Horcrux	-9.22288
▁gasped	-9.22329
▁tea	-9.22429
▁apart	-9.22454
▁walk	-9.23008
▁wondered	-9.23086
▁screamed	-9.23088
▁reason	-9.23152
▁slid	-9.23388
▁girls	-9.2351
▁ear	-9.23637
▁aside	-9.2372
▁myself	-9.23775
▁alive	-9.23794
▁dad	-9.23855
r	-9.23955
▁starting	-9.23964
▁Ravenclaw	-9.24048
▁become	-9.24125
▁cup	-9.24126
▁news	-9.2416
▁teeth	-9.24465
▁breakfast	-9.24481
▁remained	-9.24518
▁joined	-9.24548
Just	-9.24679
▁Winky	-9.24786
▁hole	-9.24974
▁Granger	-9.25006
▁somebody	-9.25203
▁actually	-9.25215
▁picture	-9.25225
▁catch	-9.25318
▁fight	-9.25328
Right	-9.25376
▁laughing	-9.254
▁throat	-9.25462
▁needed	-9.25603
▁brother	-9.25733
▁carefully	-9.25952
▁leapt	-9.26046
▁remembered	-9.26149
▁direction	-9.26226
▁master	-9.26248
▁street	-9.26262
▁faces	-9.26262
▁field	-9.26313
▁Why	-9.26433
▁terrible	-9.26674
▁dinner	-9.26683
▁bent	-9.26938
▁With	-9.2728
▁mad	-9.2729
▁Against	-9.27421
▁somewhere	-9.27435
▁surprise	-9.27499
▁Lucius	-9.27537
▁paper	-9.27779
▁smiled	-9.27799
▁wing	-9.27807
▁worry	-9.27883
▁apparently	-9.28175
▁Lavender	-9.28215
▁sense	-9.2831
▁wants	-9.28543
▁wish	-9.28718
o	-9.28733
▁teachers	-9.28896
▁Daily	-9.28926
▁beyond	-9.28932
▁twenty	-9.28941
▁Flitwick	-9.28973
▁Scrimgeour	-9.29097
▁knees	-9.29213
▁safe	-9.29618
▁slipped	-9.29696
▁clutching	-9.29696
▁sharply	-9.29711
▁climbed	-9.29712
▁information	-9.29716
▁tightly	-9.2972
▁allowed	-9.29806
▁surprised	-9.29905
▁Her	-9.30197
▁sleep	-9.30266
▁nice	-9.30333
▁mirror	-9.30459
▁single	-9.30483
▁attention	-9.30483
▁decided	-9.30568
Hagrid	-9.30648
▁today	-9.30879
▁After	-9.31082
▁weren	-9.31177
it	-9.31238
▁Skeeter	-9.31297
▁Cup	-9.31312
▁huge	-9.31347
▁Potions	-9.31363
▁working	-9.31616
▁piece	-9.31651
▁lessons	-9.32076
▁living	-9.3208
▁closely	-9.32099
▁hasn	-9.32204
▁itself	-9.32229
Do	-9.32473
▁plan	-9.32666
▁forehead	-9.32804
▁worried	-9.32805
Eye	-9.32821
▁forgotten	-9.32847
▁Griphook	-9.32994
▁On	-9.33247
▁shock	-9.33363
▁Diggory	-9.33393
▁bring	-9.33456
▁boys	-9.33522
▁hiding	-9.33631
▁upstairs	-9.33632
▁Charm	-9.33729
▁die	-9.33786
▁speaking	-9.3386
▁backward	-9.34046
▁opposite	-9.34399
▁happily	-9.34411
▁following	-9.34508
▁attack	-9.34511
▁filled	-9.34681
▁view	-9.34904
▁bottom	-9.34981
▁none	-9.34984
▁sudden	-9.3517
▁box	-9.35216
▁gazing	-9.35216
▁hospital	-9.35217
▁pink	-9.35219
▁afraid	-9.35226
▁dog	-9.35234
▁Parvati	-9.353
T	-9.35568
▁seeing	-9.35619
▁strange	-9.35902
▁note	-9.36129
▁Scabbers	-9.36131
▁lit	-9.36212
As	-9.36544
▁swung	-9.36834
▁extremely	-9.36855
▁purple	-9.36864
is	-9.37194
▁line	-9.3725
▁Buckbeak	-9.37729
▁Mundungus	-9.37863
▁House	-9.37992
Very	-9.38124
▁classroom	-9.38181
▁keeping	-9.38286
▁grinning	-9.38497
▁furiously	-9.38518
▁disappeared	-9.3852
▁present	-9.3873
▁change	-9.38779
Can	-9.38941
▁C	-9.38951
▁quill	-9.39006
▁okay	-9.39332
▁Quirrell	-9.39387
▁Angelina	-9.39404
▁placed	-9.39533
▁live	-9.39758
▁cat	-9.39775
▁join	-9.39868
▁listen	-9.39944
▁marble	-9.3995
▁cut	-9.39969
elf	-9.40072
▁dormitory	-9.40184
▁immediately	-9.4019
▁weeks	-9.40275
▁Curse	-9.40765
▁tail	-9.4081
▁hastily	-9.41038
▁strode	-9.41041
▁food	-9.41046
▁six	-9.41053
▁footsteps	-9.41061
▁knocked	-9.41077
▁whatever	-9.41143
▁P	-9.41259
▁Tom	-9.41302
▁step	-9.41574
▁figure	-9.41639
▁powerful	-9.41903
▁homework	-9.41904
▁THE	-9.41909
▁bellowed	-9.41917
▁terrified	-9.41918
▁Slytherins	-9.41927
▁wondering	-9.41992
▁waited	-9.42051
like	-9.42245
▁group	-9.42356
▁Severus	-9.42441
▁page	-9.4249
▁means	-9.42575
▁minute	-9.42646
▁library	-9.42769
▁landed	-9.42783
▁attacked	-9.42878
▁subject	-9.43038
▁cauldron	-9.43358
▁send	-9.43559
▁rolled	-9.43704
that	-9.43814
▁egg	-9.43931
▁Dad	-9.441
▁staff	-9.44366
▁love	-9.44371
▁nervously	-9.44559
▁nearer	-9.44601
▁scared	-9.4483
▁Arthur	-9.45157
▁touch	-9.4522
▁bedroom	-9.45291
▁softly	-9.45449
▁Pettigrew	-9.45497
▁usually	-9.45539
▁cannot	-9.4556
▁wind	-9.45742
▁map	-9.45845
▁Hufflepuff	-9.4607
▁task	-9.46096
▁afternoon	-9.46201
▁meeting	-9.4621
▁path	-9.46218
▁twelve	-9.46324
▁firmly	-9.46329
▁T	-9.46912
▁shop	-9.46993
▁Myrtle	-9.47343
▁playing	-9.4736
▁visit	-9.47525
▁Mad	-9.47613
▁To	-9.4786
▁spent	-9.48159
▁Firebolt	-9.48178
▁particularly	-9.48182
▁showed	-9.48297
we	-9.48392
▁drink	-9.48623
▁reading	-9.48708
▁doubt	-9.48765
▁locket	-9.48937
▁owls	-9.4894
▁prophecy	-9.49077
▁halfway	-9.49096
▁Head	-9.494
▁Nick	-9.49543
▁curse	-9.49585
▁secret	-9.49764
▁deal	-9.49795
▁cage	-9.49815
▁bathroom	-9.49842
▁normal	-9.49897
▁Tower	-9.50013
▁sideways	-9.50014
▁Katie	-9.50047
on	-9.50231
▁D	-9.50297
▁worked	-9.50349
▁explain	-9.50466
▁oh	-9.50755
▁copy	-9.50814
▁glad	-9.5093
▁cabin	-9.50946
▁Forest	-9.50971
▁waving	-9.50987
▁asleep	-9.51025
▁tight	-9.51065
▁changed	-9.51221
▁Lily	-9.51296
▁mention	-9.51352
▁Fang	-9.51452
▁fallen	-9.51924
▁diary	-9.51925
▁heavily	-9.51926
▁Prime	-9.51944
▁certainly	-9.51944
▁finger	-9.52393
▁Miss	-9.52632
``	-9.52725
clock	-9.52747
▁spells	-9.52856
▁deserted	-9.52891
▁fixed	-9.52896
▁fighting	-9.53037
▁voices	-9.53119
▁beard	-9.53181
▁garden	-9.53245
▁cast	-9.53372
▁notice	-9.53373
▁surface	-9.53394
▁corridors	-9.53491
Get	-9.53666
▁Maxime	-9.53838
▁approached	-9.53863
▁beaming	-9.53878
▁dare	-9.53916
▁crossed	-9.53924
▁missed	-9.53941
▁earth	-9.53975
▁Charlie	-9.53976
Snape	-9.54242
▁forget	-9.54431
▁broomstick	-9.54606
▁Madame	-9.54646
▁skin	-9.54729
▁sank	-9.54828
▁hoping	-9.54831
▁scarlet	-9.54832
▁tall	-9.54854
▁leaned	-9.54858
to	-9.54868
▁brightly	-9.54868
▁Ollivander	-9.54916
▁throwing	-9.54923
▁falling	-9.54946
▁ball	-9.54966
▁pass	-9.55312
▁brain	-9.55383
▁shoulders	-9.55456
When	-9.55717
’	-9.55784
▁trembling	-9.55811
▁hanging	-9.55812
▁frowning	-9.55825
▁nasty	-9.55828
▁unless	-9.55836
▁poor	-9.55838
▁grass	-9.55854
▁Not	-9.55875
▁anger	-9.5611
▁fall	-9.56481
▁Where	-9.56562
▁Weasleys	-9.56695
▁quick	-9.56722
▁stretched	-9.56894
▁hurrying	-9.5691
▁maybe	-9.56958
▁seven	-9.57139
▁Two	-9.57152
▁often	-9.57253
▁using	-9.57266
▁hot	-9.57453
▁force	-9.57496
▁My	-9.57733
▁further	-9.5782
▁eagerly	-9.57829
▁perfectly	-9.57834
▁eyebrows	-9.57931
▁attempt	-9.58432
▁months	-9.58689
▁distant	-9.58809
▁busy	-9.58874
Maybe	-9.58885
▁putting	-9.58891
▁save	-9.58901
▁Department	-9.58903
▁row	-9.59399
▁practice	-9.59506
▁fifty	-9.5987
▁snarled	-9.59875
▁tomorrow	-9.59882
▁Ernie	-9.59911
▁facing	-9.5992
▁Lee	-9.59935
▁pressed	-9.60053
es	-9.6006
▁dream	-9.60416
▁check	-9.60455
▁scream	-9.60472
▁conversation	-9.60587
▁problem	-9.6079
▁muttering	-9.60849
▁fly	-9.60881
▁YOU	-9.60883
▁impatiently	-9.60919
▁unable	-9.6092
▁nearest	-9.60922
▁invisible	-9.60936
▁inches	-9.60992
▁waved	-9.61046
▁whisper	-9.61341
▁shouldn	-9.61786
▁term	-9.6189
▁nervous	-9.61928
▁luck	-9.61945
▁neither	-9.61965
▁echoed	-9.61969
▁pretty	-9.61985
▁witches	-9.62026
▁soul	-9.62046
▁showing	-9.62195
▁fer	-9.6222
▁early	-9.62262
C	-9.62278
▁handed	-9.62462
▁An	-9.62601
▁seems	-9.62891
▁frightened	-9.63045
▁drawing	-9.63111
▁Greyback	-9.63115
▁thrown	-9.63143
▁wonder	-9.63422
▁flat	-9.63505
Your	-9.63526
▁form	-9.63935
▁goblet	-9.64003
▁determined	-9.64077
▁split	-9.64103
▁grabbed	-9.64104
▁gray	-9.6412
▁obviously	-9.64124
▁growled	-9.64138
▁emerged	-9.64166
▁liked	-9.64235
▁questions	-9.64244
▁screaming	-9.64245
Have	-9.64347
▁Mum	-9.64565
▁control	-9.64704
▁lips	-9.64748
▁asking	-9.6494
▁position	-9.65132
▁hesitated	-9.65205
▁spotted	-9.65267
▁Wizarding	-9.65338
Because	-9.65361
▁passing	-9.65373
less	-9.65481
▁hissed	-9.65648
▁Did	-9.6578
▁soft	-9.659
▁Even	-9.65961
▁fault	-9.66146
▁cupboard	-9.66252
▁business	-9.66279
▁shrieked	-9.66324
▁human	-9.66334
▁badly	-9.66363
▁rain	-9.66493
▁flames	-9.66808
▁thinks	-9.67029
Is	-9.67252
▁dungeon	-9.67317
▁carried	-9.67404
▁twice	-9.6742
▁anymore	-9.67428
▁Kingsley	-9.67558
▁tables	-9.6827
▁pitch	-9.68288
▁B	-9.68465
▁headmaster	-9.68469
▁wake	-9.6852
▁stuck	-9.68544
▁fresh	-9.68557
▁Patronus	-9.68557
▁writing	-9.68561
▁Mark	-9.68567
▁ill	-9.68577
▁reach	-9.68667
▁sun	-9.68956
▁trust	-9.69291
▁Bludger	-9.69605
▁midair	-9.6966
▁familiar	-9.69663
▁definitely	-9.69689
▁easy	-9.69719
▁Sprout	-9.69731
Mr	-9.69831
▁sounding	-9.70136
▁helped	-9.70205
of	-9.705
▁play	-9.70514
In	-9.70552
▁pause	-9.70608
▁Dursley	-9.70638
▁bound	-9.70656
▁danger	-9.70659
▁student	-9.7074
▁Potion	-9.70755
▁hung	-9.70762
▁hide	-9.70782
▁wooden	-9.70823
▁worst	-9.70854
▁rising	-9.70894
▁shouting	-9.70904
▁Horcruxes	-9.70911
▁yer	-9.70935
Listen	-9.71112
▁?	-9.71125
▁Nearly	-9.71159
▁follow	-9.71314
▁Just	-9.71558
▁teach	-9.7174
▁pile	-9.71747
▁snow	-9.71865
Potter	-9.71897
▁shining	-9.71976
▁downstairs	-9.71988
▁halt	-9.71994
▁Chamber	-9.72019
▁letters	-9.72058
▁leading	-9.72077
▁party	-9.72095
▁However	-9.72262
▁re	-9.72546
▁smell	-9.7279
▁village	-9.73063
▁creatures	-9.73068
▁sharp	-9.73091
▁Drive	-9.73147
▁Privet	-9.73148
▁Stone	-9.73163
▁understood	-9.73164
▁gleaming	-9.73166
▁seriously	-9.73177
▁hearing	-9.73178
▁seats	-9.7319
▁highly	-9.73259
or	-9.73262
▁coldly	-9.73268
▁lifted	-9.7328
▁growing	-9.73318
▁Longbottom	-9.73339
▁worth	-9.73595
▁objects	-9.73915
▁tone	-9.74165
▁Quaffle	-9.74339
▁excitement	-9.7434
▁glittering	-9.7435
▁excitedly	-9.74367
▁louder	-9.74449
▁packed	-9.74462
▁eh	-9.74551
▁Oh	-9.74557
Dobby	-9.74605
▁age	-9.74641
▁b	-9.74649
▁pull	-9.75003
▁Charms	-9.75038
▁nine	-9.75512
▁thanks	-9.7552
▁Triwizard	-9.75544
▁properly	-9.75568
▁soared	-9.75574
▁warning	-9.75584
▁swept	-9.75618
▁lucky	-9.7567
See	-9.75778
▁Every	-9.75923
▁Once	-9.7601
▁Dementors	-9.76116
Then	-9.76384
▁champions	-9.76441
▁escape	-9.76561
E	-9.76632
▁furious	-9.76731
▁scene	-9.76758
W	-9.76779
▁famous	-9.7679
▁somehow	-9.76797
▁aware	-9.76799
▁sighed	-9.76807
▁interested	-9.76815
▁birthday	-9.76818
▁Gringotts	-9.76826
▁burning	-9.76855
▁tip	-9.76894
▁moments	-9.77001
haired	-9.7707
▁Who	-9.77217
▁Three	-9.77283
Go	-9.77384
▁names	-9.77435
▁patch	-9.77567
▁avoid	-9.77787
▁careful	-9.7797
▁certain	-9.77974
▁relief	-9.77997
▁Was	-9.78012
▁dunno	-9.78021
▁learned	-9.78064
▁deeply	-9.78092
▁solid	-9.78213
▁saved	-9.78232
▁surely	-9.78299
▁eat	-9.78486
▁holidays	-9.78509
h	-9.78571
▁bet	-9.78699
▁bin	-9.79161
▁sick	-9.79233
▁slammed	-9.79248
▁impression	-9.79249
▁anybody	-9.79274
▁Headless	-9.79289
▁grip	-9.79293
▁thoughts	-9.79308
▁ink	-9.79318
▁shortly	-9.79337
▁recognized	-9.7935
▁Defense	-9.79425
▁sped	-9.79452
▁fit	-9.79469
▁H	-9.79505
▁lived	-9.79607
▁thank	-9.79656
up	-9.79666
Sorry	-9.79705
▁breathing	-9.79739
▁R	-9.80052
▁rock	-9.80177
P	-9.80287
▁Stan	-9.80443
▁By	-9.80507
▁calmly	-9.8054
▁ghost	-9.80546
▁spider	-9.80582
▁size	-9.80626
▁higher	-9.80664
▁horror	-9.80669
Here	-9.80713
▁rid	-9.80745
▁smoke	-9.81516
▁lift	-9.81678
▁strong	-9.81739
▁cool	-9.81745
▁list	-9.81781
▁knowing	-9.81802
▁lunch	-9.81815
▁landing	-9.81827
▁everybody	-9.81829
▁lowered	-9.81887
▁joke	-9.81946
▁mine	-9.81965
▁order	-9.82225
▁crack	-9.82298
year	-9.82499
▁sounds	-9.8275
▁rang	-9.82786
▁hurry	-9.82963
▁expelled	-9.83097
▁written	-9.83122
▁anxiously	-9.83123
▁Room	-9.83144
▁Transfiguration	-9.83148
▁clothes	-9.83179
▁effort	-9.832
▁detention	-9.832
▁cover	-9.83228
▁Fat	-9.83261
▁square	-9.83479
Voldemort	-9.83648
faced	-9.83955
▁headed	-9.84075
▁likely	-9.84088
▁remain	-9.84237
▁panic	-9.844
▁money	-9.84408
▁lie	-9.84422
▁creature	-9.84527
▁prefect	-9.84531
▁yellow	-9.84539
▁compartment	-9.84546
▁silvery	-9.84684
▁happening	-9.84705
▁Wand	-9.84853
▁twins	-9.84904
▁realize	-9.85564
▁mistake	-9.85705
▁extra	-9.8574
▁Pensieve	-9.85743
▁dragged	-9.85743
▁uncle	-9.85748
▁dozen	-9.85759
▁desperately	-9.8577
▁distance	-9.85773
▁anywhere	-9.858
▁movement	-9.85891
▁escaped	-9.85971
▁cleared	-9.86012
▁double	-9.86023
▁wings	-9.86053
▁ones	-9.86367
▁mum	-9.8673
Be	-9.86897
▁act	-9.87061
▁Lady	-9.87091
▁impossible	-9.87095
▁protection	-9.87097
▁directly	-9.871
▁nearby	-9.87108
▁flung	-9.87121
▁blank	-9.8713
▁drop	-9.87185
▁missing	-9.87219
▁c	-9.87533
▁bell	-9.87615
▁bar	-9.87842
▁members	-9.87865
▁fat	-9.87899
▁narrow	-9.88127
▁glance	-9.88345
▁serious	-9.88454
▁ugly	-9.88463
▁peering	-9.88491
▁final	-9.88492
▁suggested	-9.88522
▁werewolf	-9.88548
▁agreed	-9.88598
▁attempted	-9.88599
▁sometimes	-9.88623
▁Cornelius	-9.8863
▁platform	-9.88645
▁contact	-9.88685
▁feast	-9.88688
▁Phineas	-9.88713
▁St	-9.88721
▁wood	-9.8882
▁Everyone	-9.89405
▁believed	-9.8945
▁Gryffindors	-9.89463
▁rage	-9.89738
▁excited	-9.89822
▁panted	-9.89859
▁fury	-9.89872
▁jet	-9.89899
▁children	-9.89909
▁locked	-9.90024
▁month	-9.9011
▁er	-9.90225
▁curtains	-9.90248
▁Their	-9.90304
▁loads	-9.90309
▁write	-9.90379
▁post	-9.90491
▁Perhaps	-9.90559
Nothing	-9.90701
▁heading	-9.90912
▁game	-9.91051
▁h	-9.91225
▁everywhere	-9.9128
▁Borgin	-9.91316
▁Divination	-9.91375
as	-9.91405
▁wild	-9.91417
▁touched	-9.91423
▁explained	-9.91428
▁harder	-9.91532
▁Come	-9.91881
▁forwards	-9.91977
For	-9.92088
Thank	-9.92337
▁space	-9.92608
▁anxious	-9.92668
▁opening	-9.92671
▁struggling	-9.92691
▁Alley	-9.92703
▁among	-9.9271
▁1	-9.92717
▁glancing	-9.92721
▁rat	-9.92735
▁miss	-9.92787
▁Firenze	-9.92804
▁shocked	-9.92888
▁paused	-9.92947
▁Galleons	-9.93022
▁breaking	-9.9315
▁Xenophilius	-9.93302
▁calm	-9.93914
▁gaze	-9.93935
▁interest	-9.9397
▁spread	-9.94006
▁previous	-9.94105
▁World	-9.94136
▁Sorting	-9.94146
▁Colin	-9.94167
▁basin	-9.94177
▁raising	-9.94181
▁marched	-9.94211
▁dived	-9.94231
▁finish	-9.94307
▁Aberforth	-9.94374
▁Lovegood	-9.94437
▁wished	-9.94456
▁doorway	-9.94485
Sirius	-9.94572
▁suit	-9.94683
elves	-9.94722
▁support	-9.94816
▁hoped	-9.94866
Never	-9.95074
▁goblins	-9.95246
▁choice	-9.9533
▁imagine	-9.95406
▁hundreds	-9.95467
▁guard	-9.95554
▁confused	-9.95568
▁lower	-9.95574
▁delighted	-9.95619
▁twisted	-9.95625
▁London	-9.95637
▁shadow	-9.95689
▁fun	-9.95707
▁Ludo	-9.95753
▁brown	-9.95878
▁fireplace	-9.95894
▁pure	-9.95913
▁Nobody	-9.96299
▁Gr	-9.9657
▁weight	-9.96716
▁complete	-9.9683
▁shadows	-9.96837
ness	-9.97016
▁win	-9.97059
▁Godric	-9.971
▁therefore	-9.97115
▁swallowed	-9.97115
▁Creatures	-9.97117
▁murmured	-9.97125
▁demanded	-9.9714
▁Frank	-9.97159
▁visible	-9.97162
▁warm	-9.97165
▁settled	-9.97178
▁burned	-9.97186
▁ripped	-9.97188
His	-9.97244
▁although	-9.97341
▁fourth	-9.97426
▁mood	-9.97526
▁chairs	-9.97562
▁goal	-9.97576
al	-9.97588
▁G	-9.97902
▁lead	-9.9793
▁ring	-9.98078
▁continue	-9.98422
▁reveal	-9.98521
▁echoing	-9.98624
▁useful	-9.98624
▁failed	-9.98655
▁Marge	-9.98739
▁interesting	-9.98759
▁gazed	-9.98832
▁passage	-9.98911
▁appearance	-9.98925
▁armchair	-9.98943
▁color	-9.98947
▁Ogden	-9.98981
▁clean	-9.99055
▁expecting	-9.99084
▁wave	-9.99471
▁m	-9.99935
▁unpleasant	-10.0012
▁grinned	-10.0016
▁baby	-10.0016
▁panting	-10.0016
▁leaning	-10.0021
▁state	-10.0029
▁O	-10.003
▁ignored	-10.0031
▁forgot	-10.0038
▁checking	-10.0044
An	-10.0051
▁statue	-10.0051
▁level	-10.0059
▁plate	-10.0059
▁F	-10.0137
▁Of	-10.0139
▁dust	-10.0145
at	-10.0162
▁Burrow	-10.0172
▁brilliant	-10.0172
▁nodding	-10.0173
▁Grawp	-10.0173
▁peered	-10.0174
▁kicked	-10.0175
▁received	-10.0178
▁caused	-10.0182
▁crying	-10.0184
▁McLaggen	-10.0184
▁teaching	-10.0191
▁attempting	-10.0194
▁slip	-10.0197
▁Hallows	-10.0198
▁tower	-10.021
▁upward	-10.0221
▁Prince	-10.0225
st	-10.0242
▁awake	-10.0248
▁leaves	-10.0275
▁grave	-10.0295
One	-10.0298
▁decide	-10.031
▁throw	-10.0313
▁Place	-10.0331
▁examining	-10.0331
▁easily	-10.0332
▁Saturday	-10.0334
▁Durmstrang	-10.0337
▁pretending	-10.0341
▁brave	-10.0345
▁bang	-10.0347
▁dressed	-10.0348
▁crystal	-10.0355
▁essay	-10.037
▁Let	-10.0379
▁notes	-10.0385
▁fellow	-10.0393
▁Do	-10.0433
Kreacher	-10.044
),	-10.0446
▁flash	-10.0457
▁buy	-10.0479
▁pay	-10.0481
▁dragons	-10.0491
▁wife	-10.0492
▁dirty	-10.0494
▁abruptly	-10.0494
▁knife	-10.0495
▁smashed	-10.0497
▁excellent	-10.0498
▁handsome	-10.0499
▁Narcissa	-10.0538
▁Some	-10.0568
Thanks	-10.0586
▁wizarding	-10.0597
▁jus	-10.0597
▁Don	-10.0617
▁speed	-10.0622
▁finding	-10.063
▁inch	-10.064
▁helping	-10.0643
▁slight	-10.0649
th	-10.065
▁innocent	-10.0652
▁desperate	-10.0653
▁stadium	-10.0655
▁Requirement	-10.0656
▁glaring	-10.0656
▁tournament	-10.0656
▁curled	-10.0657
▁difference	-10.0658
▁wrote	-10.0659
▁simple	-10.0661
▁dying	-10.0662
▁History	-10.0662
▁pushing	-10.0664
▁realised	-10.0666
▁classes	-10.0666
▁keen	-10.0671
▁difficulty	-10.0672
▁security	-10.0675
M	-10.0678
▁calling	-10.07
▁lose	-10.0708
▁wanting	-10.0712
▁figures	-10.072
▁weak	-10.0744
▁......	-10.0749
▁Something	-10.0754
▁Your	-10.0766
▁jump	-10.0767
▁risk	-10.0783
Okay	-10.0787
▁crash	-10.0797
▁cry	-10.081
▁eleven	-10.082
▁Elder	-10.0822
▁shout	-10.0822
▁floating	-10.0824
▁tired	-10.0825
▁wildly	-10.0826
▁roar	-10.0826
▁grew	-10.0831
▁removed	-10.0833
▁bought	-10.0835
▁journey	-10.084
▁stick	-10.0841
▁stands	-10.0843
▁socks	-10.0853
▁Most	-10.0867
▁champion	-10.087
▁favorite	-10.087
▁p	-10.0879
▁lives	-10.0885
▁dementor	-10.0885
▁Or	-10.0924
▁grin	-10.0965
▁whistle	-10.0969
▁orders	-10.0974
▁badge	-10.0983
▁striding	-10.0992
▁dancing	-10.0992
▁Pansy	-10.0995
▁beat	-10.0999
▁overhead	-10.1002
▁instructions	-10.1007
▁Hat	-10.1012
▁tied	-10.1014
▁stare	-10.1019
▁circle	-10.1023
▁mark	-10.1024
▁Bathilda	-10.1037
▁Gaunt	-10.1042
▁clearing	-10.1043
ubbly	-10.1048
▁fist	-10.1053
▁ha	-10.108
en	-10.1082
Hello	-10.1104
▁enter	-10.1129
▁dress	-10.1131
▁lights	-10.1132
▁slow	-10.1133
▁private	-10.1161
▁rubbish	-10.1164
▁stunned	-10.1164
▁gigantic	-10.1164
▁possibly	-10.1164
▁planning	-10.1164
▁clutched	-10.1165
▁company	-10.1165
▁taught	-10.1166
▁Nigellus	-10.1166
▁gently	-10.1166
▁filthy	-10.1169
▁squeaked	-10.1171
▁Grimmauld	-10.1175
▁frozen	-10.1177
▁mentioned	-10.1181
▁Morfin	-10.1181
▁Fawkes	-10.1183
▁rolling	-10.1189
▁aunt	-10.1189
▁sleeping	-10.1194
▁answered	-10.1204
▁vault	-10.1206
▁M	-10.121
▁staying	-10.121
▁carriage	-10.1218
▁Seeker	-10.1221
▁Molly	-10.1245
▁King	-10.125
▁fully	-10.1284
bye	-10.1289
▁stars	-10.1289
Hi	-10.1307
▁makes	-10.1309
▁w	-10.1309
▁spiral	-10.1314
▁Had	-10.1315
▁learn	-10.132
▁upset	-10.1325
▁dull	-10.1334
▁phoenix	-10.1337
▁Master	-10.1337
▁Norris	-10.1339
▁midnight	-10.134
▁surrounded	-10.134
▁zoomed	-10.1341
▁battle	-10.1342
▁considered	-10.1343
▁sprinted	-10.1344
▁discovered	-10.1346
▁losing	-10.1347
▁oddly	-10.1349
▁struggled	-10.135
▁becoming	-10.1351
▁count	-10.1364
▁dreams	-10.1369
▁eating	-10.1373
▁i	-10.1378
).	-10.1387
▁handle	-10.1388
▁breathed	-10.1392
▁Secrets	-10.1394
i	-10.1406
▁mass	-10.1424
▁welcome	-10.1498
▁wonderful	-10.1515
▁obvious	-10.1515
Plank	-10.1516
▁disappointed	-10.1518
▁croaked	-10.1519
▁fought	-10.152
▁folded	-10.1521
▁reminded	-10.1522
▁interrupted	-10.1524
▁whenever	-10.1529
▁convinced	-10.153
▁sending	-10.1545
▁stuffed	-10.1563
▁Before	-10.1565
▁photograph	-10.1574
▁message	-10.1578
▁surrounding	-10.1578
▁tongue	-10.1586
▁lawn	-10.1606
▁Yes	-10.1627
Must	-10.1643
▁OK	-10.1649
▁men	-10.1653
▁carry	-10.1686
▁spiders	-10.169
▁station	-10.1691
▁terror	-10.1693
▁crept	-10.17
▁memories	-10.17
▁admit	-10.17
▁scrambled	-10.1702
▁applause	-10.1704
▁ages	-10.1704
▁bowed	-10.171
▁Both	-10.1718
▁deeper	-10.1718
▁temper	-10.1725
▁Grindelwald	-10.173
▁lamp	-10.1739
▁bank	-10.1739
▁effect	-10.174
▁places	-10.1755
▁lap	-10.1756
▁newspaper	-10.1763
▁sleeve	-10.1764
*	-10.1806
▁sea	-10.1823
▁draw	-10.184
▁brooms	-10.1846
▁powers	-10.1856
▁faint	-10.1868
▁Hollow	-10.1885
▁including	-10.1885
▁sunlight	-10.1885
▁pleasure	-10.1886
▁straightened	-10.1887
▁entirely	-10.1887
▁shrugged	-10.1889
▁warned	-10.1891
▁refused	-10.1891
▁laid	-10.1898
▁sparks	-10.1899
▁imagined	-10.1912
R	-10.1918
▁drawn	-10.1921
▁envelope	-10.1922
▁bow	-10.1924
▁struck	-10.1929
▁Half	-10.1934
▁goes	-10.1938
▁People	-10.1949
▁From	-10.1949
▁tunnel	-10.195
▁Delacour	-10.195
▁object	-10.1951
▁toilet	-10.1951
▁dropping	-10.1953
▁Headmaster	-10.1963
▁test	-10.1977
Please	-10.2026
▁Figg	-10.2064
▁Hooch	-10.2073
▁Alicia	-10.2074
▁evidence	-10.2074
▁clapped	-10.2074
▁staggered	-10.2074
▁thoroughly	-10.2074
▁vaguely	-10.2075
▁massive	-10.2075
▁bitterly	-10.2075
▁singing	-10.2077
▁fifth	-10.2077
▁weather	-10.2077
▁OF	-10.2078
▁glared	-10.208
▁Muriel	-10.2085
▁Diagon	-10.2085
▁prepared	-10.2086
B	-10.2086
▁eight	-10.2086
▁contents	-10.209
▁aloud	-10.2091
▁cracked	-10.2091
▁appear	-10.2097
▁whispering	-10.2099
▁fake	-10.2105
▁E	-10.2125
▁troll	-10.2134
▁Mungo	-10.2142
▁hippogriff	-10.2143
▁road	-10.2153
▁Auror	-10.2159
able	-10.2177
▁amount	-10.2213
▁Keeper	-10.2217
eyed	-10.2236
▁due	-10.2237
Course	-10.2249
▁smooth	-10.226
▁clever	-10.2261
▁Tournament	-10.2266
▁beautiful	-10.2266
▁country	-10.2266
▁causing	-10.2267
▁impressed	-10.2268
▁closing	-10.2269
▁Several	-10.227
▁relieved	-10.227
▁Beauxbatons	-10.227
▁mist	-10.227
▁Peter	-10.2273
▁Regulus	-10.2274
▁dashed	-10.2274
▁muffled	-10.2274
▁portraits	-10.2281
▁Remus	-10.2293
▁bringing	-10.2297
▁Viktor	-10.2297
▁pick	-10.2297
▁darkly	-10.2298
▁shown	-10.2323
At	-10.2325
▁wore	-10.2327
mon	-10.2333
▁skull	-10.2339
▁rules	-10.2346
▁hate	-10.2378
▁lip	-10.2384
▁bowl	-10.2385
▁brothers	-10.2387
▁marks	-10.2409
Ginny	-10.2415
▁pretend	-10.243
▁moon	-10.2437
▁blame	-10.244
▁study	-10.2441
▁raise	-10.2443
Really	-10.2449
▁beak	-10.246
▁plenty	-10.2462
▁families	-10.2462
▁proud	-10.2462
▁spectacles	-10.2469
▁offered	-10.2475
▁picking	-10.2476
▁kindly	-10.248
us	-10.2498
▁murder	-10.2505
▁blow	-10.2508
▁trunks	-10.252
▁older	-10.252
▁crowded	-10.2521
▁High	-10.2534
▁bird	-10.2544
▁horse	-10.2548
▁backed	-10.255
▁plates	-10.2611
▁shake	-10.2656
▁irritably	-10.2662
▁mumbled	-10.2663
▁grimly	-10.2663
▁wiping	-10.2665
▁wear	-10.2666
▁pounding	-10.2666
▁wrapped	-10.2667
▁dreadful	-10.2668
▁till	-10.267
Sir	-10.2672
▁knocking	-10.2675
est	-10.2681
▁checked	-10.2688
▁gets	-10.2711
▁eggs	-10.2715
▁barrier	-10.2741
▁centaur	-10.2744
▁centaurs	-10.2783
▁handing	-10.2787
▁W	-10.2828
▁giants	-10.2829
▁Anyway	-10.283
▁bottles	-10.2832
▁discuss	-10.2842
▁search	-10.2845
▁dry	-10.2858
▁Only	-10.2859
▁Can	-10.2862
▁painful	-10.2864
Master	-10.2866
▁buried	-10.2866
▁replied	-10.2866
▁jar	-10.2866
▁rubbing	-10.2866
▁curious	-10.2866
▁occurred	-10.2867
▁fiercely	-10.2868
▁wrenched	-10.2868
▁curiously	-10.2869
▁blinked	-10.2869
▁Ariana	-10.2874
▁counter	-10.2875
▁dusty	-10.2875
▁silently	-10.2877
▁Defence	-10.2878
▁clock	-10.2885
▁Jordan	-10.2887
▁roots	-10.2887
▁jinx	-10.2887
▁Next	-10.2893
▁nowhere	-10.2922
▁exam	-10.2948
▁larger	-10.2952
▁exams	-10.2995
▁bear	-10.3008
▁ended	-10.3032
▁cave	-10.3052
▁persuade	-10.3054
l	-10.3059
▁destroy	-10.3065
▁self	-10.3068
▁godfather	-10.3074
▁Mysteries	-10.3074
▁branches	-10.3075
▁wedding	-10.3076
▁ignoring	-10.3079
▁shelves	-10.3079
Like	-10.308
▁safely	-10.3083
▁setting	-10.3084
▁flight	-10.3087
▁seventh	-10.309
▁remaining	-10.3096
▁younger	-10.3099
▁Rosmerta	-10.31
▁stayed	-10.3113
▁yell	-10.3131
▁pages	-10.3151
▁evil	-10.3158
▁Pigwidgeon	-10.3159
▁chamber	-10.3165
▁pool	-10.3171
▁abou	-10.3182
▁member	-10.319
Malfoy	-10.3211
years	-10.3238
▁protect	-10.3254
▁knock	-10.3259
▁desire	-10.3264
▁rush	-10.3269
g	-10.327
▁child	-10.3282
▁unconscious	-10.3283
▁pub	-10.3287
▁thirteen	-10.3287
▁vast	-10.3288
▁bleeding	-10.3288
▁snatched	-10.3289
▁seventeen	-10.329
▁instantly	-10.329
▁ourselves	-10.329
▁Phoenix	-10.3291
▁startled	-10.3291
▁Occlumency	-10.3291
▁beamed	-10.3293
Only	-10.3303
▁searching	-10.3306
▁chosen	-10.3307
▁Yaxley	-10.3326
▁lock	-10.3334
▁grown	-10.3342
▁report	-10.3348
▁cross	-10.3353
▁charm	-10.3362
▁sink	-10.3363
down	-10.3375
▁Cattermole	-10.338
an	-10.3382
▁Cauldron	-10.3385
Or	-10.342
▁pictures	-10.3422
Got	-10.3437
▁special	-10.3446
▁lies	-10.3456
▁song	-10.3476
▁woke	-10.3492
▁swear	-10.3494
▁Sir	-10.3497
▁circular	-10.3504
▁bewildered	-10.3504
▁tapped	-10.3506
▁icy	-10.3506
▁breathlessly	-10.3506
▁weird	-10.3506
▁hopefully	-10.3507
▁grunted	-10.3507
▁moaned	-10.3507
▁barked	-10.3508
▁Thomas	-10.3509
▁blankly	-10.351
▁Binns	-10.351
▁enjoying	-10.3516
▁yours	-10.3519
▁yelling	-10.3519
▁Care	-10.3521
▁Barty	-10.3522
▁Justin	-10.3526
▁bearing	-10.353
▁Doge	-10.3531
Yeh	-10.3531
▁ward	-10.3531
▁hated	-10.3558
Weasley	-10.3576
ion	-10.3597
▁Nothing	-10.3597
▁elbow	-10.3604
▁excuse	-10.3604
▁cabinet	-10.3605
▁chocolate	-10.3605
▁vision	-10.3611
▁plans	-10.3615
▁backwards	-10.3616
▁noises	-10.3648
▁accept	-10.3677
ers	-10.3678
▁matters	-10.3682
▁damage	-10.3705
▁TO	-10.3714
▁sprang	-10.3727
▁presence	-10.3727
▁permission	-10.3727
▁whipped	-10.3727
▁clenched	-10.3728
▁replaced	-10.3728
▁indignantly	-10.3728
▁injured	-10.3729
▁sweeping	-10.3729
▁juice	-10.3729
▁forcing	-10.373
white	-10.373
▁coat	-10.3731
▁bodies	-10.3731
▁changing	-10.3732
▁greatest	-10.3733
▁Parkinson	-10.3735
▁rise	-10.3736
▁Map	-10.3737
▁Herbology	-10.374
▁spat	-10.3741
Excellent	-10.3742
▁Aragog	-10.3744
▁trick	-10.375
▁played	-10.3754
▁listened	-10.3766
blood	-10.3767
▁suggest	-10.3804
▁frame	-10.3815
▁quills	-10.3817
▁cloud	-10.383
▁package	-10.3831
▁spoken	-10.384
▁clue	-10.384
Would	-10.384
born	-10.3842
▁keeps	-10.385
▁Hog	-10.3863
quot	-10.3872
▁needs	-10.3891
▁Someone	-10.3894
▁promise	-10.3935
▁steal	-10.3939
▁Forbidden	-10.3954
▁wardrobe	-10.3954
▁evidently	-10.3954
▁connection	-10.3954
▁choked	-10.3955
▁faded	-10.3957
▁jerked	-10.3958
▁exploded	-10.3959
▁annoyed	-10.3961
▁thud	-10.3961
▁soaring	-10.3962
▁exchanged	-10.3963
▁alarmed	-10.3963
▁concerned	-10.3965
▁spun	-10.3967
▁orange	-10.3968
▁sinking	-10.3969
▁heaved	-10.3969
▁cheerful	-10.3975
▁armor	-10.3979
Blimey	-10.398
by	-10.3984
▁balls	-10.3991
▁sixteen	-10.3995
▁brains	-10.3997
▁training	-10.4006
▁allow	-10.402
▁lined	-10.4029
if	-10.4035
Hey	-10.4039
my	-10.4042
▁sensation	-10.4054
▁hats	-10.4058
▁monster	-10.4064
▁Spell	-10.4064
▁signs	-10.407
▁pieces	-10.4079
▁Have	-10.4086
what	-10.4088
▁DA	-10.4102
▁boat	-10.4111
▁cheek	-10.4121
▁ice	-10.4144
▁mustache	-10.4158
▁chose	-10.417
▁Imperius	-10.4176
▁Smith	-10.4186
▁Moaning	-10.4186
▁ancient	-10.4187
▁sobbing	-10.4187
▁horrified	-10.4188
▁sobbed	-10.419
▁sneered	-10.419
▁guilty	-10.419
▁diadem	-10.4191
▁enchanted	-10.4192
▁coolly	-10.4192
▁Gilderoy	-10.4196
▁stolen	-10.4203
▁hang	-10.4215
▁beating	-10.4217
▁Finally	-10.4219
▁toad	-10.4221
▁Little	-10.4224
▁*	-10.4225
▁pockets	-10.4265
ish	-10.4281
▁strength	-10.4282
▁bother	-10.4284
▁shape	-10.4284
▁lines	-10.4294
▁pumpkin	-10.4301
▁cousin	-10.4301
▁passageway	-10.4301
▁possession	-10.4302
▁source	-10.4305
▁daughter	-10.4311
▁building	-10.4314
▁burn	-10.4327
▁board	-10.4336
▁righ	-10.4338
▁card	-10.4354
▁mate	-10.4378
▁N	-10.4391
▁glimpse	-10.4403
▁foolish	-10.442
▁liquid	-10.4424
▁stories	-10.4424
▁dragging	-10.4424
▁International	-10.4425
▁rapidly	-10.4425
▁uncomfortable	-10.4425
▁Entrance	-10.4425
▁noticing	-10.4426
▁erupted	-10.4426
▁foul	-10.4428
▁emerging	-10.4432
▁strangely	-10.4434
▁metal	-10.4437
▁stopping	-10.4441
▁roll	-10.4449
▁gotten	-10.4451
▁upside	-10.4462
Anyway	-10.4463
▁forever	-10.4467
▁wishing	-10.4469
▁catching	-10.4469
▁curses	-10.4496
▁born	-10.4515
▁gates	-10.4519
▁handkerchief	-10.4536
▁Marauder	-10.4542
▁article	-10.4544
▁weapon	-10.4544
▁unicorn	-10.4545
▁track	-10.4555
▁sentence	-10.4562
▁Still	-10.4564
▁Mudblood	-10.459
▁damp	-10.4597
Fine	-10.4624
▁de	-10.4632
▁dance	-10.4652
▁perfect	-10.4653
because	-10.4656
▁speech	-10.4665
▁rattling	-10.4668
▁earlier	-10.4668
▁opportunity	-10.4668
▁miserably	-10.4668
▁extraordinary	-10.4668
▁dangling	-10.4669
▁spinning	-10.4669
▁miserable	-10.4669
▁fair	-10.4669
▁briskly	-10.4669
▁silly	-10.467
▁sofa	-10.467
▁squealed	-10.4671
▁lightning	-10.4671
▁weakly	-10.4673
▁Creevey	-10.4673
▁awful	-10.4674
▁overheard	-10.4679
▁murdered	-10.468
--	-10.4681
▁lately	-10.4681
▁wiped	-10.4682
▁concealed	-10.4683
▁Broomsticks	-10.4686
▁dressing	-10.4691
▁Gregorovitch	-10.4698
▁cloaks	-10.4705
▁knowledge	-10.4707
After	-10.4708
On	-10.471
▁acting	-10.4713
...``	-10.4716
About	-10.4733
▁wine	-10.4735
▁trip	-10.4738
▁gap	-10.4738
▁talked	-10.4747
Was	-10.475
▁torn	-10.4767
▁arrival	-10.4793
▁decision	-10.4797
▁yard	-10.4803
▁fists	-10.4832
▁Go	-10.484
▁date	-10.4848
▁sweet	-10.4852
▁toast	-10.4877
▁flame	-10.4885
▁oak	-10.4892
▁alarm	-10.4895
▁manage	-10.4898
Neville	-10.491
▁grey	-10.4912
▁powder	-10.4913
▁Nimbus	-10.4918
▁Express	-10.4918
▁fifteen	-10.4918
▁easier	-10.4918
▁horribly	-10.4919
▁reply	-10.4919
▁accompanied	-10.4919
▁sadly	-10.4919
▁hitting	-10.4922
▁clicked	-10.4922
▁bench	-10.4923
▁Finnigan	-10.4923
▁Bones	-10.4923
▁safety	-10.4923
▁squeezed	-10.4925
▁approaching	-10.4927
▁suspected	-10.4927
▁paid	-10.4928
▁center	-10.4929
▁ingredients	-10.493
Wait	-10.4932
Give	-10.4935
▁hungry	-10.4935
▁examined	-10.4936
▁sticking	-10.4938
Nice	-10.4943
▁faster	-10.4945
▁fangs	-10.4947
ity	-10.4952
With	-10.4961
▁sliding	-10.4965
Named	-10.4966
▁bones	-10.4967
Which	-10.4968
▁feelings	-10.4969
▁ensure	-10.497
▁sides	-10.4971
▁loved	-10.4983
▁insides	-10.4985
To	-10.4987
red	-10.4991
ave	-10.4996
▁f	-10.4998
▁Apparate	-10.5014
▁poison	-10.5019
c	-10.5026
▁fool	-10.5037
▁Captain	-10.505
▁password	-10.505
▁idiot	-10.5054
▁Spells	-10.5056
▁jacket	-10.5066
▁thousand	-10.5068
ry	-10.5074
▁prefer	-10.5075
▁L	-10.5105
▁cared	-10.5111
▁tha	-10.5132
well	-10.5146
▁recognize	-10.5154
▁froze	-10.5158
▁ignore	-10.516
▁velvet	-10.5167
▁feeble	-10.5167
▁suspicious	-10.5171
▁Though	-10.5174
▁drank	-10.5175
▁veela	-10.5175
▁Thousand	-10.5175
▁dormitories	-10.5175
▁frantically	-10.5175
▁telephone	-10.5175
▁necklace	-10.5175
▁underneath	-10.5175
▁positively	-10.5175
▁truly	-10.5175
▁reflected	-10.5176
▁swooped	-10.5176
▁outstretched	-10.5178
▁sixth	-10.5179
▁perched	-10.5179
▁ribs	-10.5179
▁groaned	-10.5179
▁Monday	-10.5179
▁ducked	-10.518
▁amongst	-10.518
▁shadowy	-10.5187
▁Bertha	-10.519
▁pressing	-10.5194
▁sooner	-10.5195
▁jumping	-10.5196
▁dis	-10.5199
▁Would	-10.5201
▁loss	-10.5205
▁comes	-10.5205
▁Bell	-10.5209
▁screams	-10.5228
▁rounded	-10.5235
▁returning	-10.5237
▁candles	-10.5244
▁agree	-10.5271
▁wound	-10.53
▁prospect	-10.5304
▁Quibbler	-10.5315
▁Lestrange	-10.5319
▁chain	-10.5324
▁horses	-10.5329
▁chin	-10.5341
▁tray	-10.5347
▁pack	-10.5353
▁See	-10.5361
Could	-10.5362
▁houses	-10.5366
▁meaning	-10.5377
▁killing	-10.5401
▁sweat	-10.5413
▁push	-10.5416
-`	-10.5418
▁gang	-10.5423
▁unusual	-10.5435
▁bulging	-10.5438
▁yesterday	-10.5438
Shut	-10.5438
▁quivering	-10.5441
▁illuminated	-10.5441
▁ordinary	-10.5442
▁Marietta	-10.5443
▁Brown	-10.5443
▁collapsed	-10.5444
▁conjured	-10.5445
▁letting	-10.5447
▁ashamed	-10.5448
▁rows	-10.5449
▁Polyjuice	-10.5454
▁flashed	-10.5454
no	-10.5454
▁boxes	-10.5455
▁Dolores	-10.5459
▁Neither	-10.5459
▁proof	-10.5459
▁supporters	-10.5469
▁casting	-10.548
▁friendly	-10.5482
▁smaller	-10.5491
Take	-10.5494
▁Yet	-10.5522
▁Very	-10.5548
▁prove	-10.5549
▁trace	-10.5561
▁future	-10.5578
▁situation	-10.5581
▁serpent	-10.5584
▁wrist	-10.5585
▁Aurors	-10.5607
▁law	-10.561
L	-10.5624
▁sigh	-10.5627
so	-10.5631
▁horn	-10.5642
▁mess	-10.5655
OK	-10.5658
▁bite	-10.5679
▁beds	-10.5683
▁prevent	-10.5684
▁blast	-10.5689
▁ghosts	-10.5694
▁correct	-10.5695
▁steam	-10.57
▁Leaky	-10.5708
▁Cross	-10.5708
▁basilisk	-10.5708
▁slumped	-10.5708
▁tapestry	-10.5708
▁seizing	-10.5708
▁crouched	-10.5709
▁gathered	-10.5712
▁suspiciously	-10.5712
▁shivering	-10.5712
▁bedside	-10.5712
▁shooting	-10.5715
▁involved	-10.5716
▁steady	-10.5717
▁stronger	-10.5717
▁nostrils	-10.5717
▁guessed	-10.5717
▁destroyed	-10.572
▁bending	-10.5721
▁Flint	-10.5724
▁Travers	-10.573
▁normally	-10.573
▁AND	-10.5732
Me	-10.5734
▁visited	-10.5739
▁“	-10.5739
▁Zabini	-10.5741
▁greet	-10.5742
▁Look	-10.5767
▁Ted	-10.5776
Someone	-10.578
ING	-10.5782
▁lied	-10.5791
▁add	-10.5815
▁carpet	-10.585
▁opinion	-10.5855
▁butterbeer	-10.5859
▁servant	-10.586
▁cottage	-10.5864
▁cause	-10.5876
▁bags	-10.589
▁Good	-10.5938
▁Could	-10.5949
▁....	-10.5951
Hang	-10.5954
▁prefects	-10.596
▁perform	-10.5962
▁glow	-10.5966
▁spare	-10.597
▁shield	-10.5972
▁spend	-10.5977
▁leather	-10.5978
▁particular	-10.5983
▁instant	-10.5984
▁rude	-10.5985
▁bloke	-10.5986
▁husband	-10.5986
▁crumpled	-10.5986
▁pouring	-10.5988
▁exhausted	-10.5988
▁shade	-10.5988
▁wheeled	-10.5989
▁swirling	-10.5989
▁faintly	-10.5991
▁racing	-10.5991
▁Instead	-10.5991
▁hurtled	-10.5991
▁distinctly	-10.5992
▁swinging	-10.5992
▁trapped	-10.5995
▁released	-10.5995
▁wherever	-10.5995
▁misty	-10.5996
▁upper	-10.5996
▁Stunning	-10.5996
▁pretended	-10.5999
enthusiastically	-10.6
legged	-10.6001
▁traveling	-10.6008
led	-10.6015
▁offer	-10.6044
O	-10.6044
▁dawn	-10.6056
Arthur	-10.606
▁heels	-10.607
▁sneak	-10.6076
▁guess	-10.6087
▁...'	-10.6106
▁height	-10.6114
▁interview	-10.6124
▁Ha	-10.6125
▁clouds	-10.6135
▁boggart	-10.6143
▁accident	-10.6145
▁argument	-10.6146
▁gargoyle	-10.6146
▁Un	-10.6147
▁weekend	-10.6149
▁record	-10.6196
▁l	-10.6202
▁dislike	-10.6251
▁drive	-10.6254
▁thrust	-10.6258
▁BE	-10.6267
▁absence	-10.6271
▁motionless	-10.6272
le	-10.6272
▁squinting	-10.6272
▁happier	-10.6274
▁twisting	-10.6276
▁smirking	-10.6276
▁parcel	-10.6277
▁screwed	-10.6278
▁addressed	-10.6279
▁Behind	-10.6283
▁Norbert	-10.6283
▁dully	-10.6283
▁otherwise	-10.6283
▁searched	-10.6285
▁madly	-10.6285
▁Disapparated	-10.6287
▁widely	-10.6288
▁thickly	-10.6291
▁sack	-10.6293
▁happens	-10.6298
▁miles	-10.6303
▁bits	-10.6307
▁blond	-10.6312
▁Minerva	-10.6324
ling	-10.6327
▁hurting	-10.6334
▁signed	-10.6343
pitched	-10.6355
▁More	-10.6365
▁potions	-10.6365
sized	-10.6367
▁ropes	-10.6377
▁silk	-10.6379
not	-10.638
▁remembering	-10.6386
▁presents	-10.639
▁r	-10.6395
▁OWL	-10.6404
▁hut	-10.641
▁rule	-10.6414
▁cheeks	-10.6421
▁cutting	-10.6438
▁Portkey	-10.644
▁nerve	-10.6453
▁gate	-10.6454
▁hedge	-10.6457
one	-10.6461
▁ways	-10.6489
ful	-10.65
Mum	-10.6507
▁rope	-10.6523
▁Maybe	-10.6544
▁wet	-10.6545
▁pairs	-10.6549
▁hollow	-10.6552
▁share	-10.6561
▁flesh	-10.6562
▁hint	-10.6563
Exactly	-10.6564
▁grab	-10.6565
▁advice	-10.6565
▁Dolohov	-10.6565
▁gliding	-10.6566
▁happiness	-10.6566
▁Willow	-10.6566
▁uncertainly	-10.6566
▁forgive	-10.6567
▁urgently	-10.6568
▁farther	-10.6568
▁fork	-10.6568
▁tipped	-10.6568
ily	-10.6569
▁smoothly	-10.657
▁alongside	-10.6571
▁lane	-10.6571
▁depths	-10.6571
▁continuing	-10.6572
▁roughly	-10.6572
▁flatly	-10.6574
▁progress	-10.6575
▁Patil	-10.6577
▁performed	-10.6581
▁clatter	-10.6582
▁mud	-10.6583
▁Oliver	-10.6583
Y	-10.6584
▁discussing	-10.6585
▁bored	-10.6586
▁pop	-10.6586
Fred	-10.6588
▁hooded	-10.6591
▁towering	-10.6593
▁dreamed	-10.6595
▁satisfied	-10.6595
▁rushed	-10.6601
▁iron	-10.6626
▁details	-10.6627
Blood	-10.6629
▁broomsticks	-10.6637
Everyone	-10.666
▁waste	-10.6663
Indeed	-10.6676
▁lack	-10.6689
▁gasp	-10.6706
Does	-10.6707
▁bat	-10.6716
▁measure	-10.6726
▁charge	-10.6728
▁clipboard	-10.6732
▁emerald	-10.6732
▁stool	-10.674
▁explanation	-10.6742
▁cake	-10.6758
▁twin	-10.6758
▁-'	-10.6758
▁key	-10.676
▁action	-10.6775
▁regret	-10.6778
▁Tell	-10.6788
▁owner	-10.6825
▁examine	-10.6842
▁bald	-10.6851
▁Please	-10.6854
Mrs	-10.686
for	-10.6861
▁mysterious	-10.6865
▁illegal	-10.6866
▁proper	-10.6866
▁duty	-10.6868
▁threshold	-10.6868
▁shrugging	-10.6868
▁shiny	-10.6869
▁protective	-10.6869
▁swayed	-10.6869
▁crammed	-10.6869
▁suspended	-10.6869
ic	-10.687
▁hushed	-10.687
▁darted	-10.6871
▁drifted	-10.6871
▁proceeded	-10.6871
▁broad	-10.6873
▁maze	-10.6874
▁Montague	-10.6874
▁thoughtfully	-10.6875
▁accidentally	-10.6875
▁steadily	-10.6876
▁Zacharias	-10.688
▁pajamas	-10.6882
▁NOT	-10.6882
▁Fire	-10.6887
▁bore	-10.689
▁dungeons	-10.6891
▁School	-10.6893
▁sake	-10.6896
Lupin	-10.6903
▁avoiding	-10.6903
▁reaching	-10.6908
▁upright	-10.6911
▁mistaken	-10.6913
▁Meanwhile	-10.6918
▁rumors	-10.6933
▁While	-10.6936
Stop	-10.6957
▁kids	-10.6966
Tell	-10.6967
▁chains	-10.7003
▁hissing	-10.7013
▁shriek	-10.702
▁papers	-10.7047
▁holiday	-10.7058
▁Boy	-10.7079
old	-10.7085
▁Are	-10.7092
▁fetch	-10.7137
▁public	-10.7142
▁knot	-10.716
▁argue	-10.7162
▁stole	-10.7165
▁remove	-10.7168
▁delight	-10.7172
▁various	-10.7177
▁plant	-10.7178
▁kettle	-10.7181
▁Horntail	-10.7181
▁instance	-10.7181
▁blew	-10.7181
▁gloomily	-10.7181
▁cellar	-10.7181
▁tentatively	-10.7181
▁married	-10.7181
▁curtly	-10.7181
▁gripped	-10.7181
▁puzzled	-10.7182
▁incredulously	-10.7182
▁poking	-10.7182
▁decent	-10.7182
▁slipping	-10.7182
▁crooked	-10.7182
▁lurking	-10.7182
▁swiftly	-10.7182
▁behavior	-10.7182
▁ridiculous	-10.7182
▁plainly	-10.7184
▁yourselves	-10.7184
▁drained	-10.7185
▁snorted	-10.7186
▁painfully	-10.7187
▁trembled	-10.7188
poster	-10.7188
▁chill	-10.7189
▁blinking	-10.7189
▁blocked	-10.719
▁shame	-10.719
▁feather	-10.7194
▁shoes	-10.7195
▁stretching	-10.7196
▁snowy	-10.7199
▁threatening	-10.72
▁narrowed	-10.7203
▁filling	-10.721
▁connected	-10.7212
▁hello	-10.7212
▁Slowly	-10.7213
▁Many	-10.7227
ment	-10.723
▁bloody	-10.7232
▁punch	-10.7233
black	-10.7248
▁secrets	-10.7268
ation	-10.728
▁Hufflepuffs	-10.7284
Certainly	-10.7289
Severus	-10.729
▁players	-10.73
▁edged	-10.7306
▁breathe	-10.7352
▁respect	-10.7365
▁magazine	-10.7371
▁ze	-10.7373
▁directions	-10.7374
▁examination	-10.7379
▁mountain	-10.7379
▁sweater	-10.7381
▁player	-10.7394
▁birds	-10.7395
▁These	-10.7397
▁stranger	-10.7402
▁ends	-10.7425
▁cheer	-10.7462
▁tense	-10.748
▁climb	-10.748
▁remains	-10.7489
borns	-10.7491
▁entire	-10.75
ally	-10.7501
▁spy	-10.7503
▁jeans	-10.7503
▁contrary	-10.7503
▁slamming	-10.7503
▁undoubtedly	-10.7504
▁Halloween	-10.7504
▁satisfaction	-10.7504
▁daresay	-10.7504
▁shimmering	-10.7504
▁breeze	-10.7504
▁clambered	-10.7505
▁bewitched	-10.7505
▁occasionally	-10.7506
▁stumbled	-10.7506
▁astonished	-10.7506
▁recently	-10.7507
▁abandoned	-10.7507
▁zooming	-10.7507
▁shrilly	-10.7507
▁reappeared	-10.7508
▁comfortable	-10.7509
▁Merope	-10.7509
▁personal	-10.751
▁descended	-10.7511
▁belonged	-10.7512
▁gulped	-10.7513
▁purpose	-10.7513
▁streaming	-10.7514
▁blasted	-10.7514
▁kissing	-10.7516
▁shelf	-10.7517
▁pouch	-10.7521
▁Chocolate	-10.7523
▁thirty	-10.7523
▁roaring	-10.753
▁banging	-10.7531
▁neat	-10.7533
they	-10.7533
▁Apparition	-10.7536
▁promised	-10.7537
▁results	-10.7563
▁turns	-10.7579
▁kiss	-10.7585
▁theory	-10.7607
green	-10.7611
▁feathers	-10.7631
▁urge	-10.7634
▁hairy	-10.7638
id	-10.7658
▁gulp	-10.7675
▁comfort	-10.7682
▁wa	-10.769
▁press	-10.7692
▁stag	-10.7693
▁occasion	-10.7709
▁knee	-10.771
▁choose	-10.7712
▁Ravenclaws	-10.7721
ies	-10.7722
▁lamps	-10.7727
▁hex	-10.7732
▁hood	-10.7769
▁dive	-10.7773
▁—``	-10.7783
▁dim	-10.7788
▁length	-10.7802
▁faced	-10.7804
▁concentrate	-10.7816
▁club	-10.7821
▁faithful	-10.7833
▁magnificent	-10.7833
▁recent	-10.7834
▁brass	-10.7836
▁Goblet	-10.7837
▁Owlery	-10.7837
▁Office	-10.7837
▁luggage	-10.7837
▁archway	-10.7837
▁community	-10.7837
▁Macmillan	-10.7837
▁clapping	-10.7837
▁Parseltongue	-10.7837
▁slimy	-10.7837
▁cautiously	-10.7837
▁unknown	-10.7837
▁patting	-10.7837
▁shuffled	-10.7838
▁poured	-10.7838
▁dimly	-10.7838
▁arguing	-10.7838
▁mail	-10.7839
▁hoarsely	-10.7839
▁unlikely	-10.7839
▁drowned	-10.7841
▁fluttered	-10.7841
▁hi	-10.7843
▁daring	-10.7844
▁Auntie	-10.7845
▁plain	-10.7846
▁fill	-10.7846
▁amused	-10.7847
▁lovely	-10.7848
▁strained	-10.7849
▁climbing	-10.7851
▁cheering	-10.7857
▁defend	-10.7857
▁howling	-10.7865
▁counting	-10.7865
▁risen	-10.7868
▁bunch	-10.7874
▁winged	-10.7879
▁Like	-10.7879
ie	-10.788
▁sorts	-10.7881
▁desks	-10.7891
Mad	-10.7905
▁(`	-10.791
▁spirits	-10.7915
▁pot	-10.7928
Leave	-10.7945
Something	-10.7973
Will	-10.7986
▁warn	-10.7986
▁struggle	-10.7994
▁Be	-10.8011
▁treasure	-10.8022
▁lo	-10.8027
▁honor	-10.8038
▁outline	-10.8039
▁beg	-10.8051
▁reflection	-10.8055
pose	-10.8056
▁store	-10.8057
▁chicken	-10.8064
▁Potters	-10.8088
▁tap	-10.8151
▁disappear	-10.8157
▁shudder	-10.8158
▁seize	-10.816
▁loose	-10.8161
▁realise	-10.8163
▁cough	-10.8164
▁ginger	-10.8169
▁numb	-10.8173
▁eager	-10.8177
▁bus	-10.8177
▁regular	-10.8178
▁shabby	-10.8181
▁scroll	-10.8181
▁lopsided	-10.8182
▁disbelief	-10.8182
▁graveyard	-10.8182
▁waist	-10.8182
▁television	-10.8182
▁brandishing	-10.8182
▁gripping	-10.8182
▁Advanced	-10.8182
▁moonlight	-10.8182
▁blurred	-10.8182
▁swaying	-10.8182
▁squinted	-10.8182
▁Bane	-10.8183
▁slightest	-10.8183
▁intently	-10.8184
▁shattered	-10.8184
▁plunged	-10.8184
▁awkwardly	-10.8184
▁twitched	-10.8185
▁indicated	-10.8186
▁suffered	-10.8187
▁scratching	-10.8187
▁insisted	-10.8187
▁glinting	-10.8187
▁recognised	-10.819
▁useless	-10.819
▁midst	-10.819
▁Felix	-10.8195
▁tips	-10.8195
▁Bludgers	-10.8199
▁survived	-10.8199
▁outta	-10.8203
ce	-10.8204
▁glowing	-10.8205
▁sought	-10.8207
▁shaken	-10.8208
▁speeding	-10.8209
▁marked	-10.8211
▁flashing	-10.8211
▁proved	-10.8212
▁feared	-10.8227
▁drinking	-10.8232
▁attacking	-10.8242
all	-10.825
▁Deathly	-10.8252
▁Apparently	-10.826
▁works	-10.8273
▁worrying	-10.8287
▁stretch	-10.8288
▁judges	-10.8291
▁None	-10.8314
Dunno	-10.832
Keep	-10.8328
shaped	-10.833
colored	-10.8331
Still	-10.8333
▁aback	-10.834
▁rough	-10.8349
▁Thanks	-10.835
▁tracks	-10.8352
▁shapes	-10.8359
▁triumph	-10.8384
out	-10.8391
▁war	-10.8397
▁mixture	-10.8404
▁umbrella	-10.8407
▁gift	-10.8407
▁beetle	-10.8414
▁winning	-10.8414
▁reasons	-10.8415
▁favor	-10.8417
▁painting	-10.8417
▁jaw	-10.8418
▁photographs	-10.8419
face	-10.8428
▁kid	-10.8429
▁account	-10.8432
▁quarter	-10.8436
▁duel	-10.8464
▁cart	-10.8473
▁hug	-10.8474
▁kneel	-10.848
▁inter	-10.8498
there	-10.8512
▁block	-10.8516
▁drops	-10.852
▁mere	-10.8523
▁false	-10.8534
▁borrow	-10.8536
▁focus	-10.8537
▁natural	-10.8537
▁gruffly	-10.8538
▁swimming	-10.8538
▁popping	-10.8538
▁Law	-10.8538
▁blazing	-10.8538
▁caretaker	-10.8539
▁amazement	-10.8539
▁uncomfortably	-10.8539
▁utterly	-10.854
▁absolutely	-10.854
▁sternly	-10.854
▁meanwhile	-10.854
▁possibility	-10.854
▁broadly	-10.8541
▁pacing	-10.8541
▁scribbled	-10.8543
▁pleasantly	-10.8544
▁slept	-10.8545
▁chilly	-10.8545
▁Flamel	-10.8545
▁Wizengamot	-10.8545
▁handful	-10.8545
▁leaping	-10.8549
▁according	-10.8551
▁spite	-10.8551
▁Nagini	-10.8552
▁bothered	-10.8554
▁Floo	-10.8557
▁crashed	-10.8559
▁revealed	-10.856
▁chuck	-10.8566
▁entering	-10.857
▁ordered	-10.8585
▁informed	-10.8595
▁enchantments	-10.8602
▁OUT	-10.8609
▁corners	-10.861
▁star	-10.8612
▁Bus	-10.8617
▁skrewts	-10.8617
▁cursed	-10.8624
▁ankles	-10.8634
▁stuffing	-10.8636
be	-10.8649
▁bursting	-10.865
▁slide	-10.866
Making	-10.8664
▁lightly	-10.8689
moon	-10.8706
▁Dear	-10.8721
▁eyeing	-10.8727
▁attacks	-10.8732
▁treat	-10.8745
ted	-10.8747
▁crate	-10.8754
▁steak	-10.8769
▁exist	-10.8772
▁symbol	-10.8784
▁Bulgarian	-10.8788
se	-10.8819
▁tear	-10.8845
▁aim	-10.8856
▁ideas	-10.8872
▁frog	-10.8873
ting	-10.8885
▁resist	-10.8885
▁Chang	-10.889
▁awoke	-10.8895
▁veil	-10.8898
▁grateful	-10.8906
hand	-10.8907
▁swollen	-10.8908
▁Ireland	-10.8908
▁orphanage	-10.8908
▁despite	-10.8908
▁Knight	-10.8908
▁substance	-10.8908
▁extinguished	-10.8908
▁bigger	-10.8908
▁scattered	-10.8908
▁strike	-10.8908
▁concentrating	-10.8908
▁wearily	-10.8909
▁swam	-10.8909
▁stiff	-10.8909
▁jolt	-10.8909
▁underground	-10.8909
▁distracted	-10.891
▁necessary	-10.891
▁amazed	-10.891
▁floated	-10.891
▁rumbling	-10.8911
▁beckoned	-10.8911
▁curly	-10.8912
▁straightening	-10.8912
▁frowned	-10.8912
▁drifting	-10.8912
▁fluttering	-10.8915
▁Friday	-10.8916
▁clicking	-10.8917
▁narrowly	-10.8917
▁contained	-10.8917
▁forbidden	-10.8918
▁honestly	-10.8919
▁Honeydukes	-10.8919
▁goodness	-10.8919
▁disturbed	-10.8921
▁button	-10.8921
▁gaped	-10.8923
▁shone	-10.8925
▁coins	-10.8928
▁assured	-10.8929
p	-10.8929
▁giggling	-10.8932
▁learning	-10.8937
▁avoided	-10.8937
▁hurriedly	-10.8939
▁prisoners	-10.8939
▁guarding	-10.8942
▁whoever	-10.895
▁covering	-10.895
▁milk	-10.8953
▁humans	-10.8953
▁Here	-10.8955
▁blonde	-10.8961
▁acted	-10.8964
said	-10.8965
▁touching	-10.8965
▁g	-10.8966
▁blankets	-10.8967
▁adding	-10.8967
▁Over	-10.8976
▁enjoy	-10.8986
▁Thestrals	-10.8989
she	-10.9013
▁Chasers	-10.9014
▁meetings	-10.9029
▁Never	-10.9041
Percy	-10.9045
▁cheers	-10.9052
▁sweets	-10.9087
▁fail	-10.9093
▁hid	-10.9093
▁shower	-10.9128
▁experience	-10.9138
▁judge	-10.9143
▁alleyway	-10.9158
▁flask	-10.916
▁U	-10.9163
▁address	-10.9164
▁begin	-10.9167
▁pillow	-10.9169
▁punishment	-10.9177
▁badges	-10.9183
▁complain	-10.9192
▁load	-10.9197
▁gown	-10.9198
▁bangs	-10.9201
▁Ten	-10.9203
▁posts	-10.9208
▁goin	-10.923
ter	-10.9235
▁?'	-10.9238
▁Blood	-10.9241
nd	-10.9252
▁flick	-10.9264
▁limp	-10.927
▁storm	-10.9271
▁snap	-10.9271
▁fierce	-10.9281
▁punish	-10.9284
▁awkward	-10.9289
▁casual	-10.9289
▁music	-10.9292
▁main	-10.9292
▁Davies	-10.9293
▁Deluminator	-10.9293
▁Felicis	-10.9293
▁September	-10.9293
▁campsite	-10.9293
▁concentration	-10.9293
▁merpeople	-10.9293
▁momentarily	-10.9293
▁canvas	-10.9293
▁patted	-10.9293
▁drove	-10.9293
▁battered	-10.9294
▁tugging	-10.9294
▁hugged	-10.9294
▁sniggered	-10.9294
▁precisely	-10.9294
▁carved	-10.9295
▁advanced	-10.9295
▁violently	-10.9296
▁Jorkins	-10.9296
▁firelight	-10.9296
▁benches	-10.9296
▁bushy	-10.9298
▁cheerfully	-10.9298
▁whirled	-10.9298
▁chuckled	-10.9299
▁Decree	-10.93
▁collect	-10.93
▁Hepzibah	-10.9301
▁grandmother	-10.9301
▁sparkling	-10.9301
ary	-10.9302
▁embarrassed	-10.9302
▁tucked	-10.9303
▁bowler	-10.9303
im	-10.9304
▁kissed	-10.9304
▁announced	-10.9305
▁history	-10.9307
▁blocking	-10.9307
▁poked	-10.9308
▁fence	-10.9308
▁Johnson	-10.9308
▁sneaking	-10.9311
▁protected	-10.9312
▁tortured	-10.9314
▁POTTER	-10.9316
▁studying	-10.9319
▁paying	-10.9323
w	-10.9323
▁Stunned	-10.9325
▁blinding	-10.9326
▁bolt	-10.9331
▁gloves	-10.9332
▁jinxes	-10.9336
▁grim	-10.9337
▁tie	-10.9339
▁Beaters	-10.9358
▁rushing	-10.9359
▁Father	-10.937
▁Everything	-10.9382
made	-10.9385
▁Looking	-10.9385
▁taste	-10.9402
▁bare	-10.9404
▁th	-10.9407
▁cakes	-10.944
▁understanding	-10.9441
Bill	-10.9444
Shall	-10.9468
round	-10.9474
Perhaps	-10.9483
Our	-10.9493
▁chat	-10.9496
▁fond	-10.9509
▁area	-10.9513
▁cars	-10.9541
▁pipe	-10.9547
▁stream	-10.9554
▁owned	-10.9554
▁concern	-10.9559
▁confidence	-10.9566
▁animal	-10.9571
▁wandering	-10.9573
▁Wizard	-10.9574
G	-10.96
▁belong	-10.9604
▁Right	-10.9612
▁detentions	-10.966
▁rip	-10.9663
▁rats	-10.9663
▁reckons	-10.9669
▁Disapparate	-10.968
▁honest	-10.9689
▁hoarse	-10.9689
▁impressive	-10.969
▁admitted	-10.969
▁general	-10.9691
▁Roberts	-10.9693
▁grief	-10.9693
▁injuries	-10.9693
▁pavement	-10.9693
▁Malkin	-10.9693
▁patronum	-10.9693
▁disappointment	-10.9693
▁Whomping	-10.9693
▁feebly	-10.9693
▁bounced	-10.9693
▁gamekeeper	-10.9693
▁fancy	-10.9693
▁pinned	-10.9693
▁begun	-10.9693
▁gritted	-10.9693
▁bouncing	-10.9693
Probably	-10.9693
▁muddy	-10.9693
▁stirred	-10.9693
▁series	-10.9694
▁permitted	-10.9694
▁compared	-10.9694
▁agony	-10.9694
▁crouching	-10.9694
▁eagle	-10.9695
▁toppled	-10.9695
▁deafening	-10.9695
▁pleasant	-10.9695
▁flickered	-10.9696
▁resembled	-10.9696
▁yawned	-10.9696
▁betrayed	-10.9696
▁realizing	-10.9696
▁underage	-10.9697
▁vanish	-10.9697
▁shoved	-10.9698
▁creaked	-10.9698
▁withdrew	-10.9699
▁boring	-10.9699
▁proudly	-10.9699
▁advantage	-10.9699
▁gloomy	-10.97
▁mental	-10.97
▁grasped	-10.97
▁Hannah	-10.9701
▁Horace	-10.9701
▁funeral	-10.9701
▁Irish	-10.9701
▁Astronomy	-10.9701
▁ghostly	-10.9703
▁flicked	-10.9703
▁knuckles	-10.9706
▁Fluffy	-10.9709
▁ragged	-10.971
▁invited	-10.9712
▁streaked	-10.9714
▁intended	-10.9715
▁tearing	-10.972
▁harm	-10.9725
▁gloom	-10.9733
▁pupils	-10.9741
▁pig	-10.9744
▁ringing	-10.977
▁deaths	-10.9772
▁attempts	-10.9778
▁en	-10.9781
▁possess	-10.9798
▁sobs	-10.9798
▁grow	-10.9803
▁subjects	-10.9841
▁formed	-10.9848
▁Wizards	-10.9865
▁First	-10.9869
▁co	-10.9888
▁cards	-10.9899
Dad	-10.9901
Stand	-10.9916
▁remind	-10.9943
headed	-10.9946
▁trolls	-10.995
▁colored	-10.9957
▁yells	-10.9963
▁valuable	-10.9975
▁Frog	-10.9984
▁Dementor	-10.9988
▁Healer	-10.9991
▁roof	-10.9993
▁Secret	-10.9995
Said	-11.0007
▁jug	-11.0007
▁upwards	-11.0016
NO	-11.0022
let	-11.0043
▁bars	-11.005
▁unlike	-11.005
▁floors	-11.0052
long	-11.0059
▁schedule	-11.0061
▁movements	-11.0065
ked	-11.0068
▁approach	-11.0083
N	-11.0084
▁anti	-11.0088
▁IT	-11.0088
▁introduce	-11.0089
▁retrieve	-11.0089
▁kick	-11.0102
▁hopeful	-11.0108
▁popular	-11.0109
▁Committee	-11.0109
▁Sorcerer	-11.0109
▁fountain	-11.0109
▁twinkling	-11.0109
▁curiosity	-11.0109
▁trapdoor	-11.0109
▁lazily	-11.0109
▁thief	-11.0109
▁promptly	-11.0109
▁friendship	-11.011
▁amusing	-11.011
▁pausing	-11.011
▁joking	-11.011
▁torches	-11.011
▁currently	-11.011
▁sunken	-11.011
▁pride	-11.0111
▁planned	-11.0111
▁bacon	-11.0111
▁preferred	-11.0111
▁devoted	-11.0112
▁plump	-11.0112
▁departed	-11.0112
▁politely	-11.0112
▁neatly	-11.0113
▁stiffly	-11.0113
▁swelling	-11.0113
▁darting	-11.0114
▁violent	-11.0114
▁bike	-11.0114
▁snatching	-11.0114
▁flushed	-11.0115
▁twitching	-11.0117
▁gathering	-11.0117
▁mingled	-11.0118
▁model	-11.0118
▁Arithmancy	-11.0118
▁centuries	-11.0118
me	-11.0118
▁fairly	-11.0118
▁thundering	-11.0119
▁huddled	-11.012
▁bitter	-11.0121
▁Think	-11.0123
▁-``	-11.0123
▁taller	-11.0123
▁official	-11.0124
▁mounted	-11.0125
▁Michael	-11.0126
▁lump	-11.0126
▁Extendable	-11.0126
▁Ern	-11.0126
▁spending	-11.0129
▁separated	-11.013
▁Nevertheless	-11.0135
▁rare	-11.0136
▁flown	-11.0137
▁glimpsed	-11.0147
▁goblets	-11.0153
▁lowering	-11.0153
▁queue	-11.0161
▁heel	-11.0173
▁FOR	-11.019
f	-11.0191
▁watery	-11.0191
▁dared	-11.0213
ad	-11.0217
▁thread	-11.022
▁greater	-11.0227
▁Without	-11.0229
▁Time	-11.024
how	-11.0243
▁soup	-11.0249
▁longing	-11.0268
▁Those	-11.0269
▁mountains	-11.0271
▁OWLs	-11.0288
....``	-11.0289
▁mead	-11.0293
▁tin	-11.0319
Miss	-11.032
▁IN	-11.0331
Out	-11.0335
Molly	-11.0335
Nobody	-11.0338
Another	-11.0338
▁hero	-11.0348
▁charms	-11.0352
▁consider	-11.0355
▁Keep	-11.0356
▁`--	-11.0368
▁bubble	-11.0395
▁score	-11.0408
▁curtain	-11.0409
▁trolley	-11.0416
▁Squib	-11.0417
▁pudding	-11.0418
▁Butterbeer	-11.0421
▁Chaser	-11.0429
▁seek	-11.0432
▁unnatural	-11.0444
▁sprint	-11.0447
▁pity	-11.0468
▁leap	-11.0469
▁cost	-11.0484
▁teams	-11.0484
▁lace	-11.0487
▁Yeh	-11.049
b	-11.0499
▁dread	-11.0514
▁separate	-11.0521
sn	-11.0522
▁arrive	-11.0525
▁disgust	-11.0527
▁torture	-11.0532
▁confident	-11.0533
▁display	-11.0534
▁conceal	-11.0535
yes	-11.0538
▁rigid	-11.0541
▁harsh	-11.0541
▁immense	-11.0541
Wow	-11.0543
▁urgent	-11.0543
▁Shacklebolt	-11.0544
▁Sunday	-11.0544
▁afford	-11.0544
▁chandelier	-11.0544
▁period	-11.0544
▁transparent	-11.0544
▁Cruciatus	-11.0544
▁HIM	-11.0544
▁existence	-11.0544
▁incredible	-11.0544
▁skidded	-11.0544
▁Easter	-11.0544
▁insane	-11.0544
▁fiery	-11.0544
▁forcefully	-11.0545
▁pressure	-11.0545
▁pearly	-11.0545
▁practicing	-11.0545
▁imagining	-11.0545
▁Wizardry	-11.0545
▁surveyed	-11.0546
▁werewolves	-11.0546
Ready	-11.0546
▁tugged	-11.0546
▁emptied	-11.0547
▁attitude	-11.0547
▁hoisted	-11.0547
▁swelled	-11.0547
▁unfortunately	-11.0547
▁widened	-11.0547
▁courage	-11.0547
▁warmth	-11.0548
▁hatred	-11.0548
▁flickering	-11.0549
▁Shield	-11.0549
▁yawning	-11.0549
▁thumping	-11.055
▁unusually	-11.055
▁directed	-11.055
▁Inquisitor	-11.0551
▁enemy	-11.0551
▁lady	-11.0552
▁screeched	-11.0552
▁August	-11.0553
▁Dedalus	-11.0553
▁achieved	-11.0553
▁scales	-11.0553
▁talent	-11.0553
▁hotly	-11.0554
▁polished	-11.0555
▁nature	-11.0555
▁swore	-11.0556
▁sacked	-11.0561
▁Errol	-11.0561
▁polite	-11.0569
▁mid	-11.0576
▁bath	-11.0577
▁magically	-11.0577
▁packing	-11.0581
▁tank	-11.0583
▁woken	-11.0583
▁total	-11.0584
▁Amos	-11.0589
▁cleaning	-11.0591
▁ability	-11.0593
▁doubted	-11.0596
▁deadly	-11.0596
▁blown	-11.0598
▁twigs	-11.0599
work	-11.0604
▁hangings	-11.0626
▁non	-11.063
▁Merlin	-11.0634
cause	-11.066
▁aching	-11.0666
▁minds	-11.0668
▁HE	-11.0672
▁sad	-11.0674
▁eaten	-11.0683
tion	-11.0695
.*	-11.0725
two	-11.0726
▁pit	-11.0728
▁Another	-11.0757
Remember	-11.0762
Excuse	-11.0766
▁stir	-11.0775
Winky	-11.0779
quarters	-11.0784
this	-11.0791
▁Will	-11.0801
Some	-11.0813
▁spring	-11.0822
▁takes	-11.0846
▁fix	-11.085
▁survive	-11.0854
▁rucksack	-11.0855
▁basket	-11.0862
▁brick	-11.0864
Ha	-11.0866
worthy	-11.0872
▁cushion	-11.0875
▁candle	-11.0876
▁ankle	-11.0876
▁afterward	-11.0882
▁pace	-11.0884
F	-11.0887
▁ship	-11.0906
▁di	-11.0909
▁saving	-11.091
▁career	-11.0912
▁fashion	-11.0927
▁attend	-11.0931
▁habit	-11.0938
▁hover	-11.0953
▁discover	-11.0966
▁transform	-11.0974
▁assume	-11.0977
can	-11.0982
off	-11.0984
▁deny	-11.0986
▁request	-11.0988
▁deliver	-11.0989
▁guilt	-11.0991
▁squash	-11.0993
▁brief	-11.0995
▁immediate	-11.0995
▁unexpected	-11.0995
▁triumphant	-11.0995
▁branch	-11.0997
▁Bagshot	-11.0999
▁peculiar	-11.0999
▁uncontrollably	-11.0999
▁atmosphere	-11.0999
▁engine	-11.0999
▁rustling	-11.0999
▁Britain	-11.0999
▁nevertheless	-11.0999
▁grabbing	-11.0999
▁prickling	-11.0999
▁refusing	-11.0999
▁whereabouts	-11.0999
▁serenely	-11.0999
▁church	-11.0999
▁barman	-11.0999
▁amazing	-11.0999
▁banned	-11.0999
▁Baron	-11.0999
▁knight	-11.1
▁skinny	-11.1
▁mopping	-11.1
▁earnestly	-11.1
▁tapping	-11.1
▁earshot	-11.1
▁curved	-11.1
▁bushes	-11.1001
▁stooped	-11.1001
▁nudged	-11.1002
▁fright	-11.1002
▁immensely	-11.1002
Better	-11.1002
▁distractedly	-11.1003
▁spilled	-11.1003
▁ruined	-11.1003
▁deepest	-11.1004
▁chattering	-11.1005
▁cries	-11.1005
▁brand	-11.1005
▁Dirk	-11.1007
▁Squad	-11.1007
▁ruddy	-11.1007
▁circumstances	-11.1008
▁frightening	-11.1008
▁unpleasantly	-11.1008
▁resumed	-11.1009
▁gentle	-11.101
▁issued	-11.101
▁enjoyed	-11.101
Her	-11.1011
Avada	-11.1011
▁outraged	-11.1013
▁disgusting	-11.1013
▁price	-11.1013
▁required	-11.1013
▁eyelids	-11.1014
ier	-11.1015
▁glowed	-11.1015
▁traveled	-11.1015
▁UP	-11.1018
▁Through	-11.1018
▁sneering	-11.1019
▁shrieking	-11.1019
▁experienced	-11.1024
▁noble	-11.1024
▁Feeling	-11.1027
Number	-11.1028
▁lime	-11.1029
▁offering	-11.1031
four	-11.1032
▁bowing	-11.1034
▁spreading	-11.1042
▁features	-11.1044
▁Everybody	-11.1046
ance	-11.1051
▁Inside	-11.1052
▁visitors	-11.1054
▁explaining	-11.1065
▁flowers	-11.1066
▁heaving	-11.1069
▁ex	-11.1073
▁scann	-11.1078
▁bread	-11.1086
▁respond	-11.1087
▁Get	-11.1105
▁nod	-11.1109
▁shops	-11.1127
▁Use	-11.1131
▁snakes	-11.1134
▁con	-11.1138
▁n	-11.1138
▁V	-11.1139
▁animals	-11.114
▁...``	-11.1152
▁Out	-11.1226
▁bu	-11.1226
Even	-11.1244
Bellatrix	-11.1245
Dear	-11.1249
▁wan	-11.126
Xenophilius	-11.1262
Three	-11.1263
Accio	-11.1266
▁sleeves	-11.1307
▁Ronan	-11.1318
▁carriages	-11.1326
▁ambition	-11.1339
▁cliff	-11.1339
▁bucket	-11.134
▁race	-11.1341
▁stack	-11.1344
▁nightmare	-11.1349
▁pie	-11.1351
▁sob	-11.1354
▁elves	-11.1356
▁service	-11.1356
▁image	-11.1356
▁tale	-11.1364
who	-11.1375
H	-11.1376
▁Malfoys	-11.1383
▁DO	-11.1395
▁beast	-11.1409
▁beam	-11.1424
▁efforts	-11.1435
▁practise	-11.1452
▁penetrate	-11.1452
▁slope	-11.1453
▁slit	-11.146
▁gives	-11.1465
▁alert	-11.1465
▁bush	-11.1465
▁sugar	-11.1466
▁vicious	-11.1471
▁defensive	-11.1471
▁Inferi	-11.1474
▁cruel	-11.1475
▁Kedavra	-11.1475
▁Kendra	-11.1475
▁mantelpiece	-11.1475
▁whatsoever	-11.1475
▁untidy	-11.1475
▁random	-11.1475
▁June	-11.1475
▁ladder	-11.1475
▁identical	-11.1475
▁indicating	-11.1475
▁judging	-11.1475
▁scribbling	-11.1475
▁bezoar	-11.1475
▁launched	-11.1475
▁dissolved	-11.1475
▁stubbornly	-11.1475
▁arriving	-11.1476
▁fluffy	-11.1476
▁invitation	-11.1476
▁freezing	-11.1476
▁bobbing	-11.1476
▁smoking	-11.1476
▁blackboard	-11.1477
▁shopping	-11.1477
▁hopelessly	-11.1477
▁gleefully	-11.1477
▁followers	-11.1477
▁hammering	-11.1477
▁retreated	-11.1477
▁surveying	-11.1477
▁collar	-11.1478
▁flattened	-11.1478
▁handbag	-11.1478
▁rarely	-11.1478
▁Summoning	-11.1478
▁swooping	-11.1479
▁casually	-11.1479
▁scowled	-11.148
▁collided	-11.148
▁lungs	-11.148
▁dug	-11.148
Nah	-11.1481
▁succeeded	-11.1481
▁flooding	-11.1482
▁sniffed	-11.1482
▁shifting	-11.1483
▁Padma	-11.1484
▁Warrington	-11.1484
▁Headquarters	-11.1485
▁automatically	-11.1485
▁hooked	-11.1486
▁chess	-11.1486
▁shows	-11.1487
▁defeated	-11.1487
▁Omnioculars	-11.1488
▁shuddered	-11.1488
▁tangled	-11.1488
strewn	-11.1489
▁gotta	-11.149
▁treated	-11.149
▁Secrecy	-11.1494
▁forgetting	-11.1495
▁gaping	-11.15
▁Rookwood	-11.1504
▁blackened	-11.1506
▁blowing	-11.1508
▁Bode	-11.1516
▁trusted	-11.1516
▁sleepy	-11.152
hot	-11.1523
▁crashing	-11.1523
▁hooting	-11.1528
▁feed	-11.153
▁express	-11.154
▁Under	-11.1541
▁largest	-11.1546
▁Burkes	-11.1551
▁parted	-11.1554
▁winding	-11.1556
▁victims	-11.1557
aded	-11.1566
▁seated	-11.1572
▁worn	-11.158
his	-11.1581
▁stroll	-11.1582
▁events	-11.1588
▁Heads	-11.1603
▁cornered	-11.1607
▁sensed	-11.1615
▁answering	-11.1637
▁groups	-11.1652
▁YOUR	-11.1672
▁thousands	-11.1708
▁Remember	-11.172
Luna	-11.1725
ous	-11.1732
▁sc	-11.1749
May	-11.1749
ng	-11.1757
Expelliarmus	-11.1759
First	-11.1773
▁utter	-11.1787
Should	-11.1799
▁rooms	-11.1821
▁favourite	-11.183
▁female	-11.183
▁Sneakoscope	-11.1842
▁suffering	-11.1849
▁manner	-11.1851
▁equal	-11.1855
▁Book	-11.1858
▁skill	-11.1863
▁headline	-11.1868
▁land	-11.1869
▁.``	-11.1873
▁Because	-11.1885
▁shouts	-11.189
▁pet	-11.1891
▁tents	-11.1893
back	-11.1901
▁Its	-11.1904
▁mistress	-11.1922
▁named	-11.1923
▁questioning	-11.1933
▁gestur	-11.194
▁vo	-11.1946
▁screech	-11.1949
▁groan	-11.1952
▁despair	-11.1952
▁exchange	-11.1954
▁produce	-11.1955
▁flaming	-11.1957
term	-11.1958
▁appreciate	-11.1958
▁bone	-11.1963
▁damn	-11.1966
▁bizarre	-11.1971
▁piercing	-11.1971
▁spectacular	-11.1971
▁ominous	-11.1971
▁steep	-11.1972
▁repair	-11.1974
▁frantic	-11.1974
▁snort	-11.1975
▁Blotts	-11.1975
▁Cadogan	-11.1975
▁Flourish	-11.1975
▁grumpily	-11.1975
▁issuing	-11.1975
▁motorbike	-11.1975
▁rippling	-11.1975
Lumos	-11.1975
▁enthusiasm	-11.1975
▁throbbing	-11.1975
▁Leanne	-11.1975
▁greasy	-11.1975
▁Roger	-11.1975
▁shakily	-11.1975
▁circling	-11.1975
▁livid	-11.1975
▁Twenty	-11.1975
Ended	-11.1975
▁firm	-11.1975
▁reasonably	-11.1976
▁original	-11.1976
▁fading	-11.1976
▁undertone	-11.1977
▁mildly	-11.1977
▁stern	-11.1977
▁camera	-11.1977
▁heartily	-11.1978
▁greenish	-11.1978
▁widening	-11.1978
▁Cole	-11.1979
▁Sickles	-11.1979
▁boiling	-11.1979
▁sealed	-11.198
▁dazzling	-11.198
▁lunged	-11.198
▁scratched	-11.198
▁smirked	-11.1981
▁compete	-11.1981
▁piles	-11.1981
▁strolled	-11.1982
▁daylight	-11.1982
▁personally	-11.1983
▁patches	-11.1983
▁masked	-11.1983
▁scowling	-11.1984
▁winking	-11.1984
▁blackness	-11.1984
▁creaking	-11.1985
▁squashed	-11.1985
▁ruffled	-11.1986
▁previously	-11.1986
▁stormed	-11.1987
▁revenge	-11.1989
▁wandered	-11.1992
▁vanishing	-11.1992
▁sneaked	-11.1993
▁creeping	-11.1993
▁especially	-11.1995
▁grandfather	-11.1995
▁possessed	-11.1996
▁stew	-11.1998
▁painted	-11.2001
▁banged	-11.2005
▁Ah	-11.2005
▁slowed	-11.201
▁Five	-11.2011
▁Ears	-11.2018
▁Any	-11.2024
▁Four	-11.2026
▁skirt	-11.2036
▁Macnair	-11.2037
▁Again	-11.2038
▁fish	-11.2042
▁wider	-11.2042
▁Marvolo	-11.2058
▁Thank	-11.2059
which	-11.2061
▁WHAT	-11.2068
▁fur	-11.2082
▁biting	-11.2083
▁slits	-11.2086
▁prat	-11.2101
▁cushions	-11.2113
▁mis	-11.2115
ir	-11.2124
Keeper	-11.2136
▁pillows	-11.2138
▁robe	-11.2157
▁nerves	-11.2177
▁emotion	-11.2181
VE	-11.2188
floor	-11.219
▁rear	-11.2208
▁NO	-11.2212
just	-11.2218
▁Should	-11.2233
▁Our	-11.2235
covered	-11.2256
▁senses	-11.226
Krum	-11.2264
Ouch	-11.2268
ur	-11.2268
printing	-11.2274
▁secure	-11.2281
free	-11.2282
Expecto	-11.2285
Stupef	-11.2286
um	-11.2289
Once	-11.2289
▁lawns	-11.2302
handed	-11.2304
▁squeak	-11.2321
▁kitchens	-11.2327
Sit	-11.2338
▁north	-11.2338
▁ferret	-11.2339
▁bunk	-11.2349
▁e	-11.2356
▁spirit	-11.2358
▁clunk	-11.2363
▁fragment	-11.2363
▁palm	-11.2364
▁discussion	-11.2369
▁gesture	-11.237
▁telescope	-11.2375
▁department	-11.2378
▁antidote	-11.2386
▁drawer	-11.2391
YOU	-11.2396
▁Galleon	-11.2397
▁likes	-11.2412
king	-11.2422
▁lid	-11.2454
▁lookout	-11.2457
▁jerk	-11.2468
▁receive	-11.2473
▁duck	-11.2477
▁grasp	-11.2478
▁capture	-11.2481
▁partner	-11.2493
▁health	-11.2494
▁brutal	-11.2497
▁Marchbanks	-11.2501
▁October	-11.2501
▁Shunpike	-11.2501
▁Thicknesse	-11.2501
▁Tuesday	-11.2501
▁Wednesday	-11.2501
▁confusion	-11.2501
▁gnarled	-11.2501
▁petrified	-11.2501
▁protruding	-11.2501
▁precious	-11.2501
▁copies	-11.2501
▁stroking	-11.2501
▁temple	-11.2501
▁exciting	-11.2501
▁uneasy	-11.2501
▁Pince	-11.2501
▁lonely	-11.2502
▁stammered	-11.2502
▁exceptionally	-11.2502
▁defiantly	-11.2502
▁decorated	-11.2502
▁sidecar	-11.2502
▁writhing	-11.2503
▁peace	-11.2503
▁sallow	-11.2503
▁tiptoe	-11.2504
▁women	-11.2504
▁topmost	-11.2504
▁sloping	-11.2504
▁dashing	-11.2504
▁anythin	-11.2505
▁scarves	-11.2505
▁briefly	-11.2505
▁pointless	-11.2505
▁youngest	-11.2505
▁lingered	-11.2506
▁fumbled	-11.2506
▁spellbooks	-11.2506
▁dodged	-11.2506
▁relaxed	-11.2507
▁bustled	-11.2507
▁gleamed	-11.2507
▁winked	-11.2507
▁shifted	-11.2507
▁shivered	-11.2507
▁crawled	-11.2508
▁glided	-11.2508
▁witnessed	-11.2508
▁containing	-11.2509
▁placing	-11.2509
▁marching	-11.2509
▁starry	-11.2509
▁overgrown	-11.2511
▁Dennis	-11.2511
▁English	-11.2511
▁Thursday	-11.2511
▁bustling	-11.2511
▁authority	-11.2512
▁deliberately	-11.2512
▁Grim	-11.2512
▁Ronald	-11.2512
▁transformed	-11.2512
▁WILL	-11.2512
▁wandmaker	-11.2513
▁smallest	-11.2514
▁jerking	-11.2515
▁sweaty	-11.2516
▁built	-11.2516
▁beaten	-11.2519
▁wandlight	-11.2521
▁tripped	-11.2522
▁Rufus	-11.2522
▁attached	-11.2522
▁rack	-11.2522
▁whirl	-11.2524
▁borrowed	-11.2525
▁counted	-11.2531
▁grate	-11.2532
when	-11.2532
▁somewhat	-11.2532
▁git	-11.2535
ch	-11.2535
▁ripping	-11.2537
▁deserved	-11.2541
▁bothering	-11.2543
▁buying	-11.2544
▁charged	-11.2544
▁naturally	-11.2544
▁ride	-11.2548
▁appearing	-11.2548
▁crossing	-11.2549
▁mound	-11.2551
▁Carrows	-11.2552
▁Sure	-11.2555
▁forty	-11.2558
lunk	-11.2562
▁howled	-11.2565
▁guests	-11.2567
▁Today	-11.2567
▁dreaming	-11.2573
was	-11.2578
▁boots	-11.2584
ey	-11.2585
fashioned	-11.2589
▁heap	-11.2603
▁perch	-11.2607
▁forming	-11.2619
▁drawers	-11.2626
▁darker	-11.263
▁chas	-11.2633
▁clamp	-11.2633
▁sons	-11.2641
▁tasks	-11.2646
rs	-11.2649
▁sell	-11.2666
▁drinks	-11.267
▁thunder	-11.2686
▁cauldrons	-11.2691
▁mug	-11.2691
▁plants	-11.2711
do	-11.2712
▁ME	-11.2715
EN	-11.2719
ying	-11.2727
▁owners	-11.2738
▁crush	-11.2739
▁yards	-11.2759
Fudge	-11.2777
Slughorn	-11.2781
▁Mudbloods	-11.2807
please	-11.2812
Great	-11.2816
Fleur	-11.2816
▁suck	-11.2825
▁hill	-11.283
blue	-11.283
Lily	-11.284
▁Up	-11.2844
Anything	-11.2845
Those	-11.2848
▁fellows	-11.2853
Won	-11.2864
1	-11.2877
Hold	-11.2898
▁fortune	-11.2912
▁suspect	-11.2913
.'`	-11.2915
▁protest	-11.2918
▁unaware	-11.2919
▁beginning	-11.2919
▁girlfriend	-11.292
▁statues	-11.2927
▁reaction	-11.2929
▁skrewt	-11.2933
▁comment	-11.2938
▁swing	-11.2939
▁rumor	-11.2941
▁poke	-11.2945
▁gnome	-11.2953
▁Take	-11.2956
▁woods	-11.2971
▁mo	-11.2979
▁pan	-11.2981
▁string	-11.2992
▁venom	-11.3012
▁heaven	-11.3012
Yer	-11.3013
Had	-11.3015
▁conscious	-11.3023
▁howl	-11.303
▁bundle	-11.3035
▁terms	-11.3035
▁convince	-11.3036
▁invite	-11.3036
▁glare	-11.3043
▁success	-11.3052
▁dazed	-11.3053
▁fleeting	-11.3056
▁Animagus	-11.3057
▁Magnolia	-11.3057
▁Magorian	-11.3057
▁courtyard	-11.3057
▁disgruntled	-11.3057
▁doorknob	-11.3057
▁eerie	-11.3057
▁monstrous	-11.3057
▁transfixed	-11.3057
▁astonishment	-11.3057
▁maroon	-11.3057
▁nonsense	-11.3057
▁clanking	-11.3057
▁shaggy	-11.3057
▁BANG	-11.3057
▁crossbow	-11.3057
▁preparing	-11.3057
▁imagination	-11.3057
▁flapping	-11.3057
Welcome	-11.3057
▁candlelight	-11.3057
▁spitting	-11.3057
▁magnified	-11.3057
▁propped	-11.3057
▁conclusion	-11.3057
▁driving	-11.3057
▁Army	-11.3057
▁chapter	-11.3057
▁police	-11.3057
▁glory	-11.3057
▁starving	-11.3058
▁feverishly	-11.3058
▁booming	-11.3058
▁practical	-11.3058
▁Killing	-11.3058
▁noisy	-11.3058
▁jeering	-11.3058
▁billowing	-11.3058
▁kidding	-11.3059
▁complicated	-11.306
▁ajar	-11.3061
▁windowsill	-11.3061
▁schoolbag	-11.3062
▁groped	-11.3062
▁binding	-11.3062
▁flooded	-11.3062
▁whimpering	-11.3063
▁hallway	-11.3063
▁Day	-11.3064
▁gettin	-11.3064
▁spilling	-11.3065
▁buzzing	-11.3065
▁cooking	-11.3065
▁trailing	-11.3065
▁obscured	-11.3067
▁Witchcraft	-11.3067
▁stirring	-11.3067
▁straining	-11.3068
▁delivered	-11.3068
▁punished	-11.3071
▁invented	-11.3072
▁Top	-11.3074
▁exasperated	-11.3075
▁arrogant	-11.3075
▁reminding	-11.3076
▁limping	-11.3076
▁Atrium	-11.3078
▁murderer	-11.3079
▁chased	-11.308
▁aiming	-11.308
▁clattering	-11.308
▁disappearing	-11.3081
▁reported	-11.3082
▁gasping	-11.3083
▁dangerously	-11.3086
▁served	-11.3089
▁stealing	-11.309
▁urged	-11.3094
▁sheet	-11.3094
--``	-11.3097
▁shared	-11.3097
▁driven	-11.31
▁etched	-11.31
▁supported	-11.3102
▁clearer	-11.3112
▁dense	-11.3115
▁finishing	-11.3121
ned	-11.3124
▁allowing	-11.3128
▁intent	-11.3131
▁wasted	-11.3132
▁wipe	-11.3141
▁DON	-11.3144
▁raw	-11.3145
▁instruments	-11.3147
▁tickets	-11.3153
▁joining	-11.3161
▁conditions	-11.3168
▁seeking	-11.3169
▁wise	-11.3174
▁greenhouses	-11.3175
▁bend	-11.3186
▁cares	-11.3186
▁bubbles	-11.3218
▁Surely	-11.3224
▁`—	-11.3234
▁hairs	-11.3234
▁web	-11.3236
▁HARRY	-11.3244
▁--?`	-11.3245
▁chances	-11.3245
▁cats	-11.3252
▁bully	-11.3252
will	-11.3256
Muggle	-11.3258
▁scars	-11.3293
▁poster	-11.3311
Umbridge	-11.332
▁tough	-11.3328
why	-11.3347
▁possessions	-11.3353
Dudley	-11.3364
▁command	-11.3367
▁frames	-11.3367
Any	-11.3385
are	-11.3393
ard	-11.3395
▁blind	-11.342
▁ease	-11.3428
Two	-11.343
People	-11.3434
▁flow	-11.3434
From	-11.3434
/	-11.3437
▁dais	-11.3446
▁shaped	-11.3447
▁mend	-11.3451
ne	-11.347
▁insult	-11.3479
▁stage	-11.3484
Thought	-11.3485
None	-11.3486
▁deserve	-11.3495
▁adventure	-11.3498
▁Howler	-11.3507
▁detail	-11.3511
▁essential	-11.3511
▁headstone	-11.3512
▁explosion	-11.3515
▁answers	-11.3516
▁lantern	-11.352
▁incantation	-11.352
▁crime	-11.3521
▁greenhouse	-11.3523
▁version	-11.3526
▁edges	-11.3541
ny	-11.3551
▁guards	-11.3552
go	-11.3559
▁doe	-11.3591
Put	-11.3592
▁repeat	-11.362
▁murmur	-11.3621
▁fan	-11.3621
▁click	-11.3622
ant	-11.3624
▁inform	-11.3626
▁severe	-11.3629
▁fate	-11.3629
▁encounter	-11.3635
▁foreign	-11.3637
▁defeat	-11.3638
▁affect	-11.364
▁sleek	-11.3641
▁vivid	-11.3641
▁resentful	-11.3641
▁apprehensive	-11.3642
▁sinister	-11.3642
▁camp	-11.3642
▁potato	-11.3643
▁stroke	-11.3644
▁Beedle	-11.3645
▁Scabior	-11.3645
▁Spinnet	-11.3645
▁contorted	-11.3645
▁injury	-11.3645
▁Enforcement	-11.3645
▁desperation	-11.3645
▁porridge	-11.3645
▁knives	-11.3645
▁Ancient	-11.3645
▁departure	-11.3645
▁Whinging	-11.3645
▁defence	-11.3645
▁freedom	-11.3645
▁instinctively	-11.3645
▁vigorously	-11.3645
▁drag	-11.3645
▁bloodshot	-11.3645
▁dripping	-11.3646
▁response	-11.3646
▁considerable	-11.3646
▁collection	-11.3646
Shh	-11.3646
▁yellowish	-11.3646
▁snapping	-11.3646
▁crackling	-11.3647
▁Vanishing	-11.3647
▁Love	-11.3647
▁spluttered	-11.3648
▁severely	-11.3648
▁pronounced	-11.3648
▁hurtling	-11.3648
▁dried	-11.3649
▁snout	-11.3649
▁descending	-11.3649
▁breathless	-11.3649
▁prodding	-11.365
▁mainly	-11.365
▁generally	-11.365
▁hexes	-11.365
▁winced	-11.365
▁sunk	-11.3651
▁constant	-11.3652
▁prison	-11.3652
▁spoon	-11.3653
▁highest	-11.3653
▁swarming	-11.3653
Arry	-11.3654
▁Dippet	-11.3654
▁described	-11.3654
▁Each	-11.3655
▁Argus	-11.3655
▁Trevor	-11.3655
▁rattled	-11.3656
▁repaired	-11.3656
▁meantime	-11.3657
▁scanning	-11.3657
▁snakelike	-11.3658
▁littered	-11.3659
▁Side	-11.366
▁filed	-11.366
▁limped	-11.366
▁punched	-11.366
▁arranged	-11.3661
▁stamping	-11.3662
▁believing	-11.3662
▁considering	-11.3664
▁assure	-11.3666
▁complaining	-11.3666
▁boarded	-11.3667
▁wishes	-11.3668
▁Hokey	-11.3668
▁dueling	-11.3668
▁invisibility	-11.3669
▁draped	-11.3669
▁firs	-11.3671
▁accepted	-11.3671
▁oldest	-11.3671
▁poisonous	-11.3674
▁motion	-11.3674
▁sweating	-11.3676
▁liking	-11.3677
▁headmasters	-11.368
▁Amycus	-11.368
▁gestured	-11.3681
▁blink	-11.3681
▁laden	-11.3689
▁heat	-11.369
▁Weird	-11.3693
▁smelled	-11.3694
▁relatives	-11.3695
▁Blast	-11.3696
▁rescue	-11.3697
▁sausages	-11.3702
▁persuaded	-11.3708
▁lifting	-11.3709
▁Riddles	-11.3717
▁newly	-11.3723
ere	-11.3734
▁rag	-11.3739
▁visiting	-11.374
▁inner	-11.3746
▁throughout	-11.375
▁greatly	-11.377
▁heavens	-11.378
▁feels	-11.3785
▁sheets	-11.3787
fingered	-11.3796
▁paces	-11.3797
▁permit	-11.3803
▁scrape	-11.3808
▁straw	-11.3817
▁necks	-11.3832
▁belongs	-11.3836
Erm	-11.3838
▁similar	-11.3873
▁Heir	-11.3873
▁hic	-11.3874
▁signal	-11.3886
Hogwarts	-11.3887
▁measures	-11.3891
▁pots	-11.3903
▁lots	-11.3906
▁revolv	-11.3906
Has	-11.392
▁brow	-11.3922
Ten	-11.3928
▁troubled	-11.393
great	-11.3946
▁river	-11.3949
Hmm	-11.3956
▁resting	-11.3969
▁forth	-11.3975
▁Crack	-11.3982
,'`	-11.3993
▁rolls	-11.3994
▁belt	-11.3995
foot	-11.4
Crouch	-11.4004
aged	-11.4011
Want	-11.4012
▁Vol	-11.4017
Hurry	-11.4017
Draco	-11.4026
Albus	-11.4037
filled	-11.4039
Quite	-11.4049
Think	-11.4049
Every	-11.4051
ably	-11.4057
Anyone	-11.4058
Quick	-11.4059
Over	-11.4061
▁pre	-11.4061
HARRY	-11.4063
Stay	-11.4064
Five	-11.4064
▁Listen	-11.4091
▁reward	-11.4107
▁refuse	-11.4107
thing	-11.4111
▁moan	-11.4112
▁believes	-11.4113
▁silhouette	-11.4123
▁arrest	-11.4124
▁fed	-11.4126
▁scurrying	-11.4132
▁swig	-11.4138
▁aisle	-11.4138
▁teacup	-11.4143
▁condition	-11.4146
▁Thestral	-11.4146
▁suspicion	-11.4146
▁appointment	-11.4147
▁hoop	-11.4152
▁muscle	-11.4155
Wha	-11.4156
▁v	-11.4165
▁fled	-11.419
▁wasting	-11.4191
▁dealing	-11.4223
▁sneer	-11.4232
seven	-11.4237
▁suppress	-11.4242
▁cream	-11.4245
▁tones	-11.425
▁insist	-11.4251
▁fires	-11.4253
▁Box	-11.4254
▁endure	-11.4256
▁peer	-11.4259
▁pathetic	-11.426
▁obey	-11.426
▁distinct	-11.4261
▁chase	-11.4262
▁shrill	-11.4263
▁gaunt	-11.4265
▁unfortunate	-11.4267
▁abrupt	-11.4267
▁vague	-11.4267
▁serve	-11.4267
▁definite	-11.4269
▁complex	-11.4269
▁remorse	-11.427
▁Confederation	-11.427
▁Demelza	-11.427
▁Mafalda	-11.427
▁Shrieking	-11.427
▁agitated	-11.427
▁enclosure	-11.427
▁indignation	-11.427
▁paddock	-11.427
▁responsible	-11.427
▁rummaging	-11.427
▁appalled	-11.427
Oooh	-11.427
▁determination	-11.427
▁sarcastically	-11.427
▁delicious	-11.427
▁mercy	-11.427
▁settle	-11.427
▁fraction	-11.427
▁unfolded	-11.427
▁frustration	-11.427
▁perplexed	-11.427
▁dramatically	-11.427
▁responsibility	-11.427
▁grubby	-11.427
▁flapped	-11.427
▁loathed	-11.427
▁rubbed	-11.427
▁signature	-11.427
▁treacle	-11.427
Funny	-11.4271
▁advancing	-11.4271
▁stalked	-11.4271
▁irritated	-11.4271
▁electric	-11.4271
▁Corner	-11.4271
Yep	-11.4271
▁squeezing	-11.4271
▁boomed	-11.4271
▁turban	-11.4271
▁managing	-11.4271
▁glowering	-11.4271
▁inherited	-11.4271
▁faintest	-11.4272
▁panicked	-11.4272
▁rummaged	-11.4272
▁increasingly	-11.4272
▁cowering	-11.4273
▁savagely	-11.4273
▁sprawled	-11.4273
▁steering	-11.4273
▁scooped	-11.4273
▁glittered	-11.4274
▁hooted	-11.4274
▁goggling	-11.4274
▁puffy	-11.4275
▁threatened	-11.4275
▁sworn	-11.4276
▁sharing	-11.4276
▁galloping	-11.4276
▁brushed	-11.4276
rimmed	-11.4276
▁investigate	-11.4277
▁hugging	-11.4277
▁shoot	-11.4277
▁bitten	-11.4278
▁sweetly	-11.4278
▁brushing	-11.4279
▁swerved	-11.4279
▁pounded	-11.4279
▁stumped	-11.4279
▁curling	-11.4279
▁surge	-11.428
▁cozy	-11.4281
▁seared	-11.4281
▁Zonko	-11.4281
▁bronze	-11.4281
▁Nicolas	-11.4281
▁biggest	-11.4281
▁Fletcher	-11.4281
▁Finch	-11.4281
▁Defensive	-11.4281
▁Millicent	-11.4281
▁importance	-11.4281
▁controlled	-11.4281
▁increased	-11.4282
▁whistling	-11.4282
▁strangled	-11.4283
▁Runes	-11.4283
▁mixed	-11.4283
▁Abbott	-11.4284
▁locker	-11.4285
▁strongly	-11.4286
▁release	-11.4287
▁comin	-11.4289
▁Piers	-11.429
▁giggled	-11.4291
▁assistant	-11.4291
▁dreading	-11.4292
▁corrected	-11.4293
▁Romilda	-11.4294
▁shuddering	-11.4295
▁balding	-11.4297
▁chewing	-11.4297
▁discussed	-11.4301
▁scored	-11.4301
▁mission	-11.4301
▁overcome	-11.4303
▁Tale	-11.4305
time	-11.4306
lit	-11.4306
▁advised	-11.4307
▁messing	-11.4312
ring	-11.4313
▁earned	-11.4318
▁Although	-11.4321
▁Seven	-11.4332
▁shorter	-11.4333
▁fireworks	-11.4339
▁wary	-11.434
▁paler	-11.4346
▁capable	-11.4349
u	-11.4357
coloured	-11.4359
▁slugs	-11.4359
▁AT	-11.4365
▁annoying	-11.4365
▁uses	-11.4367
▁expressions	-11.4371
▁Best	-11.4371
▁Class	-11.4375
▁smart	-11.4379
▁value	-11.4382
ame	-11.4384
▁mane	-11.4384
▁hoops	-11.439
▁God	-11.4409
▁gnomes	-11.4412
Bet	-11.4413
.“	-11.4418
▁tune	-11.4418
▁trained	-11.4422
ar	-11.4438
▁army	-11.4461
room	-11.4462
▁ARE	-11.447
▁sorted	-11.4476
.`...	-11.4482
new	-11.4491
▁owe	-11.4493
▁wounds	-11.4499
Wonder	-11.4523
▁Houses	-11.4533
▁sold	-11.4537
il	-11.4553
▁fears	-11.4562
▁J	-11.4574
▁stones	-11.4587
▁Nor	-11.4602
three	-11.4608
▁paw	-11.461
▁stamped	-11.4611
▁se	-11.4619
▁tricks	-11.4623
▁Eye	-11.4624
don	-11.4633
Black	-11.4645
▁range	-11.4652
▁mild	-11.4654
▁angle	-11.4662
ED	-11.4671
▁tart	-11.4671
Wish	-11.468
Honestly	-11.468
..	-11.4681
Fletchley	-11.4684
▁sock	-11.4687
;`	-11.4691
five	-11.4694
Kill	-11.4707
▁gas	-11.4708
Back	-11.4713
Nearly	-11.4717
▁colour	-11.4718
▁cook	-11.4728
length	-11.4731
Time	-11.4733
▁mouthed	-11.4739
▁surprising	-11.4762
▁mouths	-11.4771
▁bark	-11.4775
▁require	-11.4779
▁lookin	-11.4784
▁disguise	-11.4784
▁goals	-11.4786
▁giggle	-11.479
▁armchairs	-11.4791
▁shallow	-11.4797
▁scraping	-11.4797
▁keyhole	-11.4798
▁gain	-11.4799
▁violet	-11.4801
▁spin	-11.4801
▁stair	-11.4803
▁title	-11.4807
▁mouthful	-11.4811
▁language	-11.4818
▁annoy	-11.4826
Yet	-11.4829
—	-11.4837
now	-11.4837
▁lion	-11.4837
ow	-11.4851
▁exit	-11.4851
way	-11.4853
▁result	-11.4868
▁summon	-11.4882
▁whip	-11.4884
ent	-11.4902
▁frighten	-11.4904
▁fog	-11.491
▁accord	-11.4912
▁stump	-11.4913
▁sniff	-11.4913
▁suffer	-11.4917
▁covers	-11.4919
▁u	-11.492
▁register	-11.4927
▁boot	-11.4927
▁succeed	-11.4927
▁build	-11.4929
▁strain	-11.493
▁impatient	-11.4933
▁pleading	-11.4934
Ask	-11.4936
▁Bogrod	-11.4937
▁Egypt	-11.4937
▁aghast	-11.4937
▁crimson	-11.4937
▁fascinating	-11.4937
▁gratitude	-11.4937
▁marquee	-11.4937
▁temporarily	-11.4937
▁tiara	-11.4937
▁Network	-11.4937
▁destination	-11.4937
▁utmost	-11.4937
▁hooves	-11.4937
▁cackling	-11.4937
▁influence	-11.4937
▁loathing	-11.4937
▁bemused	-11.4937
▁Trace	-11.4937
▁July	-11.4937
▁Shack	-11.4937
▁flustered	-11.4937
▁grudgingly	-11.4937
▁unhappy	-11.4937
▁illuminating	-11.4937
▁travelling	-11.4937
▁Apparating	-11.4937
▁misery	-11.4937
▁irritable	-11.4937
▁fervently	-11.4937
▁moldy	-11.4937
▁slithering	-11.4937
▁snide	-11.4937
▁season	-11.4937
▁glorious	-11.4937
▁thrashing	-11.4937
▁inclined	-11.4937
▁slippery	-11.4938
Lucky	-11.4938
▁committed	-11.4938
▁coast	-11.4938
▁frequently	-11.4938
▁pelted	-11.4938
▁popped	-11.4938
▁superb	-11.4938
▁enjoyable	-11.4939
▁caution	-11.4939
▁hastened	-11.4939
▁darkening	-11.4939
▁enclosed	-11.4939
▁hilt	-11.4939
▁mouse	-11.4939
▁stock	-11.4939
▁HERE	-11.4939
▁haze	-11.4939
▁reduced	-11.4939
▁dung	-11.494
▁roast	-11.494
▁askew	-11.494
▁Road	-11.494
▁rich	-11.494
▁holly	-11.494
▁blindly	-11.494
▁constantly	-11.494
▁dusk	-11.4941
▁defensively	-11.4941
▁flared	-11.4941
▁unexpectedly	-11.4941
▁spotting	-11.4942
▁edging	-11.4942
▁trousers	-11.4942
▁tightened	-11.4943
▁precise	-11.4943
▁resigned	-11.4943
▁swishing	-11.4944
▁gained	-11.4945
▁stowed	-11.4945
▁lurched	-11.4946
Happy	-11.4946
▁fourteen	-11.4947
▁crossly	-11.4947
▁shuffling	-11.4947
▁rabbit	-11.4948
▁partners	-11.4948
▁consult	-11.4948
▁thundered	-11.4948
▁Lynch	-11.4948
▁MAGIC	-11.4948
▁pincers	-11.4948
▁obsessed	-11.4948
▁Padfoot	-11.4948
▁blushing	-11.4948
▁wailed	-11.4948
▁breakout	-11.4949
▁grilles	-11.495
▁arrangements	-11.495
▁cackled	-11.495
▁wailing	-11.4951
▁trap	-11.4951
▁Ball	-11.4951
▁attic	-11.4952
▁peeling	-11.4953
▁murmuring	-11.4953
▁apple	-11.4955
▁cheered	-11.4957
▁arrested	-11.4958
▁latter	-11.4958
▁chained	-11.496
▁frail	-11.4961
▁trusts	-11.4965
▁downward	-11.4965
▁decorations	-11.4968
▁assumed	-11.4968
▁produced	-11.4969
ened	-11.497
▁collecting	-11.4972
▁aimed	-11.4972
▁related	-11.4975
▁stray	-11.4975
▁Dungbombs	-11.4976
▁charming	-11.498
▁mortal	-11.498
▁recall	-11.498
▁focused	-11.4983
▁cell	-11.4985
▁rug	-11.499
▁Together	-11.4991
▁tested	-11.4994
▁lasted	-11.5004
▁veins	-11.5015
iness	-11.5018
▁Seconds	-11.502
▁beads	-11.5028
▁problems	-11.5031
▁whoosh	-11.5034
▁savage	-11.5035
▁award	-11.5038
▁practices	-11.5041
▁ev	-11.5042
▁bared	-11.5043
▁rotting	-11.5051
RE	-11.5078
▁lanterns	-11.508
▁creak	-11.5092
▁evenings	-11.5103
ius	-11.5114
▁posters	-11.5115
▁effective	-11.5115
▁boss	-11.5151
▁Quick	-11.5159
▁fewer	-11.516
▁sa	-11.5163
▁base	-11.5168
v	-11.5171
▁noses	-11.5178
▁Know	-11.5196
▁charges	-11.5221
side	-11.5229
▁bats	-11.5234
Bye	-11.5239
▁accidents	-11.5241
▁pus	-11.5246
▁ca	-11.5261
▁ma	-11.5268
▁ruff	-11.5268
▁detect	-11.5276
▁blur	-11.5276
Slytherin	-11.5276
▁backing	-11.5278
▁unicorns	-11.5288
ered	-11.5295
▁brim	-11.532
▁lurch	-11.5335
Moody	-11.5337
boy	-11.5339
ble	-11.535
Madam	-11.5352
Though	-11.5358
▁st	-11.5368
▁cups	-11.5369
▁travel	-11.5371
▁ideal	-11.5378
▁intense	-11.538
owing	-11.5385
Help	-11.5396
▁traitor	-11.5397
Tonks	-11.5398
▁Street	-11.5404
Jus	-11.5408
James	-11.5412
By	-11.5425
▁Bard	-11.5427
Narcissa	-11.5435
Always	-11.5437
▁j	-11.5439
More	-11.5441
Surely	-11.5444
▁spots	-11.5459
▁marry	-11.5461
▁dirt	-11.5475
U	-11.5476
▁willing	-11.5477
▁grunt	-11.5479
with	-11.548
turn	-11.55
▁coffee	-11.5501
▁whizz	-11.5502
Outstanding	-11.5503
▁Give	-11.5509
▁IS	-11.551
▁chimney	-11.5512
▁legend	-11.5513
▁lunchtime	-11.5513
▁wail	-11.5514
▁vampire	-11.5519
▁banner	-11.5521
▁suggestion	-11.5521
▁jewel	-11.5521
These	-11.5523
▁threat	-11.5524
▁victim	-11.5527
▁ticket	-11.5529
▁trial	-11.5529
▁Beater	-11.5529
light	-11.555
▁distract	-11.5566
▁Soon	-11.5577
▁squat	-11.5592
▁chart	-11.5596
Un	-11.5599
own	-11.5613
▁flee	-11.5626
▁attract	-11.5627
▁rumble	-11.5627
▁demonstrate	-11.5628
▁gather	-11.5628
▁companion	-11.5636
▁outrage	-11.5638
▁rubber	-11.5643
▁regain	-11.5645
▁disapproving	-11.5647
▁absent	-11.5648
▁occasional	-11.5649
▁process	-11.565
▁Legilimency	-11.5651
▁Studies	-11.5651
▁Veritaserum	-11.5651
▁boarhound	-11.5651
▁crucial	-11.5651
▁enemies	-11.5651
▁energy	-11.5651
▁exasperation	-11.5651
▁miniature	-11.5651
▁persisted	-11.5651
▁practising	-11.5651
▁pyjamas	-11.5651
▁tablecloth	-11.5651
▁trophy	-11.5651
▁blackthorn	-11.5651
▁temptation	-11.5651
Morning	-11.5651
▁merrily	-11.5651
▁Crescent	-11.5651
▁disturbance	-11.5651
▁jammed	-11.5651
▁credit	-11.5651
▁commentary	-11.5651
▁wrestling	-11.5651
▁pardon	-11.5651
▁Standard	-11.5651
▁dismissively	-11.5651
▁teapot	-11.5651
▁plotting	-11.5651
▁wheezy	-11.5651
▁stabbed	-11.5651
▁Moran	-11.5651
▁glee	-11.5651
▁improvement	-11.5651
▁slapping	-11.5651
▁bracingly	-11.5651
▁applauding	-11.5651
Knock	-11.5651
▁tankard	-11.5652
▁scuttled	-11.5652
▁ninety	-11.5652
▁stubby	-11.5652
▁dabbing	-11.5652
▁trickling	-11.5652
▁canopy	-11.5652
▁grinding	-11.5652
▁tartan	-11.5652
▁handwriting	-11.5652
▁dreamily	-11.5652
▁glumly	-11.5653
▁stepping	-11.5653
▁sleepily	-11.5653
▁sincerely	-11.5653
▁witness	-11.5653
▁potatoes	-11.5653
▁reluctantly	-11.5653
Special	-11.5654
▁sandwiches	-11.5654
▁underwater	-11.5654
▁island	-11.5654
▁scaly	-11.5655
▁convicted	-11.5655
▁apprehensively	-11.5655
▁clinging	-11.5655
▁labeled	-11.5656
▁appeal	-11.5656
▁matted	-11.5657
▁united	-11.5657
Educational	-11.5658
▁gingerly	-11.5658
▁rusty	-11.5658
▁mounting	-11.5658
▁scum	-11.5659
▁filing	-11.5659
▁mice	-11.5659
▁accused	-11.566
▁delicate	-11.566
▁regained	-11.566
▁flashes	-11.566
▁healthy	-11.5661
▁shrinking	-11.5662
▁dining	-11.5662
▁bony	-11.5663
▁lumpy	-11.5663
▁Boggart	-11.5663
▁Headmistress	-11.5663
▁draining	-11.5663
▁GOT	-11.5664
▁streaking	-11.5664
▁confirmed	-11.5664
▁sixty	-11.5664
▁grimy	-11.5665
▁Theory	-11.5665
▁china	-11.5666
▁feeding	-11.5666
▁approval	-11.5667
▁cheery	-11.5668
▁disgusted	-11.567
▁correctly	-11.567
▁warningly	-11.5671
▁tempted	-11.5672
▁offended	-11.5673
▁dawned	-11.5674
▁mended	-11.5675
▁type	-11.5676
▁waking	-11.5676
▁doorstep	-11.5676
▁prevented	-11.5677
▁Hestia	-11.5678
▁Control	-11.5678
▁amid	-11.5678
▁scarf	-11.5683
▁Bella	-11.5684
▁research	-11.5684
▁paced	-11.5686
▁planted	-11.5686
▁smoothed	-11.5688
▁included	-11.5691
▁THAT	-11.5693
▁Elphias	-11.5693
▁According	-11.5694
▁stupidly	-11.5696
▁awoken	-11.5698
▁founders	-11.5702
▁argued	-11.5703
▁hook	-11.5711
▁rapped	-11.5712
▁Apparated	-11.5713
take	-11.5716
▁grades	-11.5722
▁Dawlish	-11.5724
▁thumbs	-11.5726
▁riding	-11.5729
▁sessions	-11.5732
▁Trying	-11.5735
▁Sturgis	-11.574
▁tying	-11.574
where	-11.5747
▁colder	-11.576
▁ornate	-11.576
Devil	-11.5762
▁cracking	-11.5763
▁com	-11.5764
▁pinch	-11.5768
eaten	-11.5772
▁al	-11.5783
▁flu	-11.5785
▁giggles	-11.5788
▁hunt	-11.5789
▁piled	-11.5798
ine	-11.58
ian	-11.5805
▁strings	-11.5806
pe	-11.5821
▁fragments	-11.5825
▁finds	-11.5833
▁creep	-11.5856
▁matching	-11.5868
▁sh	-11.5869
▁rim	-11.5873
▁punishments	-11.589
▁Got	-11.5897
ook	-11.5897
▁jaws	-11.5903
▁cuts	-11.5903
▁band	-11.5908
▁wrench	-11.5913
▁doin	-11.5928
Been	-11.5931
▁keys	-11.5943
sen	-11.5954
▁watering	-11.5958
am	-11.5966
ley	-11.5972
▁dates	-11.5982
ten	-11.5994
▁laws	-11.6001
HE	-11.6003
K	-11.6029
▁monsters	-11.6047
Gryffindor	-11.6057
▁rested	-11.6076
ever	-11.6084
gged	-11.6095
▁masters	-11.6099
▁flush	-11.613
▁facts	-11.6135
Cedric	-11.6141
▁tells	-11.6157
▁surroundings	-11.6158
glass	-11.6159
▁?`	-11.6162
▁le	-11.6168
minute	-11.617
▁moth	-11.6179
Karkaroff	-11.6179
ible	-11.6181
Merry	-11.6193
Follow	-11.6201
Bathilda	-11.6203
Half	-11.6205
Before	-11.6205
Most	-11.621
mouthed	-11.621
Without	-11.6214
▁Does	-11.6228
▁streak	-11.6245
▁prize	-11.6256
▁fireplaces	-11.627
▁ghoul	-11.6276
▁forearm	-11.6281
▁HAVE	-11.6281
▁blade	-11.6285
▁Bowtruckle	-11.6285
▁vegetable	-11.6285
▁celebration	-11.6286
▁boulder	-11.6291
▁waft	-11.6293
▁chunk	-11.6294
▁grindylow	-11.6294
▁instrument	-11.6295
▁enchantment	-11.6296
▁Burke	-11.6298
▁blanket	-11.6302
▁neighbor	-11.6305
▁ruin	-11.6305
▁greeting	-11.6314
▁freak	-11.6326
▁pod	-11.6339
▁lifts	-11.6384
▁interrupt	-11.6394
▁flutter	-11.6397
▁glint	-11.6397
▁drown	-11.6398
▁improve	-11.6399
▁squeeze	-11.6399
▁prepare	-11.6399
▁Yeah	-11.6401
▁include	-11.6401
▁conjure	-11.6401
▁tomb	-11.6403
▁drain	-11.6404
▁ON	-11.6408
▁cap	-11.6408
▁confess	-11.641
▁escort	-11.641
▁retort	-11.6411
▁filth	-11.6414
▁swift	-11.6417
▁elder	-11.6417
▁weakness	-11.6419
▁birth	-11.642
▁FROM	-11.642
▁Hangleton	-11.642
▁Mostafa	-11.642
▁Pucey	-11.642
▁Resurrection	-11.642
▁Statute	-11.642
▁Wheezes	-11.642
▁Yule	-11.642
▁alternative	-11.642
▁anxiety	-11.642
▁audible	-11.642
▁choosing	-11.642
▁frustrated	-11.642
▁grumpy	-11.642
▁minuscule	-11.642
▁plinth	-11.642
▁unmistakable	-11.642
▁volunteer	-11.642
▁Gurg	-11.642
▁Regulation	-11.642
▁slithered	-11.642
▁Crumple	-11.642
▁resentment	-11.642
▁vibrating	-11.642
▁Diggle	-11.642
▁Memory	-11.642
▁Terry	-11.642
▁celebrating	-11.642
▁commotion	-11.642
▁knelt	-11.642
▁aloft	-11.642
▁wreckage	-11.642
▁unwrapped	-11.642
Horned	-11.642
▁choking	-11.642
▁loyal	-11.642
▁performance	-11.642
▁clump	-11.642
▁gracefully	-11.6421
▁unnoticed	-11.6421
▁imprisoned	-11.6421
▁digging	-11.6421
▁inspection	-11.6421
▁brandished	-11.6421
▁purring	-11.6421
▁prowled	-11.6421
▁woolly	-11.6421
▁Mason	-11.6421
▁unlocked	-11.6421
▁tension	-11.6421
▁chatting	-11.6421
▁racket	-11.6421
▁Inquisitorial	-11.6421
▁musical	-11.6421
▁uproar	-11.6422
▁craning	-11.6422
▁countryside	-11.6422
▁skies	-11.6422
▁swapped	-11.6422
▁remotely	-11.6422
▁timidly	-11.6422
▁squid	-11.6422
Riddikulus	-11.6422
▁indifferently	-11.6422
▁maliciously	-11.6422
▁humming	-11.6422
▁sunny	-11.6422
▁escaping	-11.6422
▁twittering	-11.6423
▁pierced	-11.6423
▁fitted	-11.6423
▁menacingly	-11.6423
▁centre	-11.6423
▁summat	-11.6423
tinies	-11.6423
▁slam	-11.6424
▁anguished	-11.6424
▁prominent	-11.6424
▁glistening	-11.6424
▁tucking	-11.6424
Knew	-11.6424
▁darkened	-11.6424
▁chorus	-11.6425
▁fondly	-11.6425
▁somethin	-11.6425
▁sniggering	-11.6425
▁ominously	-11.6426
▁comfortably	-11.6426
▁poring	-11.6426
▁melted	-11.6426
▁confidently	-11.6426
▁retreating	-11.6426
▁pound	-11.6427
▁quivered	-11.6427
▁clawed	-11.6427
▁puffed	-11.6428
▁fox	-11.6428
Oi	-11.6428
▁threateningly	-11.6429
▁dish	-11.6429
▁Standing	-11.6429
high	-11.6429
▁extracted	-11.6429
▁retorted	-11.643
▁male	-11.6431
▁registered	-11.6431
▁reared	-11.6432
▁obeyed	-11.6432
▁loyalty	-11.6433
▁diversion	-11.6433
▁century	-11.6433
▁drenched	-11.6433
▁Albania	-11.6433
▁Gellert	-11.6433
▁Runcorn	-11.6433
▁Petrified	-11.6433
▁splattered	-11.6433
▁Gabrielle	-11.6433
▁longingly	-11.6435
▁appointed	-11.6436
▁governors	-11.6436
▁zat	-11.6436
▁Snare	-11.6436
▁access	-11.6438
▁education	-11.6439
▁statement	-11.6439
▁collected	-11.644
▁searing	-11.644
▁confided	-11.6441
▁improved	-11.6442
▁determinedly	-11.6445
▁firing	-11.6445
▁dwelling	-11.6445
▁sodden	-11.6446
▁treating	-11.6447
▁wrought	-11.6449
▁Alecto	-11.6449
▁hag	-11.6449
▁Podmore	-11.6449
▁poisoned	-11.6451
▁powerfully	-11.6452
▁intending	-11.6455
▁humor	-11.6455
▁tracked	-11.6455
▁bandages	-11.6457
▁quicker	-11.6458
▁Witch	-11.6458
▁guessing	-11.6458
Up	-11.6462
▁sporting	-11.6462
▁importantly	-11.6463
▁piped	-11.6464
▁im	-11.6469
▁suggesting	-11.647
▁liar	-11.647
▁freely	-11.6472
▁vein	-11.6477
▁occur	-11.6485
▁hunting	-11.6489
▁tottering	-11.649
▁photos	-11.6493
▁safer	-11.6493
▁facedown	-11.6494
▁Snap	-11.6496
▁awaiting	-11.6496
▁locate	-11.6503
▁Avery	-11.6504
▁Quill	-11.6505
▁patched	-11.6505
▁Skrewts	-11.6506
▁massag	-11.6513
▁claws	-11.6516
▁shawls	-11.6516
▁predictions	-11.6517
▁eighteen	-11.6524
▁ye	-11.6529
▁conversations	-11.6538
▁neighbors	-11.654
▁doubled	-11.6554
▁mostly	-11.6558
▁mugs	-11.6559
▁dial	-11.6565
▁Impediment	-11.6567
▁Sometimes	-11.6567
▁Last	-11.6569
▁shelter	-11.6581
▁uttered	-11.6601
▁jabb	-11.6623
▁behave	-11.6631
▁alley	-11.6637
▁survives	-11.6643
▁slice	-11.6661
▁Fi	-11.6663
skin	-11.6685
Too	-11.6688
did	-11.6699
▁muster	-11.6703
▁..	-11.6705
▁Curses	-11.6713
▁revive	-11.672
nfortunately	-11.6724
lessly	-11.6726
▁occasions	-11.6726
▁cork	-11.6729
▁emptying	-11.6767
▁repel	-11.6774
▁toes	-11.6786
aid	-11.6787
▁Lestranges	-11.68
Say	-11.6803
over	-11.6803
▁Jinx	-11.682
▁WE	-11.6828
rotting	-11.6859
▁per	-11.6859
▁expel	-11.6875
▁graves	-11.6883
▁reread	-11.6889
sh	-11.6913
▁prod	-11.6916
k	-11.6938
▁murders	-11.6944
Lord	-11.6949
Gone	-11.6954
right	-11.6955
our	-11.6969
▁messages	-11.697
▁Thought	-11.6972
▁din	-11.6976
▁De	-11.698
▁effects	-11.6981
making	-11.6985
oh	-11.6987
ver	-11.6988
smelling	-11.6991
▁mock	-11.6994
Precisely	-11.6997
▁circles	-11.7
gold	-11.7007
Peeves	-11.7012
Were	-11.7013
Griphook	-11.7016
Mundungus	-11.7017
Brilliant	-11.7027
Imagine	-11.7028
▁nest	-11.7031
However	-11.7038
Naturally	-11.704
▁appears	-11.7048
▁colors	-11.707
▁leads	-11.7071
▁strip	-11.7071
Whatever	-11.7076
▁sport	-11.7086
▁heir	-11.7094
▁tangle	-11.7095
▁rate	-11.7096
▁wheel	-11.7098
▁uniform	-11.7103
co	-11.7113
▁stab	-11.7117
▁Karkus	-11.7117
▁mask	-11.7119
▁belief	-11.7119
tle	-11.7123
▁crown	-11.7126
▁defense	-11.7128
nosed	-11.7129
▁sacrifice	-11.7134
▁slug	-11.7135
▁platforms	-11.714
▁leader	-11.7142
te	-11.7147
▁deaf	-11.7147
▁breaths	-11.7148
▁Blimey	-11.7149
▁Peverell	-11.7154
▁oil	-11.7158
▁flower	-11.7163
▁town	-11.7187
cy	-11.7193
--`	-11.7194
▁kn	-11.7195
▁claw	-11.7215
▁shiver	-11.7221
▁fuss	-11.7222
▁park	-11.7224
▁reappear	-11.723
▁extract	-11.723
▁confide	-11.723
▁smirk	-11.723
▁trail	-11.7232
▁frown	-11.7232
▁Too	-11.7232
▁grimace	-11.7232
▁twitch	-11.7232
▁huddle	-11.7232
▁issue	-11.7232
▁reverse	-11.7233
▁stall	-11.7233
▁flood	-11.7235
▁shift	-11.7236
▁trickle	-11.7238
▁direct	-11.7238
▁accompany	-11.724
▁wreck	-11.7243
▁transport	-11.7243
▁copper	-11.7244
▁confirm	-11.7246
▁explode	-11.7247
▁advise	-11.7247
▁sickening	-11.725
▁menacing	-11.725
▁lure	-11.725
▁wisp	-11.725
▁apparent	-11.725
▁gleeful	-11.725
▁shrewd	-11.725
▁`...	-11.7251
▁fearful	-11.7252
▁addition	-11.7253
▁vomit	-11.7253
▁horizon	-11.7253
▁miracle	-11.7253
▁penalty	-11.7253
Definitely	-11.7253
▁Edgecombe	-11.7253
▁February	-11.7253
▁Oracle	-11.7253
▁blimey	-11.7253
▁napkin	-11.7253
▁occupied	-11.7253
▁relationship	-11.7253
▁sympathy	-11.7253
▁variety	-11.7253
▁victory	-11.7253
▁̈¦	-11.7253
▁embroider	-11.7253
▁sunshine	-11.7253
▁Tofty	-11.7253
▁copied	-11.7253
▁shrank	-11.7253
▁scrambling	-11.7253
▁lousy	-11.7253
▁pallid	-11.7253
▁pursuing	-11.7253
▁Weekly	-11.7253
▁Harper	-11.7253
▁groping	-11.7253
▁bidding	-11.7253
▁Life	-11.7254
▁Totalu	-11.7254
▁assistance	-11.7254
▁jagged	-11.7254
▁emitting	-11.7254
▁thunderstruck	-11.7254
▁annoyance	-11.7254
▁example	-11.7254
▁Beans	-11.7254
▁nastily	-11.7254
▁gonna	-11.7254
▁Vane	-11.7254
▁gentlemen	-11.7254
▁considerably	-11.7254
▁generous	-11.7254
▁WAS	-11.7254
▁Section	-11.7254
▁assembled	-11.7254
▁mystery	-11.7254
▁junk	-11.7254
▁incredibly	-11.7254
▁cramped	-11.7254
Enough	-11.7254
▁immersed	-11.7254
▁appreciatively	-11.7254
▁agreement	-11.7254
▁jeered	-11.7254
▁sulky	-11.7254
▁scattering	-11.7254
▁barrel	-11.7254
▁revision	-11.7254
▁babble	-11.7254
▁solemnly	-11.7254
▁increasing	-11.7254
▁scathingly	-11.7255
▁deciding	-11.7255
▁skulking	-11.7255
▁jealous	-11.7256
▁flipped	-11.7256
▁angrier	-11.7256
▁unrolled	-11.7256
▁pelting	-11.7256
▁steered	-11.7256
▁wrinkled	-11.7256
▁clinking	-11.7256
▁cluttered	-11.7257
▁parties	-11.7257
▁worthless	-11.7257
▁K	-11.7257
▁leering	-11.7257
▁hunched	-11.7257
▁swarm	-11.7257
▁straightaway	-11.7257
▁despise	-11.7258
▁madness	-11.7258
▁buckled	-11.7259
▁amusement	-11.7259
▁sagging	-11.7259
▁leaking	-11.7259
▁loomed	-11.7259
▁significant	-11.726
▁fumes	-11.726
▁whimpered	-11.726
▁prodd	-11.7261
▁rooted	-11.7261
▁flowery	-11.7261
▁vertical	-11.7261
▁court	-11.7261
▁embarrassing	-11.7261
▁yelped	-11.7262
▁regularly	-11.7262
▁hopped	-11.7262
▁skip	-11.7262
▁bravery	-11.7263
▁trailed	-11.7263
▁confiscated	-11.7264
▁glinted	-11.7264
▁reacted	-11.7264
▁sensible	-11.7265
▁summoned	-11.7265
▁tethered	-11.7265
▁sip	-11.7265
▁brandy	-11.7265
▁beady	-11.7266
▁squeaky	-11.7266
▁dramatic	-11.7267
▁suppressed	-11.7267
▁applied	-11.7267
▁Salazar	-11.7267
▁quality	-11.7267
▁Twycross	-11.7267
▁Bulstrode	-11.7267
▁furry	-11.7268
▁clap	-11.7268
ping	-11.7269
▁nighttime	-11.7269
▁Sybill	-11.7269
▁Somehow	-11.7269
▁bump	-11.7269
▁grunting	-11.727
Its	-11.7271
▁abroad	-11.7271
▁stacked	-11.7272
▁stout	-11.7273
▁accusing	-11.7275
▁squeaking	-11.7277
▁selling	-11.7278
▁unwise	-11.7279
▁thumb	-11.7279
▁fixing	-11.728
▁cloudy	-11.7281
▁tentacles	-11.7282
▁drowning	-11.7282
▁minor	-11.7283
▁knocker	-11.7284
▁KNOW	-11.7285
▁Twice	-11.7285
▁Alastor	-11.7285
▁Dung	-11.7286
▁spying	-11.7287
▁comforting	-11.7289
▁severed	-11.7289
▁cure	-11.7294
▁thrusting	-11.7295
ack	-11.7295
▁Snatchers	-11.7296
▁alarming	-11.7297
▁rescued	-11.73
▁pillars	-11.7303
▁planets	-11.731
▁performing	-11.731
▁nothin	-11.7314
▁dreamy	-11.7317
▁Help	-11.7319
ricket	-11.7319
▁Patronuses	-11.7319
▁guarded	-11.7325
▁boils	-11.7326
ities	-11.7332
day	-11.7333
▁limbs	-11.7334
▁pointedly	-11.7336
▁material	-11.7337
though	-11.7338
▁disguised	-11.7339
▁stricken	-11.734
▁meal	-11.7348
▁methods	-11.7348
▁paws	-11.735
▁Students	-11.7359
▁mastered	-11.7367
▁markings	-11.7369
▁stained	-11.7369
▁nails	-11.737
▁numbers	-11.737
▁Somebody	-11.7377
▁belly	-11.7385
▁AN	-11.739
▁sang	-11.7391
▁grindylows	-11.7392
el	-11.7398
▁fasten	-11.74
▁drunk	-11.7415
tempered	-11.7421
▁suspicions	-11.7422
▁loop	-11.743
▁Silence	-11.7438
▁hearty	-11.7451
▁lighter	-11.7469
▁antidotes	-11.7472
▁bridge	-11.7478
▁rags	-11.7479
▁afterwards	-11.7494
used	-11.7509
▁eyed	-11.7515
▁Stun	-11.7525
▁cope	-11.7532
▁badger	-11.7533
▁exercise	-11.7539
▁symbols	-11.7546
▁pulse	-11.7547
▁exists	-11.7549
▁4	-11.7565
▁pu	-11.7567
▁whispers	-11.7574
▁guardian	-11.7582
▁washed	-11.7613
▁washing	-11.7636
turned	-11.7638
▁tore	-11.7648
▁Must	-11.7654
▁serpents	-11.7656
OUR	-11.7688
George	-11.7727
surprisingly	-11.7729
▁excuses	-11.7741
Make	-11.7751
▁pat	-11.7766
▁tests	-11.7773
Ministry	-11.7774
▁hates	-11.7777
Death	-11.7788
▁holes	-11.7795
▁Is	-11.7802
urried	-11.7821
giant	-11.7827
Quidditch	-11.7829
▁mutter	-11.7829
Tha	-11.7838
▁newspapers	-11.7842
et	-11.7858
5	-11.7865
Petunia	-11.7874
▁Char	-11.7874
Riddle	-11.7874
▁Gold	-11.7884
▁topped	-11.7885
▁mop	-11.7888
struck	-11.7897
▁armed	-11.7902
Looks	-11.7906
shirt	-11.7912
Cheer	-11.7913
Scrimgeour	-11.7919
—`	-11.7919
Crucio	-11.7919
▁basic	-11.7923
House	-11.7924
▁Wonder	-11.7928
blond	-11.7931
▁assist	-11.794
Qu	-11.7943
Level	-11.7948
Apparently	-11.795
Everything	-11.7952
While	-11.7952
▁roars	-11.7956
▁wha	-11.7958
ingly	-11.7961
▁collapse	-11.7967
▁Leav	-11.7976
ap	-11.7976
▁passages	-11.7979
▁pump	-11.7984
▁bury	-11.7992
▁claim	-11.7995
▁virtu	-11.7997
▁towel	-11.8001
▁Y	-11.8004
▁crunch	-11.8009
▁briefcase	-11.8011
▁puff	-11.8014
▁Owl	-11.8022
▁motorcycle	-11.8022
backed	-11.8023
▁autograph	-11.8027
▁Cleansweep	-11.8027
▁Grade	-11.8028
▁leaflet	-11.8028
▁adult	-11.8032
▁disappearance	-11.8034
ning	-11.8035
▁neighbour	-11.8036
▁stride	-11.804
▁jobs	-11.8045
▁twig	-11.8047
Watch	-11.8049
▁mistakes	-11.8076
▁fang	-11.8081
▁meat	-11.8088
▁sub	-11.8095
▁Reg	-11.8096
▁hip	-11.8097
breeds	-11.8104
▁mile	-11.8106
▁youth	-11.8111
▁marking	-11.8114
▁Al	-11.8121
▁standard	-11.8122
▁glances	-11.8123
▁bun	-11.8124
▁hind	-11.8126
▁pal	-11.8126
▁scratch	-11.8126
▁challenge	-11.8127
▁march	-11.8127
▁cloth	-11.8135
▁relax	-11.8138
▁abandon	-11.8139
▁thrill	-11.8139
▁scowl	-11.8139
▁twist	-11.814
▁rustle	-11.8141
▁provide	-11.8141
▁tremble	-11.8143
▁spill	-11.8147
▁growl	-11.8148
▁shrink	-11.8149
▁buzz	-11.8149
▁blaze	-11.8149
▁recognise	-11.8152
▁gleam	-11.8152
▁orb	-11.8153
▁teenage	-11.8154
▁frost	-11.8155
▁modest	-11.8159
▁diff	-11.8159
▁peaceful	-11.8159
▁reluctant	-11.8159
▁headmistress	-11.8161
▁fruit	-11.8162
▁superior	-11.8162
▁Celestina	-11.8162
▁Elixir	-11.8162
▁Olympe	-11.8162
▁Sensor	-11.8162
▁bullfrog	-11.8162
▁derisive	-11.8162
▁emblazoned	-11.8162
▁furniture	-11.8162
▁genuine	-11.8162
▁skeletal	-11.8162
▁vulture	-11.8162
▁Flavor	-11.8162
▁Kwikspell	-11.8162
▁Marcus	-11.8162
▁admiration	-11.8162
▁crocodile	-11.8162
▁affronted	-11.8163
▁disapproval	-11.8163
▁pinstriped	-11.8163
▁Solution	-11.8163
▁forefinger	-11.8163
▁interjected	-11.8163
▁awestruck	-11.8163
▁guarantee	-11.8163
▁valley	-11.8163
▁absentmindedly	-11.8163
▁assortment	-11.8163
▁genius	-11.8163
▁priority	-11.8163
▁renewed	-11.8163
▁apologetically	-11.8163
▁identity	-11.8163
▁flailing	-11.8163
▁Jones	-11.8163
▁flitted	-11.8163
▁Club	-11.8163
▁Suddenly	-11.8163
▁essence	-11.8163
▁pillowcase	-11.8163
▁wincing	-11.8163
Cool	-11.8163
Absolutely	-11.8163
▁Sisters	-11.8163
▁cunning	-11.8163
▁resolutely	-11.8163
▁obsession	-11.8163
▁million	-11.8163
▁Underage	-11.8163
▁mistletoe	-11.8163
▁firewhisky	-11.8163
▁observing	-11.8163
▁phrase	-11.8163
▁wheezing	-11.8163
Protego	-11.8163
▁tinkling	-11.8163
▁dodging	-11.8163
▁additional	-11.8163
▁blurted	-11.8163
▁unblinkingly	-11.8163
▁affection	-11.8163
▁supply	-11.8163
▁budge	-11.8164
▁clung	-11.8164
▁battling	-11.8164
▁apron	-11.8164
▁comprised	-11.8164
▁ranks	-11.8164
▁whipping	-11.8164
▁subsided	-11.8164
▁encouragingly	-11.8164
▁stung	-11.8164
▁riot	-11.8165
▁grayish	-11.8165
V	-11.8165
▁flinched	-11.8165
▁exposed	-11.8165
▁retired	-11.8165
▁truthfully	-11.8165
▁conductor	-11.8165
▁dipped	-11.8165
▁snooz	-11.8166
▁headmistresses	-11.8166
▁shaky	-11.8166
▁staffroom	-11.8166
▁elderly	-11.8166
▁MY	-11.8166
▁toadlike	-11.8166
▁sprouted	-11.8167
▁inviting	-11.8167
▁overcoat	-11.8167
Calm	-11.8168
▁ignited	-11.8168
▁tripping	-11.8168
COME	-11.8168
▁coward	-11.8168
▁admiring	-11.8169
▁drawling	-11.8169
▁slashed	-11.8169
▁jam	-11.8169
▁triumphantly	-11.8169
▁harshly	-11.817
clad	-11.817
▁stifled	-11.817
▁Perkins	-11.817
▁observed	-11.8172
▁airily	-11.8173
▁swirled	-11.8174
▁smashing	-11.8174
▁squealing	-11.8176
▁hovered	-11.8176
▁puffing	-11.8176
▁burden	-11.8176
▁zero	-11.8176
▁bellowing	-11.8176
▁tragic	-11.8177
▁splashing	-11.8177
▁sympathetic	-11.8177
▁activity	-11.8177
▁Prongs	-11.8177
▁Peakes	-11.8177
▁behaviour	-11.8177
▁Snuffles	-11.8177
▁knobbly	-11.8178
▁THIS	-11.8178
▁reappearing	-11.8178
▁Things	-11.818
▁Cannons	-11.8182
▁developed	-11.8182
▁fingernails	-11.8182
▁league	-11.8182
▁Boot	-11.8183
▁created	-11.8183
▁delightedly	-11.8184
▁coughed	-11.8185
▁endless	-11.8186
▁throng	-11.8187
▁trainers	-11.8187
▁lifetime	-11.8188
▁healed	-11.8188
▁gifted	-11.8188
▁chew	-11.8189
▁strangest	-11.8189
▁goodbye	-11.8191
▁affected	-11.8191
▁manager	-11.8191
▁sickly	-11.8191
▁relish	-11.8192
▁patiently	-11.8192
▁vain	-11.8193
▁flaw	-11.8193
▁tricky	-11.8193
▁pixies	-11.8194
▁streetlamps	-11.8194
▁coughing	-11.8195
▁moaning	-11.8197
▁stroked	-11.8197
▁Evans	-11.8197
▁latest	-11.8198
▁flicking	-11.8198
▁solution	-11.8199
▁leak	-11.8199
▁matches	-11.82
man	-11.8201
▁failing	-11.8202
▁bless	-11.8202
▁witnesses	-11.8203
▁li	-11.8205
▁dresser	-11.8208
▁steaming	-11.8208
▁stove	-11.821
▁meself	-11.821
▁tensely	-11.821
▁messed	-11.8211
▁resisting	-11.8211
▁tasted	-11.8213
▁introduced	-11.8214
▁sucking	-11.8214
▁repeatedly	-11.8217
▁Dangerous	-11.8217
▁rocky	-11.8218
▁react	-11.8221
▁cores	-11.8222
▁cleaned	-11.8224
▁assuming	-11.8225
▁Turn	-11.8226
▁testing	-11.823
▁GO	-11.8234
▁jumble	-11.8238
▁qualified	-11.8238
▁halted	-11.8238
▁concentrated	-11.8239
▁arrows	-11.8242
▁Mother	-11.8244
▁fired	-11.8244
▁Third	-11.8257
▁Mandrakes	-11.8257
▁grouped	-11.8271
gone	-11.8272
▁rapt	-11.8273
▁twinge	-11.8273
▁snores	-11.8273
▁trusting	-11.828
▁backside	-11.828
▁sherry	-11.8285
▁'1	-11.8285
▁Close	-11.8307
▁sunli	-11.8308
▁Big	-11.8324
▁shocking	-11.8326
▁tryin	-11.8327
▁raining	-11.8329
▁traitors	-11.8333
▁tide	-11.8344
come	-11.8348
▁Fo	-11.8354
▁sour	-11.8362
▁Told	-11.8368
▁resolve	-11.8375
▁beasts	-11.8384
▁hearth	-11.8394
▁ga	-11.8401
▁bead	-11.8408
▁bust	-11.8415
lly	-11.8432
▁guide	-11.8443
▁.....	-11.846
Nor	-11.8472
▁rounding	-11.848
▁tails	-11.8481
▁gin	-11.8483
▁WHO	-11.8485
aking	-11.8486
▁contradict	-11.8489
▁awed	-11.85
▁lad	-11.8501
▁pa	-11.8503
▁chickens	-11.8507
▁dogs	-11.8524
▁taps	-11.8525
have	-11.854
▁Accio	-11.8582
▁changes	-11.86
iest	-11.8601
▁y	-11.8623
▁sur	-11.8641
▁writhe	-11.8643
DON	-11.8644
▁scare	-11.8646
ball	-11.8662
▁streets	-11.8714
▁ours	-11.872
▁stomp	-11.8721
▁gran	-11.8736
half	-11.8737
▁ah	-11.8763
▁amounts	-11.8777
Open	-11.8781
ped	-11.8798
▁tooth	-11.8807
hood	-11.8813
Second	-11.8827
▁splash	-11.8832
▁limit	-11.8834
▁wobble	-11.8836
Bad	-11.8867
yeh	-11.8867
▁earn	-11.8869
▁lighting	-11.8877
▁interpret	-11.8878
Hedwig	-11.8896
Wormtail	-11.8896
WEASLEY	-11.8906
Mind	-11.8908
Rita	-11.8916
Poor	-11.8917
grown	-11.8917
Ollivander	-11.8924
▁sets	-11.8924
▁pin	-11.893
`?'	-11.8935
▁Which	-11.8935
gray	-11.8938
six	-11.8939
Unless	-11.895
Silence	-11.895
Merlin	-11.8952
known	-11.8954
▁proceed	-11.8957
OUT	-11.8959
▁contain	-11.8963
▁curl	-11.898
▁waves	-11.8981
▁loves	-11.8981
age	-11.8984
▁squeal	-11.8989
otes	-11.8991
▁yelp	-11.8994
7	-11.9005
▁games	-11.901
▁Draught	-11.9011
▁squares	-11.9019
▁disagree	-11.9022
▁rooster	-11.9022
▁target	-11.9023
posed	-11.9023
▁bullet	-11.9023
▁snore	-11.9027
▁imitation	-11.9027
▁Snorkack	-11.903
▁courtroom	-11.903
▁Monster	-11.9032
▁maniac	-11.9033
▁cubicle	-11.9033
▁parent	-11.9033
▁prediction	-11.9037
▁shawl	-11.9037
▁reporter	-11.9044
▁swim	-11.9047
▁sphere	-11.9047
ST	-11.9048
▁pupil	-11.9069
▁jokes	-11.9071
▁visitor	-11.9073
bounds	-11.9089
▁thoughtful	-11.909
▁limb	-11.9092
hat	-11.9096
▁Try	-11.9096
▁glove	-11.9105
▁weed	-11.911
▁swish	-11.9111
▁recover	-11.9131
▁elaborate	-11.9135
▁blunder	-11.9138
▁swallow	-11.9138
▁swirl	-11.9139
▁bond	-11.9141
▁celebrate	-11.9141
▁emerge	-11.9141
▁cackle	-11.9142
▁strangle	-11.9142
Bit	-11.9145
▁root	-11.9146
▁killer	-11.9147
▁blackmail	-11.9148
▁resume	-11.9148
▁employ	-11.9149
▁chatter	-11.9151
▁zoo	-11.9151
▁beckon	-11.9153
▁contract	-11.9153
▁rub	-11.9154
▁reckless	-11.9158
▁furtive	-11.9159
▁gracious	-11.9159
▁absurd	-11.9159
▁contemptuous	-11.9159
▁absolute	-11.9159
▁slack	-11.9159
ice	-11.916
▁gloating	-11.916
Reparo	-11.9162
Petrificus	-11.9162
▁Chudley	-11.9162
▁Cottage	-11.9162
▁Future	-11.9162
▁Injuries	-11.9162
▁Parselmouth	-11.9162
▁Poltergeist	-11.9162
▁Remembrall	-11.9162
▁STINKS	-11.9162
▁character	-11.9162
▁computer	-11.9162
▁culprit	-11.9162
▁disembodied	-11.9162
▁expulsion	-11.9162
▁fragile	-11.9162
▁furrowed	-11.9162
▁impatience	-11.9162
▁moleskin	-11.9162
▁pineapple	-11.9162
▁poltergeist	-11.9162
▁refuge	-11.9162
▁splendid	-11.9162
▁substitute	-11.9162
▁temporary	-11.9162
▁tumult	-11.9162
▁turquoise	-11.9162
▁unkempt	-11.9162
▁violence	-11.9162
▁Susan	-11.9162
▁Unforgivable	-11.9162
▁brilliance	-11.9162
▁contempt	-11.9162
▁vacation	-11.9162
▁glazed	-11.9163
▁torturing	-11.9163
▁gillyweed	-11.9163
▁Disposal	-11.9163
▁encouragement	-11.9163
▁probation	-11.9163
▁remarkably	-11.9163
▁trooped	-11.9163
▁WITH	-11.9163
▁wizened	-11.9163
▁ornament	-11.9163
▁waistcoat	-11.9163
▁introduction	-11.9163
▁reference	-11.9163
▁reputation	-11.9163
▁Underground	-11.9163
▁discomfort	-11.9163
▁helmet	-11.9163
▁spindly	-11.9163
▁crumbling	-11.9163
▁noisily	-11.9163
▁anticipation	-11.9163
▁clumsily	-11.9163
▁radio	-11.9163
▁rubies	-11.9163
▁crude	-11.9163
▁unfocused	-11.9163
▁basement	-11.9163
▁exploding	-11.9163
▁mousy	-11.9163
▁skidding	-11.9163
▁wheezed	-11.9163
▁fabulous	-11.9163
▁haughty	-11.9163
▁tennis	-11.9163
▁keeled	-11.9163
▁guffaw	-11.9163
▁route	-11.9163
▁punctuated	-11.9163
▁fudge	-11.9163
▁Snackboxes	-11.9163
▁fortnight	-11.9163
▁deposited	-11.9163
▁shrunken	-11.9163
▁slouched	-11.9163
▁remainder	-11.9163
▁extreme	-11.9163
▁verge	-11.9163
▁Shop	-11.9163
▁frankly	-11.9163
▁dingy	-11.9163
▁peril	-11.9164
▁eventually	-11.9164
▁prowling	-11.9164
▁plunging	-11.9164
▁staggering	-11.9164
▁engraved	-11.9164
▁travelled	-11.9164
▁fancied	-11.9164
▁heatedly	-11.9164
▁intrigued	-11.9164
▁doorbell	-11.9164
▁slapped	-11.9164
▁revolted	-11.9164
▁Bole	-11.9164
▁flanked	-11.9164
▁dismissed	-11.9164
▁soothingly	-11.9164
▁aggressively	-11.9164
▁lemon	-11.9164
▁executioner	-11.9165
▁inspiration	-11.9165
▁scratches	-11.9165
▁twirling	-11.9165
▁snoring	-11.9165
▁flexing	-11.9165
▁Inferius	-11.9165
▁Halfway	-11.9165
▁reassuringly	-11.9165
Point	-11.9166
▁cowardly	-11.9166
▁shriveled	-11.9166
▁cursing	-11.9166
▁rasping	-11.9167
▁carelessly	-11.9167
▁alarmingly	-11.9167
▁absently	-11.9167
▁thinner	-11.9167
Eat	-11.9168
Barely	-11.9168
▁rejoin	-11.9168
ward	-11.9168
▁splintered	-11.9168
▁haunted	-11.9169
▁astounded	-11.9169
arry	-11.9169
▁equally	-11.9169
▁Restricted	-11.9169
▁clanged	-11.917
▁snarling	-11.917
▁extended	-11.917
▁inhabitants	-11.9171
▁wink	-11.9171
▁untied	-11.9171
▁imitated	-11.9172
▁coiling	-11.9172
▁worries	-11.9172
▁gratefully	-11.9172
▁dignified	-11.9172
▁rejoined	-11.9172
▁referee	-11.9173
▁spraying	-11.9174
▁lingering	-11.9174
▁villagers	-11.9174
▁outbreak	-11.9175
▁wolf	-11.9175
▁snatch	-11.9175
▁lord	-11.9175
Joke	-11.9176
her	-11.9176
▁recovered	-11.9176
▁Fenrir	-11.9179
▁Rubeus	-11.9179
▁Hospital	-11.9179
▁Moony	-11.9179
▁OFF	-11.9179
▁glued	-11.918
▁insulted	-11.918
▁sleet	-11.9181
▁banisters	-11.9183
▁celebrated	-11.9184
▁prey	-11.9184
▁brilliantly	-11.9185
▁Dream	-11.9185
▁gravely	-11.9186
▁White	-11.9186
▁provided	-11.9186
▁barking	-11.9186
▁fainter	-11.9188
▁loaded	-11.9188
▁grimaced	-11.9189
▁complained	-11.9189
▁plus	-11.9189
▁grasping	-11.919
▁slippers	-11.919
▁warmer	-11.9191
▁childish	-11.9191
▁balance	-11.9192
Lovely	-11.9192
▁bruised	-11.9193
▁luminous	-11.9194
▁safest	-11.9194
▁divided	-11.9195
▁parts	-11.9197
▁generations	-11.9197
▁slower	-11.9197
▁workers	-11.9198
▁brew	-11.9198
▁sufficient	-11.9199
▁fixedly	-11.9199
▁rumbled	-11.9199
▁Nymphadora	-11.9201
▁DUMBLEDORE	-11.9201
▁extend	-11.9204
▁await	-11.9204
▁gulping	-11.9206
▁captured	-11.9207
▁scarred	-11.9207
▁appreciated	-11.9207
▁sticky	-11.9207
▁products	-11.9208
▁occupants	-11.921
▁betray	-11.9212
line	-11.9213
▁skimm	-11.9213
▁pang	-11.9213
▁tug	-11.9214
▁stationed	-11.9218
▁pants	-11.9219
▁bolted	-11.9221
▁differently	-11.9221
▁KILL	-11.9222
▁Whether	-11.9222
▁Cormac	-11.9222
▁idly	-11.9223
▁Pig	-11.9223
▁kit	-11.9225
your	-11.9225
▁Ch	-11.9226
▁lean	-11.923
▁items	-11.9232
▁attended	-11.9232
▁abandoning	-11.9233
▁partly	-11.9233
▁brighter	-11.9236
▁oncoming	-11.9241
haven	-11.925
▁leprechauns	-11.9251
▁colleagues	-11.9251
▁passes	-11.9255
▁startling	-11.9258
▁ray	-11.9259
▁headless	-11.9262
dore	-11.9263
▁cock	-11.9265
▁Knuts	-11.9266
▁damaged	-11.9267
▁abuse	-11.9269
▁connect	-11.9272
▁cow	-11.9276
▁create	-11.9278
▁inspect	-11.9278
▁rocking	-11.9279
▁spheres	-11.9283
▁Mom	-11.9286
▁unwilling	-11.9316
▁mentioning	-11.9319
▁belch	-11.9324
▁chunks	-11.9331
▁Somewhere	-11.9337
▁crowds	-11.9339
▁framed	-11.9349
▁trials	-11.9355
▁questioned	-11.9371
ompletely	-11.9383
▁poker	-11.9387
▁deserves	-11.939
▁inky	-11.9397
▁bomb	-11.9401
AL	-11.9411
▁strict	-11.9416
▁lain	-11.9422
▁manners	-11.9424
▁images	-11.9427
▁mattered	-11.9432
▁apologize	-11.9444
▁forms	-11.945
▁smuggle	-11.9451
▁careers	-11.9453
▁Mind	-11.9454
-``	-11.9468
▁Green	-11.9492
▁trod	-11.9498
▁visits	-11.9504
▁burnt	-11.9511
more	-11.9516
▁cluster	-11.9535
▁pies	-11.9535
Aha	-11.9553
▁regard	-11.9556
▁outlines	-11.9557
house	-11.9561
▁cases	-11.9564
▁booked	-11.9568
▁Anything	-11.9568
▁examinations	-11.9573
kiving	-11.9574
▁wander	-11.9585
▁nail	-11.9594
▁dots	-11.9596
▁depend	-11.96
▁coats	-11.9603
▁wash	-11.9613
▁hedges	-11.9617
▁-?`	-11.9617
▁weekends	-11.9628
▁spray	-11.964
armed	-11.9659
▁boats	-11.9675
▁plum	-11.9697
▁pumpkins	-11.972
▁sources	-11.972
cross	-11.9721
▁packages	-11.9744
▁burns	-11.9747
▁linger	-11.9762
▁visions	-11.9767
▁spit	-11.9787
Glass	-11.9812
▁hopes	-11.982
oo	-11.9838
▁sisters	-11.9843
cold	-11.9849
▁droppings	-11.986
▁pro	-11.9863
▁laz	-11.9864
);	-11.9875
bounded	-11.9886
▁Guide	-11.9887
▁doze	-11.9894
▁stain	-11.9904
Mudblood	-11.9921
ONS	-11.9938
▁favorites	-11.9944
formed	-11.9948
▁alight	-11.9958
▁Slug	-11.9974
Crabbe	-11.9989
magical	-11.9997
▁boil	-12.0004
Forget	-12.0005
bound	-12.002
bright	-12.002
yeah	-12.0023
▁smash	-12.0023
▁careless	-12.0026
▁pitched	-12.0036
Having	-12.0039
Dementors	-12.0042
Phineas	-12.0045
fourth	-12.0051
telling	-12.0053
aring	-12.0053
knitted	-12.0054
Yaxley	-12.0055
STOP	-12.0057
Minerva	-12.0058
washed	-12.006
Four	-12.006
Father	-12.0061
Sometimes	-12.0061
Impediment	-12.0062
WHAT	-12.0063
Told	-12.0069
ive	-12.007
Last	-12.0075
size	-12.0078
Tom	-12.0083
▁Bit	-12.0085
▁jabbe	-12.0098
Bin	-12.0098
▁po	-12.0111
▁incident	-12.0116
▁crisp	-12.0116
▁dwell	-12.0117
▁needing	-12.0119
▁turkey	-12.0123
some	-12.0128
▁acid	-12.0128
▁thestral	-12.0132
▁shamrock	-12.0132
▁column	-12.0132
▁noticeboard	-12.0133
Off	-12.0134
▁hiccup	-12.0136
▁wrapper	-12.0136
▁Hippogriff	-12.0138
▁volume	-12.0139
▁textbook	-12.0141
▁criminal	-12.0141
▁patrol	-12.0141
▁floorboard	-12.0143
▁vase	-12.0143
▁niffler	-12.0144
▁eyebrow	-12.0146
▁hostage	-12.0147
▁method	-12.0147
▁guest	-12.0153
▁firework	-12.0157
▁mirth	-12.0157
▁Doxy	-12.0162
▁session	-12.0164
▁Hallow	-12.0174
▁ban	-12.0177
▁speck	-12.019
▁Age	-12.0195
footed	-12.0199
▁screen	-12.0201
▁pattern	-12.0204
▁Goblin	-12.0211
▁grade	-12.0226
ries	-12.0233
Hand	-12.0234
gs	-12.0235
▁Wait	-12.024
▁pen	-12.024
air	-12.0248
▁crawl	-12.025
▁drift	-12.025
▁quiver	-12.0251
▁yawn	-12.0251
▁approve	-12.0252
▁rattle	-12.0257
▁nurse	-12.0258
▁flourish	-12.0259
▁sweep	-12.026
▁divide	-12.0262
▁arrange	-12.0263
▁erupt	-12.0263
▁enthusiastic	-12.0264
▁delay	-12.0265
▁torch	-12.0266
▁spine	-12.0266
▁disarm	-12.0267
▁Mons	-12.0268
▁accurate	-12.027
▁reproachful	-12.027
▁malicious	-12.027
▁current	-12.027
▁reassuring	-12.0271
▁brisk	-12.0271
▁refer	-12.0272
▁stitch	-12.0272
▁Bulgaria	-12.0273
Correct	-12.0274
▁PATRONU	-12.0274
▁boundaries	-12.0274
▁megaphone	-12.0274
Exceeds	-12.0274
▁Basilisk	-12.0274
▁Expectations	-12.0274
▁Filibuster	-12.0274
▁Gobstones	-12.0274
▁Improper	-12.0274
▁Mullet	-12.0274
▁Patrick	-12.0274
▁Romania	-12.0274
▁Sinistra	-12.0274
▁Sorcery	-12.0274
▁champagne	-12.0274
▁chortled	-12.0274
▁combination	-12.0274
▁comprehension	-12.0274
▁debris	-12.0274
▁dignity	-12.0274
▁disconcerted	-12.0274
▁entitled	-12.0274
▁grapefruit	-12.0274
▁gruesome	-12.0274
▁impulse	-12.0274
▁mismatched	-12.0274
▁mundane	-12.0274
▁navel	-12.0274
▁oblivious	-12.0274
▁soccer	-12.0274
▁solitary	-12.0274
▁surreptitiously	-12.0274
▁traffic	-12.0274
▁unnerved	-12.0274
▁vicinity	-12.0274
▁lenses	-12.0274
▁qualities	-12.0274
▁trudged	-12.0274
▁displeasure	-12.0274
▁profile	-12.0274
▁Maintenance	-12.0274
▁Maladies	-12.0274
▁unnecessary	-12.0274
▁beauty	-12.0274
▁siphon	-12.0274
▁lilac	-12.0274
▁studied	-12.0274
▁navy	-12.0274
▁chalk	-12.0274
▁index	-12.0274
▁properties	-12.0274
▁regime	-12.0274
▁ownership	-12.0274
▁resignation	-12.0274
▁unique	-12.0274
▁clammy	-12.0274
▁knitting	-12.0274
▁obediently	-12.0274
▁imploringly	-12.0274
▁tersely	-12.0274
▁corpse	-12.0274
▁impenetrable	-12.0274
▁chipped	-12.0274
▁altogether	-12.0274
▁exhaustion	-12.0274
▁sympathetically	-12.0274
▁rotten	-12.0274
▁opportunities	-12.0274
▁resistance	-12.0274
▁quantit	-12.0274
▁suitcase	-12.0274
▁twilight	-12.0274
▁ushered	-12.0274
▁avidly	-12.0274
▁confession	-12.0274
▁naked	-12.0274
▁receiving	-12.0274
▁concealment	-12.0274
▁Lived	-12.0274
▁applauded	-12.0274
Reckon	-12.0274
▁communicating	-12.0274
▁welcoming	-12.0274
▁stumbling	-12.0275
▁murderous	-12.0275
▁Disapparating	-12.0275
▁sunset	-12.0275
▁testily	-12.0275
▁clasp	-12.0275
▁slanting	-12.0275
▁treatment	-12.0275
▁Body	-12.0275
▁glossy	-12.0275
▁deduced	-12.0275
▁stinking	-12.0275
▁blustered	-12.0275
▁granted	-12.0275
▁vacant	-12.0275
▁lolling	-12.0275
▁haircut	-12.0275
▁smoky	-12.0276
▁plot	-12.0276
▁predicted	-12.0276
▁malevolently	-12.0276
▁wriggling	-12.0276
▁gagged	-12.0276
▁mangled	-12.0276
▁lurked	-12.0276
▁swiveled	-12.0276
▁nicked	-12.0276
▁absorbed	-12.0277
▁engulfed	-12.0277
▁weighed	-12.0277
▁sparkled	-12.0277
▁wordlessly	-12.0277
▁scrawled	-12.0277
▁blushed	-12.0277
▁bargain	-12.0277
▁pulsing	-12.0277
▁backfired	-12.0278
▁hammered	-12.0278
▁Antho	-12.0278
▁Disarming	-12.0278
▁sidled	-12.0278
▁leered	-12.0278
▁weighing	-12.0278
▁Tears	-12.0278
▁faltered	-12.0278
▁shrewdly	-12.0278
▁expanded	-12.0278
▁stowing	-12.0278
▁scrabbl	-12.0278
▁detached	-12.0279
▁shack	-12.0279
▁stony	-12.0279
▁restlessly	-12.0279
▁deflected	-12.0279
▁watchful	-12.0279
▁crest	-12.028
▁wringing	-12.028
▁disdainful	-12.028
▁restore	-12.028
▁clambering	-12.028
▁fearfully	-12.028
▁Barry	-12.028
▁impress	-12.028
▁spiked	-12.028
▁fighters	-12.0281
▁ladies	-12.0281
▁downfall	-12.0281
▁drills	-12.0281
▁tactics	-12.0282
▁viciously	-12.0282
▁withdrawing	-12.0282
▁armful	-12.0282
▁Line	-12.0282
▁recovery	-12.0282
▁takin	-12.0282
▁clasped	-12.0282
▁intervals	-12.0283
▁nagging	-12.0283
▁wriggled	-12.0283
▁sheaf	-12.0283
▁leaf	-12.0283
▁surly	-12.0283
▁reasonable	-12.0284
▁pursed	-12.0284
▁falsely	-12.0284
▁subdued	-12.0285
▁wisely	-12.0286
▁awarded	-12.0287
▁reassured	-12.0288
▁crawling	-12.0288
6	-12.0289
▁receiver	-12.0289
▁retching	-12.0289
▁bewitching	-12.029
▁guts	-12.029
▁crunching	-12.029
▁prickled	-12.029
▁eldest	-12.029
▁singed	-12.029
▁='	-12.029
▁convincing	-12.0291
▁Coote	-12.0291
▁ABOUT	-12.0291
▁crazy	-12.0291
▁referring	-12.0291
▁Ignotus	-12.0291
▁Fortescue	-12.0292
▁Unfogging	-12.0292
▁Panting	-12.0292
▁BACK	-12.0292
▁Disillusionment	-12.0292
▁secondhand	-12.0292
▁splashed	-12.0292
▁accompanying	-12.0292
▁fascinated	-12.0293
▁descent	-12.0293
▁pursued	-12.0293
upport	-12.0294
▁flock	-12.0294
▁attracted	-12.0295
▁sputtered	-12.0296
▁apply	-12.0296
▁headquarters	-12.0297
▁caf	-12.0297
▁onward	-12.0297
▁sniffing	-12.0298
▁innocently	-12.0298
▁talented	-12.0298
▁freckles	-12.0298
▁warmly	-12.0298
▁nothingness	-12.0299
▁indifferent	-12.0299
▁attracting	-12.0299
▁cleverer	-12.03
▁blazed	-12.0301
▁insisting	-12.0301
▁terrifying	-12.0301
▁Inter	-12.0302
▁net	-12.0303
▁-=-	-12.0305
Looking	-12.0307
▁trickled	-12.0307
▁honored	-12.0307
▁perfumed	-12.0308
▁stripped	-12.0309
▁horned	-12.0309
▁kicking	-12.0313
▁Troy	-12.0315
▁Belby	-12.0316
▁Muffliato	-12.0316
▁slime	-12.0318
▁hunger	-12.0319
▁powdered	-12.032
shouldered	-12.0321
▁cured	-12.0322
▁folds	-12.0322
▁Anti	-12.0325
▁tryouts	-12.0328
▁tighter	-12.0329
▁jinxed	-12.0332
▁justice	-12.0332
▁taunt	-12.0332
▁Snow	-12.0336
▁favour	-12.0342
▁interfere	-12.0346
▁accepting	-12.0347
▁soaked	-12.0349
▁smelly	-12.0349
▁raced	-12.0357
▁linked	-12.0358
try	-12.0359
▁scrap	-12.0364
▁Loony	-12.0365
▁Other	-12.0367
▁downright	-12.0367
▁sockets	-12.0368
erm	-12.0369
▁intruders	-12.0372
▁grand	-12.0375
▁Dumble	-12.0376
▁traced	-12.038
▁danced	-12.0381
▁warming	-12.0383
▁quaver	-12.0384
▁offense	-12.0384
▁brush	-12.0388
▁background	-12.039
▁cobble	-12.0395
▁hostages	-12.0403
ul	-12.0404
▁hearts	-12.041
Fair	-12.041
▁straighter	-12.0411
▁wig	-12.0411
▁runes	-12.0414
▁Personally	-12.0416
▁dart	-12.0418
ors	-12.042
▁nights	-12.0422
▁su	-12.0426
▁circled	-12.043
ound	-12.043
▁meals	-12.0431
▁neighbours	-12.0432
away	-12.0438
▁Seer	-12.0439
▁Daddy	-12.0442
▁defenses	-12.0445
▁feature	-12.0447
▁copying	-12.0448
▁soot	-12.0449
▁hills	-12.0449
▁tossed	-12.045
▁breed	-12.0451
▁Old	-12.0452
▁wheels	-12.0455
Dark	-12.0461
▁span	-12.0461
▁chink	-12.0462
Cho	-12.0463
▁pine	-12.0471
▁Might	-12.0476
▁glassy	-12.0481
▁completed	-12.0491
▁host	-12.0501
flecked	-12.0504
▁muscles	-12.0504
lus	-12.051
▁pocketed	-12.0511
▁Unless	-12.0519
▁Court	-12.0521
J	-12.0528
▁snogg	-12.0529
▁Red	-12.053
▁Ma	-12.0533
▁comments	-12.0538
▁print	-12.0538
eneath	-12.0543
▁Voldemorts	-12.0546
▁parting	-12.0557
▁Nott	-12.056
▁um	-12.0562
math	-12.0569
KE	-12.0571
▁tales	-12.0575
▁manor	-12.0578
Full	-12.0585
▁Th	-12.0596
den	-12.0615
▁Levi	-12.0627
▁Frogs	-12.0627
▁beams	-12.0633
elius	-12.0637
Whose	-12.0643
▁concerns	-12.0648
ate	-12.0649
▁deck	-12.0651
.'``	-12.0672
▁Bulgarians	-12.0673
use	-12.0674
▁joy	-12.0677
▁crates	-12.0685
Ar	-12.0698
were	-12.0699
▁treasures	-12.0713
als	-12.0718
▁rot	-12.072
ded	-12.0724
▁lengths	-12.0726
▁onion	-12.0735
▁restrain	-12.0739
▁classrooms	-12.0741
▁fame	-12.0742
securely	-12.0752
▁furs	-12.0756
▁author	-12.076
fortunately	-12.0784
▁coach	-12.0784
▁shov	-12.0791
▁ending	-12.0795
▁Walk	-12.0795
▁freed	-12.0798
sir	-12.0812
then	-12.0814
▁gasps	-12.0822
opped	-12.0826
▁jackets	-12.0855
▁Won	-12.0862
▁diet	-12.0864
▁restless	-12.0891
▁buildings	-12.09
▁passageways	-12.0901
heard	-12.0901
ments	-12.0902
▁clues	-12.0904
▁sting	-12.0916
▁Re	-12.092
fully	-12.0921
▁sayin	-12.0923
▁wove	-12.0925
had	-12.0931
▁elbows	-12.0941
▁Bu	-12.0978
▁DID	-12.0981
▁purposeful	-12.0991
▁fatal	-12.0994
ied	-12.1
▁Has	-12.1005
▁spoil	-12.1009
▁*14	-12.1011
wizard	-12.1018
Since	-12.1065
▁envelopes	-12.1069
▁haste	-12.1072
Vernon	-12.111
▁Ro	-12.1117
11	-12.1126
▁bows	-12.1134
▁OR	-12.1149
called	-12.1154
ade	-12.1156
▁ash	-12.1165
ather	-12.117
everyone	-12.1177
”	-12.1179
ated	-12.1189
▁essays	-12.1198
magic	-12.12
▁worm	-12.1212
▁convenient	-12.1217
▁indistinct	-12.1229
dy	-12.1233
Hope	-12.1239
▁tramp	-12.1239
▁hem	-12.1243
▁salt	-12.1246
Ladi	-12.125
▁̈CAnd	-12.1257
Easy	-12.1261
Nick	-12.1263
Lucius	-12.1265
Explain	-12.1282
Six	-12.1288
Aberforth	-12.1291
▁writes	-12.1296
Grindelwald	-12.1297
although	-12.13
jinx	-12.1301
▁thus	-12.1302
▁thump	-12.1302
Little	-12.1304
Meanwhile	-12.1306
▁fits	-12.1306
Big	-12.1307
True	-12.1308
Somewhere	-12.131
Marvolo	-12.1311
sharp	-12.1321
▁whimper	-12.1327
.”	-12.1334
▁file	-12.1352
tended	-12.1355
sight	-12.1358
▁stamp	-12.1359
▁benefit	-12.1369
▁affair	-12.137
▁interruption	-12.1371
▁mill	-12.1375
▁program	-12.1379
▁farewell	-12.1382
▁balloon	-12.1388
▁dwarf	-12.1391
▁location	-12.1392
▁opponent	-12.1393
▁Warlock	-12.1393
▁precaution	-12.1394
▁NEWT	-12.1394
▁dagger	-12.1395
▁warlock	-12.1395
▁steel	-12.1395
▁nutter	-12.1397
▁Watch	-12.1397
▁sausage	-12.1398
▁hell	-12.1399
▁Carrow	-12.1399
▁intention	-12.1404
▁`'	-12.1407
▁pureblood	-12.141
▁rob	-12.1417
▁driver	-12.1418
▁trot	-12.1419
▁rely	-12.142
▁bid	-12.1421
ized	-12.1423
▁smug	-12.1429
▁sale	-12.1437
▁supporter	-12.1438
▁starts	-12.1439
▁odds	-12.1446
▁uneven	-12.1453
ty	-12.1465
overing	-12.1477
▁attacker	-12.1477
▁pursue	-12.1493
▁resign	-12.1495
▁fulfill	-12.1496
▁congratulate	-12.1496
▁warnings	-12.1496
Oho	-12.1496
▁maintain	-12.1499
▁puncture	-12.1502
▁describe	-12.1503
▁increase	-12.1504
▁clang	-12.1505
▁wo	-12.1506
▁solve	-12.1506
▁scribble	-12.1506
▁enable	-12.1508
▁charg	-12.1508
▁gossip	-12.1509
▁gallop	-12.1512
▁achieve	-12.1513
▁arrow	-12.1514
▁conquer	-12.1514
▁exhaust	-12.1514
ters	-12.1514
▁zoom	-12.1515
▁flicker	-12.1515
▁draft	-12.1517
▁croak	-12.1517
▁jostl	-12.1517
▁conduct	-12.152
▁pompous	-12.152
▁mournful	-12.152
▁hysterical	-12.152
▁uncertain	-12.1521
▁mutinous	-12.1521
▁remote	-12.1521
▁unconcerned	-12.1521
▁earnest	-12.1521
▁tearful	-12.1521
▁glum	-12.1522
▁threaten	-12.1522
▁distinguish	-12.1523
▁mornin	-12.1523
▁tuft	-12.1523
▁Phlegm	-12.1524
▁Stinksap	-12.1524
▁eccentric	-12.1524
▁lunatic	-12.1524
▁mimbletonia	-12.1524
▁sphinx	-12.1524
Rubbish	-12.1524
▁Cresswell	-12.1524
▁Gornuk	-12.1524
▁Slinkhard	-12.1524
▁Sloper	-12.1524
▁allegiance	-12.1524
▁binoculars	-12.1524
▁chintz	-12.1524
▁crestfallen	-12.1524
▁cronies	-12.1524
▁demonstrating	-12.1524
▁destruction	-12.1524
▁disheveled	-12.1524
▁earmuffs	-12.1524
▁expensive	-12.1524
▁grotesque	-12.1524
▁inquiry	-12.1524
▁loftily	-12.1524
▁magenta	-12.1524
▁mattress	-12.1524
▁modified	-12.1524
▁monocle	-12.1524
▁necessarily	-12.1524
▁parlor	-12.1524
▁peacock	-12.1524
▁plummeted	-12.1524
▁premises	-12.1524
▁preoccupied	-12.1524
▁rectangular	-12.1524
▁relinquish	-12.1524
▁replacing	-12.1524
▁scuttling	-12.1524
▁society	-12.1524
▁spectators	-12.1524
▁threadbare	-12.1524
▁tremendous	-12.1524
▁triangular	-12.1524
▁twelfth	-12.1524
▁unbeatable	-12.1524
▁unnecessarily	-12.1524
▁walrus	-12.1524
▁wisdom	-12.1524
Aaah	-12.1524
▁Championship	-12.1524
▁announcing	-12.1524
▁landscape	-12.1524
▁patience	-12.1524
▁resemblance	-12.1524
▁splattering	-12.1524
▁*10	-12.1524
▁Despite	-12.1524
▁French	-12.1524
▁gradually	-12.1524
▁imprisonment	-12.1524
▁freeze	-12.1524
▁plaque	-12.1524
▁versus	-12.1524
▁windshield	-12.1524
▁Misuse	-12.1524
▁communication	-12.1524
▁judgment	-12.1524
▁whirring	-12.1524
▁sprung	-12.1524
▁Cooperation	-12.1524
▁SPEW	-12.1524
▁31	-12.1524
▁treetops	-12.1524
▁uninjured	-12.1524
▁exclusive	-12.1524
▁piggy	-12.1524
▁raucous	-12.1524
▁Erised	-12.1524
▁pretense	-12.1524
▁pitiful	-12.1524
▁coincidence	-12.1524
▁heavier	-12.1524
▁misunderstood	-12.1524
▁untouched	-12.1524
▁bookshelves	-12.1524
▁strateg	-12.1524
▁garage	-12.1524
▁humiliation	-12.1524
▁emitted	-12.1524
▁fingertips	-12.1524
▁onlookers	-12.1524
▁conviction	-12.1524
▁chessmen	-12.1524
▁March	-12.1524
encrusted	-12.1524
▁Sports	-12.1524
▁childhood	-12.1524
▁admirers	-12.1524
▁earsplitting	-12.1524
▁unlucky	-12.1524
▁windswept	-12.1524
▁plastered	-12.1524
▁drowsy	-12.1524
▁cavern	-12.1524
▁jerkily	-12.1524
▁moves	-12.1524
▁darling	-12.1524
▁rubble	-12.1524
▁genially	-12.1524
witted	-12.1524
▁stationary	-12.1524
▁intercepted	-12.1524
▁hillside	-12.1524
▁wireless	-12.1525
▁unease	-12.1525
▁dangled	-12.1525
▁intact	-12.1525
▁entertaining	-12.1525
▁wretched	-12.1525
▁producing	-12.1525
▁classmates	-12.1525
▁miraculously	-12.1525
▁continually	-12.1525
▁bloodstained	-12.1525
▁chuckling	-12.1525
▁fridge	-12.1525
▁harmless	-12.1525
▁contrast	-12.1525
▁settling	-12.1525
▁Deathstick	-12.1525
▁scuffling	-12.1525
▁impassive	-12.1525
▁weakened	-12.1525
▁scabbed	-12.1525
▁fistful	-12.1525
▁poised	-12.1525
▁inventing	-12.1525
▁unseen	-12.1526
▁moodily	-12.1526
▁distorted	-12.1526
Muggles	-12.1526
▁prompted	-12.1526
▁removing	-12.1526
▁recited	-12.1526
▁redder	-12.1526
▁soundlessly	-12.1526
▁unsure	-12.1526
▁oaf	-12.1527
▁section	-12.1527
▁successfully	-12.1527
▁glimmered	-12.1527
▁survivor	-12.1527
▁torso	-12.1527
▁indecent	-12.1527
▁averted	-12.1527
▁strictly	-12.1527
▁rebounded	-12.1527
▁triple	-12.1527
▁reproachfully	-12.1527
▁fortress	-12.1527
▁tartly	-12.1528
▁dodgy	-12.1528
▁booklist	-12.1528
▁steely	-12.1528
▁giantess	-12.1528
▁goggled	-12.1528
▁distressed	-12.1528
▁constricted	-12.1528
▁refrain	-12.1528
▁glimmering	-12.1528
▁smacking	-12.1528
▁tattered	-12.1529
▁incidentally	-12.1529
▁poles	-12.1529
▁helplessly	-12.153
▁sustained	-12.153
▁film	-12.153
▁delicately	-12.153
▁tallest	-12.153
▁Inner	-12.153
▁actual	-12.153
▁zis	-12.153
▁stinging	-12.1531
▁frying	-12.1531
▁lyin	-12.1531
▁morale	-12.1531
▁resentfully	-12.1531
Stupid	-12.1532
▁resort	-12.1532
▁hitched	-12.1532
Turner	-12.1532
▁tidy	-12.1532
▁polishing	-12.1532
▁wispy	-12.1532
▁selected	-12.1533
▁folding	-12.1533
▁looming	-12.1533
▁faith	-12.1533
▁average	-12.1533
▁mount	-12.1534
▁maintained	-12.1534
▁stale	-12.1534
▁representatives	-12.1534
▁hoisting	-12.1534
▁bandaged	-12.1535
▁ruby	-12.1535
▁somber	-12.1535
▁drawled	-12.1535
▁tipping	-12.1535
▁oozing	-12.1535
▁hopeless	-12.1535
▁contracted	-12.1536
▁demanding	-12.1536
▁expressionless	-12.1537
▁gaining	-12.1537
▁fishy	-12.1537
▁soften	-12.1537
▁maintaining	-12.1538
▁sealing	-12.1538
▁braced	-12.1538
▁tonic	-12.1538
▁mysteriously	-12.1538
▁wax	-12.1538
▁headlights	-12.1539
▁concluded	-12.154
▁escorted	-12.154
▁confessed	-12.154
▁hinges	-12.154
▁bumping	-12.154
▁detected	-12.154
▁crashes	-12.154
▁distinctive	-12.1541
▁tingling	-12.1541
▁cradl	-12.1541
▁blundering	-12.1542
▁Ripper	-12.1543
▁Golgomath	-12.1544
▁recalled	-12.1544
▁clipping	-12.1544
▁growling	-12.1545
▁punctured	-12.1545
▁composed	-12.1546
▁suitable	-12.1546
▁detailed	-12.1546
▁consulting	-12.1548
▁winter	-12.1548
▁fried	-12.1549
▁headfirst	-12.1549
▁unfair	-12.1549
▁stormy	-12.1549
eval	-12.1549
▁fireside	-12.155
▁restored	-12.1552
:`	-12.1552
▁limited	-12.1554
▁rearranged	-12.1554
▁rustled	-12.1554
▁curtained	-12.1555
▁creepy	-12.1556
▁feathery	-12.1556
▁sailed	-12.1556
▁Perce	-12.1558
▁streamed	-12.1558
▁axe	-12.1558
▁existed	-12.156
▁screeching	-12.1561
▁boast	-12.1562
▁velvety	-12.1562
▁denying	-12.1563
▁weaving	-12.1564
▁national	-12.1564
▁arc	-12.1567
▁Test	-12.1567
▁obstacles	-12.1568
▁proving	-12.1569
▁endured	-12.157
▁domed	-12.1571
▁nephew	-12.1571
▁Amelia	-12.1571
▁England	-12.1571
▁possessing	-12.1571
▁Penelope	-12.1571
▁MINISTRY	-12.1571
▁Exploding	-12.1571
▁overnight	-12.1572
▁secretly	-12.1572
▁Much	-12.1573
▁begging	-12.1573
▁sopping	-12.1574
▁risky	-12.1577
▁belonging	-12.1581
▁remarks	-12.1581
▁lull	-12.1582
▁convers	-12.1582
▁soaking	-12.1582
▁informing	-12.1583
▁fairy	-12.1583
▁dustbins	-12.1585
▁Gran	-12.1587
▁strengthen	-12.1587
▁teaches	-12.1587
▁Grawpy	-12.1588
▁wilder	-12.1588
Forgive	-12.1591
▁eighty	-12.1594
▁retrieved	-12.1595
▁Outside	-12.1601
▁stillness	-12.1604
▁sprouts	-12.1606
▁Way	-12.1607
▁beans	-12.1608
▁NOW	-12.1609
end	-12.1609
▁enormously	-12.1609
▁blasting	-12.1611
▁gild	-12.1614
▁proven	-12.1615
Tonight	-12.1616
▁Turning	-12.1618
▁murdering	-12.1621
▁Ear	-12.1622
▁swearing	-12.1626
▁disliked	-12.1627
▁Getting	-12.1631
▁betting	-12.1633
▁spared	-12.1635
▁toffees	-12.1636
ory	-12.1637
▁seething	-12.1641
lining	-12.1642
▁Wi	-12.1642
lent	-12.1649
▁Except	-12.165
▁thicker	-12.1651
▁warlocks	-12.1654
▁slowing	-12.1659
hosen	-12.1666
▁swipe	-12.167
▁towered	-12.167
▁Doxys	-12.1671
▁Down	-12.1672
▁mar	-12.1683
▁OUCH	-12.1685
▁GET	-12.1686
▁presented	-12.1686
▁cheat	-12.1689
ridden	-12.169
▁hesitant	-12.1693
Ignoring	-12.1699
▁standards	-12.1706
▁2	-12.1707
▁sole	-12.1707
▁Obviously	-12.1715
8	-12.1717
▁masks	-12.1721
▁flap	-12.1721
▁sing	-12.1727
▁ski	-12.1731
▁Mars	-12.174
▁True	-12.1748
▁creams	-12.1766
fetched	-12.1767
▁propelle	-12.1781
▁talkin	-12.1781
▁liver	-12.179
rasped	-12.179
▁crimes	-12.1801
▁ver	-12.1808
men	-12.1808
▁incantations	-12.1809
▁Having	-12.1811
▁insults	-12.1817
▁soar	-12.1821
▁cheap	-12.1821
▁rent	-12.1833
▁ashes	-12.1834
▁comb	-12.1837
▁ho	-12.1849
▁emotions	-12.1854
▁Naturally	-12.1861
▁openly	-12.1868
een	-12.187
▁doubts	-12.1872
▁Whatever	-12.1875
▁nightmares	-12.1876
▁Shell	-12.1879
li	-12.188
▁transferr	-12.1894
▁bind	-12.1896
▁schedules	-12.1905
▁lumps	-12.1907
▁puddings	-12.1911
ig	-12.1911
▁Always	-12.1921
▁unravel	-12.1923
▁Healers	-12.1929
Head	-12.194
▁Bott	-12.1942
▁pipes	-12.1948
▁hints	-12.1953
▁Id	-12.1954
Show	-12.1954
▁que	-12.1962
▁calls	-12.1968
▁crave	-12.1971
▁panel	-12.1975
ts	-12.1975
▁Back	-12.1976
▁Stay	-12.198
▁Anyone	-12.1986
coming	-12.1991
▁beetles	-12.1993
▁Quite	-12.1997
▁LI	-12.2001
3	-12.2002
any	-12.2006
▁crease	-12.2008
▁shirt	-12.201
▁sacks	-12.201
▁disgrace	-12.2012
.)	-12.2014
▁clubs	-12.2015
▁layer	-12.2019
▁chooses	-12.2028
▁horns	-12.2033
▁wire	-12.2035
▁notices	-12.2037
▁omen	-12.2041
▁spark	-12.2064
taking	-12.2071
▁views	-12.2076
▁tend	-12.2082
serted	-12.2089
▁records	-12.2092
▁winds	-12.2096
▁Portkeys	-12.2101
▁aims	-12.2104
board	-12.2113
▁lick	-12.2118
▁gargoyles	-12.2119
▁shrieks	-12.212
▁ac	-12.2122
▁Py	-12.2125
licking	-12.2125
▁talks	-12.2135
▁wrists	-12.2143
▁ra	-12.2143
▁tut	-12.2147
▁scalp	-12.2155
▁Put	-12.2156
▁rune	-12.2176
▁May	-12.2182
▁tackle	-12.2184
▁schools	-12.2195
▁idiots	-12.2198
▁Moodys	-12.2199
ously	-12.2201
▁shell	-12.2209
▁event	-12.2214
▁gaps	-12.2218
▁weapons	-12.2221
▁core	-12.2232
eemed	-12.2236
▁toads	-12.2237
▁medi	-12.224
▁caves	-12.2243
▁vote	-12.2259
▁Hang	-12.2266
ship	-12.2271
▁airy	-12.2276
St	-12.2289
▁cabinets	-12.229
▁mates	-12.2309
people	-12.2311
▁becomes	-12.2311
▁`-	-12.2315
▁commit	-12.2316
▁reports	-12.2332
ious	-12.2342
▁impostor	-12.2346
ke	-12.2359
really	-12.2366
▁offensive	-12.2376
Read	-12.2391
▁Er	-12.2399
sel	-12.2404
open	-12.2407
maker	-12.2411
▁hippogriffs	-12.2411
sed	-12.2418
▁toilets	-12.2425
▁risks	-12.2425
▁fathers	-12.2436
iron	-12.2442
incomprehensible	-12.2455
nothing	-12.246
▁ties	-12.2486
ill	-12.2492
▁gash	-12.2494
▁vaults	-12.2499
Viktor	-12.2515
iced	-12.2517
▁trie	-12.2549
dishes	-12.256
▁perus	-12.256
water	-12.2595
▁smiles	-12.2597
▁Yours	-12.2617
Oo	-12.2618
Filch	-12.2622
▁bla	-12.2625
Aunt	-12.2627
▁buck	-12.2648
perhaps	-12.2656
Move	-12.2659
▁fleck	-12.2667
▁Named	-12.2671
tip	-12.268
Wand	-12.2683
Scabbers	-12.2688
Gro	-12.2691
Aguamenti	-12.2692
▁mu	-12.2693
EXPECT	-12.2694
Mine	-12.2696
Dead	-12.2698
Charlie	-12.2699
maybe	-12.2704
Kingsley	-12.2705
Defense	-12.2711
\	-12.2711
▁shred	-12.2715
▁select	-12.2716
Night	-12.2717
brown	-12.272
feather	-12.272
Loads	-12.2722
ttered	-12.2724
WE	-12.2726
Remus	-12.2726
Coming	-12.2727
Careful	-12.2729
Finally	-12.2729
▁ham	-12.2729
HERMIONE	-12.2732
▁heave	-12.2733
Obviously	-12.2736
Many	-12.2737
glasses	-12.2737
Daddy	-12.2738
Somebody	-12.2739
Might	-12.2742
Perfect	-12.2745
tering	-12.2747
▁ne	-12.2749
▁scarce	-12.2762
ER	-12.2767
fire	-12.2768
Kind	-12.2769
Best	-12.2781
TING	-12.2783
▁bruise	-12.2784
skirt	-12.279
▁label	-12.2794
RUN	-12.2796
▁hurts	-12.2796
▁nickname	-12.2798
rent	-12.2799
dded	-12.28
▁swap	-12.2802
▁instinct	-12.2804
Boys	-12.2806
▁Du	-12.2808
capable	-12.2809
▁individual	-12.281
▁diamond	-12.281
▁Rain	-12.281
▁moonstone	-12.281
▁*11	-12.2811
▁interests	-12.2813
▁photo	-12.2815
▁content	-12.2816
▁dizzy	-12.2817
▁achievement	-12.2819
▁wrapping	-12.2819
▁flagon	-12.2819
▁objection	-12.282
▁eyeball	-12.282
▁tradition	-12.2821
▁Smelting	-12.2821
▁bracket	-12.2822
▁relative	-12.2823
▁leprechaun	-12.2825
▁Knut	-12.2826
▁ribbon	-12.283
▁reminder	-12.2833
▁prisoner	-12.2838
▁seal	-12.284
▁wears	-12.284
▁socket	-12.2841
2	-12.2842
▁colleague	-12.2847
▁Mandrake	-12.2848
▁toffee	-12.2848
nine	-12.2849
▁goat	-12.2849
▁intruder	-12.285
zzing	-12.2852
▁examiner	-12.2852
ating	-12.2857
▁Wands	-12.2862
secretary	-12.2888
▁HOGWARTS	-12.2895
▁needle	-12.2898
Hu	-12.2905
▁troubl	-12.2908
serving	-12.2912
▁cracks	-12.2917
Says	-12.2922
▁strap	-12.2925
▁vibrate	-12.2928
▁perfume	-12.293
▁prickle	-12.2931
▁embrace	-12.2931
▁swerve	-12.2931
▁demand	-12.2931
▁flatten	-12.2931
▁float	-12.2932
▁chuckle	-12.2934
▁squawk	-12.2935
▁campaign	-12.2935
name	-12.2937
▁blossom	-12.2937
▁fade	-12.294
▁scruff	-12.2943
▁depart	-12.2943
▁obscure	-12.2944
▁disbelieving	-12.2949
▁relentless	-12.2949
▁feverish	-12.2949
▁defiant	-12.2949
▁successful	-12.2949
Mount	-12.2952
lopping	-12.2952
▁spurt	-12.2952
ABLE	-12.2952
Alohomora	-12.2952
DUDLEY	-12.2952
▁Animagi	-12.2952
▁Arnold	-12.2952
▁Decoy	-12.2952
▁Derrick	-12.2952
▁Friar	-12.2952
▁Goldstein	-12.2952
▁Junior	-12.2952
▁Mirror	-12.2952
▁Mulciber	-12.2952
▁Murtlap	-12.2952
▁November	-12.2952
▁Percival	-12.2952
▁Spellotape	-12.2952
▁Vampires	-12.2952
▁Vector	-12.2952
▁Wisteria	-12.2952
▁ambitious	-12.2952
▁apprehension	-12.2952
▁banshee	-12.2952
▁berserk	-12.2952
▁criticism	-12.2952
▁custard	-12.2952
▁cutlery	-12.2952
▁diagram	-12.2952
▁disastrous	-12.2952
▁eardrums	-12.2952
▁escalator	-12.2952
▁forcibly	-12.2952
▁graffiti	-12.2952
▁grizzled	-12.2952
▁imperiously	-12.2952
▁inexplicable	-12.2952
▁inflict	-12.2952
▁intensified	-12.2952
▁irritating	-12.2952
▁marmalade	-12.2952
▁nonplussed	-12.2952
▁opaque	-12.2952
▁pencil	-12.2952
▁physical	-12.2952
▁precariously	-12.2952
▁prudent	-12.2952
▁salamander	-12.2952
▁sarcasm	-12.2952
▁trifle	-12.2952
▁turrets	-12.2952
▁unmistakably	-12.2952
▁unmistakeable	-12.2952
▁unnerving	-12.2952
▁unscathed	-12.2952
▁vapour	-12.2952
▁‘	-12.2952
▁Burbage	-12.2952
▁League	-12.2952
▁Prophecy	-12.2952
▁Selwyn	-12.2952
▁apologies	-12.2952
▁description	-12.2952
▁harassed	-12.2952
▁leisure	-12.2952
▁scrawny	-12.2952
▁stifling	-12.2952
▁Castle	-12.2952
▁fraud	-12.2952
▁happiest	-12.2952
▁hearthrug	-12.2952
▁ruefully	-12.2952
▁sullen	-12.2952
Plenty	-12.2952
▁placidly	-12.2952
▁plastic	-12.2952
▁semidarkness	-12.2952
▁ungrateful	-12.2952
▁conscience	-12.2952
▁twiddling	-12.2952
▁Unbreakable	-12.2952
▁exchanging	-12.2952
▁government	-12.2952
▁spindle	-12.2952
▁combined	-12.2952
▁hungrily	-12.2952
▁unbelievable	-12.2952
▁Large	-12.2952
▁abashed	-12.2952
▁dislodged	-12.2952
▁embarrassment	-12.2952
▁intensity	-12.2952
▁jowls	-12.2952
▁pretence	-12.2952
▁Florean	-12.2952
▁draught	-12.2952
▁wastepaper	-12.2952
▁grumbling	-12.2952
▁reddish	-12.2952
▁interference	-12.2952
▁cavernous	-12.2952
▁immortality	-12.2952
▁announcement	-12.2952
▁trespass	-12.2952
▁revulsion	-12.2952
▁tombstone	-12.2952
▁brusquely	-12.2952
▁denied	-12.2952
▁unceremoniously	-12.2952
▁hourglass	-12.2952
▁slyly	-12.2952
▁bickering	-12.2952
▁intelligence	-12.2952
▁scornfully	-12.2952
▁hesitation	-12.2953
▁selection	-12.2953
▁advertisement	-12.2953
▁thunderous	-12.2953
▁passenger	-12.2953
▁12	-12.2953
▁skipped	-12.2953
▁flurry	-12.2953
▁Vance	-12.2953
▁chestnut	-12.2953
▁waitress	-12.2953
▁devastated	-12.2953
▁nightdress	-12.2953
▁litter	-12.2953
▁sadness	-12.2953
▁horde	-12.2953
▁halves	-12.2953
▁procession	-12.2953
▁tilted	-12.2953
▁property	-12.2953
▁consumed	-12.2953
▁baggy	-12.2953
eagled	-12.2953
▁warily	-12.2953
▁canceled	-12.2953
▁impersonating	-12.2953
Dreadful	-12.2953
▁interfering	-12.2953
▁mossy	-12.2953
▁patrolling	-12.2953
▁maimed	-12.2953
▁flopped	-12.2953
▁publicity	-12.2953
▁competing	-12.2953
▁spattergroit	-12.2953
▁bitterness	-12.2953
▁hopelessness	-12.2953
▁reprovingly	-12.2953
▁chimed	-12.2954
Acceptable	-12.2954
Check	-12.2954
▁silkily	-12.2954
▁tawny	-12.2954
▁daybreak	-12.2954
▁praying	-12.2954
▁Hermi	-12.2954
▁throbbed	-12.2954
▁vacated	-12.2954
▁bubotuber	-12.2954
▁sliver	-12.2954
▁Sitting	-12.2954
▁exclaimed	-12.2954
▁duelling	-12.2955
▁nightfall	-12.2955
▁wrath	-12.2955
▁immobile	-12.2955
▁entry	-12.2955
▁initial	-12.2955
▁reddening	-12.2955
▁attraction	-12.2955
▁doubtfully	-12.2955
▁instructed	-12.2955
▁respectable	-12.2955
▁evaporated	-12.2955
▁permanently	-12.2955
▁seventy	-12.2955
▁breast	-12.2955
▁regretted	-12.2955
▁mistaking	-12.2955
▁tweed	-12.2955
▁shapeless	-12.2956
▁revolting	-12.2956
▁frequent	-12.2956
▁raven	-12.2956
▁trash	-12.2956
▁banished	-12.2956
▁lament	-12.2956
▁mournfully	-12.2956
▁hysterically	-12.2956
▁occupy	-12.2956
▁predicting	-12.2956
▁hoot	-12.2956
▁international	-12.2956
▁flinging	-12.2956
▁speechless	-12.2956
▁admitting	-12.2956
▁thwarted	-12.2956
▁Cheering	-12.2956
▁panicking	-12.2957
▁greedy	-12.2957
▁batlike	-12.2957
▁persuading	-12.2957
▁mayhem	-12.2957
▁contemptuously	-12.2957
▁dazzled	-12.2957
▁deathday	-12.2957
▁niche	-12.2957
▁sideboard	-12.2957
▁encouraged	-12.2958
▁frayed	-12.2958
▁drooped	-12.2958
▁jogged	-12.2958
▁recounted	-12.2958
Running	-12.2958
factly	-12.2958
▁screeches	-12.2959
▁nightshirt	-12.2959
▁desktop	-12.2959
▁captioned	-12.2959
▁stupidity	-12.2959
▁paralyzed	-12.296
▁dank	-12.296
▁bandy	-12.296
▁scooping	-12.296
▁listeners	-12.2961
▁reflecting	-12.2961
▁bunches	-12.2961
▁melt	-12.2962
▁sprouting	-12.2962
▁attach	-12.2963
▁railings	-12.2963
▁Prefect	-12.2963
▁cannon	-12.2963
▁disciplinar	-12.2964
▁pimples	-12.2964
▁coiled	-12.2964
▁possessor	-12.2964
▁disturbing	-12.2965
▁parked	-12.2965
▁delayed	-12.2965
▁impressively	-12.2965
▁associated	-12.2965
▁apology	-12.2966
▁shifty	-12.2966
▁WANT	-12.2966
▁yield	-12.2966
▁flattening	-12.2967
▁limply	-12.2967
▁businesslike	-12.2967
▁roused	-12.2968
▁thrilled	-12.2968
▁hump	-12.2968
▁outburst	-12.2968
▁aura	-12.2969
▁whiskers	-12.2969
▁interrogated	-12.2969
▁ceased	-12.2969
▁transported	-12.297
▁plainer	-12.297
▁loudest	-12.297
Uh	-12.297
▁jeers	-12.297
▁thorough	-12.2971
▁strayed	-12.2971
▁rippled	-12.2971
▁restraining	-12.2972
▁stalking	-12.2973
▁yelping	-12.2973
▁recovering	-12.2973
▁etc	-12.2975
▁Chief	-12.2975
▁fiasco	-12.2975
▁Wheezy	-12.2975
▁Dudders	-12.2975
▁January	-12.2975
▁nonverbal	-12.2975
▁Weatherby	-12.2975
▁congratulations	-12.2975
▁SCORE	-12.2975
▁resulted	-12.2975
▁Reasonable	-12.2976
▁clothing	-12.2977
▁smells	-12.2977
▁delivery	-12.2977
▁appropriate	-12.2977
▁bubbling	-12.2977
▁extracting	-12.2978
▁encountered	-12.2978
▁totally	-12.2978
▁reappearance	-12.2978
▁discovery	-12.2979
▁revolved	-12.2981
HOW	-12.2982
▁schemes	-12.2983
▁brambles	-12.2983
▁wit	-12.2983
▁companions	-12.2983
▁ramparts	-12.2983
▁beef	-12.2984
▁customers	-12.2984
▁teenagers	-12.2984
▁girlish	-12.2984
▁gun	-12.2984
▁behaving	-12.2985
Meaning	-12.2985
▁Willy	-12.2986
▁dreaded	-12.2988
▁glide	-12.2988
▁straighten	-12.2989
▁insulting	-12.2989
▁goose	-12.2989
▁photographer	-12.299
▁Rose	-12.2992
eyond	-12.2992
▁leathery	-12.2993
▁resisted	-12.2994
▁admired	-12.2994
▁reliable	-12.2995
▁ounce	-12.2996
▁oily	-12.2997
▁vomiting	-12.3
▁expand	-12.3005
▁interviewed	-12.3006
▁Twelve	-12.3007
▁Otherwise	-12.3007
▁braver	-12.3008
▁storming	-12.3008
▁Teddy	-12.3008
▁communicate	-12.3011
▁Want	-12.3013
▁omens	-12.3013
▁unconvincing	-12.3013
▁stress	-12.3013
▁teeter	-12.3015
▁Kiss	-12.3016
ding	-12.3017
▁chops	-12.3018
▁involving	-12.3018
Water	-12.3018
▁hugely	-12.302
▁nicely	-12.302
▁handling	-12.3022
▁penetrated	-12.3023
▁tricked	-12.3024
▁offend	-12.3029
▁cling	-12.303
lready	-12.3034
▁poisoning	-12.3038
▁fainted	-12.3039
▁Evidently	-12.304
▁vaulted	-12.3041
▁cuffs	-12.3041
▁spattered	-12.3042
▁overturned	-12.3045
▁Hardly	-12.3045
▁stem	-12.3046
▁Potty	-12.3049
▁Nine	-12.305
.``'	-12.3051
ified	-12.3053
▁Ske	-12.3056
ulent	-12.3057
▁accusations	-12.3064
▁worms	-12.3066
▁jumper	-12.3071
................	-12.3071
▁coin	-12.3071
ages	-12.3071
▁earthy	-12.3071
BY	-12.3071
▁GRYFFINDOR	-12.3074
urled	-12.3075
▁memos	-12.3075
▁spiraling	-12.3076
▁weary	-12.3076
▁par	-12.308
▁ticking	-12.3081
▁toothless	-12.3081
▁quieter	-12.3083
▁sandwich	-12.3084
▁ro	-12.3092
know	-12.3095
▁9	-12.3096
▁market	-12.3098
▁operation	-12.3098
▁sp	-12.3098
▁daggers	-12.3103
▁Hunt	-12.3104
Pity	-12.3104
▁NEWTs	-12.3104
▁precautions	-12.3104
▁En	-12.311
▁Knowing	-12.3114
▁BL	-12.3114
Whoever	-12.3119
▁nifflers	-12.3124
▁blamed	-12.3128
▁moor	-12.3128
▁Second	-12.3136
▁fo	-12.3139
▁gum	-12.3144
ight	-12.3144
▁cubicles	-12.3144
▁bounding	-12.3146
▁relive	-12.3146
▁nineteen	-12.3152
▁reside	-12.3153
▁handy	-12.3156
▁laughs	-12.3161
▁onwards	-12.3162
▁disappearances	-12.3164
UST	-12.3164
▁8	-12.3166
▁curls	-12.3176
▁puffs	-12.3182
hapter	-12.3192
ERS	-12.3195
▁Face	-12.3199
Hear	-12.3201
▁whistled	-12.3215
night	-12.3215
▁Find	-12.3238
▁shatter	-12.324
▁closet	-12.3245
▁abnormal	-12.3247
HU	-12.3247
▁pets	-12.3248
▁oven	-12.3259
▁Okay	-12.326
▁teacups	-12.3263
▁skills	-12.3268
▁Brit	-12.3282
▁las	-12.3286
Bless	-12.3288
▁Charming	-12.3291
fulness	-12.3291
▁pr	-12.3292
▁matched	-12.3295
▁entrances	-12.3298
ging	-12.3304
▁scent	-12.3304
▁east	-12.3313
▁Dead	-12.3316
▁telescopes	-12.3323
▁refill	-12.3328
▁cages	-12.333
▁Poor	-12.3333
▁practiced	-12.3333
4	-12.3335
Lies	-12.3342
▁Off	-12.3353
▁scary	-12.3368
▁ledge	-12.3386
sion	-12.3396
▁bay	-12.3399
▁snail	-12.34
`,'	-12.3415
▁UN	-12.3421
▁Squibs	-12.3426
▁ba	-12.3426
▁Pro	-12.343
▁*15	-12.3442
AN	-12.3444
▁Light	-12.3444
ge	-12.3451
▁keepin	-12.3455
▁Puk	-12.3456
▁Snar	-12.346
▁ch	-12.3462
ening	-12.3463
▁reminds	-12.347
▁conf	-12.347
ised	-12.3488
see	-12.3502
Thinking	-12.3504
ARE	-12.3505
▁pasty	-12.3521
tarnished	-12.353
▁HA	-12.354
▁Me	-12.3546
▁bee	-12.3548
▁Bl	-12.3556
Clear	-12.3557
rdinary	-12.3561
▁Hover	-12.3561
▁lecture	-12.3563
lets	-12.3575
etti	-12.3591
▁batt	-12.3593
AKE	-12.3604
Am	-12.3633
rested	-12.3636
▁arguments	-12.3648
minent	-12.365
zing	-12.3654
▁trampl	-12.366
▁sheer	-12.3661
▁servants	-12.3664
RDER	-12.3675
▁port	-12.3678
▁chap	-12.3697
owed	-12.3714
rry	-12.3715
osa	-12.3721
▁declare	-12.3723
▁passwords	-12.3726
Kept	-12.3728
amous	-12.3734
didn	-12.3736
▁fools	-12.3737
▁mus	-12.3746
▁paint	-12.3747
top	-12.375
standing	-12.3754
▁cousins	-12.3775
“	-12.3782
▁Boys	-12.3794
ckle	-12.3802
ighty	-12.3811
▁alm	-12.3826
ake	-12.3829
▁gardens	-12.3831
ACK	-12.3839
keeping	-12.3847
cid	-12.3849
thought	-12.3851
first	-12.3852
▁bloom	-12.3855
ucked	-12.3856
▁forgetful	-12.386
▁signing	-12.3861
▁asks	-12.3863
▁Cauldrons	-12.3864
▁captain	-12.3866
Imperio	-12.3873
▁slopp	-12.3883
▁ponder	-12.3895
▁moons	-12.3896
▁labor	-12.3907
▁Je	-12.3923
tions	-12.3969
gging	-12.3983
uttering	-12.3984
▁element	-12.3992
after	-12.3994
Made	-12.3995
large	-12.4003
▁rings	-12.401
▁Restrict	-12.4022
▁stops	-12.403
▁glisten	-12.4035
▁tame	-12.4038
▁reopen	-12.4057
ug	-12.4062
▁states	-12.4081
Diggory	-12.4085
▁Stand	-12.4087
▁qu	-12.4098
▁Gaunts	-12.4099
▁fiddl	-12.4101
▁Ever	-12.4113
▁Switch	-12.4123
▁vanquish	-12.4128
eeling	-12.4135
Uncle	-12.4156
ES	-12.4165
▁helpings	-12.4167
▁Brut	-12.4167
▁shovel	-12.4185
▁levels	-12.4199
▁ached	-12.4212
Righ	-12.4215
Bind	-12.4216
human	-12.4219
fronted	-12.4242
morning	-12.4246
ear	-12.4246
Minister	-12.4251
Step	-12.4253
New	-12.4254
gy	-12.426
Wo	-12.4263
fact	-12.4263
ide	-12.4267
▁expert	-12.428
Wood	-12.428
▁fee	-12.4292
suited	-12.4294
▁arch	-12.4295
ut	-12.4299
▁rightful	-12.4304
▁Vi	-12.4307
set	-12.4312
▁doorways	-12.4313
match	-12.4321
Wing	-12.4322
Crookshanks	-12.4324
hidden	-12.4328
hanging	-12.4328
Parvati	-12.4344
▁chant	-12.4344
Myrtle	-12.4354
Password	-12.4357
Find	-12.4357
▁quarters	-12.4359
Potions	-12.436
Enter	-12.4363
Longbottom	-12.4363
Cornelius	-12.4373
other	-12.4374
WHO	-12.438
security	-12.4381
Glad	-12.4383
breaking	-12.4384
▁curt	-12.4386
▁procure	-12.4386
Rosmerta	-12.4388
Fanc	-12.4389
Gregorovitch	-12.4391
Next	-12.4392
Um	-12.4393
▁Mar	-12.4395
Zabini	-12.4395
Fifty	-12.4396
SIRIUS	-12.4396
Cissy	-12.4396
skinned	-12.4399
Him	-12.4401
conscious	-12.4401
Personally	-12.4402
GET	-12.4402
Macnair	-12.4403
Students	-12.4403
OUCH	-12.4404
Sturgis	-12.4404
brush	-12.4405
Today	-12.4405
Run	-12.4406
Doge	-12.4407
loving	-12.4409
UM	-12.4414
Again	-12.4417
Ow	-12.4432
Ignore	-12.4438
stained	-12.4442
ft	-12.4448
▁sticks	-12.4456
▁intend	-12.4458
▁defin	-12.4459
▁elephant	-12.4463
▁ripple	-12.4463
▁portion	-12.4463
▁competition	-12.4464
▁snowball	-12.4465
▁vapor	-12.4468
Their	-12.4469
▁countercurse	-12.4476
▁pursuit	-12.4479
▁pamphlet	-12.4482
Seen	-12.4482
▁shortcut	-12.4483
▁flavor	-12.4486
▁transformation	-12.4486
▁blister	-12.4486
▁Cream	-12.4487
▁accusation	-12.4489
reserved	-12.449
▁option	-12.4491
▁instruction	-12.4492
▁Broomstick	-12.4492
▁Skrewt	-12.4493
here	-12.4493
▁patient	-12.4493
▁alike	-12.4497
▁bulb	-12.4501
▁chip	-12.4502
▁tape	-12.4502
▁Puff	-12.4505
spoken	-12.4505
▁topic	-12.4509
▁Wo	-12.4516
▁boa	-12.4522
▁New	-12.4525
▁timetable	-12.4533
▁plea	-12.4534
▁cuff	-12.4535
▁aid	-12.4536
▁sometime	-12.4539
▁rocks	-12.4557
▁jog	-12.4558
Pass	-12.456
?)	-12.4563
scope	-12.4572
▁bough	-12.4572
▁disturb	-12.4594
▁crumble	-12.4594
▁glitter	-12.4595
▁squirm	-12.4595
▁tinkle	-12.4595
▁retreat	-12.4595
▁swoop	-12.4595
▁hoist	-12.4596
▁conclude	-12.4597
▁confiscate	-12.4597
▁reassure	-12.4597
▁hesitate	-12.4598
▁scramble	-12.4598
▁announce	-12.4598
▁illuminate	-12.4599
▁k	-12.46
▁admire	-12.4602
▁brace	-12.4604
▁identify	-12.4604
▁descend	-12.4605
▁neglect	-12.4608
▁convict	-12.4609
▁deflect	-12.461
▁Pepper	-12.4613
uous	-12.4614
▁slaughter	-12.4614
▁ludicrous	-12.4615
▁comical	-12.4615
▁ferocious	-12.4615
▁malevolent	-12.4615
▁encouraging	-12.4616
▁incredulous	-12.4616
▁positive	-12.4616
▁scathing	-12.4616
▁radish	-12.4617
ATION	-12.4618
▁splinter	-12.4618
▁timid	-12.4618
▁soothing	-12.4618
▁unwrap	-12.4619
▁deliberate	-12.4619
▁scandal	-12.4619
UFF	-12.4619
▁intimidating	-12.4619
Emmeline	-12.4619
Fantastic	-12.4619
Ooooh	-12.4619
STUPEF	-12.4619
Search	-12.4619
Urgh	-12.4619
embossed	-12.4619
▁Admittedly	-12.4619
▁Armando	-12.4619
▁Bryce	-12.4619
▁Fungi	-12.4619
▁HOUSE	-12.4619
▁Hungarian	-12.4619
▁Liaison	-12.4619
▁Liechtenstein	-12.4619
▁Nicholas	-12.4619
▁Ridgeback	-12.4619
▁Rowle	-12.4619
▁Society	-12.4619
▁Tornados	-12.4619
▁Volkov	-12.4619
▁Yorkshire	-12.4619
▁ablaze	-12.4619
▁aquiver	-12.4619
▁balaclava	-12.4619
▁bewilderment	-12.4619
▁blearily	-12.4619
▁chortling	-12.4619
▁consequences	-12.4619
▁disobey	-12.4619
▁eerily	-12.4619
▁excruciating	-12.4619
▁fantastic	-12.4619
▁haughtily	-12.4619
▁hurricane	-12.4619
▁impartial	-12.4619
▁intervening	-12.4619
▁irresponsible	-12.4619
▁misshapen	-12.4619
▁molten	-12.4619
▁murky	-12.4619
▁obituary	-12.4619
▁orchard	-12.4619
▁penetrating	-12.4619
▁possibilities	-12.4619
▁presumably	-12.4619
▁procedure	-12.4619
▁puppet	-12.4619
▁remnants	-12.4619
▁somersault	-12.4619
▁symptoms	-12.4619
▁system	-12.4619
▁toppling	-12.4619
▁tragedy	-12.4619
▁trepidation	-12.4619
▁Powder	-12.4619
▁Vicky	-12.4619
▁abysmal	-12.4619
▁devotion	-12.4619
▁foreboding	-12.4619
▁griffin	-12.4619
▁Spinner	-12.4619
▁cardigan	-12.4619
▁equipment	-12.4619
▁smudge	-12.4619
▁spiky	-12.4619
▁unhelpful	-12.4619
▁Quietly	-12.4619
▁Worple	-12.4619
▁injustice	-12.4619
▁retirement	-12.4619
▁lofty	-12.4619
▁podium	-12.4619
▁refusal	-12.4619
▁trestle	-12.4619
▁pheasant	-12.4619
▁recognizable	-12.4619
▁WHAM	-12.4619
▁defiance	-12.4619
▁malice	-12.4619
▁admirable	-12.4619
▁razor	-12.4619
▁remedial	-12.4619
▁unison	-12.4619
▁evasive	-12.4619
▁recapture	-12.4619
▁curfew	-12.4619
▁ivy	-12.4619
▁unwrapping	-12.4619
FFLE	-12.4619
▁waltz	-12.4619
▁assault	-12.4619
▁fuming	-12.4619
▁scampered	-12.4619
▁temperature	-12.4619
▁describing	-12.4619
▁duties	-12.4619
▁removal	-12.4619
▁stunning	-12.4619
▁forbidding	-12.4619
▁legendary	-12.4619
▁unfamiliar	-12.4619
▁chute	-12.4619
▁peppermint	-12.4619
▁walnut	-12.4619
▁cheese	-12.4619
▁hilltop	-12.4619
▁stabbing	-12.4619
▁unwelcome	-12.4619
▁convulsively	-12.4619
▁remarkable	-12.4619
▁strung	-12.4619
▁goatee	-12.4619
▁reception	-12.4619
▁panicky	-12.4619
▁surname	-12.4619
▁jingling	-12.4619
Detention	-12.4619
▁unconvinced	-12.4619
▁Feast	-12.4619
▁yanked	-12.4619
Tongue	-12.4619
▁fancies	-12.4619
▁sweatshirt	-12.4619
▁cowardice	-12.4619
▁whiff	-12.4619
▁candlelit	-12.4619
▁sample	-12.4619
▁operating	-12.4619
▁cruelty	-12.4619
▁loaf	-12.4619
▁interior	-12.462
▁wiz	-12.462
▁conjuring	-12.462
▁jangling	-12.462
Protection	-12.462
▁midday	-12.462
▁speculation	-12.462
▁eyelashes	-12.462
▁squeakily	-12.462
▁grace	-12.462
▁stripping	-12.462
▁Jelly	-12.462
▁guiltily	-12.462
▁whiskey	-12.462
▁unbalanced	-12.462
▁animatedly	-12.462
▁revising	-12.462
▁sceptically	-12.462
▁pantry	-12.462
▁traipsed	-12.462
▁playground	-12.462
▁enjoyment	-12.462
▁Barnab	-12.462
▁grease	-12.462
▁tilting	-12.462
▁thudded	-12.462
▁boundary	-12.462
▁detour	-12.462
▁anticipated	-12.462
▁terribly	-12.462
▁blaming	-12.4621
▁destiny	-12.4621
▁tactless	-12.4621
▁breezy	-12.4621
▁dummy	-12.4621
▁fidgeting	-12.4621
▁Jim	-12.4621
▁Apothecary	-12.4621
▁pepper	-12.4621
▁Hoping	-12.4621
▁ANY	-12.4621
▁forbid	-12.4621
▁depressed	-12.4621
▁constrictor	-12.4621
▁savour	-12.4621
▁taut	-12.4621
▁cords	-12.4621
▁overflowing	-12.4621
▁rudeness	-12.4621
▁yerself	-12.4621
▁Diddy	-12.4621
▁sorcerer	-12.4621
▁throb	-12.4621
▁flopping	-12.4621
▁certainty	-12.4621
▁switched	-12.4621
▁knotted	-12.4621
▁clown	-12.4622
▁expectantly	-12.4622
▁bluntly	-12.4622
▁airborne	-12.4622
▁rosy	-12.4622
▁noiselessly	-12.4622
▁accomplished	-12.4622
▁drip	-12.4622
▁gateway	-12.4622
Later	-12.4622
▁debating	-12.4622
▁trustworthy	-12.4622
▁flute	-12.4622
▁pleaded	-12.4622
▁extent	-12.4622
mindedly	-12.4622
▁striking	-12.4622
▁mutilated	-12.4622
▁impact	-12.4622
▁aggressive	-12.4623
▁doormat	-12.4623
▁dumb	-12.4623
▁dragonskin	-12.4623
▁Beside	-12.4623
▁glowered	-12.4623
▁cloudless	-12.4623
▁foreseen	-12.4623
▁permanent	-12.4623
▁heartstring	-12.4623
▁recoiled	-12.4623
▁ricocheted	-12.4623
▁fourteenth	-12.4624
▁Vanished	-12.4624
▁overwhelmed	-12.4624
▁unfurled	-12.4624
▁combat	-12.4624
▁altered	-12.4624
▁drooling	-12.4624
▁skyward	-12.4624
▁surging	-12.4624
▁BO	-12.4625
▁talons	-12.4625
▁hobbled	-12.4625
▁twinkled	-12.4625
counterclockwise	-12.4625
▁wildest	-12.4625
▁ebbing	-12.4625
▁hiccoughing	-12.4625
▁overwhelming	-12.4626
▁mummy	-12.4626
▁scrubbed	-12.4626
▁Vow	-12.4626
Shhh	-12.4626
▁redheaded	-12.4626
▁obliged	-12.4627
▁gushed	-12.4627
Gotta	-12.4627
▁protuberant	-12.4627
▁aerial	-12.4627
▁consented	-12.4627
▁slashing	-12.4627
▁discard	-12.4628
▁smartly	-12.4628
▁drooping	-12.4628
▁fortunate	-12.4628
▁mixing	-12.4628
hearted	-12.4629
▁slaughtered	-12.4629
▁depressing	-12.4629
▁tufty	-12.4629
▁supper	-12.4629
▁squirmed	-12.4629
▁vividly	-12.4629
▁haul	-12.4629
▁rammed	-12.463
▁abilities	-12.463
▁exasperatedly	-12.463
▁dumped	-12.463
▁style	-12.463
▁snatches	-12.463
▁recruiting	-12.4631
▁developing	-12.4631
▁stooping	-12.4631
▁shafts	-12.4631
▁seventeenth	-12.4632
▁tracing	-12.4632
▁wages	-12.4632
▁Cards	-12.4632
▁tightening	-12.4632
ardium	-12.4632
▁madam	-12.4633
▁conquered	-12.4633
▁eclairs	-12.4633
▁Artifacts	-12.4633
▁refilled	-12.4633
▁mealtimes	-12.4633
▁separately	-12.4633
▁proceedings	-12.4633
▁squirming	-12.4633
▁city	-12.4633
▁footprints	-12.4633
▁exact	-12.4634
▁boasting	-12.4635
▁goggles	-12.4635
▁fussy	-12.4635
▁bellow	-12.4635
▁thinned	-12.4635
▁cantered	-12.4635
▁taunted	-12.4635
▁notebook	-12.4636
▁blundered	-12.4636
▁cobwebs	-12.4636
▁role	-12.4637
friendly	-12.4638
▁breeding	-12.4638
▁faking	-12.4639
bout	-12.4639
▁indifference	-12.4639
▁illegally	-12.4639
▁professor	-12.4639
▁dotted	-12.4641
▁spawn	-12.4641
▁Herbs	-12.4641
▁stup	-12.4641
▁sheltered	-12.4641
▁Table	-12.4642
▁diving	-12.4642
▁elsewhere	-12.4643
▁regarding	-12.4643
▁swallowing	-12.4645
▁April	-12.4645
▁Brazil	-12.4645
▁Levski	-12.4645
▁hatching	-12.4645
▁Jupiter	-12.4645
▁laundered	-12.4645
▁Judging	-12.4645
▁Mistress	-12.4645
▁dumbstruck	-12.4645
▁Tiny	-12.4646
▁Andromeda	-12.4646
▁motioned	-12.4646
▁folk	-12.4646
▁Pulling	-12.4647
nham	-12.4647
▁weirdly	-12.4647
▁marshal	-12.4647
▁readers	-12.4648
▁Station	-12.4648
▁Eve	-12.4648
▁lethal	-12.4648
▁mould	-12.4649
▁fussing	-12.4649
natured	-12.4649
▁tumbling	-12.4649
▁links	-12.465
▁healing	-12.4651
▁Potterwatch	-12.4651
▁lifeless	-12.4652
▁Jump	-12.4652
eeming	-12.4653
tcher	-12.4653
▁keenly	-12.4653
▁spades	-12.4654
▁wheeling	-12.4655
▁privately	-12.4655
▁strand	-12.4656
▁bravely	-12.4657
▁treading	-12.4658
▁imprint	-12.4658
▁fullest	-12.4658
▁requested	-12.4658
ational	-12.4658
▁realistic	-12.466
▁windowless	-12.466
uddy	-12.4663
▁exception	-12.4664
▁lured	-12.4664
▁rival	-12.4665
▁behaved	-12.4665
▁rally	-12.4665
▁claimed	-12.4666
▁Caps	-12.4666
▁Mess	-12.4666
▁winner	-12.4667
▁bade	-12.4669
▁withdrawn	-12.4669
▁groaning	-12.4669
▁nosy	-12.467
▁webbed	-12.467
▁shins	-12.467
wn	-12.467
▁interestedly	-12.4671
▁pour	-12.4671
▁prized	-12.4672
▁harmed	-12.4673
▁demonstrated	-12.4674
Giving	-12.4676
▁displaying	-12.4677
▁transforming	-12.4677
▁discovering	-12.4678
▁havin	-12.4679
▁Hex	-12.4679
▁kittens	-12.4679
▁hooking	-12.468
▁surged	-12.4681
▁cooler	-12.4682
▁Senior	-12.4683
▁BOY	-12.4684
▁Dimitrov	-12.4684
▁gladly	-12.4684
▁flagged	-12.4685
▁Study	-12.4686
▁feat	-12.4687
▁shine	-12.4688
▁clockwise	-12.469
HIS	-12.4692
▁fooled	-12.4693
▁coils	-12.4696
▁Evil	-12.4697
▁plugs	-12.4697
▁Imperiused	-12.4698
▁reminiscent	-12.47
▁gale	-12.4702
▁swell	-12.4702
▁beforehand	-12.4703
▁Draw	-12.4704
▁breach	-12.4705
▁charmed	-12.4707
ology	-12.4709
▁dodges	-12.4711
▁drinker	-12.4711
▁dig	-12.4713
▁whichever	-12.4713
▁formation	-12.4714
Scared	-12.4715
▁preventing	-12.4715
▁Far	-12.4715
▁trance	-12.4719
▁satisfactory	-12.4719
om	-12.4721
▁Really	-12.4721
hoodwinked	-12.4722
▁agreeing	-12.4722
▁forged	-12.4723
▁kidney	-12.4724
▁Possibly	-12.4724
▁brood	-12.4726
▁rosettes	-12.4728
▁SHE	-12.4729
▁Mummy	-12.4731
▁hike	-12.4738
▁reporting	-12.4742
very	-12.4742
▁pox	-12.4742
▁lank	-12.4743
▁positions	-12.4746
▁options	-12.4749
▁shadowed	-12.4752
▁solved	-12.4754
▁appealing	-12.4755
▁Being	-12.4756
▁swords	-12.476
▁replay	-12.476
▁apiece	-12.476
▁striped	-12.4761
▁mom	-12.4762
▁Award	-12.4764
▁measured	-12.4765
▁forgiven	-12.4767
quaking	-12.4768
▁wandless	-12.4772
▁faceless	-12.4773
▁Lo	-12.4774
▁chests	-12.4774
▁stopper	-12.4774
▁Smeltings	-12.4776
▁scuffle	-12.478
▁needles	-12.478
▁creat	-12.4782
lunging	-12.4787
▁confront	-12.4788
ootsteps	-12.4791
▁frogs	-12.4797
▁̈CHe	-12.4798
▁Warlocks	-12.48
▁opponents	-12.48
▁praise	-12.48
▁bumps	-12.4801
▁gri	-12.4803
tted	-12.4805
▁distracting	-12.4805
▁thicket	-12.4809
▁0	-12.481
get	-12.481
▁Long	-12.481
▁orbs	-12.481
▁stamps	-12.4812
ise	-12.4814
▁narrowing	-12.4816
▁Pot	-12.4818
.'*	-12.4821
▁tro	-12.4824
▁offence	-12.4825
▁Ages	-12.4828
▁borne	-12.4833
▁Vo	-12.4833
▁balled	-12.4834
▁'-	-12.4835
▁loving	-12.4845
der	-12.4845
eddy	-12.4846
▁Monsters	-12.4848
▁skinned	-12.485
rest	-12.4856
▁strides	-12.4858
ext	-12.486
▁dangers	-12.486
▁weeds	-12.4867
▁graying	-12.487
▁Fear	-12.487
twined	-12.487
▁adults	-12.4872
▁outcome	-12.4873
▁contains	-12.488
▁Glad	-12.4882
▁HERMIONE	-12.4885
▁Level	-12.4896
▁Peverells	-12.4897
▁Grand	-12.4898
▁strips	-12.4903
▁watchin	-12.4905
▁boulders	-12.4918
▁moonli	-12.4919
▁harp	-12.4921
miling	-12.4923
▁shredd	-12.4926
▁reserve	-12.4927
▁willow	-12.493
▁jogg	-12.4936
▁Summon	-12.494
▁killin	-12.4943
▁jewels	-12.4944
Use	-12.495
kin	-12.4952
ew	-12.4955
▁lone	-12.4959
▁STOP	-12.4963
▁south	-12.4963
▁WH	-12.4966
▁languages	-12.4968
▁peck	-12.4969
Re	-12.4974
▁gush	-12.4977
▁appointments	-12.4983
▁ashen	-12.4989
head	-12.5004
0*	-12.5004
▁saves	-12.5013
▁bein	-12.5023
self	-12.5031
▁la	-12.5032
▁gl	-12.5032
▁feelin	-12.5036
▁summons	-12.5039
9	-12.5054
▁suspects	-12.5057
conversationally	-12.5066
▁mi	-12.5075
▁bean	-12.508
▁Tha	-12.509
▁traditional	-12.5094
mort	-12.5102
▁gurgl	-12.5108
ching	-12.5126
AVEN	-12.5127
ently	-12.5131
▁ol	-12.5132
▁crab	-12.5136
▁services	-12.5136
▁Books	-12.5144
na	-12.5144
▁neared	-12.5149
lbert	-12.5158
▁Talk	-12.5158
ssing	-12.5162
▁IF	-12.5166
▁follows	-12.5169
▁border	-12.517
▁blot	-12.5172
cked	-12.5172
ral	-12.5176
▁kinds	-12.5178
▁Jan	-12.5193
rained	-12.5197
Sp	-12.5205
ending	-12.5212
son	-12.5214
tending	-12.5214
ampered	-12.5226
▁watered	-12.5229
▁backs	-12.5229
▁ache	-12.5234
▁forces	-12.5238
▁Alic	-12.5241
▁pictured	-12.5259
▁winnings	-12.5265
▁accounts	-12.5266
▁firstly	-12.5266
▁/	-12.5268
SE	-12.5275
▁La	-12.5277
▁gifts	-12.5282
▁favors	-12.5284
think	-12.5289
▁uns	-12.5297
▁reflections	-12.5303
▁quot	-12.5304
printed	-12.5306
ished	-12.532
▁Hair	-12.5321
Mmm	-12.5327
deeds	-12.5327
▁submitt	-12.5329
▁Comm	-12.5332
ailed	-12.5337
urging	-12.5337
▁hoods	-12.5339
reathing	-12.5343
▁sighted	-12.5343
!`),	-12.535
▁weightless	-12.5359
de	-12.5368
▁Expecto	-12.5382
▁pi	-12.5388
ti	-12.5399
▁explanations	-12.54
ro	-12.5407
▁forks	-12.542
▁Expelliarmus	-12.5423
▁heights	-12.545
▁Wish	-12.5451
▁ar	-12.5455
ech	-12.546
TH	-12.5467
obbed	-12.548
De	-12.5498
Bu	-12.55
▁nu	-12.5507
▁ouch	-12.5516
ended	-12.5524
▁painless	-12.5524
▁Totte	-12.5535
Cause	-12.5553
▁arrivals	-12.5562
▁decisions	-12.5565
▁poisons	-12.557
AME	-12.557
than	-12.5573
▁throats	-12.5578
▁articles	-12.5587
dor	-12.559
▁explore	-12.5592
robed	-12.5592
▁fields	-12.5596
gling	-12.56
▁Make	-12.5605
▁trips	-12.5607
▁agrees	-12.5613
med	-12.5614
▁thankful	-12.563
ired	-12.5631
▁bewitch	-12.5632
raging	-12.5635
came	-12.5643
amber	-12.5646
▁cower	-12.5662
▁Professors	-12.5664
▁fri	-12.5664
▁tellin	-12.5679
▁hum	-12.568
US	-12.5682
lled	-12.5683
▁satin	-12.5693
ag	-12.5697
mo	-12.5702
▁Shall	-12.5703
▁imm	-12.5706
uncharacteristic	-12.571
▁Kind	-12.5713
▁lasting	-12.5733
DER	-12.5744
ck	-12.5747
bloods	-12.5753
ta	-12.5758
rimming	-12.576
▁Harrys	-12.5769
ets	-12.5778
most	-12.5791
▁crane	-12.5801
▁skulls	-12.5815
▁Ar	-12.5821
▁Star	-12.5828
▁experiment	-12.5842
▁Sorry	-12.5845
izing	-12.5862
▁Delacours	-12.5874
McGonagall	-12.5877
give	-12.5878
pressed	-12.5884
▁wow	-12.5886
▁Certainly	-12.5891
▁'`	-12.5893
Lead	-12.5894
tail	-12.5895
ize	-12.5929
▁disentangle	-12.5948
tell	-12.5952
▁represent	-12.5953
▁stub	-12.5954
ounded	-12.5958
'?`	-12.5959
front	-12.5978
school	-12.599
▁si	-12.6002
▁RE	-12.6013
bag	-12.6018
nt	-12.602
▁banks	-12.6024
ught	-12.6032
▁render	-12.6042
▁sto	-12.6055
▁locks	-12.6075
second	-12.608
▁tempt	-12.6092
▁Blacks	-12.6116
thin	-12.6122
▁sill	-12.6124
ggling	-12.6134
▁pil	-12.6139
til	-12.6146
being	-12.6157
▁rightly	-12.6172
whether	-12.6174
rying	-12.6177
growing	-12.619
▁fe	-12.6195
▁Dumbledores	-12.62
run	-12.6205
▁cou	-12.6208
took	-12.621
▁Ca	-12.6213
Prefect	-12.6214
▁clash	-12.6218
▁shunt	-12.6228
▁Sc	-12.6233
minded	-12.6247
ames	-12.6251
Dragon	-12.6254
▁horrifi	-12.6262
darkness	-12.6263
lost	-12.6273
IN	-12.6274
▁comp	-12.6276
▁Norw	-12.6277
Th	-12.6284
power	-12.6293
RON	-12.6293
neath	-12.6305
LL	-12.6305
passed	-12.6306
Alas	-12.6307
etty	-12.6308
brother	-12.6308
▁fa	-12.6311
Light	-12.6311
▁contacts	-12.6313
Granger	-12.6316
SO	-12.6317
drawn	-12.6321
killed	-12.6325
Stan	-12.6326
Drop	-12.6327
inch	-12.6329
▁dock	-12.634
▁Short	-12.6342
getting	-12.6345
pink	-12.6348
Wizarding	-12.6356
Congratulations	-12.6356
Signed	-12.6357
Small	-12.636
into	-12.6369
Prince	-12.6371
▁wars	-12.6372
lic	-12.6373
pick	-12.6373
Ludo	-12.6374
▁prim	-12.6374
ecked	-12.6375
Morfin	-12.6376
Fawkes	-12.6376
Almost	-12.6376
dementor	-12.6378
Pretty	-12.6379
SHUT	-12.6381
Both	-12.6382
Jordan	-12.6382
iding	-12.6382
Speaking	-12.6385
▁drum	-12.6387
]	-12.6388
Such	-12.6388
Either	-12.6389
satisfied	-12.6391
Apparition	-12.6392
Shame	-12.6393
Lost	-12.6393
Slowly	-12.6395
▁compartments	-12.6395
▁helpful	-12.6397
mortal	-12.6398
Everybody	-12.6399
jinxes	-12.6401
Amos	-12.6402
Mom	-12.6402
Dawlish	-12.6402
stricken	-12.6403
Third	-12.6403
Sure	-12.6403
Except	-12.6404
sing	-12.6404
Trying	-12.641
connected	-12.641
seeking	-12.6411
Inside	-12.6412
operation	-12.6413
Madame	-12.6422
▁flag	-12.6422
Close	-12.6424
standard	-12.6428
been	-12.6429
▁Fight	-12.6431
▁involve	-12.6431
les	-12.6433
▁nip	-12.6435
▁undo	-12.6447
▁partial	-12.6448
▁wince	-12.645
▁Excellent	-12.6453
▁sprout	-12.646
▁hinkypunk	-12.6463
▁candidate	-12.6463
▁valentine	-12.6463
▁Cabinet	-12.6463
▁failure	-12.6464
▁crumpet	-12.6464
▁insect	-12.6466
▁flowerbed	-12.6476
Goblins	-12.6477
▁airplane	-12.6482
▁tantrum	-12.6482
▁throws	-12.6483
Wizards	-12.6484
▁margin	-12.6485
▁rosette	-12.6488
part	-12.6489
▁rebellion	-12.6489
▁Dungbomb	-12.6492
berries	-12.6492
▁pillar	-12.6493
▁3	-12.6493
▁compliment	-12.6502
Dragons	-12.6514
hooting	-12.6515
Mimbu	-12.6516
cha	-12.6517
▁Team	-12.652
lt	-12.6522
visibility	-12.653
laid	-12.6531
Wh	-12.6536
▁pate	-12.6541
▁realiz	-12.6543
▁peg	-12.6545
▁slim	-12.6547
▁arrogan	-12.6548
FORE	-12.6548
▁organ	-12.6563
▁Send	-12.657
eight	-12.657
ELL	-12.6571
heads	-12.6577
▁reverberat	-12.6579
RN	-12.6584
imply	-12.6586
▁clutch	-12.6589
▁develop	-12.659
rinkled	-12.6593
▁clench	-12.6593
▁snarl	-12.6594
▁splutter	-12.6594
▁polish	-12.6595
▁postpone	-12.6595
ringing	-12.6596
▁wrestle	-12.6596
▁subdue	-12.6597
▁stoop	-12.6597
▁snigger	-12.6597
▁observe	-12.6597
▁ou	-12.6598
▁grope	-12.6599
▁provoke	-12.6599
▁cease	-12.66
▁bustle	-12.66
▁dispose	-12.6601
▁purse	-12.6602
rian	-12.6602
▁collide	-12.6604
▁recruit	-12.6605
▁rouse	-12.6605
▁ambush	-12.6608
▁zigzagg	-12.6608
▁sustain	-12.6609
▁caption	-12.6609
▁consent	-12.6609
▁detach	-12.6611
▁sauce	-12.6611
▁pork	-12.6613
▁execution	-12.6615
▁appraising	-12.6615
▁sheepish	-12.6615
▁anguish	-12.6615
▁indignant	-12.6616
▁stubborn	-12.6616
▁affectionate	-12.6616
▁blunt	-12.6616
▁fruitless	-12.6616
▁exceptional	-12.6616
▁eavesdrop	-12.6617
▁astonishing	-12.6618
umpkin	-12.6618
▁kidnap	-12.6619
▁immortal	-12.6619
▁AGAIN	-12.6619
▁discern	-12.6619
HAGRID	-12.6619
▁Bletchley	-12.6619
▁accomplice	-12.6619
▁formidable	-12.6619
▁labyrinth	-12.6619
Ogwarts	-12.6619
STUBEFY	-12.6619
Wronski	-12.6619
▁Anglia	-12.6619
▁Archie	-12.6619
▁Catchpole	-12.6619
▁DARK	-12.6619
▁Dervish	-12.6619
▁Euan	-12.6619
▁Furious	-12.6619
▁Ghouls	-12.6619
▁Gregory	-12.6619
▁Hopkirk	-12.6619
▁Mermish	-12.6619
▁Nurmengard	-12.6619
▁Puddifoot	-12.6619
▁SCHOOL	-12.6619
▁SERVANT	-12.6619
▁Sanguini	-12.6619
▁Squinting	-12.6619
▁Supplies	-12.6619
▁Syllabary	-12.6619
▁Uranus	-12.6619
▁Valentine	-12.6619
▁Vulchanov	-12.6619
▁applicant	-12.6619
▁audience	-12.6619
▁autumn	-12.6619
▁banquet	-12.6619
▁bespectacled	-12.6619
▁cigarette	-12.6619
▁criticise	-12.6619
▁criticizing	-12.6619
▁dishevelled	-12.6619
▁distaste	-12.6619
▁emphasis	-12.6619
▁fruitcake	-12.6619
▁gawping	-12.6619
▁gormless	-12.6619
▁inclination	-12.6619
▁incorporating	-12.6619
▁infusion	-12.6619
▁innocence	-12.6619
▁intriguing	-12.6619
▁irksome	-12.6619
▁irresistibl	-12.6619
▁irritation	-12.6619
▁jubilation	-12.6619
▁landlord	-12.6619
▁liberty	-12.6619
▁librarian	-12.6619
▁loincloth	-12.6619
▁merchandise	-12.6619
▁mullioned	-12.6619
▁muscular	-12.6619
▁orchestra	-12.6619
▁palomino	-12.6619
▁paranoid	-12.6619
▁penalties	-12.6619
▁persistent	-12.6619
▁pockmarked	-12.6619
▁principle	-12.6619
▁quizzical	-12.6619
▁reassurance	-12.6619
▁recommend	-12.6619
▁restricted	-12.6619
▁reunited	-12.6619
▁routine	-12.6619
▁senior	-12.6619
▁societies	-12.6619
▁sycophantically	-12.6619
▁twiddled	-12.6619
▁unctuous	-12.6619
▁undetected	-12.6619
▁unearthed	-12.6619
▁unoccupied	-12.6619
▁unsuccessful	-12.6619
▁vindictive	-12.6619
▁Clearwater	-12.6619
▁FIREBOLT	-12.6619
▁Harpies	-12.6619
▁Nargles	-12.6619
▁President	-12.6619
▁Services	-12.6619
▁Status	-12.6619
▁Wellington	-12.6619
▁Widdershins	-12.6619
▁cockroach	-12.6619
▁dissolving	-12.6619
▁enhance	-12.6619
▁gorilla	-12.6619
▁inclining	-12.6619
▁laundry	-12.6619
▁mermaid	-12.6619
▁reindeer	-12.6619
▁rhythm	-12.6619
▁secrecy	-12.6619
▁tribute	-12.6619
▁Basil	-12.6619
▁Drooble	-12.6619
▁characteristic	-12.6619
▁discord	-12.6619
▁discouraged	-12.6619
▁excursion	-12.6619
▁flexible	-12.6619
▁footfalls	-12.6619
▁historian	-12.6619
▁levitating	-12.6619
▁Erumpent	-12.6619
▁cereal	-12.6619
▁downpour	-12.6619
▁enquired	-12.6619
▁ignorance	-12.6619
▁providing	-12.6619
▁delegation	-12.6619
▁grandparents	-12.6619
▁ignorant	-12.6619
▁unprotected	-12.6619
▁bishop	-12.6619
▁extraordinarily	-12.6619
▁parrot	-12.6619
▁ponytail	-12.6619
▁population	-12.6619
▁tattoo	-12.6619
▁tedious	-12.6619
▁confusing	-12.6619
▁dashboard	-12.6619
▁entertainment	-12.6619
▁grudge	-12.6619
▁reverie	-12.6619
Sectumsempra	-12.6619
▁rafters	-12.6619
▁Malfay	-12.6619
▁Between	-12.6619
▁Feint	-12.6619
▁brittle	-12.6619
▁rogue	-12.6619
▁salute	-12.6619
▁vigilance	-12.6619
▁insistence	-12.6619
▁scandalized	-12.6619
Collo	-12.6619
Tricky	-12.6619
▁Dueling	-12.6619
▁MAR	-12.6619
▁advisable	-12.6619
▁churning	-12.6619
▁fathom	-12.6619
▁profession	-12.6619
▁residence	-12.6619
▁eavesdropping	-12.6619
▁monkey	-12.6619
▁slumping	-12.6619
▁particle	-12.6619
▁composition	-12.6619
▁reeled	-12.6619
▁suffice	-12.6619
Diffindo	-12.6619
▁Sixty	-12.6619
▁furthest	-12.6619
▁OWN	-12.6619
▁unsupported	-12.6619
▁organisation	-12.6619
▁bawling	-12.6619
▁stragglers	-12.6619
▁Grinning	-12.6619
▁prickly	-12.6619
▁Mimsy	-12.6619
▁fringe	-12.6619
▁unstable	-12.6619
▁balancing	-12.6619
▁device	-12.6619
▁tabby	-12.6619
▁bullied	-12.6619
▁loophole	-12.6619
▁syllable	-12.6619
▁teashop	-12.6619
▁blouse	-12.6619
▁multicolored	-12.6619
▁cartoon	-12.6619
▁foggy	-12.6619
▁unbidden	-12.6619
▁edition	-12.6619
▁unmarked	-12.6619
▁shoppers	-12.6619
▁lumbered	-12.6619
▁parentage	-12.6619
▁shrug	-12.6619
▁France	-12.6619
▁quantities	-12.6619
Liar	-12.6619
▁resounding	-12.6619
▁impertinent	-12.6619
jawed	-12.6619
▁charred	-12.6619
▁10	-12.6619
▁skipping	-12.6619
▁sunrise	-12.6619
▁experiencing	-12.6619
▁WON	-12.6619
▁captor	-12.6619
▁sanity	-12.6619
▁sizzling	-12.6619
▁GOING	-12.6619
▁Ronnie	-12.6619
▁bedspread	-12.6619
▁Banges	-12.6619
▁decay	-12.6619
▁necessity	-12.6619
▁salmon	-12.6619
▁undergrowth	-12.6619
▁jail	-12.6619
▁smugness	-12.6619
▁shrivelled	-12.662
▁tassel	-12.662
▁chaos	-12.662
▁Firewhisky	-12.662
▁gentleman	-12.662
▁padlock	-12.662
▁championship	-12.662
▁Bridge	-12.662
▁pronouncement	-12.662
▁bristling	-12.662
▁uncorked	-12.662
▁minister	-12.662
▁woolen	-12.662
▁commentating	-12.662
▁raspberry	-12.662
▁Destiny	-12.662
▁collapsing	-12.662
▁jabbering	-12.662
▁uncanny	-12.662
▁enlarge	-12.662
▁Blowing	-12.662
▁swagger	-12.662
▁treachery	-12.662
▁slab	-12.662
▁consolingly	-12.662
▁courteously	-12.662
▁underestimate	-12.662
▁demolished	-12.662
▁policy	-12.662
▁distraction	-12.662
▁elongated	-12.662
▁monitored	-12.662
▁obtained	-12.662
▁diminished	-12.662
▁enslaved	-12.662
▁adjusted	-12.662
▁Scrim	-12.662
▁joyfully	-12.662
▁kip	-12.662
▁fidgeted	-12.662
▁daily	-12.662
▁euphoria	-12.662
▁thrashed	-12.662
▁bangles	-12.662
▁suffocating	-12.662
Release	-12.662
▁ascended	-12.662
▁sickened	-12.662
▁varied	-12.662
▁Spellman	-12.6621
▁guesswork	-12.6621
▁improving	-12.6621
▁hitherto	-12.6621
▁flaring	-12.6621
▁Laughing	-12.6621
▁displeased	-12.6621
▁stiffened	-12.6621
▁quarry	-12.6621
▁approvingly	-12.6621
▁undercover	-12.6621
▁advising	-12.6621
▁fairies	-12.6621
▁mercifully	-12.6621
▁imprisoning	-12.6621
▁patrolled	-12.6621
▁quickened	-12.6621
▁craving	-12.6621
▁gravy	-12.6621
▁Bank	-12.6621
Agrid	-12.6621
▁unwanted	-12.6621
▁creation	-12.6621
▁During	-12.6621
▁streamers	-12.6621
▁nightcap	-12.6621
▁mistreated	-12.6622
▁tremulously	-12.6622
▁radishes	-12.6622
▁clutches	-12.6622
▁semi	-12.6622
▁duelers	-12.6622
▁incensed	-12.6622
▁mumbling	-12.6622
▁screwing	-12.6622
▁disagreement	-12.6622
Interesting	-12.6622
▁trotted	-12.6622
▁scoff	-12.6622
▁unrecognizable	-12.6622
▁dripped	-12.6622
▁internal	-12.6622
▁frock	-12.6622
▁releasing	-12.6622
▁simpered	-12.6622
▁affectionately	-12.6622
▁lurid	-12.6622
▁smuggling	-12.6623
▁handwritten	-12.6623
▁regretting	-12.6623
▁unleash	-12.6623
▁deluded	-12.6623
▁snoutlike	-12.6623
▁nosebleed	-12.6623
▁whining	-12.6623
▁transfigured	-12.6623
▁ferociously	-12.6623
▁quest	-12.6623
▁HER	-12.6623
▁mince	-12.6623
▁simpering	-12.6624
▁tiredness	-12.6624
▁luckily	-12.6624
▁Marsh	-12.6624
▁dipping	-12.6624
▁relentlessly	-12.6624
▁regurgitating	-12.6624
▁wreath	-12.6624
▁raving	-12.6624
▁hairpin	-12.6624
▁flanking	-12.6624
▁picturing	-12.6624
▁whacking	-12.6624
▁major	-12.6625
▁adopted	-12.6625
▁overpowered	-12.6625
▁illness	-12.6625
▁smugly	-12.6625
▁cleverest	-12.6625
▁pompously	-12.6625
▁supreme	-12.6625
egian	-12.6625
▁Witches	-12.6625
▁thankfully	-12.6625
▁gagging	-12.6625
▁simmering	-12.6625
▁overexcited	-12.6625
▁mountainside	-12.6625
▁expanse	-12.6625
▁carving	-12.6625
▁mimed	-12.6625
▁crisply	-12.6626
▁stranded	-12.6626
▁compost	-12.6626
▁headdress	-12.6626
▁ensuring	-12.6626
▁exceed	-12.6626
▁household	-12.6626
▁difficulties	-12.6626
▁debt	-12.6626
▁colorless	-12.6627
▁reinstated	-12.6627
▁muck	-12.6627
▁swiveling	-12.6627
▁soggy	-12.6627
▁freckled	-12.6627
▁gnaw	-12.6627
▁realising	-12.6627
▁gouge	-12.6627
▁sprawl	-12.6627
▁wavy	-12.6627
▁peacefully	-12.6628
ceilinged	-12.6628
▁indicate	-12.6629
▁catastrophe	-12.6629
▁Broom	-12.6629
▁Hermes	-12.6629
▁Gum	-12.6629
▁zigzagged	-12.6629
▁disrupt	-12.6629
▁plunk	-12.6629
▁everythin	-12.663
▁beloved	-12.663
▁shockingly	-12.663
▁Europe	-12.663
▁waxy	-12.663
▁Transfigured	-12.6631
▁antlers	-12.6631
▁loosening	-12.6631
▁contented	-12.6631
▁rapping	-12.6631
▁berth	-12.6631
▁neglected	-12.6631
▁brightness	-12.6632
Silencio	-12.6632
▁attractive	-12.6632
▁lateness	-12.6632
▁pickled	-12.6632
▁Albert	-12.6632
▁echoes	-12.6632
▁haff	-12.6633
▁leafy	-12.6633
▁fleetingly	-12.6633
▁haunting	-12.6634
▁elated	-12.6634
▁steeply	-12.6634
▁spluttering	-12.6634
▁sagged	-12.6634
▁spectacularly	-12.6634
▁jostled	-12.6634
▁THEM	-12.6634
▁football	-12.6634
▁angel	-12.6635
▁endlessly	-12.6635
▁devil	-12.6635
▁intervened	-12.6635
▁eve	-12.6636
▁Carry	-12.6636
▁Beginners	-12.6636
▁Pastilles	-12.6636
▁goalposts	-12.6636
▁lightened	-12.6636
▁tighten	-12.6636
▁plait	-12.6637
▁mascots	-12.6637
▁brightest	-12.6637
▁disarmed	-12.6637
▁translation	-12.6637
▁powerless	-12.6638
▁inquired	-12.6638
▁giveaway	-12.6638
▁admittedly	-12.6638
▁wrap	-12.6638
▁jealousy	-12.6639
▁shattering	-12.6639
▁crackled	-12.6639
▁booth	-12.664
▁Fly	-12.6641
▁clanging	-12.6641
▁tinge	-12.6641
detectable	-12.6641
▁pinning	-12.6642
▁falter	-12.6642
▁satisfying	-12.6642
▁magnificently	-12.6642
▁TALK	-12.6642
lumbering	-12.6642
gum	-12.6643
Outer	-12.6643
!”	-12.6644
▁spew	-12.6644
▁fussed	-12.6646
Locker	-12.6646
▁roved	-12.6646
▁dearest	-12.6646
▁flourishing	-12.6646
▁moustache	-12.6647
▁dryly	-12.6647
▁whooping	-12.6647
▁weeping	-12.6648
▁flowered	-12.6648
▁hatched	-12.6648
▁inkling	-12.6648
▁wiser	-12.6649
▁phase	-12.6649
▁Saturn	-12.665
▁Dora	-12.665
▁ALBUS	-12.6651
▁pewter	-12.6651
▁ATTACK	-12.6651
▁MORE	-12.6651
▁Blaise	-12.6651
▁HELP	-12.6651
▁strangling	-12.6651
▁DIED	-12.6651
▁Strong	-12.6651
▁Legilimens	-12.6651
▁spangled	-12.6651
▁manic	-12.6651
▁Golpalott	-12.6651
Us	-12.6651
▁invincible	-12.6651
▁Fortunately	-12.6651
▁CAN	-12.6651
ninny	-12.6652
▁Shaking	-12.6652
▁Ottery	-12.6652
▁detection	-12.6652
▁thieves	-12.6652
▁claiming	-12.6653
▁notorious	-12.6653
▁relaxing	-12.6653
▁hasty	-12.6654
▁honey	-12.6655
▁Consider	-12.6656
▁flies	-12.6656
▁dozing	-12.6657
▁hidin	-12.6659
▁protested	-12.6659
▁yearning	-12.666
lga	-12.6661
▁carols	-12.6661
▁lizard	-12.6661
▁Art	-12.6661
▁interrupting	-12.6662
▁moron	-12.6662
▁lurching	-12.6664
▁fours	-12.6665
▁alerted	-12.6665
▁Gray	-12.6666
▁innit	-12.6666
Goodness	-12.6666
▁flattering	-12.6666
▁stumping	-12.6666
▁divid	-12.6667
▁balanced	-12.6669
▁bathed	-12.6669
▁crib	-12.667
▁tiled	-12.6671
endous	-12.6671
▁camping	-12.6671
▁clutter	-12.6672
▁Year	-12.6673
▁fastest	-12.6673
▁snored	-12.6673
Sh	-12.6674
▁hardest	-12.6674
▁Mary	-12.6676
▁feign	-12.6676
ryone	-12.6677
▁sightings	-12.6679
▁repeating	-12.6679
▁veiled	-12.668
▁reversed	-12.668
table	-12.668
▁darkest	-12.6682
▁convey	-12.6683
▁Mo	-12.6684
▁touches	-12.6684
▁triumphed	-12.6684
▁reality	-12.6685
▁overlarge	-12.6685
▁cleaner	-12.6687
▁wiry	-12.6688
▁cours	-12.6689
mashed	-12.6689
▁blinded	-12.669
voiced	-12.669
▁nuts	-12.6691
▁dueled	-12.6693
▁shards	-12.6693
▁Firs	-12.6693
▁degrees	-12.6694
▁theories	-12.6694
Hmmm	-12.6695
▁descendants	-12.6695
▁Nifflers	-12.6695
▁biscuits	-12.6695
▁flobberworms	-12.6695
▁progressed	-12.6695
▁distantly	-12.6696
olding	-12.6699
▁Dilys	-12.6699
▁dishonor	-12.6702
▁Confunded	-12.6703
▁hinted	-12.6704
▁inhabited	-12.6705
▁bundled	-12.6705
▁riddle	-12.6706
wind	-12.6706
▁wistful	-12.6708
reedy	-12.6709
▁eff	-12.671
▁quilt	-12.671
▁pe	-12.671
▁Quickly	-12.6711
▁defending	-12.6713
▁wonderingly	-12.6713
▁recount	-12.6715
▁rockets	-12.6715
▁fi	-12.6715
▁EVER	-12.6716
▁assent	-12.672
▁boyfriend	-12.6721
▁unstead	-12.6722
▁mending	-12.6722
▁earrings	-12.6723
▁channels	-12.6723
▁skeletons	-12.6724
▁ancestors	-12.6724
▁preparations	-12.6725
▁bookcases	-12.6725
▁complaints	-12.6727
▁tread	-12.6728
▁haunts	-12.6729
▁orphans	-12.6731
mity	-12.6734
▁jumpy	-12.6735
lipped	-12.6741
▁available	-12.6741
▁planet	-12.6742
▁taunting	-12.6742
▁X	-12.6743
▁pawn	-12.6744
▁uncoil	-12.6744
rn	-12.6745
raided	-12.6745
▁discipline	-12.6748
▁Beaky	-12.6748
▁lounge	-12.6748
▁moody	-12.6748
▁Tomorrow	-12.6749
▁plucked	-12.675
▁longest	-12.675
▁speaker	-12.675
▁flags	-12.6752
▁boars	-12.6752
▁LEAVE	-12.6753
cent	-12.6755
▁misted	-12.6756
▁practised	-12.6756
▁journeyed	-12.6757
PEE	-12.6758
▁whil	-12.6758
▁suffocate	-12.6759
▁patchy	-12.6763
▁disposed	-12.6765
sk	-12.6767
▁experiments	-12.677
▁treasured	-12.677
▁soap	-12.677
▁ickle	-12.6772
▁Stick	-12.6775
▁acknowledge	-12.6779
Aqua	-12.6781
▁gra	-12.6781
▁carpeted	-12.6782
▁transformations	-12.6784
Losing	-12.6785
▁ripples	-12.6785
▁bull	-12.6787
▁timetables	-12.6788
▁ge	-12.6789
▁keepers	-12.6789
▁Non	-12.6789
▁stored	-12.6791
▁Bert	-12.6793
-----	-12.6793
▁Di	-12.6795
▁venomous	-12.6795
▁Since	-12.6796
▁nettle	-12.6796
▁approved	-12.6798
▁wil	-12.68
dboard	-12.6801
ime	-12.6802
▁Probe	-12.6804
▁??``	-12.6809
▁van	-12.6809
▁rays	-12.681
Yourself	-12.6811
▁Force	-12.6813
▁greed	-12.6813
▁achievements	-12.6814
▁bonds	-12.6815
▁wrongly	-12.6818
▁rocked	-12.6821
▁decree	-12.6824
▁boos	-12.6831
▁touchy	-12.6831
▁lashed	-12.6834
▁nutters	-12.6836
opping	-12.6843
▁locations	-12.6843
▁dwarfs	-12.6844
▁restraint	-12.6846
▁calming	-12.6848
Oy	-12.6848
▁spines	-12.6849
▁Shame	-12.6852
laying	-12.6852
▁smack	-12.6861
about	-12.6862
▁Such	-12.6863
▁kinder	-12.6866
▁desired	-12.6867
▁towns	-12.6871
▁criminals	-12.6874
▁textbooks	-12.6874
icked	-12.688
▁pods	-12.688
▁Lost	-12.6883
▁secretary	-12.6889
▁Along	-12.6891
▁subjected	-12.6892
▁fray	-12.6896
▁Cissy	-12.6897
▁SIRIUS	-12.6898
▁Fifty	-12.6898
▁courtrooms	-12.6904
▁bold	-12.6904
▁Trust	-12.6908
OWLS	-12.6908
▁lids	-12.6908
▁procur	-12.6913
▁unscrew	-12.6914
▁stile	-12.6914
▁staircases	-12.6919
makers	-12.6919
law	-12.6928
▁wen	-12.6929
▁Wh	-12.693
▁Gadd	-12.6931
umors	-12.6935
▁Snorkacks	-12.6936
▁scrutini	-12.6938
▁skins	-12.694
▁plunge	-12.694
▁merry	-12.6945
▁Careful	-12.6952
▁bo	-12.6954
dance	-12.6956
▁reasoned	-12.6957
iv	-12.696
▁Dep	-12.6964
▁Bat	-12.6971
▁quake	-12.6973
▁flatter	-12.6976
warts	-12.6982
▁greetings	-12.6991
▁Six	-12.6999
stone	-12.7006
▁angles	-12.7016
og	-12.7017
▁THIN	-12.7017
▁banners	-12.7019
▁Qu	-12.7022
▁suggestions	-12.7022
▁vampires	-12.7023
▁slot	-12.7027
▁billow	-12.703
▁threats	-12.7032
ple	-12.7032
even	-12.7036
▁knitted	-12.7047
▁titles	-12.7048
▁nurs	-12.7048
would	-12.7051
agging	-12.7052
hem	-12.7052
▁mouthfuls	-12.7052
▁disguises	-12.7061
▁colours	-12.7065
▁requires	-12.7072
rbert	-12.7072
▁charts	-12.7073
▁bro	-12.7077
▁Hope	-12.7079
▁pret	-12.7079
▁barks	-12.7091
▁Point	-12.7092
▁moans	-12.7094
ouple	-12.7094
▁Evening	-12.7095
▁stark	-12.7097
▁Gues	-12.7098
▁Goblins	-12.7101
▁fortunately	-12.7102
▁explosions	-12.7112
▁repress	-12.7112
slung	-12.7113
▁dorm	-12.7116
designed	-12.7118
uff	-12.7122
visibly	-12.7124
▁refuses	-12.7124
▁spect	-12.7127
▁Hi	-12.7127
▁Sh	-12.713
▁protests	-12.7135
bum	-12.714
▁raged	-12.7144
▁lookouts	-12.7152
▁bursts	-12.7154
▁Jus	-12.7154
▁farthe	-12.7169
▁rein	-12.7173
Change	-12.7177
▁Wa	-12.7178
eased	-12.7182
bled	-12.7185
going	-12.7198
▁`1	-12.7199
▁howls	-12.7202
▁stacks	-12.7204
▁hap	-12.7206
▁revert	-12.7225
▁interrogat	-12.7238
▁heaps	-12.7241
▁stays	-12.7249
▁squeaks	-12.725
▁barricade	-12.7252
▁humm	-12.728
▁trolleys	-12.7291
uck	-12.7295
io	-12.7297
▁pocketing	-12.7297
IR	-12.73
▁Curious	-12.7302
▁graze	-12.7304
ga	-12.7309
ok	-12.7314
▁seating	-12.7324
▁heated	-12.7325
▁Part	-12.7343
▁fr	-12.735
Unti	-12.7367
▁Him	-12.7368
ving	-12.7369
▁bill	-12.737
ab	-12.7389
ICE	-12.7395
hold	-12.7398
▁streams	-12.7401
▁experiences	-12.7406
▁wonders	-12.7411
▁Pr	-12.7415
▁stores	-12.7417
▁knowin	-12.7423
▁dre	-12.7423
▁ve	-12.7426
ell	-12.7427
▁Near	-12.743
wand	-12.7431
▁Bob	-12.7432
cal	-12.7434
▁paintings	-12.7434
urned	-12.7436
quiringly	-12.7446
tensely	-12.7447
▁duels	-12.7449
▁ALL	-12.7454
▁corp	-12.7455
ran	-12.7461
him	-12.7462
▁enjoys	-12.7471
ITCH	-12.7493
LY	-12.7494
▁scrubb	-12.7501
aaaah	-12.7524
▁strangers	-12.7528
▁sweaters	-12.7531
,”	-12.7537
▁lettering	-12.7564
▁fl	-12.7567
Year	-12.7578
still	-12.7592
▁des	-12.7622
▁pry	-12.7636
lo	-12.7636
bledore	-12.7664
▁Tall	-12.767
▁cottages	-12.7676
▁butterbeers	-12.7678
▁carpets	-12.7679
▁trays	-12.7687
▁accuse	-12.7688
▁Small	-12.7694
▁actions	-12.7694
cluded	-12.77
▁Snapes	-12.7703
▁situations	-12.7707
▁traces	-12.7711
ering	-12.7722
▁Teach	-12.7723
nce	-12.7726
▁killings	-12.7732
sorted	-12.7737
ched	-12.7746
▁pummel	-12.7753
▁retrac	-12.7755
▁proves	-12.7757
▁SM	-12.7759
ards	-12.7789
▁??`	-12.7803
▁art	-12.7805
▁sentences	-12.7824
▁Marauders	-12.7824
▁fin	-12.783
▁accus	-12.7832
ading	-12.7838
ality	-12.7847
ged	-12.7852
rode	-12.7853
▁doubl	-12.7856
▁Har	-12.7858
▁dump	-12.786
▁wh	-12.7864
▁mut	-12.7867
▁chanced	-12.7875
never	-12.7876
IND	-12.7893
▁Hot	-12.7899
▁dears	-12.7904
▁bites	-12.7929
TS	-12.793
▁Ford	-12.7961
▁unroll	-12.7963
ess	-12.7981
dgy	-12.7987
ore	-12.7989
▁Hold	-12.8026
▁:	-12.8033
eet	-12.8049
▁speaks	-12.8054
▁batch	-12.8057
▁Dunno	-12.8059
▁Stop	-12.8064
oping	-12.8065
hunting	-12.8066
▁plug	-12.8068
▁scrub	-12.8068
▁dawdle	-12.8069
▁Ice	-12.8072
ties	-12.8074
▁torment	-12.8086
▁concoct	-12.8089
▁peas	-12.8089
ile	-12.8091
▁outnumber	-12.8092
▁clink	-12.8095
▁surprises	-12.8103
▁Co	-12.8118
▁whoop	-12.8122
▁submit	-12.8125
▁Sit	-12.8129
▁bowls	-12.8129
pelled	-12.8141
▁Mungos	-12.8143
▁Wel	-12.8143
▁Pick	-12.8143
▁snuff	-12.8147
▁Reducto	-12.816
dden	-12.8163
lot	-12.8163
0	-12.8169
good	-12.8173
ery	-12.8176
▁Open	-12.818
▁honour	-12.818
gar	-12.8182
aught	-12.8188
▁impose	-12.8191
▁Making	-12.8194
▁project	-12.8205
▁squelch	-12.821
word	-12.8225
Seven	-12.8237
▁boo	-12.8242
from	-12.8251
▁cr	-12.828
heartedly	-12.8283
▁Less	-12.8286
▁shove	-12.8287
▁imp	-12.8289
Pay	-12.8303
ipping	-12.8303
▁chop	-12.8308
must	-12.8316
▁clo	-12.8316
▁Seekers	-12.8326
▁Wil	-12.8326
▁tarnish	-12.833
Writ	-12.8334
▁insider	-12.8337
esn	-12.8344
▁Instant	-12.8362
▁jo	-12.8379
witch	-12.8381
▁handles	-12.8388
▁fumbl	-12.8388
▁ir	-12.839
case	-12.8393
master	-12.8418
ial	-12.8423
`?	-12.8425
od	-12.8441
▁frill	-12.8456
▁scorch	-12.847
▁beats	-12.8472
▁guid	-12.8472
has	-12.8483
Obliviate	-12.8486
▁ado	-12.8507
▁busi	-12.8518
bolt	-12.8519
until	-12.853
orn	-12.8539
▁FL	-12.8544
rely	-12.8546
form	-12.8553
doing	-12.8553
does	-12.8554
ee	-12.8567
ition	-12.857
ot	-12.8578
Talk	-12.8588
▁dedicate	-12.8588
▁fret	-12.8589
shed	-12.8604
▁silenced	-12.8607
CK	-12.8608
▁Break	-12.8612
▁breaks	-12.8615
breath	-12.8619
body	-12.8624
▁swan	-12.8643
Tut	-12.8643
TER	-12.8644
usual	-12.8645
aving	-12.8648
▁gar	-12.8661
IGH	-12.8668
CH	-12.8677
best	-12.8689
▁('	-12.8692
Add	-12.8692
▁shy	-12.8697
▁supplie	-12.8698
▁Man	-12.8699
▁tick	-12.8701
Bagman	-12.871
ay	-12.8711
▁memo	-12.8714
tray	-12.872
deep	-12.8721
Under	-12.8721
girl	-12.8723
▁towers	-12.8724
nog	-12.8733
▁active	-12.8747
Dean	-12.8753
fine	-12.8763
AND	-12.8763
▁tur	-12.8764
chart	-12.8765
home	-12.877
ink	-12.8773
▁loo	-12.8773
kins	-12.8776
HA	-12.8779
▁sane	-12.878
▁div	-12.878
▁sees	-12.8781
earning	-12.8792
Lie	-12.8792
view	-12.8792
specially	-12.8795
Odd	-12.8796
Skeeter	-12.8797
worth	-12.88
figure	-12.8801
Accident	-12.8802
Buckbeak	-12.8802
Gues	-12.8802
Angelina	-12.8804
▁hack	-12.8806
control	-12.8806
▁ow	-12.8809
Pettigrew	-12.8809
ung	-12.8817
▁-?'	-12.8821
Answer	-12.8825
▁horrors	-12.8827
Greyback	-12.8828
nceforth	-12.8837
▁por	-12.8838
order	-12.8839
worn	-12.8848
Divination	-12.8848
mate	-12.8851
Firenze	-12.8852
Everard	-12.8852
Family	-12.8853
Straight	-12.8853
Midnight	-12.8854
Elf	-12.8854
McLaggen	-12.8856
Tuney	-12.8858
Clearly	-12.8858
Marge	-12.8859
oving	-12.8863
Headmaster	-12.8863
umped	-12.8863
Call	-12.8865
awake	-12.8866
▁sec	-12.8867
Trust	-12.8868
Auror	-12.8871
EVE	-12.8874
TAL	-12.8875
Aragog	-12.8876
Barty	-12.8877
Fight	-12.8878
Bring	-12.8878
Seriously	-12.8878
grandson	-12.8879
enter	-12.8879
Nasty	-12.8879
Dolores	-12.8881
sentence	-12.8881
Neither	-12.8882
bow	-12.8882
Travers	-12.8882
market	-12.8884
FOR	-12.8885
lax	-12.8886
Drink	-12.8886
School	-12.8887
▁cute	-12.8887
wood	-12.8891
Stunned	-12.8891
proof	-12.8894
Bode	-12.8895
Long	-12.8895
qualified	-12.8896
▁17	-12.8896
LET	-12.8896
GRYFFINDOR	-12.8898
Weird	-12.8898
Although	-12.8898
Together	-12.8899
Firstly	-12.8899
ALL	-12.8901
Loony	-12.8901
Mother	-12.8902
Other	-12.8906
▁wart	-12.8908
▁rap	-12.8909
framed	-12.8909
HAVE	-12.891
Getting	-12.8913
Mars	-12.8913
Charms	-12.8917
laden	-12.8919
GO	-12.8921
Gran	-12.8923
safe	-12.8926
Break	-12.8927
▁Car	-12.8928
`),	-12.8934
Along	-12.8935
shall	-12.8937
Blast	-12.8939
▁boar	-12.8941
▁pond	-12.8942
▁nut	-12.8944
▁migh	-12.8945
Went	-12.8947
pin	-12.895
▁Prewett	-12.8962
▁commentator	-12.8963
▁bathrobe	-12.8964
▁puddle	-12.8965
▁bandage	-12.8965
lookin	-12.8968
▁prince	-12.8969
▁haunt	-12.8972
bull	-12.8972
▁recipe	-12.8973
bandoning	-12.8973
▁Gurdyroot	-12.8976
▁saucepan	-12.8976
▁phial	-12.8976
lity	-12.8976
▁orphan	-12.8977
▁dodge	-12.8978
▁REAL	-12.898
▁relation	-12.898
▁privilege	-12.8982
logy	-12.8982
VES	-12.8982
▁invention	-12.8983
▁preparation	-12.8985
▁ancestor	-12.8985
▁skeleton	-12.8985
Evening	-12.8985
disguised	-12.8986
▁channel	-12.8988
▁coil	-12.8988
hater	-12.899
lid	-12.899
▁dustbin	-12.899
▁Patronu	-12.899
OY	-12.899
▁bookcase	-12.899
▁ingredient	-12.899
▁occupant	-12.8991
bend	-12.8991
▁pajama	-12.8992
▁decoration	-12.8993
▁birthdays	-12.8995
▁demon	-12.8996
▁flop	-12.8997
▁fastening	-12.8999
▁buff	-12.9001
▁earring	-12.9003
▁BIR	-12.9009
ak	-12.9009
▁trumpet	-12.9014
▁remembers	-12.9017
▁opal	-12.9025
mates	-12.9025
Coward	-12.9028
▁vine	-12.9031
▁spear	-12.9037
▁kep	-12.9037
▁souls	-12.9037
stand	-12.904
ark	-12.9043
eur	-12.9044
tly	-12.9049
ORD	-12.9057
▁aroun	-12.9065
Ooooo	-12.9065
▁holds	-12.9066
ement	-12.9067
▁code	-12.9069
▁Profes	-12.9075
▁overlook	-12.9077
▁torrent	-12.9078
▁emanat	-12.9079
▁Trouble	-12.9081
▁clamber	-12.9082
▁log	-12.9083
▁measur	-12.9084
▁droop	-12.9085
▁obscur	-12.9086
▁cracker	-12.9086
▁achiev	-12.9087
▁echo	-12.909
OLD	-12.909
▁decipher	-12.9091
▁tryout	-12.9091
▁distress	-12.9092
▁criticize	-12.9092
▁reflect	-12.9092
▁hush	-12.9095
▁scoop	-12.9095
▁mix	-12.9095
▁sputter	-12.9096
lew	-12.9097
drunk	-12.9097
▁survey	-12.9097
▁hammer	-12.9097
▁stifle	-12.9097
▁intervene	-12.9098
▁involuntar	-12.9099
▁organize	-12.9099
▁super	-12.91
▁dash	-12.91
▁stumble	-12.91
▁tube	-12.91
▁resemble	-12.9102
▁whack	-12.9103
▁marvel	-12.9103
▁bleed	-12.9103
▁confine	-12.9103
▁peel	-12.9103
▁imitate	-12.9105
▁constrict	-12.9106
▁unite	-12.9106
Sound	-12.9107
▁steer	-12.9107
▁crisscross	-12.9108
▁mistrust	-12.9108
▁shrivel	-12.9108
▁shepherd	-12.9108
mpty	-12.9109
▁detest	-12.911
▁trundl	-12.911
▁desert	-12.911
inned	-12.911
▁suspend	-12.9111
▁foam	-12.9111
Filth	-12.9111
▁bulk	-12.9112
▁squirt	-12.9115
▁jubilant	-12.9115
▁skeptical	-12.9115
▁valiant	-12.9115
▁potential	-12.9115
▁tremulous	-12.9115
▁dismal	-12.9116
▁solemn	-12.9116
▁explosi	-12.9116
heeled	-12.9116
▁intrude	-12.9116
▁wriggle	-12.9116
▁drone	-12.9116
▁rapid	-12.9116
▁crook	-12.9117
▁Quest	-12.9117
▁meaningful	-12.9118
▁shrunk	-12.9118
▁thwart	-12.9118
▁ecstatic	-12.9118
▁apologetic	-12.9119
▁dyin	-12.9119
SLYTHERIN	-12.9119
▁PLEASE	-12.9119
Dissendium	-12.9119
▁Corresponden	-12.9119
▁remedies	-12.9119
$	-12.9119
Baddock	-12.9119
Darling	-12.9119
Eurgh	-12.9119
Farewell	-12.9119
Frightened	-12.9119
Nonsense	-12.9119
Pathetic	-12.9119
Porpington	-12.9119
RAVENCLAW	-12.9119
VOLDEMORT	-12.9119
▁AUNT	-12.9119
▁Banshee	-12.9119
▁Bewildered	-12.9119
▁Bonaccord	-12.9119
▁Criminal	-12.9119
▁Eeylops	-12.9119
▁Fancies	-12.9119
▁Fawcett	-12.9119
▁Fifteen	-12.9119
▁Goshawk	-12.9119
▁Holyhead	-12.9119
▁INQUISITOR	-12.9119
▁Kirke	-12.9119
▁Malcolm	-12.9119
▁Menagerie	-12.9119
▁Miranda	-12.9119
▁NUMBER	-12.9119
▁Pellets	-12.9119
▁Permanent	-12.9119
▁Polkiss	-12.9119
▁SHOULD	-12.9119
▁Spectrespecs	-12.9119
▁Spiders	-12.9119
▁Stoatshead	-12.9119
▁Stubby	-12.9119
▁Surrey	-12.9119
▁Taboo	-12.9119
▁Umbndge	-12.9119
▁Venus	-12.9119
▁Warbeck	-12.9119
▁Xeno	-12.9119
▁balcony	-12.9119
▁bartender	-12.9119
▁bawled	-12.9119
▁bonnet	-12.9119
▁buffeted	-12.9119
▁cactus	-12.9119
▁casserole	-12.9119
▁cathedral	-12.9119
▁cherub	-12.9119
▁clumsy	-12.9119
▁conspicuous	-12.9119
▁cornflakes	-12.9119
▁culminat	-12.9119
▁deliberation	-12.9119
▁dessert	-12.9119
▁disconsolate	-12.9119
▁discredit	-12.9119
▁dittany	-12.9119
▁dumbfounded	-12.9119
▁elusive	-12.9119
▁emaciated	-12.9119
▁encircled	-12.9119
▁exclamation	-12.9119
▁extensive	-12.9119
▁fascination	-12.9119
▁generosity	-12.9119
▁hamburger	-12.9119
▁haphazardly	-12.9119
▁haywire	-12.9119
▁incredulity	-12.9119
▁indignity	-12.9119
▁infirmary	-12.9119
▁innumerable	-12.9119
▁insignificant	-12.9119
▁insubstantial	-12.9119
▁isolated	-12.9119
▁ketchup	-12.9119
▁mahogany	-12.9119
▁marriage	-12.9119
▁mediocre	-12.9119
▁midriff	-12.9119
▁misfortune	-12.9119
▁misgivings	-12.9119
▁monument	-12.9119
▁obliterated	-12.9119
▁obliterating	-12.9119
▁oblivion	-12.9119
▁obsessive	-12.9119
▁ostentatiously	-12.9119
▁perturbed	-12.9119
▁piano	-12.9119
▁plummeting	-12.9119
▁presume	-12.9119
▁pristine	-12.9119
▁privacy	-12.9119
▁rebirth	-12.9119
▁sabotage	-12.9119
▁savior	-12.9119
▁shrivelfig	-12.9119
▁skepticism	-12.9119
▁smoulder	-12.9119
▁sumptuous	-12.9119
▁talisman	-12.9119
▁tendency	-12.9119
▁thirtieth	-12.9119
▁treacherous	-12.9119
▁unbearable	-12.9119
▁undamaged	-12.9119
▁unpopular	-12.9119
▁unprecedented	-12.9119
▁unreasonable	-12.9119
▁waterlogged	-12.9119
▁Cadwallader	-12.9119
▁Clankers	-12.9119
▁Fabian	-12.9119
▁Handbook	-12.9119
▁Instinctively	-12.9119
▁Occlumens	-12.9119
▁Plimpies	-12.9119
▁Royal	-12.9119
▁casket	-12.9119
▁comparison	-12.9119
▁external	-12.9119
▁flabbergasted	-12.9119
▁juicy	-12.9119
▁meekly	-12.9119
▁multiply	-12.9119
▁observation	-12.9119
▁singsong	-12.9119
▁vengeance	-12.9119
Gerroff	-12.9119
▁ALONE	-12.9119
▁Algie	-12.9119
▁Robins	-12.9119
▁THREE	-12.9119
▁activities	-12.9119
▁cotton	-12.9119
▁editor	-12.9119
▁endurance	-12.9119
▁gunshot	-12.9119
▁manacle	-12.9119
▁nonexistent	-12.9119
▁radiant	-12.9119
▁unfolding	-12.9119
▁vehement	-12.9119
decker	-12.9119
▁riverbank	-12.9119
▁snuffbox	-12.9119
▁deluge	-12.9119
▁enviously	-12.9119
▁groggy	-12.9119
▁palmistry	-12.9119
▁sentinel	-12.9119
Damn	-12.9119
▁Immediately	-12.9119
▁Reversal	-12.9119
▁WRONG	-12.9119
▁bulldog	-12.9119
▁buoyant	-12.9119
▁burial	-12.9119
▁grandeur	-12.9119
▁grievous	-12.9119
▁mortified	-12.9119
▁numerous	-12.9119
▁recognition	-12.9119
▁reverence	-12.9119
▁tirelessly	-12.9119
▁SUPPO	-12.9119
▁blandly	-12.9119
▁excitable	-12.9119
▁waistband	-12.9119
▁bleary	-12.9119
▁Africa	-12.9119
▁Filius	-12.9119
▁Fuming	-12.9119
▁astride	-12.9119
▁bloodstains	-12.9119
▁misleading	-12.9119
▁specific	-12.9119
▁toothbrush	-12.9119
▁Pausing	-12.9119
▁constitute	-12.9119
▁gouging	-12.9119
▁smattering	-12.9119
▁Country	-12.9119
▁Tibbles	-12.9119
▁eggnog	-12.9119
▁memorial	-12.9119
▁repayment	-12.9119
▁scandalised	-12.9119
▁captive	-12.9119
▁expertise	-12.9119
▁Hopefully	-12.9119
▁flowerpot	-12.9119
▁opposition	-12.9119
▁FATHER	-12.9119
▁indication	-12.9119
▁twilit	-12.9119
▁unaccompanied	-12.9119
▁energetically	-12.9119
▁queasy	-12.9119
▁cancelled	-12.9119
▁fungi	-12.9119
▁garlic	-12.9119
▁havoc	-12.9119
▁percent	-12.9119
▁LAST	-12.9119
▁vermin	-12.9119
▁smock	-12.9119
▁devised	-12.9119
▁retribution	-12.9119
DENTS	-12.9119
▁courtesy	-12.9119
▁Incantatem	-12.9119
▁mermen	-12.9119
▁misunderstand	-12.9119
▁gambling	-12.9119
▁greedily	-12.9119
▁tolerance	-12.9119
uddleme	-12.9119
▁spasm	-12.9119
Finite	-12.9119
▁kidnapped	-12.9119
▁Accidental	-12.9119
▁END	-12.9119
▁celebrity	-12.9119
▁diverted	-12.9119
▁STILL	-12.9119
▁merman	-12.9119
▁contagious	-12.9119
▁dismissal	-12.9119
▁repulsed	-12.9119
▁contribution	-12.9119
▁trilled	-12.9119
▁Narrow	-12.9119
▁hawthorn	-12.9119
▁marvelous	-12.9119
▁lamely	-12.9119
▁ninth	-12.9119
▁uncertainty	-12.9119
▁dismay	-12.9119
▁strapping	-12.9119
▁nonstop	-12.9119
▁peanuts	-12.9119
wishers	-12.9119
▁LORD	-12.9119
▁uneasily	-12.9119
▁workload	-12.9119
Parents	-12.9119
▁pellet	-12.9119
▁Toffee	-12.9119
▁Barmy	-12.9119
▁disruption	-12.9119
▁paragraph	-12.9119
▁flailed	-12.9119
▁boomslang	-12.9119
▁Snivelly	-12.9119
▁jovially	-12.9119
▁maddeningly	-12.9119
▁singularly	-12.9119
▁tantalizingly	-12.9119
▁harness	-12.9119
▁beadily	-12.9119
▁Hastily	-12.9119
▁identification	-12.912
▁BROOM	-12.912
▁Medi	-12.912
▁survival	-12.912
▁interrogate	-12.912
▁Obliviator	-12.912
▁ushering	-12.912
▁Peru	-12.912
▁superiority	-12.912
ptitude	-12.912
▁goldfish	-12.912
▁Stupefied	-12.912
▁compass	-12.912
▁edible	-12.912
▁hovel	-12.912
▁mutely	-12.912
▁passersby	-12.912
▁emergency	-12.912
▁spattering	-12.912
▁peaky	-12.912
▁tragically	-12.912
▁ploughed	-12.912
▁rosebushes	-12.912
▁13	-12.912
▁unsmiling	-12.912
▁contemplation	-12.912
▁elapsed	-12.912
▁solidified	-12.912
▁menace	-12.912
▁disapproved	-12.912
▁Cakes	-12.912
YEH	-12.912
▁Rowena	-12.912
▁Remover	-12.912
▁biography	-12.912
▁strawberry	-12.912
▁Eric	-12.912
▁despairingly	-12.912
▁abusing	-12.912
Spect	-12.912
▁naughty	-12.912
▁unbroken	-12.912
▁Binky	-12.912
▁lengthening	-12.912
▁Stonewall	-12.912
▁simultaneously	-12.912
▁banning	-12.912
▁consideration	-12.912
▁armpit	-12.912
▁foals	-12.912
Settle	-12.912
▁planner	-12.912
Balderdash	-12.912
▁waddling	-12.912
▁imposter	-12.912
▁congealed	-12.912
▁envy	-12.912
▁taxi	-12.912
▁immobilized	-12.9121
▁palace	-12.9121
Enchant	-12.9121
▁interrogation	-12.9121
▁shameful	-12.9121
▁wheedle	-12.9121
▁hunchbacked	-12.9121
▁popularity	-12.9121
bodied	-12.9121
▁unblocked	-12.9121
▁Fail	-12.9121
▁mourning	-12.9121
▁suspension	-12.9121
▁consciousness	-12.9121
▁sittin	-12.9121
▁dismounted	-12.9121
▁sponge	-12.9121
▁sweetshop	-12.9121
▁unsettled	-12.9121
▁Jack	-12.9121
▁unseated	-12.9121
▁discoveries	-12.9121
▁erected	-12.9121
▁bookshop	-12.9121
▁grazing	-12.9121
▁strutting	-12.9121
▁mesmerized	-12.9121
▁recognizing	-12.9121
▁succession	-12.9121
▁worthwhile	-12.9121
▁infuriating	-12.9121
▁Muttering	-12.9121
▁beaver	-12.9121
▁hazard	-12.9121
▁backpack	-12.9121
▁inwardly	-12.9121
▁morosely	-12.9121
▁doggedly	-12.9121
▁drunkenly	-12.9121
▁slouching	-12.9121
▁critically	-12.9121
▁reciting	-12.9121
▁pony	-12.9122
▁sidelines	-12.9122
Awful	-12.9122
▁ingenious	-12.9122
▁halfheartedly	-12.9122
▁Thick	-12.9122
DDY	-12.9122
▁Terrible	-12.9122
▁stringent	-12.9122
▁extinguishing	-12.9122
▁Manor	-12.9122
▁comic	-12.9122
▁disaster	-12.9122
▁reinforce	-12.9122
▁bleakly	-12.9122
▁horrorstruck	-12.9122
▁eagerness	-12.9122
[...]
