<unk>	0
<s>	0
</s>	0
,	-3.01409
.	-3.32486
▁the	-3.4885
s	-3.67912
'	-3.68372
▁to	-4.05853
▁and	-4.13115
▁a	-4.27825
▁`	-4.29037
▁of	-4.2956
▁Harry	-4.5247
▁he	-4.55363
▁was	-4.61144
▁said	-4.69822
t	-4.71388
▁his	-4.74226
▁in	-4.79124
▁	-4.79262
▁it	-4.87976
▁you	-4.92746
▁'	-5.01819
▁had	-5.02723
ing	-5.05135
▁that	-5.07227
ed	-5.08096
▁I	-5.08384
▁.	-5.12584
▁at	-5.25871
,`	-5.27653
▁on	-5.40359
▁him	-5.41875
.`	-5.43581
-	-5.45922
▁as	-5.46284
d	-5.46801
▁with	-5.51023
▁Ron	-5.55725
▁for	-5.6485
▁her	-5.69092
▁be	-5.73747
▁Hermione	-5.74086
?`	-5.74337
▁not	-5.75262
▁He	-5.76633
▁they	-5.76988
I	-5.82051
▁out	-5.8677
▁up	-5.87304
n	-5.89192
▁-	-5.89591
▁were	-5.9124
ly	-5.95544
▁have	-5.95691
▁but	-5.95905
▁them	-5.96353
▁from	-5.96922
▁she	-5.97614
▁all	-5.99569
!`	-6.00118
re	-6.05292
;	-6.05789
y	-6.06347
▁into	-6.1279
▁back	-6.15681
m	-6.16831
▁been	-6.19019
▁what	-6.2008
▁is	-6.20276
▁me	-6.20612
▁Dumbledore	-6.2199
▁The	-6.23928
▁we	-6.25186
?	-6.31417
▁who	-6.32887
▁could	-6.33162
▁so	-6.34126
r	-6.34819
▁this	-6.36524
ve	-6.38875
▁over	-6.41401
e	-6.43082
▁their	-6.44348
▁an	-6.44533
▁one	-6.45832
▁there	-6.46327
▁about	-6.46536
▁know	-6.48794
ll	-6.49978
▁do	-6.5005
▁down	-6.50281
▁like	-6.51221
l	-6.51391
▁looked	-6.51585
c	-6.51932
▁would	-6.5492
▁now	-6.55658
?'	-6.58883
▁around	-6.58896
er	-6.60608
▁by	-6.61588
▁just	-6.63188
a	-6.64124
▁did	-6.64707
u	-6.65219
▁got	-6.6578
!	-6.66314
▁your	-6.6677
▁if	-6.67921
▁no	-6.70804
p	-6.70898
▁then	-6.70938
▁can	-6.71029
▁Hagrid	-6.71788
▁more	-6.71866
▁very	-6.71995
▁when	-6.72731
▁see	-6.72799
▁off	-6.7379
▁again	-6.74905
▁Professor	-6.75169
▁think	-6.76593
▁are	-6.77186
b	-6.77576
o	-6.78003
You	-6.78177
▁though	-6.79272
▁time	-6.81305
▁Snape	-6.81924
▁my	-6.83493
▁wand	-6.836
in	-6.84187
▁get	-6.86124
▁still	-6.86872
▁Weasley	-6.87078
▁face	-6.87184
▁eyes	-6.89633
▁voice	-6.90601
▁don	-6.91324
▁looking	-6.92648
▁through	-6.92841
▁or	-6.92891
▁It	-6.93161
▁--	-6.94982
▁right	-6.9557
▁go	-6.97071
...	-6.98981
▁going	-6.99359
▁head	-7.01249
▁which	-7.01646
▁A	-7.02762
▁before	-7.03273
▁than	-7.03494
:	-7.04067
▁door	-7.05563
▁thought	-7.06319
▁̈C	-7.06486
▁didn	-7.0713
▁look	-7.07815
!'	-7.08634
▁will	-7.0891
▁room	-7.09114
▁They	-7.09766
▁too	-7.10055
He	-7.10187
▁Malfoy	-7.10297
or	-7.10677
▁hand	-7.11276
▁how	-7.11617
▁here	-7.12575
What	-7.13298
▁only	-7.15033
g	-7.16216
▁saw	-7.16641
▁Mr	-7.16977
f	-7.17027
▁other	-7.20018
i	-7.20602
▁way	-7.20803
▁Voldemort	-7.21222
▁where	-7.24149
▁seemed	-7.24706
▁away	-7.25134
▁something	-7.25292
▁himself	-7.25472
h	-7.26045
A	-7.26057
▁behind	-7.26463
▁Potter	-7.26617
▁come	-7.2672
▁asked	-7.27181
le	-7.27417
It	-7.27765
▁long	-7.28194
▁us	-7.29301
Harry	-7.29321
▁told	-7.29432
▁want	-7.29447
▁turned	-7.29938
▁last	-7.29971
al	-7.31047
▁Sirius	-7.31153
▁never	-7.31958
`	-7.34173
▁much	-7.34287
▁after	-7.34581
▁moment	-7.36768
es	-7.36934
▁knew	-7.37064
▁You	-7.39215
▁She	-7.39485
▁re	-7.3969
But	-7.39716
▁once	-7.40555
▁little	-7.40654
▁And	-7.40667
▁f	-7.41548
▁even	-7.41812
▁first	-7.41915
▁tell	-7.42019
Well	-7.43468
ar	-7.44158
▁two	-7.44182
▁made	-7.44307
▁heard	-7.44692
▁left	-7.44922
No	-7.45043
▁But	-7.45363
The	-7.45459
▁some	-7.45764
▁say	-7.46203
▁any	-7.46376
And	-7.4723
▁felt	-7.48359
▁good	-7.48713
We	-7.49325
▁...	-7.49755
▁Fred	-7.49989
is	-7.50264
.``	-7.51172
▁There	-7.51254
▁people	-7.51335
▁p	-7.52524
▁really	-7.53537
▁Hogwarts	-7.53822
▁well	-7.54456
▁might	-7.54648
▁has	-7.55656
▁un	-7.56404
▁Mrs	-7.5642
il	-7.57504
w	-7.57689
it	-7.5813
▁front	-7.58563
▁t	-7.59175
▁ever	-7.5926
▁S	-7.59401
v	-7.59459
on	-7.59884
Oh	-7.59914
th	-7.60854
▁toward	-7.62011
▁table	-7.62026
▁Lupin	-7.62028
▁make	-7.63527
▁George	-7.63569
▁came	-7.63693
as	-7.64051
S	-7.64717
▁b	-7.65252
?``	-7.65904
▁feet	-7.6595
▁must	-7.65957
▁Neville	-7.67348
▁because	-7.67375
▁let	-7.6792
▁under	-7.68022
ri	-7.68207
▁take	-7.68825
▁Ginny	-7.69011
▁McGonagall	-7.69376
▁took	-7.69458
▁end	-7.69758
▁open	-7.69786
▁find	-7.69929
▁old	-7.70439
▁sure	-7.7058
▁inside	-7.71508
▁anything	-7.71625
▁few	-7.72498
▁d	-7.72549
▁floor	-7.73078
▁trying	-7.7365
ur	-7.74077
▁need	-7.75962
▁went	-7.76467
ter	-7.76662
▁another	-7.76741
▁own	-7.77078
T	-7.77084
▁large	-7.77933
▁mean	-7.77938
▁next	-7.77939
▁great	-7.78076
ad	-7.78105
▁Gryffindor	-7.78258
▁house	-7.78549
▁bit	-7.79309
▁while	-7.79786
E	-7.80059
k	-7.80313
▁hair	-7.80584
▁put	-7.81301
id	-7.81378
▁man	-7.81614
▁found	-7.81659
ling	-7.81738
▁light	-7.81843
▁B	-7.82168
▁school	-7.82277
▁thing	-7.82319
en	-7.82577
▁three	-7.82594
ro	-7.82625
▁night	-7.83553
▁Umbridge	-7.85846
▁course	-7.86152
▁place	-7.86917
▁hear	-7.87261
▁gave	-7.87356
▁seen	-7.87856
▁Death	-7.8798
▁black	-7.88026
▁nothing	-7.8832
at	-7.88577
led	-7.88739
▁-`	-7.88922
▁stood	-7.8933
an	-7.89613
▁Ministry	-7.89685
ion	-7.90135
us	-7.90577
▁why	-7.9087
▁side	-7.91423
▁pulled	-7.92005
▁dark	-7.92688
▁hands	-7.93538
▁st	-7.93547
▁air	-7.93604
▁our	-7.93834
L	-7.9398
▁upon	-7.94964
Yes	-7.95013
est	-7.95044
Yeah	-7.95641
▁across	-7.95641
ch	-7.95685
▁its	-7.96458
▁wanted	-7.96668
▁keep	-7.97566
▁each	-7.98211
▁both	-7.98266
ted	-7.98288
▁most	-7.99151
▁every	-7.99284
▁g	-7.99316
▁help	-7.99389
ic	-7.99992
D	-8.00062
▁without	-8.00244
et	-8.00495
▁does	-8.01145
▁done	-8.01235
▁bed	-8.01254
▁o	-8.01577
▁mind	-8.01609
▁happened	-8.01655
▁boy	-8.01669
▁quite	-8.018
▁small	-8.018
um	-8.02039
▁against	-8.02074
▁Dark	-8.02385
▁couldn	-8.02718
▁P	-8.0351
▁better	-8.03748
▁mouth	-8.04069
So	-8.04119
▁being	-8.04207
and	-8.04395
▁second	-8.0478
▁His	-8.04874
▁sat	-8.05266
im	-8.05883
▁M	-8.05929
▁wizard	-8.06002
▁else	-8.06732
▁name	-8.06733
▁wasn	-8.06778
▁Vernon	-8.06935
▁enough	-8.06935
ir	-8.07052
▁set	-8.07066
ish	-8.07069
▁along	-8.07269
▁doing	-8.07365
▁year	-8.07463
▁Moody	-8.07976
ent	-8.08651
▁T	-8.10076
he	-8.10281
▁day	-8.1034
O	-8.10494
ation	-8.10798
▁hard	-8.10894
▁w	-8.11593
▁Then	-8.11749
▁robes	-8.11815
▁already	-8.1192
▁walked	-8.12323
▁half	-8.12341
▁C	-8.12622
▁should	-8.12728
▁give	-8.1274
▁staring	-8.12853
▁am	-8.13173
▁past	-8.13249
▁years	-8.13296
▁fell	-8.13835
▁fire	-8.13896
▁Uncle	-8.14073
Who	-8.1477
▁forward	-8.1529
▁F	-8.15711
▁won	-8.15873
▁gone	-8.15923
▁those	-8.16051
▁rather	-8.1628
ce	-8.16654
▁We	-8.16815
▁between	-8.17167
▁whispered	-8.17322
▁Fudge	-8.17425
ers	-8.17725
▁suddenly	-8.18142
▁standing	-8.18668
▁--`	-8.18978
▁window	-8.19208
▁began	-8.19438
▁until	-8.19668
▁top	-8.19729
▁new	-8.19908
R	-8.2002
▁many	-8.20478
▁rest	-8.20704
▁opened	-8.20927
That	-8.20958
▁full	-8.21058
▁tried	-8.21292
▁these	-8.21931
▁yet	-8.21998
▁slightly	-8.22034
▁onto	-8.22173
▁sitting	-8.22243
C	-8.22348
able	-8.22484
▁eye	-8.22536
▁work	-8.2255
▁Black	-8.22734
▁arm	-8.22987
less	-8.23223
▁quickly	-8.23494
▁office	-8.23693
▁de	-8.23808
▁raised	-8.2395
▁same	-8.24149
li	-8.24945
▁reached	-8.25536
▁Quidditch	-8.25615
▁Dudley	-8.25627
▁ter	-8.25826
▁castle	-8.25862
▁talking	-8.25908
She	-8.26292
ting	-8.26422
▁feeling	-8.26698
How	-8.26751
M	-8.26784
▁started	-8.27196
▁things	-8.27551
ul	-8.28173
ge	-8.28274
▁ground	-8.28302
They	-8.28518
▁Lord	-8.28568
you	-8.29076
▁As	-8.29437
lo	-8.29585
▁wouldn	-8.29638
▁D	-8.29647
ment	-8.30065
▁feel	-8.30217
▁able	-8.30352
se	-8.30371
▁Slughorn	-8.30382
▁dead	-8.30645
P	-8.30795
▁shouted	-8.31246
▁always	-8.31374
am	-8.3154
▁idea	-8.31646
B	-8.31683
▁Percy	-8.31688
▁far	-8.32044
▁sc	-8.32106
▁almost	-8.32414
▁anyone	-8.32445
▁Dobby	-8.32593
▁together	-8.32938
▁scar	-8.32985
▁coming	-8.33208
▁called	-8.33516
▁later	-8.33564
▁leave	-8.3373
▁father	-8.33741
▁.`	-8.33813
▁wall	-8.34143
op	-8.34258
▁yeh	-8.35063
U	-8.3531
▁ask	-8.35428
sh	-8.36066
▁W	-8.36286
▁however	-8.36722
▁stared	-8.3685
There	-8.36987
z	-8.37268
ive	-8.37583
el	-8.38035
ant	-8.38299
▁life	-8.38615
▁sight	-8.39016
▁talk	-8.39094
▁crowd	-8.39173
▁quietly	-8.39294
▁believe	-8.39307
▁watching	-8.3938
▁Hall	-8.39489
....	-8.39579
▁What	-8.39585
ap	-8.39639
per	-8.39689
▁mother	-8.40023
▁students	-8.40077
▁whole	-8.40289
▁beside	-8.4043
▁read	-8.40678
ness	-8.40738
▁lot	-8.40801
▁stop	-8.40884
▁con	-8.41446
▁chair	-8.41727
em	-8.41796
▁outside	-8.42128
▁Eaters	-8.43014
W	-8.43114
te	-8.43352
▁Slytherin	-8.43897
▁red	-8.43963
!``	-8.43984
▁everything	-8.44046
ful	-8.44048
▁caught	-8.44049
▁close	-8.44068
▁dis	-8.44111
▁heart	-8.44213
▁cold	-8.44387
ily	-8.44867
▁kept	-8.4493
ow	-8.45299
▁When	-8.45771
▁word	-8.45993
▁Muggle	-8.46051
▁remember	-8.461
▁stopped	-8.46141
▁everyone	-8.46143
▁best	-8.46251
▁co	-8.46383
▁whether	-8.46423
▁slowly	-8.46498
▁corner	-8.47026
▁supposed	-8.47249
▁class	-8.47256
▁sort	-8.47353
▁stone	-8.47355
▁sound	-8.47493
▁use	-8.47498
▁passed	-8.47582
▁try	-8.47662
▁words	-8.47765
▁muttered	-8.47941
▁nose	-8.48181
ta	-8.48332
▁getting	-8.48712
▁saying	-8.48792
▁If	-8.48869
▁water	-8.49252
ry	-8.49388
▁Luna	-8.49527
▁hat	-8.50071
▁sign	-8.50106
▁Magic	-8.50972
F	-8.51018
▁since	-8.51039
▁someone	-8.51077
▁Crouch	-8.5108
▁taken	-8.51353
ick	-8.51432
▁sir	-8.51434
▁Madam	-8.51518
▁high	-8.51591
▁breath	-8.5231
▁shoulder	-8.52584
▁cloak	-8.52626
▁desk	-8.52628
▁c	-8.52901
▁book	-8.52919
▁empty	-8.52947
▁corridor	-8.52983
oo	-8.53297
▁point	-8.53397
▁wizards	-8.53454
▁holding	-8.53628
...`	-8.53631
▁silence	-8.53915
▁kill	-8.53941
Don	-8.541
▁moved	-8.54261
▁haven	-8.54329
▁sp	-8.54423
▁understand	-8.54565
▁l	-8.55252
If	-8.5556
▁Cedric	-8.55913
▁appeared	-8.56051
▁alone	-8.56212
x	-8.56494
▁loudly	-8.5674
▁making	-8.56888
▁bu	-8.57268
▁cl	-8.57311
▁wearing	-8.57352
▁taking	-8.57564
▁Riddle	-8.57575
ies	-8.57678
▁hall	-8.58322
ous	-8.58434
▁hope	-8.58475
▁minutes	-8.58539
▁ten	-8.58872
ate	-8.58894
▁matter	-8.58931
▁In	-8.58963
▁white	-8.5945
▁r	-8.59515
▁pointed	-8.59557
ne	-8.59593
ring	-8.59899
▁silver	-8.60037
▁hit	-8.60201
▁magic	-8.60483
Why	-8.60826
▁followed	-8.60867
pe	-8.60947
▁morning	-8.60964
▁bag	-8.61355
▁wide	-8.6137
▁watched	-8.62256
ping	-8.62488
▁pointing	-8.62712
▁pain	-8.62774
▁answer	-8.62802
▁green	-8.62807
▁team	-8.63204
▁car	-8.63247
ver	-8.63443
▁arms	-8.6365
▁This	-8.63688
▁Cloak	-8.63787
▁closed	-8.63945
▁round	-8.63957
▁Petunia	-8.64177
▁noise	-8.64196
▁Bill	-8.64224
▁H	-8.64315
▁towards	-8.64363
▁four	-8.64597
▁That	-8.64716
▁hurried	-8.64866
▁common	-8.64869
ity	-8.6511
▁care	-8.65436
▁blood	-8.65795
but	-8.6588
▁fast	-8.66188
▁Aunt	-8.66306
▁Minister	-8.66323
▁several	-8.66323
ated	-8.66332
▁watch	-8.66534
N	-8.66582
▁turn	-8.66663
▁having	-8.66696
▁such	-8.66701
we	-8.6684
▁letter	-8.67305
▁yes	-8.67437
▁body	-8.67803
▁shaking	-8.67806
Know	-8.68192
▁Filch	-8.68549
▁family	-8.68549
▁deep	-8.68905
▁speak	-8.69039
▁thinking	-8.69154
▁usual	-8.69421
up	-8.695
▁straight	-8.69662
Not	-8.69712
▁m	-8.6981
▁pro	-8.69971
ig	-8.70138
ped	-8.70438
om	-8.70768
▁thick	-8.70827
▁ran	-8.70864
▁lay	-8.70977
▁yelled	-8.70999
▁held	-8.71251
▁sorry	-8.71284
ie	-8.7142
▁owl	-8.7178
▁parchment	-8.71985
▁given	-8.72097
▁stay	-8.72124
Y	-8.72278
▁wrong	-8.72374
▁fact	-8.72487
▁girl	-8.72579
▁stand	-8.72587
▁v	-8.72675
▁kitchen	-8.73157
▁snake	-8.73157
▁smile	-8.7352
▁pocket	-8.7355
▁short	-8.74084
▁used	-8.74377
▁move	-8.74448
ble	-8.74618
▁others	-8.74625
▁ago	-8.74814
▁books	-8.7483
▁continued	-8.74852
▁free	-8.74858
H	-8.75435
Look	-8.75465
G	-8.75507
▁Lockhart	-8.75542
▁burst	-8.75543
▁dear	-8.75669
▁added	-8.75712
▁Kreacher	-8.75747
▁L	-8.75833
▁G	-8.75893
▁moving	-8.75949
end	-8.76211
▁...`	-8.76442
▁Trelawney	-8.76757
▁lost	-8.76774
▁foot	-8.76883
▁gold	-8.77156
▁trunk	-8.77165
▁telling	-8.77178
ag	-8.77417
▁real	-8.77577
▁fingers	-8.77669
Ron	-8.78187
▁At	-8.78242
▁low	-8.78304
Hermione	-8.78398
▁shut	-8.78401
▁either	-8.78815
▁start	-8.78972
ating	-8.79277
▁died	-8.79832
....`	-8.79837
▁exactly	-8.8007
ine	-8.80389
▁train	-8.80492
▁For	-8.80507
be	-8.80725
▁themselves	-8.80919
ance	-8.81139
▁dream	-8.81341
▁Great	-8.81404
▁Krum	-8.81407
uff	-8.81653
▁mo	-8.81783
Good	-8.81844
▁ex	-8.81909
▁ch	-8.8206
▁potion	-8.82218
▁friend	-8.82407
▁run	-8.82444
▁trouble	-8.82629
▁Goyle	-8.82629
▁h	-8.8273
▁spoke	-8.82787
▁Cho	-8.82907
▁bad	-8.82913
▁broom	-8.83086
▁five	-8.83159
▁kind	-8.83237
▁part	-8.83276
▁clear	-8.83287
▁stuff	-8.83342
▁loud	-8.83537
▁tiny	-8.83547
▁seem	-8.83776
▁hurt	-8.83895
▁death	-8.83947
aw	-8.83978
▁O	-8.84277
▁glass	-8.84406
▁Tonks	-8.84422
▁returned	-8.84533
▁nearly	-8.84597
if	-8.84621
▁dropped	-8.8482
▁shook	-8.84821
no	-8.85169
▁Bagman	-8.85255
▁portrait	-8.85255
▁chance	-8.85271
▁Fleur	-8.8532
▁waiting	-8.85367
▁above	-8.85699
▁parents	-8.85699
▁match	-8.857
▁days	-8.85728
tion	-8.85846
me	-8.85955
▁``	-8.8601
▁least	-8.86146
▁witch	-8.86272
▁case	-8.86796
▁shall	-8.87056
▁Crabbe	-8.87077
▁magical	-8.87219
▁noticed	-8.87293
▁turning	-8.87378
▁So	-8.87662
▁return	-8.87797
Er	-8.87913
▁also	-8.87952
▁bo	-8.88024
▁ma	-8.88373
▁neck	-8.8841
ard	-8.88441
▁darkness	-8.88466
▁E	-8.88801
▁stairs	-8.88867
▁home	-8.88875
▁sent	-8.88903
▁lying	-8.88969
▁Dursleys	-8.88979
▁All	-8.89189
▁beneath	-8.89328
▁Draco	-8.89388
▁entered	-8.89614
▁person	-8.89728
▁entrance	-8.89791
like	-8.89884
▁steps	-8.89981
▁show	-8.90337
▁ra	-8.90668
ack	-8.90681
▁golden	-8.90769
▁power	-8.90849
gg	-8.90962
cr	-8.91162
▁question	-8.9149
▁hour	-8.91548
▁expression	-8.91668
▁finished	-8.91923
▁ceiling	-8.92138
▁staircase	-8.92138
▁fear	-8.9218
the	-8.92454
▁chest	-8.92655
out	-8.92786
▁whose	-8.92999
▁giant	-8.93093
▁leaving	-8.93093
▁visit	-8.93574
My	-8.93673
age	-8.93693
Come	-8.93703
▁please	-8.93735
▁slid	-8.94058
▁seat	-8.94162
▁ear	-8.94363
▁stupid	-8.94542
▁Dean	-8.94562
▁evening	-8.94565
▁play	-8.94989
▁threw	-8.9503
▁ears	-8.95148
▁edge	-8.95164
This	-8.95178
▁friends	-8.95433
▁bottle	-8.9552
▁thin	-8.95886
▁flew	-8.96013
▁arrived	-8.9606
our	-8.96484
▁reason	-8.96508
▁pair	-8.96531
▁number	-8.9655
ab	-8.96616
▁happen	-8.96737
▁bar	-8.96833
▁son	-8.96852
Now	-8.96931
one	-8.97034
▁managed	-8.97125
Dumbledore	-8.97174
▁sh	-8.97267
▁Christmas	-8.97505
▁No	-8.97829
par	-8.97831
▁Now	-8.97887
``	-8.97901
▁grounds	-8.98044
▁plan	-8.98232
▁legs	-8.9826
ew	-8.98326
▁except	-8.98517
▁near	-8.98582
▁mad	-8.98875
▁running	-8.99033
▁wait	-8.99289
ered	-8.99374
▁glasses	-8.99609
▁soon	-9.00114
▁attack	-9.00458
▁Hedwig	-9.00559
▁enormous	-9.00559
▁reckon	-9.00559
old	-9.00688
▁love	-9.00863
▁nobody	-9.01077
ee	-9.01101
▁pale	-9.01102
▁glanced	-9.01262
▁call	-9.0146
▁wish	-9.01574
▁world	-9.01598
▁became	-9.01598
▁seized	-9.01664
▁longer	-9.01846
▁vanished	-9.02274
ten	-9.02293
▁woman	-9.02648
▁Invisibility	-9.0265
All	-9.02691
all	-9.02791
na	-9.02997
▁picture	-9.03177
co	-9.03365
▁odd	-9.03456
ence	-9.03471
ened	-9.03497
▁brother	-9.03709
▁perhaps	-9.03709
▁ho	-9.03813
ight	-9.04125
▁live	-9.04407
▁spot	-9.04748
▁sword	-9.04781
▁Wood	-9.04781
▁Wormtail	-9.04824
▁ready	-9.05225
looking	-9.05579
▁walls	-9.05595
▁young	-9.05742
▁One	-9.05755
▁within	-9.05777
▁herself	-9.05873
▁finally	-9.05974
red	-9.06083
▁catch	-9.06109
Where	-9.06123
▁walking	-9.06366
▁angry	-9.06412
▁To	-9.06426
▁expect	-9.06749
ny	-9.06786
iv	-9.06977
ung	-9.06982
▁pulling	-9.07267
▁ha	-9.07572
▁repeated	-9.07588
▁elf	-9.07702
ock	-9.07746
▁known	-9.07865
▁po	-9.08022
▁happy	-9.08069
▁week	-9.08314
▁leg	-9.08909
▁bright	-9.08967
▁break	-9.0911
▁angrily	-9.0919
▁job	-9.0919
▁listening	-9.09244
▁Bellatrix	-9.09287
▁e	-9.09401
▁How	-9.09423
▁broken	-9.09464
▁Eater	-9.09489
▁flying	-9.09559
Did	-9.09606
▁killed	-9.09708
▁instead	-9.09755
▁Arts	-9.09755
▁anyway	-9.09784
▁figure	-9.09857
▁Well	-9.10004
▁broke	-9.10046
▁dementors	-9.10049
▁curse	-9.10219
▁Prophet	-9.10323
▁smiling	-9.10323
▁tonight	-9.10328
▁doors	-9.10528
▁tea	-9.10599
▁clearly	-9.10663
ti	-9.10668
▁times	-9.10727
▁laugh	-9.10739
▁sleep	-9.10824
rap	-9.10825
▁hold	-9.10845
▁Seamus	-9.10894
▁Snitch	-9.10894
▁important	-9.10894
▁true	-9.10894
▁nodded	-9.10894
▁memory	-9.10894
Professor	-9.11213
▁dragon	-9.11234
▁lo	-9.11253
▁lesson	-9.11288
▁Azkaban	-9.11469
▁below	-9.1147
▁egg	-9.11493
▁completely	-9.11583
▁suppose	-9.11622
▁met	-9.11748
▁spell	-9.11828
▁sense	-9.12048
▁dangerous	-9.12057
▁late	-9.12342
▁different	-9.12628
▁piece	-9.12634
▁listen	-9.12836
▁less	-9.1287
▁says	-9.13139
▁barely	-9.13214
▁act	-9.13288
▁backward	-9.1341
ally	-9.13458
▁James	-9.13801
▁note	-9.14224
▁St	-9.14384
▁Ravenclaw	-9.14393
▁mark	-9.14406
ious	-9.14413
▁nor	-9.14634
▁ought	-9.14989
▁paper	-9.14989
▁rose	-9.1499
▁windows	-9.15009
▁tent	-9.15032
▁forced	-9.1529
▁ball	-9.15296
▁quiet	-9.15328
▁tears	-9.15352
▁en	-9.15435
▁form	-9.15474
▁teacher	-9.15534
▁shot	-9.15592
▁direction	-9.15596
▁trees	-9.15609
ure	-9.15703
▁Magical	-9.15715
▁la	-9.15726
▁fine	-9.15741
Are	-9.15781
▁line	-9.15792
▁meant	-9.15959
ary	-9.16046
▁horrible	-9.1619
▁story	-9.16214
ang	-9.1645
▁wing	-9.16756
▁ahead	-9.16797
▁Albus	-9.16875
▁order	-9.16916
▁looks	-9.1711
▁hundred	-9.1731
▁sky	-9.17406
▁worry	-9.17406
▁present	-9.17406
▁quill	-9.17406
▁stepped	-9.1742
own	-9.17493
▁win	-9.17574
ph	-9.17643
ump	-9.17679
bl	-9.17968
▁street	-9.18019
▁master	-9.18021
▁page	-9.18089
▁big	-9.18091
▁blue	-9.18109
Ah	-9.18172
▁drink	-9.18636
▁giving	-9.18636
▁snapped	-9.18641
▁lake	-9.1866
▁Her	-9.18684
Right	-9.18883
▁With	-9.1891
elf	-9.19187
▁middle	-9.19257
Of	-9.19271
ward	-9.19484
▁wind	-9.19669
▁seconds	-9.19723
▁led	-9.19817
▁tree	-9.19865
▁truth	-9.20511
▁hidden	-9.20511
▁summer	-9.20511
▁cat	-9.20513
ever	-9.20812
▁Gr	-9.20943
▁third	-9.21144
▁Order	-9.21148
Very	-9.21152
▁shop	-9.21175
▁sit	-9.21373
▁forest	-9.21781
▁hours	-9.22011
▁lie	-9.22072
▁safe	-9.2217
▁couple	-9.22422
▁probably	-9.22422
▁cup	-9.22454
▁Muggles	-9.22708
▁silent	-9.22806
▁whom	-9.23016
▁Pomfrey	-9.23067
▁brought	-9.23067
▁pushed	-9.2322
light	-9.23242
Let	-9.23657
▁yourself	-9.2372
ink	-9.23741
▁carrying	-9.23954
▁An	-9.23976
▁roared	-9.24136
▁possible	-9.2437
▁during	-9.24372
▁flat	-9.24385
▁hardly	-9.24522
ia	-9.24539
▁sun	-9.24833
▁sister	-9.25029
▁sounded	-9.25058
▁secret	-9.25181
▁may	-9.25344
▁cried	-9.25691
▁fight	-9.2579
▁brain	-9.26357
▁worse	-9.26358
▁flash	-9.2638
▁laughed	-9.26415
▁expected	-9.26445
▁touch	-9.26455
tering	-9.26464
▁goblin	-9.26497
▁Crookshanks	-9.27059
to	-9.27069
▁hole	-9.27118
▁difficult	-9.27469
▁points	-9.27596
▁Hogsmeade	-9.27704
▁Rita	-9.27704
▁doubt	-9.27704
▁yeah	-9.27704
▁laughter	-9.27756
▁Peeves	-9.27769
ran	-9.27812
ook	-9.27862
ingly	-9.27916
▁closer	-9.28109
▁pre	-9.28318
▁lit	-9.28323
▁covered	-9.28358
▁group	-9.28384
▁drew	-9.28385
▁Karkaroff	-9.28456
▁picked	-9.28632
▁sa	-9.28771
▁jumped	-9.28862
▁subject	-9.2907
▁heavy	-9.29071
▁funny	-9.29076
Do	-9.29158
▁become	-9.2917
▁meet	-9.29184
▁N	-9.29322
ave	-9.29485
ied	-9.29575
▁pleased	-9.2968
▁stomach	-9.29759
▁realized	-9.29989
▁sea	-9.30072
▁flu	-9.30093
ial	-9.30105
▁bang	-9.30219
▁cast	-9.3042
▁cut	-9.30424
▁throat	-9.30453
▁walk	-9.30589
▁aren	-9.30618
▁tight	-9.30968
ear	-9.31036
ging	-9.31141
▁Hufflepuff	-9.31152
▁simply	-9.31152
▁trust	-9.31152
▁indeed	-9.31153
▁merely	-9.31166
Eye	-9.31216
▁shock	-9.31247
RE	-9.31802
▁R	-9.32141
▁j	-9.32413
▁Horcrux	-9.32499
▁avoid	-9.32566
▁field	-9.32566
▁ghost	-9.32566
▁narrow	-9.32566
▁apart	-9.32584
▁join	-9.32656
side	-9.32802
▁gasped	-9.32832
king	-9.32969
▁U	-9.33017
der	-9.33064
▁nice	-9.33282
od	-9.33284
right	-9.33351
fully	-9.33529
ning	-9.33708
min	-9.33713
▁heads	-9.33715
▁wondered	-9.33728
▁screamed	-9.3389
▁Granger	-9.34
▁murder	-9.34
▁guard	-9.34
▁myself	-9.34003
▁alive	-9.34014
▁row	-9.3405
▁dad	-9.34228
▁Why	-9.34289
▁surprise	-9.34299
ER	-9.34314
pa	-9.34372
Just	-9.34616
▁breakfast	-9.34724
▁dinner	-9.34724
▁teeth	-9.34724
▁Winky	-9.34856
ke	-9.34935
gu	-9.34969
▁mu	-9.35001
▁aside	-9.35074
▁starting	-9.35128
▁wands	-9.35212
▁remained	-9.3526
ound	-9.35348
▁joined	-9.35362
▁meeting	-9.3541
▁news	-9.35427
▁actually	-9.35454
▁somebody	-9.35454
▁House	-9.35454
▁scream	-9.35659
▁die	-9.35715
▁strange	-9.35749
Get	-9.35755
▁Charm	-9.35859
▁age	-9.35988
▁broomstick	-9.36189
mon	-9.36236
▁laughing	-9.36277
▁carefully	-9.36363
▁huge	-9.3639
▁skin	-9.36413
▁leapt	-9.36528
▁girls	-9.36542
▁step	-9.36609
▁terrible	-9.3693
▁pass	-9.37154
▁tall	-9.37197
▁bent	-9.37202
man	-9.37416
▁dog	-9.37616
▁Against	-9.37676
▁Lucius	-9.37676
▁spider	-9.37677
▁tail	-9.37678
▁somewhere	-9.37696
▁cur	-9.37704
▁remembered	-9.37733
▁Lavender	-9.38428
▁cauldron	-9.38428
▁view	-9.38428
▁apparently	-9.38451
▁smiled	-9.38487
▁needed	-9.38566
▁post	-9.38869
▁er	-9.38918
▁Flitwick	-9.39186
▁beyond	-9.39186
▁twenty	-9.39186
▁Daily	-9.39186
Maybe	-9.39189
▁forget	-9.39197
▁Scrimgeour	-9.39253
▁explain	-9.39323
▁rid	-9.39665
▁knees	-9.39767
ther	-9.39773
ched	-9.3984
▁six	-9.39911
▁clutching	-9.39949
▁snow	-9.39957
▁information	-9.39962
▁slipped	-9.39963
▁sharply	-9.40128
▁?	-9.40188
▁allowed	-9.4021
▁tightly	-9.40234
▁climbed	-9.4024
▁change	-9.40292
▁surprised	-9.404
K	-9.40536
▁Diggory	-9.40718
▁bottom	-9.40718
▁mirror	-9.40718
▁Curse	-9.40719
▁attention	-9.40719
▁task	-9.40719
▁single	-9.40725
▁crack	-9.40866
▁teachers	-9.40909
▁decided	-9.40925
▁After	-9.40976
▁none	-9.41265
▁Skeeter	-9.41494
▁classroom	-9.41512
▁Cup	-9.41556
▁today	-9.41664
▁di	-9.41739
▁bring	-9.41743
▁powerful	-9.42082
▁finger	-9.42104
ade	-9.42206
Hagrid	-9.42228
▁living	-9.42275
▁On	-9.42297
▁rock	-9.42303
▁ga	-9.42333
▁pink	-9.42341
▁itself	-9.42344
▁dare	-9.42377
▁Potions	-9.42489
eck	-9.42627
ttered	-9.42892
▁notice	-9.42942
▁closely	-9.42971
▁forehead	-9.43062
▁hospital	-9.43062
▁staff	-9.43062
▁worried	-9.43062
▁forgotten	-9.43069
▁Head	-9.43093
▁Griphook	-9.43139
OR	-9.43265
▁hasn	-9.43297
▁working	-9.43621
▁upstairs	-9.43856
▁hiding	-9.43859
▁THE	-9.43878
▁deal	-9.44084
▁lessons	-9.44177
▁J	-9.44316
▁weren	-9.44517
▁hot	-9.44612
▁happily	-9.44656
▁opposite	-9.44656
▁attempt	-9.45001
▁filled	-9.45076
Be	-9.45099
▁sudden	-9.45203
▁speaking	-9.45218
▁following	-9.45254
ked	-9.45334
▁Parvati	-9.45462
▁afraid	-9.45462
▁gazing	-9.4547
▁box	-9.45581
▁cover	-9.45702
▁reach	-9.45712
▁hanging	-9.45742
den	-9.45876
▁dungeon	-9.46275
▁Scabbers	-9.4632
▁knows	-9.46405
uck	-9.46506
year	-9.46537
AN	-9.46945
▁extremely	-9.47095
▁purple	-9.47095
▁swung	-9.47095
▁discuss	-9.47095
do	-9.47516
▁rat	-9.47536
▁quick	-9.47662
▁hi	-9.47663
In	-9.47775
▁per	-9.47787
▁Buckbeak	-9.47922
▁marble	-9.47922
▁bound	-9.47977
▁Mundungus	-9.48002
▁patch	-9.48024
▁imp	-9.48355
ably	-9.48375
ice	-9.48396
▁fla	-9.4841
▁Be	-9.48532
▁wondering	-9.48579
▁smell	-9.48755
▁grinning	-9.48762
▁pile	-9.48825
▁furiously	-9.48933
by	-9.49008
▁disappeared	-9.49094
▁cheer	-9.49172
▁Angelina	-9.49595
▁Quirrell	-9.49595
▁okay	-9.49595
▁practice	-9.49595
▁mistake	-9.496
As	-9.49637
▁boys	-9.49741
▁mention	-9.49818
my	-9.50015
▁remain	-9.50023
gra	-9.50027
Mr	-9.50209
av	-9.50213
Can	-9.50426
▁conversation	-9.50443
▁dormitory	-9.50443
▁human	-9.50463
▁immediately	-9.5049
▁warm	-9.50639
ign	-9.50665
▁keeping	-9.50841
▁placed	-9.50923
ake	-9.51053
ath	-9.51261
▁Bludger	-9.51297
▁crash	-9.51297
▁footsteps	-9.51297
▁strode	-9.51297
▁food	-9.51298
▁hastily	-9.51299
▁goblet	-9.51299
▁wants	-9.51318
▁YOU	-9.51442
▁minute	-9.51445
▁send	-9.5156
▁com	-9.51562
▁whatever	-9.51577
▁knocked	-9.51615
use	-9.51659
▁Tom	-9.51699
▁follow	-9.5176
▁V	-9.52136
▁terrified	-9.5216
▁bellowed	-9.5216
▁homework	-9.52169
▁stick	-9.52259
▁tip	-9.52278
▁sick	-9.52285
▁Severus	-9.52382
▁weeks	-9.52623
▁library	-9.53029
▁landed	-9.5303
▁copy	-9.5303
▁plate	-9.53043
room	-9.53063
▁ill	-9.53148
▁waited	-9.53221
lessly	-9.5335
▁blank	-9.5366
▁trick	-9.53909
▁seeing	-9.53929
▁bedroom	-9.53942
▁Dad	-9.53985
▁cage	-9.53988
▁path	-9.54001
▁attacked	-9.54088
▁fixed	-9.54097
▁rolled	-9.54237
▁term	-9.54681
▁count	-9.54738
▁afternoon	-9.54791
▁gray	-9.54793
▁Not	-9.54844
▁nervously	-9.55017
▁nearer	-9.5503
▁Arthur	-9.55049
▁dress	-9.55062
▁jump	-9.55073
▁Pettigrew	-9.55684
▁control	-9.55684
▁prefect	-9.55684
▁garden	-9.55684
▁glad	-9.55685
▁cannot	-9.55686
Because	-9.55783
▁faces	-9.55832
▁rain	-9.55893
▁softly	-9.55931
▁map	-9.55979
▁whisper	-9.56222
▁Slytherins	-9.56255
▁usually	-9.56302
ide	-9.56427
▁twelve	-9.56585
▁problem	-9.56585
▁glow	-9.56589
▁firmly	-9.56636
clock	-9.56653
▁scared	-9.5692
ple	-9.57018
▁beard	-9.57239
▁bin	-9.57332
▁Myrtle	-9.57494
▁bathroom	-9.57496
▁locket	-9.57518
▁earth	-9.57591
▁tower	-9.57609
ise	-9.57622
ark	-9.57765
▁Mad	-9.57834
that	-9.57858
ening	-9.58055
▁exam	-9.58393
▁Firebolt	-9.58412
▁particularly	-9.58497
▁spent	-9.585
▁playing	-9.58695
▁lift	-9.58712
▁normal	-9.59075
▁war	-9.59324
▁prophecy	-9.59337
▁clean	-9.59338
▁halfway	-9.59362
▁Nick	-9.59365
zing	-9.59483
▁showed	-9.59649
▁fit	-9.59799
ach	-9.59838
ou	-9.60175
rry	-9.60186
▁Katie	-9.60272
▁rush	-9.60272
▁sideways	-9.60273
▁fist	-9.60277
▁Tower	-9.60284
▁surface	-9.60289
▁Fang	-9.60317
▁seven	-9.60376
▁comp	-9.60466
▁reading	-9.60515
ching	-9.60554
▁oh	-9.60625
qui	-9.60672
▁De	-9.60708
ak	-9.60734
▁soft	-9.61044
▁My	-9.61118
▁cabin	-9.6118
▁asleep	-9.61215
▁determined	-9.61215
▁headmaster	-9.61215
▁waving	-9.61242
▁worth	-9.61262
▁Lily	-9.61268
▁Forest	-9.61297
▁force	-9.61362
▁test	-9.61536
▁changed	-9.61741
▁means	-9.61884
elves	-9.62162
▁Prime	-9.62168
▁heavily	-9.62168
▁hung	-9.62173
▁warning	-9.6218
▁diary	-9.62181
▁fallen	-9.62207
lic	-9.62282
▁Miss	-9.6238
▁certainly	-9.62384
io	-9.62467
▁fer	-9.62472
▁owls	-9.62681
ier	-9.62768
▁worked	-9.62774
▁save	-9.62971
▁deserted	-9.63129
▁nine	-9.63135
▁Ollivander	-9.63207
lit	-9.63263
▁ski	-9.6329
▁ring	-9.63451
▁roar	-9.63479
▁fall	-9.63532
▁panic	-9.63562
▁bell	-9.63668
▁Did	-9.63746
een	-9.63805
ame	-9.63844
▁drop	-9.64065
▁fighting	-9.64065
▁Maxime	-9.641
▁smooth	-9.641
▁travel	-9.641
Listen	-9.64101
▁distant	-9.64101
▁beaming	-9.64108
▁Charlie	-9.64154
▁approached	-9.6427
▁Madame	-9.64606
▁crossed	-9.64612
▁Where	-9.64616
▁missed	-9.64711
well	-9.64712
▁detention	-9.65081
▁leaned	-9.65081
▁sank	-9.65081
▁scarlet	-9.65083
▁hoping	-9.65116
time	-9.65126
▁spells	-9.65455
▁throwing	-9.65512
▁brightly	-9.65538
▁falling	-9.65735
for	-9.65983
▁Patronus	-9.66071
▁frowning	-9.66071
▁nasty	-9.66071
▁trembling	-9.66071
▁grass	-9.66071
▁anger	-9.66077
▁poor	-9.6622
Snape	-9.66237
▁unless	-9.66289
▁color	-9.66509
▁wonder	-9.66512
que	-9.66629
ugh	-9.66846
▁luck	-9.66861
▁fly	-9.66908
▁Re	-9.67049
▁maybe	-9.67094
▁Two	-9.67211
▁enter	-9.67236
When	-9.67246
▁pitch	-9.67474
▁stretched	-9.67491
▁Mum	-9.67547
▁tone	-9.67562
▁hurrying	-9.67568
▁check	-9.67844
▁corridors	-9.67965
▁centaur	-9.68081
▁eyebrows	-9.68081
▁village	-9.68081
▁muttering	-9.68081
▁further	-9.68086
▁movement	-9.68145
▁badge	-9.6816
▁eagerly	-9.68167
▁perfectly	-9.68196
rate	-9.68621
▁miss	-9.68629
▁soul	-9.68801
▁nervous	-9.68841
▁strong	-9.68964
▁Department	-9.69101
▁business	-9.69101
▁effort	-9.69101
▁fault	-9.69101
▁cloud	-9.69101
▁position	-9.69101
▁busy	-9.6912
▁putting	-9.6931
▁lead	-9.69493
Never	-9.69644
hood	-9.69773
▁often	-9.69802
▁months	-9.6996
▁facing	-9.70132
▁tomorrow	-9.70132
▁fifty	-9.70132
▁Ernie	-9.70136
▁halt	-9.7014
▁lamp	-9.70149
▁split	-9.70154
▁blow	-9.70161
▁Lee	-9.70165
▁shoulders	-9.70201
▁snarled	-9.70226
▁Even	-9.70347
▁teach	-9.70427
▁pressed	-9.70463
▁slow	-9.70916
▁support	-9.71142
▁invisible	-9.71174
▁kid	-9.71176
▁inches	-9.71177
▁impatiently	-9.71213
▁nearest	-9.71248
▁yer	-9.71251
con	-9.71309
pose	-9.71323
▁unable	-9.71405
ron	-9.71469
Go	-9.71524
▁waved	-9.71557
aking	-9.71783
▁thank	-9.71822
▁echoed	-9.72226
▁neither	-9.72226
▁pretty	-9.72226
▁perform	-9.72226
▁Spell	-9.72227
▁speed	-9.7223
▁lunch	-9.72235
▁hide	-9.72246
▁witches	-9.72385
▁gap	-9.72422
▁shouldn	-9.72536
▁early	-9.72799
of	-9.73155
▁using	-9.73167
▁wood	-9.73251
▁Greyback	-9.7329
▁frightened	-9.7329
▁reveal	-9.73291
▁cupboard	-9.73299
▁rang	-9.73305
▁beat	-9.73454
▁thrown	-9.73493
ian	-9.73544
j	-9.73607
▁lips	-9.73628
Your	-9.73685
▁showing	-9.73703
▁drawing	-9.73832
aving	-9.73931
▁Who	-9.74159
▁fat	-9.74234
▁danger	-9.74347
▁goal	-9.74362
▁charm	-9.74366
▁grabbed	-9.74366
▁horse	-9.74366
▁pay	-9.74371
▁growled	-9.74386
▁yellow	-9.7442
▁emerged	-9.74432
▁obviously	-9.74522
▁ink	-9.74661
▁Oh	-9.75183
▁lower	-9.75229
▁screaming	-9.75314
▁hesitated	-9.75452
▁suit	-9.755
▁spotted	-9.75534
Have	-9.75849
▁Wizarding	-9.7598
Thank	-9.76218
De	-9.76301
▁passing	-9.76397
▁seems	-9.76441
enophilius	-9.76551
▁guess	-9.76551
▁photograph	-9.76551
▁spread	-9.76552
▁report	-9.76605
ized	-9.76779
▁shrieked	-9.76979
For	-9.77123
▁badly	-9.77218
▁Potion	-9.77358
▁sharp	-9.77407
▁Kingsley	-9.77662
▁anymore	-9.77662
▁twice	-9.77662
▁Auror	-9.77663
▁carried	-9.77664
▁flames	-9.77693
way	-9.77698
▁wake	-9.77703
▁asking	-9.7772
▁Stan	-9.77804
▁hissed	-9.77859
born	-9.77961
ture	-9.78037
▁questions	-9.78077
An	-9.78243
owing	-9.78409
▁Dursley	-9.78512
▁bother	-9.78589
▁Sprout	-9.78786
▁previous	-9.78786
▁writing	-9.78786
▁sneak	-9.78786
▁fresh	-9.78787
▁double	-9.78787
Please	-9.78787
▁grave	-9.7879
▁rule	-9.78794
▁Stone	-9.78813
▁stuck	-9.78836
▁Mark	-9.78847
Thanks	-9.79128
See	-9.79217
▁finish	-9.79299
ition	-9.79428
▁pretend	-9.79574
▁student	-9.79677
▁bow	-9.79684
▁liked	-9.79881
▁handed	-9.79903
▁shape	-9.79904
▁familiar	-9.79922
▁sweet	-9.79922
▁kiss	-9.79922
▁brave	-9.79923
▁easy	-9.79923
▁midair	-9.79925
▁joke	-9.79928
▁definitely	-9.79969
▁Just	-9.79984
kin	-9.80139
▁bat	-9.80167
angle	-9.80203
▁upward	-9.80435
▁interested	-9.80484
▁pause	-9.80645
VE	-9.80803
▁faint	-9.80809
▁certain	-9.80811
men	-9.80814
▁pull	-9.80969
cent	-9.8098
▁horror	-9.81072
▁unpleasant	-9.81072
▁worst	-9.81072
▁rising	-9.81074
▁square	-9.81076
▁wooden	-9.81115
▁Longbottom	-9.81125
▁Horcruxes	-9.81181
▁Nearly	-9.81213
air	-9.81375
▁Every	-9.81375
▁K	-9.81421
▁mum	-9.81521
▁shouting	-9.81678
▁Was	-9.8168
▁wave	-9.81867
▁cool	-9.81975
HE	-9.82054
▁extra	-9.82229
▁Chamber	-9.82235
▁birthday	-9.82235
▁downstairs	-9.82235
▁block	-9.82235
▁chain	-9.82235
▁shining	-9.82236
▁However	-9.82256
▁trip	-9.82296
▁sounding	-9.82361
▁Wand	-9.82376
▁eh	-9.82397
Potter	-9.82577
▁party	-9.82865
bling	-9.82925
▁leading	-9.82966
▁wild	-9.83153
▁Privet	-9.83411
▁destroy	-9.83411
▁platform	-9.83411
▁understood	-9.83411
▁Drive	-9.83412
▁bird	-9.83412
▁solid	-9.83417
▁candle	-9.83418
▁weak	-9.83436
▁gate	-9.83586
Sorry	-9.83629
▁gleaming	-9.83637
▁seriously	-9.83645
▁growing	-9.83784
▁helped	-9.83788
▁search	-9.83957
▁appear	-9.83963
▁learn	-9.83976
▁cross	-9.83977
▁bowl	-9.84025
▁glance	-9.84176
▁lifted	-9.84213
▁eat	-9.84249
▁highly	-9.84388
▁state	-9.84431
▁coldly	-9.84462
▁creatures	-9.84529
▁Quaffle	-9.84602
▁excitement	-9.84602
▁glittering	-9.84602
▁scene	-9.84602
▁Some	-9.84665
▁jinx	-9.84748
▁si	-9.84791
▁excitedly	-9.84825
▁Do	-9.84893
▁louder	-9.84977
▁packed	-9.85118
Would	-9.85164
TH	-9.8543
▁objects	-9.85481
ory	-9.85709
▁Triwizard	-9.85806
▁statue	-9.85806
▁swept	-9.85806
▁track	-9.85807
▁soared	-9.85819
▁Once	-9.85851
▁game	-9.85874
▁size	-9.85884
▁pure	-9.85953
▁properly	-9.8596
▁su	-9.86072
▁Go	-9.86076
▁lucky	-9.86089
work	-9.86178
Dobby	-9.86191
▁list	-9.86476
▁Dementors	-9.86551
▁escape	-9.86599
▁furious	-9.86774
▁dust	-9.86798
▁letters	-9.86844
lus	-9.8686
▁hearing	-9.86919
▁shout	-9.87024
▁Gringotts	-9.87026
▁cheek	-9.87026
▁effect	-9.87026
▁poison	-9.87026
▁aware	-9.87026
▁famous	-9.87026
▁somehow	-9.87059
▁Three	-9.87238
▁sighed	-9.87311
▁seats	-9.87352
▁burning	-9.87526
▁thanks	-9.87542
▁Charms	-9.87578
EN	-9.87646
▁champions	-9.8783
ite	-9.87838
▁buy	-9.87895
▁careful	-9.88075
haired	-9.88082
▁grip	-9.88224
▁armchair	-9.8826
▁compartment	-9.8826
▁dunno	-9.8826
▁relief	-9.8826
▁smoke	-9.8826
▁fireplace	-9.88268
▁fellow	-9.88384
▁belong	-9.88461
ED	-9.88773
▁saved	-9.88813
▁learned	-9.88914
▁deeply	-9.89123
▁sweat	-9.89219
Then	-9.89323
▁holidays	-9.8935
▁protect	-9.8945
▁Defense	-9.8951
▁anybody	-9.8951
▁circle	-9.8951
▁impression	-9.8951
▁slammed	-9.8951
▁study	-9.8951
▁write	-9.89513
▁mood	-9.89538
▁Headless	-9.89554
▁squ	-9.89632
Out	-9.89702
▁recognized	-9.89718
board	-9.89926
▁fun	-9.90331
▁shortly	-9.9034
▁draw	-9.90429
Here	-9.90451
▁lived	-9.90514
▁interest	-9.9058
▁surely	-9.90583
▁mist	-9.90654
▁carriage	-9.90776
▁troll	-9.90777
▁shake	-9.90797
faced	-9.90879
▁delighted	-9.91029
▁calmly	-9.91035
▁higher	-9.91326
ient	-9.91389
▁By	-9.91393
▁prove	-9.91439
hand	-9.91712
▁ca	-9.9177
▁calm	-9.91798
▁sped	-9.92003
▁slip	-9.92022
▁contact	-9.92058
▁everybody	-9.92058
▁landing	-9.92059
Like	-9.9206
▁uncle	-9.9206
▁breathing	-9.92071
▁mine	-9.9212
▁fair	-9.92126
▁hurry	-9.92714
▁suggest	-9.92731
amp	-9.92772
▁lowered	-9.92841
▁painful	-9.93038
▁final	-9.93098
▁grin	-9.93347
▁Transfiguration	-9.93357
▁written	-9.93357
▁thunder	-9.93357
▁risk	-9.93358
▁expelled	-9.93365
ING	-9.93372
▁Room	-9.93373
▁passage	-9.93375
▁clothes	-9.93376
▁creature	-9.93441
go	-9.93529
▁Fat	-9.93589
▁anxiously	-9.93595
▁card	-9.93675
▁boo	-9.93912
▁consider	-9.94046
port	-9.94223
▁serious	-9.94412
▁complete	-9.94414
▁sleeve	-9.94673
▁money	-9.94673
▁proud	-9.94675
▁eight	-9.94704
▁blast	-9.94705
wise	-9.94861
Voldemort	-9.95172
▁enjoy	-9.95359
▁Of	-9.95363
▁Wizard	-9.95503
▁silvery	-9.95576
▁realize	-9.95593
Hi	-9.95623
▁shadow	-9.95912
▁Pensieve	-9.96006
▁collect	-9.96006
▁feast	-9.96006
▁dragged	-9.96006
▁dozen	-9.96006
▁promise	-9.96006
▁distance	-9.96007
▁accept	-9.96008
▁gulp	-9.96009
▁anywhere	-9.96041
▁rise	-9.96064
▁doorway	-9.96111
▁lawn	-9.96203
▁desperately	-9.96219
▁rage	-9.9638
▁happening	-9.96396
▁twins	-9.96463
▁escaped	-9.96475
▁weight	-9.96494
▁lock	-9.96745
Could	-9.96833
▁Ro	-9.97021
▁Bar	-9.97065
Me	-9.97149
back	-9.97162
▁se	-9.97187
▁Un	-9.97225
▁distract	-9.97357
▁brilliant	-9.97358
▁impossible	-9.97358
▁space	-9.97358
▁Lady	-9.97358
▁stream	-9.97358
▁flung	-9.97358
▁sur	-9.97375
▁nearby	-9.97379
▁protection	-9.97398
▁directly	-9.97498
▁moon	-9.97815
...``	-9.97871
▁cleared	-9.9795
▁missing	-9.98236
▁Come	-9.98359
▁Cornelius	-9.98727
▁peering	-9.98727
▁ugly	-9.98727
▁werewolf	-9.98727
▁sometimes	-9.98729
▁yell	-9.98772
▁Phineas	-9.98826
▁month	-9.98959
▁station	-9.98964
▁members	-9.9902
▁agreed	-9.99103
▁Everyone	-9.99122
ather	-9.99158
▁sounds	-9.99194
▁suggested	-9.99393
▁attempted	-9.99801
▁excited	-9.99856
▁Grawp	-10.0012
▁Lovegood	-10.0012
▁vault	-10.0012
▁scratch	-10.0012
▁frame	-10.0012
▁children	-10.0012
Keep	-10.0012
▁panted	-10.0015
▁treat	-10.0015
▁jet	-10.0018
▁plain	-10.0019
▁fury	-10.0034
▁Perhaps	-10.0041
▁tap	-10.0045
▁wings	-10.0049
▁dim	-10.0049
▁locked	-10.0076
▁believed	-10.0085
▁curtains	-10.0123
▁loads	-10.0142
▁Their	-10.0149
▁Borgin	-10.0152
▁Divination	-10.0152
▁blind	-10.0152
▁choice	-10.0152
▁drift	-10.0152
▁essay	-10.0152
▁level	-10.0152
▁feather	-10.0152
▁root	-10.0153
▁shiver	-10.0153
▁everywhere	-10.0155
ST	-10.0162
▁likely	-10.0164
day	-10.019
Nothing	-10.0212
▁Your	-10.0226
▁harder	-10.0245
NO	-10.0261
bye	-10.0264
▁anxious	-10.0269
▁explained	-10.0269
▁touched	-10.0286
▁among	-10.0293
▁flick	-10.0294
▁Firenze	-10.0295
▁confused	-10.0295
▁glancing	-10.0295
▁journey	-10.0295
▁struggling	-10.0295
▁innocent	-10.0295
▁Alley	-10.0295
▁mass	-10.0313
▁Sh	-10.0317
ically	-10.0326
▁paused	-10.0349
J	-10.0356
▁Galleons	-10.0365
ipping	-10.039
▁interesting	-10.0392
▁pack	-10.0393
▁gaze	-10.0398
▁cave	-10.0401
▁headed	-10.0414
▁cap	-10.0422
▁shocked	-10.0424
▁Colin	-10.044
▁Ogden	-10.044
▁World	-10.044
▁surrounding	-10.044
Yeh	-10.044
▁Sorting	-10.044
▁basin	-10.044
▁raising	-10.044
▁favorite	-10.0441
▁rope	-10.0442
▁appearance	-10.0442
▁woke	-10.0443
▁Aberforth	-10.0449
gy	-10.0457
▁breaking	-10.0461
▁dived	-10.0463
▁marched	-10.0471
▁object	-10.048
▁throw	-10.0495
▁cheerful	-10.0514
▁imagine	-10.0545
▁Or	-10.0566
IN	-10.0587
▁London	-10.0587
▁Ludo	-10.0587
▁Nobody	-10.0587
cogni	-10.0587
▁steal	-10.0587
▁limp	-10.0588
▁mis	-10.0588
▁message	-10.0589
▁clever	-10.0592
▁mess	-10.0594
▁brown	-10.0595
▁add	-10.0599
ical	-10.0605
▁wished	-10.0617
▁twisted	-10.0629
▁hoped	-10.063
mber	-10.0643
blood	-10.0653
Sirius	-10.0653
▁stretch	-10.0674
▁chin	-10.0729
ible	-10.0729
Okay	-10.0737
▁Creatures	-10.0737
▁Frank	-10.0737
▁Godric	-10.0737
▁correct	-10.0737
▁demanded	-10.0737
▁smirk	-10.0737
▁visible	-10.0737
▁charge	-10.0737
▁spiral	-10.0737
▁therefore	-10.0737
▁keen	-10.0737
▁although	-10.0737
▁settled	-10.0737
▁drive	-10.0738
▁ripped	-10.0738
▁swallowed	-10.0751
▁fourth	-10.0758
▁hate	-10.0763
▁murmured	-10.0766
▁fur	-10.0785
▁burned	-10.0796
▁handle	-10.0804
His	-10.081
▁lose	-10.0816
ius	-10.0824
▁opening	-10.0824
V	-10.0831
To	-10.0834
▁continue	-10.0846
▁goblins	-10.0856
▁shadows	-10.0872
Must	-10.0872
▁echoing	-10.0888
▁glimpse	-10.0888
▁newspaper	-10.0888
▁shudder	-10.0888
▁Prince	-10.0888
▁temper	-10.0888
▁whistle	-10.0888
▁broad	-10.0888
▁suffer	-10.0888
▁bench	-10.0889
▁Marge	-10.089
ified	-10.0892
▁sack	-10.0895
▁useful	-10.0899
Tell	-10.0905
▁hundreds	-10.0912
▁failed	-10.0932
▁duel	-10.0932
▁gazed	-10.0933
▁champion	-10.0941
▁pea	-10.0946
▁dragons	-10.0952
▁disappear	-10.0979
▁Can	-10.1022
▁forgot	-10.1041
▁Gaunt	-10.1042
▁leaning	-10.1042
▁persuade	-10.1042
▁child	-10.1042
▁contain	-10.1042
▁baby	-10.1042
▁awake	-10.1042
▁grinned	-10.1042
▁tired	-10.1042
▁Don	-10.1044
▁panting	-10.1045
▁country	-10.1046
▁utter	-10.1049
▁ignored	-10.1068
▁wear	-10.1069
▁expecting	-10.1083
down	-10.1083
▁Let	-10.11
▁helping	-10.1107
▁checking	-10.1141
▁Yes	-10.1144
▁agree	-10.1156
▁McLaggen	-10.1198
▁envelope	-10.1198
▁private	-10.1198
▁survive	-10.1198
▁Burrow	-10.1198
▁Half	-10.1198
▁nodding	-10.1198
▁peered	-10.1198
▁Hallows	-10.1198
▁caused	-10.1199
▁bank	-10.1207
▁received	-10.1217
▁burn	-10.123
▁kicked	-10.123
▁lap	-10.1242
▁crying	-10.126
▁tear	-10.1289
▁teaching	-10.1298
▁decide	-10.1314
▁hum	-10.1318
▁attempting	-10.1325
▁Hat	-10.1326
▁slight	-10.1333
▁Durmstrang	-10.1357
▁Place	-10.1357
▁amount	-10.1357
▁easily	-10.1357
▁eleven	-10.1357
▁strain	-10.1357
▁Saturday	-10.1357
▁crystal	-10.1357
▁wheel	-10.1357
▁examining	-10.1357
▁dropping	-10.136
▁OF	-10.1364
gged	-10.1395
▁flower	-10.1406
what	-10.1435
▁pretending	-10.1448
One	-10.1449
▁pat	-10.1451
▁alarm	-10.1455
▁shriek	-10.1456
▁fill	-10.1459
▁board	-10.1468
▁dressed	-10.1469
▁admit	-10.1514
▁complain	-10.1518
▁dirty	-10.1518
▁excellent	-10.1518
▁knife	-10.1518
▁Seeker	-10.1518
▁descend	-10.1518
▁address	-10.1518
▁wife	-10.1518
▁mountain	-10.1518
▁insist	-10.1519
▁handsome	-10.1522
▁abruptly	-10.1525
▁plant	-10.1537
▁Narcissa	-10.1537
▁smashed	-10.1539
▁fan	-10.1549
aged	-10.1589
Kreacher	-10.1599
▁jus	-10.1601
▁climb	-10.162
▁cry	-10.163
▁......	-10.1647
ckle	-10.1651
▁desperate	-10.1656
▁Ha	-10.1665
▁Lo	-10.1677
unc	-10.1679
▁unusual	-10.1682
▁Requirement	-10.1682
▁difference	-10.1682
▁glaring	-10.1682
▁reappear	-10.1682
▁security	-10.1682
▁simple	-10.1682
▁stadium	-10.1682
▁tournament	-10.1682
▁judge	-10.1682
▁wrote	-10.1682
▁History	-10.1682
Blood	-10.1682
▁shift	-10.1682
▁storm	-10.1683
▁toilet	-10.1683
▁dying	-10.1684
▁curled	-10.1691
▁recent	-10.1691
▁chill	-10.1693
▁realised	-10.1702
Ho	-10.1711
▁classes	-10.1719
▁Something	-10.1722
▁pushing	-10.1723
▁roll	-10.1723
AL	-10.1739
▁difficulty	-10.174
▁dementor	-10.1762
Ha	-10.1762
▁gasp	-10.1792
qua	-10.1834
▁possess	-10.1845
▁OWL	-10.1849
▁hippogriff	-10.1849
▁phoenix	-10.1849
▁thousand	-10.1849
▁Elder	-10.1849
▁floating	-10.1849
▁bought	-10.1849
▁welcome	-10.1849
▁Most	-10.1849
▁aunt	-10.1849
▁grew	-10.1849
▁battle	-10.1849
▁creak	-10.1849
▁possession	-10.1853
▁spend	-10.1857
Hello	-10.1859
▁Mudblood	-10.1865
▁removed	-10.1872
ize	-10.1873
▁counter	-10.1878
▁wildly	-10.1886
▁calling	-10.1888
▁offer	-10.1889
▁knock	-10.1891
Will	-10.1903
▁remind	-10.1956
▁socks	-10.1988
▁dull	-10.1995
▁nu	-10.1998
▁fool	-10.2015
▁stare	-10.2016
▁Delacour	-10.2018
▁Pansy	-10.2018
▁dancing	-10.2018
▁striding	-10.2018
▁disgust	-10.2018
▁drain	-10.2018
▁instructions	-10.2018
▁stiff	-10.2018
▁detail	-10.2018
ubbly	-10.2018
▁overhead	-10.2018
▁yard	-10.2019
▁gestur	-10.202
▁weird	-10.2021
▁cake	-10.2024
▁upset	-10.2027
▁Bathilda	-10.2036
▁puff	-10.204
cause	-10.2043
aught	-10.2049
▁wonderful	-10.2051
▁wizarding	-10.2052
▁tied	-10.206
▁Had	-10.2084
▁pick	-10.2093
▁whi	-10.2128
▁comfort	-10.2188
▁Fawkes	-10.2191
▁Grimmauld	-10.2191
▁Morfin	-10.2191
▁Nigellus	-10.2191
▁clutched	-10.2191
▁filthy	-10.2191
▁gigantic	-10.2191
▁possibly	-10.2191
▁rubbish	-10.2191
▁screech	-10.2191
▁stunned	-10.2191
▁tongue	-10.2191
▁transform	-10.2191
▁company	-10.2191
▁gently	-10.2191
▁swing	-10.2191
▁terror	-10.2191
▁blame	-10.2193
▁planning	-10.2194
▁taught	-10.2197
cept	-10.2199
▁owner	-10.2201
▁frozen	-10.2209
▁TO	-10.2216
▁Molly	-10.2225
▁pot	-10.2245
▁squeaked	-10.2249
▁rolling	-10.2258
▁Master	-10.2261
▁clearing	-10.2274
▁King	-10.2289
▁def	-10.2309
▁carry	-10.2313
▁mentioned	-10.232
ude	-10.2332
eyed	-10.2334
▁inform	-10.2363
▁occasion	-10.2365
▁awkward	-10.2366
▁Norris	-10.2366
▁excuse	-10.2366
▁midnight	-10.2366
▁monster	-10.2366
▁surrounded	-10.2366
▁swirl	-10.2366
▁tunnel	-10.2366
▁pillow	-10.2366
▁prevent	-10.2366
▁skull	-10.2366
▁Mungo	-10.2366
▁zoomed	-10.2366
▁bald	-10.2367
▁losing	-10.2371
Re	-10.2374
▁becoming	-10.2385
▁sleeping	-10.2388
ES	-10.2389
▁struggled	-10.2389
▁chas	-10.239
▁intent	-10.2395
Really	-10.2396
▁sprinted	-10.2401
▁discovered	-10.241
▁stars	-10.2442
▁considered	-10.2451
▁oddly	-10.2453
▁eating	-10.2467
▁Secrets	-10.2475
▁staying	-10.2481
▁star	-10.2485
▁answered	-10.2502
▁DA	-10.2509
▁obvious	-10.2519
poster	-10.2521
▁See	-10.2524
▁clock	-10.2537
Blimey	-10.2545
▁disappointed	-10.2545
▁fought	-10.2545
▁strength	-10.2545
▁unicorn	-10.2545
▁honest	-10.2545
Course	-10.2545
▁measure	-10.2545
▁greet	-10.2545
▁folded	-10.2545
▁road	-10.2545
Plank	-10.2546
▁wound	-10.2552
▁convinced	-10.2558
Give	-10.2559
▁croaked	-10.256
▁Before	-10.2564
▁dry	-10.2573
▁interrupted	-10.2576
▁fully	-10.2579
▁whenever	-10.2579
Got	-10.2598
▁reminded	-10.2611
▁OK	-10.2618
oke	-10.2625
▁spat	-10.2633
▁sending	-10.268
▁breathed	-10.2719
▁Apparate	-10.2727
▁Headmaster	-10.2727
▁applause	-10.2727
▁crept	-10.2727
▁hoarse	-10.2727
▁memories	-10.2727
▁scrambled	-10.2727
▁special	-10.2727
▁vision	-10.2727
▁Figg	-10.2727
▁drown	-10.2727
▁damage	-10.2727
▁Both	-10.2727
▁neat	-10.2727
▁Keeper	-10.2727
ship	-10.2727
▁streak	-10.2727
▁pub	-10.2728
▁comment	-10.2732
▁Grindelwald	-10.2738
▁Pro	-10.2755
Or	-10.2778
▁deeper	-10.2793
▁stuffed	-10.2807
Take	-10.2811
▁bowed	-10.2828
▁pan	-10.2833
▁allow	-10.2835
▁squeak	-10.2849
▁hang	-10.2852
round	-10.287
▁rip	-10.2895
▁Ch	-10.2909
▁coat	-10.291
▁brief	-10.2912
▁Hollow	-10.2912
▁elbow	-10.2912
▁including	-10.2912
▁shrugged	-10.2912
▁disturb	-10.2912
▁glint	-10.2912
▁swear	-10.2912
brush	-10.2912
▁nerve	-10.2912
▁pleasure	-10.2912
▁resist	-10.2912
▁grasp	-10.2912
▁sparks	-10.2912
▁warned	-10.2912
First	-10.2912
▁horn	-10.2912
▁package	-10.2913
▁sunlight	-10.2915
▁straightened	-10.2918
▁laid	-10.2925
▁entirely	-10.2928
▁refused	-10.2928
▁sub	-10.2929
▁People	-10.2938
▁From	-10.2938
▁drawn	-10.2953
▁imagined	-10.2966
▁beak	-10.2979
▁struck	-10.2984
▁pop	-10.299
▁date	-10.3008
With	-10.3017
▁due	-10.3046
▁twin	-10.305
▁law	-10.3098
▁gloom	-10.3098
▁goes	-10.31
Which	-10.31
▁Alicia	-10.31
▁Cauldron	-10.31
▁Diagon	-10.31
▁Hooch	-10.31
▁Muriel	-10.31
▁clapped	-10.31
▁evidence	-10.31
▁exhaust	-10.31
▁experience	-10.31
▁seventeen	-10.31
▁staggered	-10.31
▁thoroughly	-10.31
▁aloud	-10.31
▁contents	-10.31
▁fifth	-10.31
▁prepared	-10.31
▁result	-10.31
▁separate	-10.31
▁barrier	-10.31
▁pleasant	-10.31
▁bitterly	-10.3101
▁pace	-10.3101
▁clue	-10.3101
▁singing	-10.3103
▁massive	-10.3104
▁hedge	-10.3104
▁self	-10.3107
▁cabinet	-10.3107
▁vaguely	-10.3108
▁plum	-10.3109
▁glared	-10.3115
▁boat	-10.3116
▁fake	-10.3116
▁dance	-10.3122
▁weather	-10.3127
Mad	-10.313
▁Bell	-10.3136
witch	-10.3209
▁lip	-10.3222
▁poke	-10.3236
▁whispering	-10.3237
dged	-10.3244
▁cracked	-10.3256
▁accident	-10.3292
▁Beauxbatons	-10.3293
▁Regulus	-10.3293
▁Tournament	-10.3293
▁beautiful	-10.3293
▁dashed	-10.3293
▁muffled	-10.3293
▁pumpkin	-10.3293
▁relieved	-10.3293
quot	-10.3293
▁Several	-10.3293
▁abandon	-10.3293
▁closing	-10.3293
▁flood	-10.3293
▁impressed	-10.3293
▁snort	-10.3293
▁thud	-10.3293
▁Remus	-10.3293
▁causing	-10.3293
▁source	-10.3293
▁desire	-10.3293
▁proceed	-10.3293
▁Peter	-10.3293
▁clatter	-10.3293
▁wore	-10.3293
▁Viktor	-10.3305
▁share	-10.3305
▁personal	-10.3319
▁stag	-10.334
run	-10.3341
▁Though	-10.3343
▁pit	-10.3346
OO	-10.3361
Un	-10.3398
▁leap	-10.3399
▁shown	-10.3413
case	-10.3426
▁raise	-10.3449
▁bringing	-10.3454
▁curious	-10.3465
▁manage	-10.3466
▁Lestrange	-10.3489
▁building	-10.3489
▁families	-10.3489
▁plenty	-10.3489
▁regret	-10.3489
▁spectacles	-10.3489
▁speech	-10.3489
▁spirit	-10.3489
▁trace	-10.3489
▁High	-10.3489
▁rumor	-10.3489
▁accus	-10.3489
▁torture	-10.3489
▁till	-10.349
▁passageway	-10.349
▁spill	-10.349
▁evil	-10.3493
▁cough	-10.3493
▁Ex	-10.3497
▁jar	-10.3505
▁picking	-10.3563
▁darkly	-10.3585
Ginny	-10.3605
▁kindly	-10.3609
▁offered	-10.3612
▁sink	-10.3631
long	-10.3636
ball	-10.365
ration	-10.3654
▁older	-10.3684
▁violent	-10.3689
Excellent	-10.3689
▁chamber	-10.3689
▁irritably	-10.3689
▁wrapped	-10.3689
▁casual	-10.3689
▁wiping	-10.3689
▁mumbled	-10.3689
▁Chaser	-10.3689
▁steam	-10.3689
▁pounding	-10.3689
▁dawn	-10.3689
▁ankle	-10.3689
▁respect	-10.3689
▁vast	-10.3689
▁polite	-10.3689
▁urge	-10.3689
▁mate	-10.3694
▁dreadful	-10.3704
▁grimly	-10.3712
▁Anyway	-10.3758
▁knocking	-10.3766
▁grow	-10.3797
▁checked	-10.3814
▁blink	-10.383
▁jerk	-10.383
▁Only	-10.3835
Sir	-10.3857
▁proper	-10.3879
▁Ariana	-10.3893
▁Defence	-10.3893
▁Imperius	-10.3893
▁Jordan	-10.3893
▁Next	-10.3893
▁Pigwidgeon	-10.3893
▁affect	-10.3893
▁chocolate	-10.3893
▁replied	-10.3893
▁serpent	-10.3893
▁unconscious	-10.3893
▁powder	-10.3893
▁cousin	-10.3893
▁rubbing	-10.3893
▁weapon	-10.3893
▁buried	-10.3893
▁pool	-10.3893
▁occurred	-10.3893
Wait	-10.3894
▁punch	-10.3897
▁nowhere	-10.3905
pect	-10.3907
▁fiercely	-10.3908
▁wrenched	-10.391
▁chat	-10.3911
▁length	-10.3918
▁curiously	-10.392
▁song	-10.3927
▁dusty	-10.3932
▁tin	-10.3933
▁blinked	-10.3956
▁silently	-10.3977
▁band	-10.3979
Master	-10.4017
though	-10.4018
▁born	-10.4052
▁ice	-10.4064
▁member	-10.4086
▁dread	-10.4086
▁prefer	-10.41
▁Cattermole	-10.4101
▁Mysteries	-10.4101
▁Rosmerta	-10.4101
▁deliver	-10.4101
▁godfather	-10.4101
▁ignoring	-10.4101
▁jacket	-10.4101
▁sensation	-10.4101
▁wrist	-10.4101
▁wail	-10.4101
▁wedding	-10.4101
▁brand	-10.4101
▁Hog	-10.4101
▁stern	-10.4102
▁whirl	-10.4102
▁Under	-10.4103
▁shelves	-10.4104
▁branches	-10.4104
▁foolish	-10.4105
▁stamp	-10.4108
▁seventh	-10.4113
▁flight	-10.4121
▁setting	-10.4135
▁larger	-10.4136
▁shov	-10.4145
▁younger	-10.4154
▁abou	-10.4183
off	-10.4187
▁safely	-10.4187
▁vo	-10.4202
▁pla	-10.4239
▁Sir	-10.4243
▁vanish	-10.4252
▁remaining	-10.4263
now	-10.4292
▁Mar	-10.4294
▁snap	-10.4312
▁exist	-10.4313
▁Occlumency	-10.4314
▁Phoenix	-10.4314
▁article	-10.4314
▁borrow	-10.4314
▁idiot	-10.4314
▁natural	-10.4314
▁sniff	-10.4314
▁thirteen	-10.4314
▁thrust	-10.4314
▁velvet	-10.4314
▁bleeding	-10.4314
▁animal	-10.4314
▁foul	-10.4314
▁achiev	-10.4314
▁ourselves	-10.4314
▁key	-10.4315
Named	-10.4315
▁beamed	-10.4316
▁hint	-10.4316
▁Yaxley	-10.4329
▁startled	-10.4334
▁instantly	-10.4336
▁chosen	-10.434
▁grown	-10.4343
▁snatched	-10.4368
Think	-10.4384
▁Care	-10.4424
▁searching	-10.4431
▁Nothing	-10.4442
struck	-10.4447
Only	-10.4448
Malfoy	-10.4448
▁fail	-10.4469
▁twist	-10.4469
OK	-10.4476
how	-10.4495
pot	-10.4504
eaten	-10.4505
▁Have	-10.4509
come	-10.453
▁mount	-10.4531
▁Marauder	-10.4531
▁Thomas	-10.4531
▁arrival	-10.4531
▁bewildered	-10.4531
▁circular	-10.4531
▁decision	-10.4531
▁password	-10.4531
▁skrewt	-10.4531
▁deserve	-10.4531
▁Binns	-10.4531
▁carpet	-10.4532
▁require	-10.4532
▁Barty	-10.4532
▁argue	-10.4532
▁Fire	-10.4533
▁ginger	-10.4533
▁pipe	-10.4533
▁icy	-10.4534
▁tapped	-10.4534
▁severe	-10.4536
▁bearing	-10.4536
▁Doge	-10.4536
▁breathlessly	-10.4536
▁sentence	-10.4537
▁hopefully	-10.4537
▁lump	-10.4539
▁gran	-10.4551
▁Justin	-10.4552
▁grunted	-10.4572
Another	-10.4574
▁barked	-10.4575
▁moaned	-10.4577
▁blankly	-10.4597
▁sto	-10.4621
jo	-10.4628
▁yelling	-10.4635
▁enjoying	-10.4638
▁BE	-10.464
where	-10.4654
colored	-10.4655
uzz	-10.4668
white	-10.467
Weasley	-10.467
▁flow	-10.4691
Does	-10.4737
▁immense	-10.4754
▁Aragog	-10.4754
▁Herbology	-10.4754
▁Parkinson	-10.4754
▁clenched	-10.4754
▁giggle	-10.4754
▁indignantly	-10.4754
▁injured	-10.4754
▁juice	-10.4754
▁knot	-10.4754
▁permission	-10.4754
▁sweeping	-10.4754
▁treasure	-10.4754
Remember	-10.4754
▁clamber	-10.4754
▁daughter	-10.4754
▁replaced	-10.4754
▁sprang	-10.4754
▁bodies	-10.4754
▁changing	-10.4754
▁knowledge	-10.4754
▁presence	-10.4754
▁gift	-10.4754
▁lurk	-10.4754
▁threatening	-10.4754
▁mustache	-10.4755
▁whipped	-10.4755
duct	-10.4756
▁Th	-10.4758
▁weekend	-10.476
▁forcing	-10.4765
▁Map	-10.478
▁main	-10.4806
▁greatest	-10.4807
▁Someone	-10.4824
▁toast	-10.4853
Fine	-10.4878
▁spoken	-10.49
▁hug	-10.4919
▁perfect	-10.4955
▁grim	-10.4956
▁punish	-10.4978
▁Forbidden	-10.4981
▁evidently	-10.4981
▁interview	-10.4981
▁wardrobe	-10.4981
Minerva	-10.4981
While	-10.4981
▁bubble	-10.4981
▁snigger	-10.4981
▁choked	-10.4981
▁sixteen	-10.4981
▁orange	-10.4981
▁react	-10.4981
▁spun	-10.4981
▁faded	-10.4982
▁loose	-10.4982
▁soaring	-10.4983
▁rude	-10.4983
▁heaved	-10.4984
▁connection	-10.4984
▁ze	-10.4986
▁damp	-10.499
▁exploded	-10.4992
▁spare	-10.4995
▁exchanged	-10.5
▁boil	-10.5007
▁concerned	-10.503
▁annoyed	-10.5043
▁jerked	-10.5051
▁sinking	-10.5055
▁armor	-10.5061
▁alarmed	-10.507
▁tense	-10.5094
▁forever	-10.5112
Hang	-10.5141
▁lined	-10.5146
▁annoy	-10.5151
▁chose	-10.5185
▁examine	-10.5191
▁threat	-10.5213
▁success	-10.5213
▁Gilderoy	-10.5213
▁Little	-10.5213
▁Moaning	-10.5213
▁Smith	-10.5213
▁Thestral	-10.5213
▁accord	-10.5213
▁arrange	-10.5213
▁creep	-10.5213
▁enchanted	-10.5213
▁focus	-10.5213
▁gargoyle	-10.5213
▁handkerchief	-10.5213
▁horrified	-10.5213
▁purpose	-10.5213
▁record	-10.5213
▁servant	-10.5213
▁tremble	-10.5213
▁Finally	-10.5213
▁diadem	-10.5213
▁sobbing	-10.5213
▁waist	-10.5213
abini	-10.5213
▁ancient	-10.5213
▁leather	-10.5214
▁refer	-10.5214
▁insult	-10.5214
▁invite	-10.5214
▁sobbed	-10.5214
▁chuck	-10.5215
▁dislike	-10.5225
▁rot	-10.5225
▁guilty	-10.5229
▁stolen	-10.5234
▁loss	-10.5242
▁tray	-10.526
▁coolly	-10.5266
▁sneered	-10.5269
▁bite	-10.5321
▁righ	-10.536
▁rear	-10.5363
▁spy	-10.5384
tended	-10.5386
turn	-10.5393
▁connect	-10.5448
▁general	-10.5451
▁Entrance	-10.5452
▁International	-10.5452
▁Portkey	-10.5452
▁argument	-10.5452
▁cushion	-10.5452
▁emerging	-10.5452
▁erupted	-10.5452
▁feeble	-10.5452
▁liquid	-10.5452
▁rapidly	-10.5452
▁trail	-10.5452
▁uncomfortable	-10.5452
▁situation	-10.5452
▁squash	-10.5452
▁stories	-10.5452
▁silk	-10.5452
▁stroll	-10.5452
Those	-10.5452
▁forgive	-10.5452
▁dragging	-10.5452
▁outline	-10.5452
▁grey	-10.5452
▁harm	-10.5453
▁noticing	-10.5454
▁jaw	-10.5456
▁strip	-10.546
▁mask	-10.546
▁oak	-10.5467
▁stopping	-10.5468
▁metal	-10.5489
▁hill	-10.5496
▁score	-10.5497
▁Still	-10.5508
▁gotten	-10.5513
▁Tra	-10.5515
▁strangely	-10.5538
▁upside	-10.5551
▁En	-10.561
Anyway	-10.5611
Meanwhile	-10.5695
▁Creevey	-10.5695
▁briskly	-10.5695
▁butterbeer	-10.5695
▁concentrate	-10.5695
▁cottage	-10.5695
▁enchantment	-10.5695
▁extraordinary	-10.5695
▁miserably	-10.5695
▁mysterious	-10.5695
▁opportunity	-10.5695
▁precise	-10.5695
▁regular	-10.5695
▁dangling	-10.5695
▁examination	-10.5695
▁miserable	-10.5695
▁spinning	-10.5695
▁earlier	-10.5695
▁overheard	-10.5695
▁awoke	-10.5696
▁rattling	-10.5696
▁honor	-10.5696
▁silly	-10.5696
▁sofa	-10.5696
▁public	-10.5696
▁flame	-10.5697
Shut	-10.5698
About	-10.5698
▁awful	-10.5699
▁slit	-10.5701
▁suck	-10.5702
▁hover	-10.5706
▁claw	-10.5706
▁Gregorovitch	-10.5707
▁lightning	-10.5712
▁wiped	-10.5714
▁torn	-10.5729
▁ev	-10.573
▁squealed	-10.5734
▁concealed	-10.5745
▁weakly	-10.575
▁wine	-10.5779
▁lately	-10.5807
ower	-10.5817
▁tha	-10.5844
After	-10.5862
because	-10.5864
▁snatch	-10.5883
Our	-10.5886
Was	-10.5907
unch	-10.5914
▁direct	-10.5916
dict	-10.5934
Apparently	-10.5945
▁Captain	-10.5945
▁Express	-10.5945
▁Finnigan	-10.5945
▁Nimbus	-10.5945
▁Quibbler	-10.5945
▁accompanied	-10.5945
▁easier	-10.5945
▁fifteen	-10.5945
▁horribly	-10.5945
▁ingredients	-10.5945
▁shield	-10.5945
▁chicken	-10.5945
▁future	-10.5945
▁improve	-10.5945
▁whimper	-10.5945
▁prospect	-10.5945
▁clicked	-10.5946
▁club	-10.5946
▁Beater	-10.5946
▁Yet	-10.5946
▁paid	-10.5946
▁ensure	-10.5946
▁center	-10.5946
▁assist	-10.5946
▁sadly	-10.5946
▁Bones	-10.5946
▁reply	-10.5946
▁safety	-10.5946
▁fangs	-10.5946
▁defend	-10.5948
▁punishment	-10.5948
▁hungry	-10.5951
▁squeezed	-10.5959
▁gang	-10.596
Should	-10.5969
▁hitting	-10.5969
▁string	-10.5973
▁suspected	-10.5983
▁approaching	-10.5991
▁examined	-10.5992
Nice	-10.6009
▁faster	-10.6041
▁attract	-10.6051
Neville	-10.6118
▁discover	-10.6139
▁ignore	-10.6159
▁recognize	-10.6159
▁froze	-10.6174
▁suspicious	-10.6176
▁instant	-10.6176
▁ban	-10.6179
▁Bertha	-10.6202
▁Monday	-10.6202
▁Thousand	-10.6202
▁announce	-10.6202
▁boggart	-10.6202
▁dormitories	-10.6202
▁explanation	-10.6202
▁illegal	-10.6202
▁necklace	-10.6202
▁opinion	-10.6202
▁outstretched	-10.6202
▁positively	-10.6202
▁progress	-10.6202
▁swooped	-10.6202
▁symbol	-10.6202
▁telephone	-10.6202
▁truly	-10.6202
▁underneath	-10.6202
▁veela	-10.6202
▁drank	-10.6202
▁gentle	-10.6202
▁flesh	-10.6202
▁ribs	-10.6202
▁ducked	-10.6202
▁confident	-10.6202
▁scann	-10.6202
▁Boy	-10.6202
▁fond	-10.6202
▁frantically	-10.6202
bility	-10.6202
▁rub	-10.6203
▁tart	-10.6203
▁perched	-10.6205
▁amongst	-10.6206
▁crate	-10.6208
▁anti	-10.6211
▁outrage	-10.6213
▁unfortunate	-10.6215
▁sixth	-10.6219
▁reflected	-10.6219
▁music	-10.6222
▁linger	-10.6223
▁seek	-10.6231
▁gain	-10.624
▁groaned	-10.6244
Kill	-10.6246
▁shadowy	-10.6248
▁pressing	-10.6254
▁sooner	-10.6272
▁store	-10.6299
▁push	-10.6338
lank	-10.6343
friend	-10.6381
just	-10.6382
▁sneer	-10.6402
Quick	-10.6465
▁Dolores	-10.6465
▁Marietta	-10.6465
▁Neither	-10.6465
▁Polyjuice	-10.6465
▁absolute	-10.6465
▁ashamed	-10.6465
▁choose	-10.6465
▁illuminated	-10.6465
▁ordinary	-10.6465
▁yesterday	-10.6465
▁bulging	-10.6465
▁Brown	-10.6465
▁ruin	-10.6465
▁defeat	-10.6465
▁proof	-10.6469
▁supporters	-10.6473
▁collapsed	-10.6479
▁conjured	-10.6479
▁action	-10.6483
▁stack	-10.6486
▁boxes	-10.6487
▁quivering	-10.6502
▁pig	-10.6504
▁letting	-10.6528
▁sigh	-10.6565
▁drawer	-10.6612
pitched	-10.665
Stop	-10.6662
foot	-10.6673
Mum	-10.6688
▁numb	-10.6713
Certainly	-10.6735
▁Flint	-10.6735
▁Leaky	-10.6735
▁basilisk	-10.6735
▁crouched	-10.6735
▁nostrils	-10.6735
▁relax	-10.6735
▁seizing	-10.6735
▁slumped	-10.6735
▁steady	-10.6735
▁tapestry	-10.6735
▁unexpected	-10.6735
▁crawl	-10.6735
▁hollow	-10.6735
▁Cross	-10.6735
▁repair	-10.6735
▁Travers	-10.6735
▁false	-10.6735
▁gathered	-10.6735
▁tank	-10.6735
▁grateful	-10.6735
▁bending	-10.6736
▁taste	-10.674
▁bunch	-10.6741
▁assume	-10.6745
▁involved	-10.6746
▁lack	-10.6747
▁cutting	-10.6748
▁bedside	-10.6749
▁mend	-10.6759
▁shooting	-10.6763
▁suspiciously	-10.6763
▁mid	-10.6765
quarters	-10.6767
▁stronger	-10.6772
▁load	-10.6777
▁normally	-10.6813
▁pen	-10.6886
Someone	-10.6929
▁dive	-10.6958
▁particular	-10.6987
▁triumph	-10.7011
▁favor	-10.7013
▁defensive	-10.7013
▁Inquisitor	-10.7013
▁Instead	-10.7013
▁crumpled	-10.7013
▁huddle	-10.7013
▁husband	-10.7013
▁succeed	-10.7013
▁trapped	-10.7013
▁Stunning	-10.7013
▁twig	-10.7013
▁bloke	-10.7013
▁stool	-10.7013
▁glove	-10.7013
▁mild	-10.7013
▁beetle	-10.7013
▁pouring	-10.7013
▁racing	-10.7014
▁bolt	-10.7015
▁feed	-10.7016
▁shame	-10.7017
oving	-10.7017
▁shade	-10.7018
▁Bulgarian	-10.702
shaped	-10.702
▁bored	-10.7023
▁rack	-10.7025
legged	-10.7029
▁stump	-10.7031
▁released	-10.7032
▁distinctly	-10.7033
▁hurtled	-10.7038
▁plea	-10.7041
▁heels	-10.7041
enthusiastically	-10.7043
▁bath	-10.7047
ities	-10.7065
▁misty	-10.7066
▁wherever	-10.7071
▁faintly	-10.7077
▁sweater	-10.7079
▁stranger	-10.7081
maker	-10.7093
▁recover	-10.7195
Arthur	-10.7215
fact	-10.7215
▁rag	-10.7216
▁fix	-10.7236
acharias	-10.7299
▁Behind	-10.7299
▁Norbert	-10.7299
▁clipboard	-10.7299
▁emerald	-10.7299
▁fragment	-10.7299
▁greenhouse	-10.7299
▁happier	-10.7299
▁introduce	-10.7299
▁magnificent	-10.7299
▁motionless	-10.7299
▁parcel	-10.7299
▁produce	-10.7299
▁screwed	-10.7299
▁various	-10.7299
▁victim	-10.7299
▁squinting	-10.7299
▁absence	-10.7299
▁pupil	-10.7299
▁lurch	-10.7299
▁hut	-10.73
▁reflection	-10.73
▁heaven	-10.73
▁cook	-10.731
▁otherwise	-10.7315
ould	-10.7319
▁Disapparated	-10.7329
▁paw	-10.7336
▁holiday	-10.7336
▁dully	-10.7339
▁witness	-10.7383
▁DO	-10.743
black	-10.7516
▁concern	-10.753
▁march	-10.7531
Exactly	-10.7593
HARRY	-10.7593
Second	-10.7593
▁Dolohov	-10.7593
▁Oliver	-10.7593
▁advice	-10.7593
▁author	-10.7593
▁continuing	-10.7593
▁depths	-10.7593
▁equal	-10.7593
▁gliding	-10.7593
▁gnome	-10.7593
▁happiness	-10.7593
▁magazine	-10.7593
▁splash	-10.7593
▁Burke	-10.7593
▁smug	-10.7593
▁harsh	-10.7593
▁Patil	-10.7593
▁Willow	-10.7593
▁condition	-10.7593
▁arrest	-10.7593
▁account	-10.7593
▁grab	-10.7593
Indeed	-10.7593
▁serve	-10.7593
▁resign	-10.7593
▁iron	-10.7594
▁partner	-10.7594
▁winning	-10.7598
▁tipped	-10.7599
shirt	-10.7599
▁uncertainly	-10.7602
▁lane	-10.7603
▁farther	-10.7603
▁tie	-10.7603
▁alongside	-10.7606
▁urgently	-10.7611
▁roughly	-10.7617
▁afterward	-10.7624
Turn	-10.763
coming	-10.7781
Every	-10.7811
water	-10.7813
Everyone	-10.7813
Fred	-10.7826
▁kick	-10.7834
▁quarter	-10.7859
▁moan	-10.7861
four	-10.7861
▁entire	-10.787
▁eager	-10.787
▁blur	-10.7895
▁ominous	-10.7896
Dunno	-10.7896
▁Montague	-10.7896
▁School	-10.7896
▁crammed	-10.7896
▁hushed	-10.7896
▁shrugging	-10.7896
▁steadily	-10.7896
▁suspended	-10.7896
▁threshold	-10.7896
▁duty	-10.7896
▁savage	-10.7896
▁summon	-10.7896
▁maze	-10.7896
Merlin	-10.7896
▁swayed	-10.7896
▁Frog	-10.7896
▁darted	-10.7896
▁NOT	-10.7896
▁frog	-10.7896
▁shiny	-10.7896
▁fetch	-10.7896
▁health	-10.7898
▁accidentally	-10.7898
▁triumphant	-10.7898
Conf	-10.7901
▁protective	-10.7902
▁camp	-10.7903
▁sake	-10.7908
▁painting	-10.7924
▁sell	-10.7934
▁thoughtfully	-10.7934
▁race	-10.7955
▁sock	-10.7965
▁mug	-10.8061
Lupin	-10.8125
will	-10.8128
▁conceal	-10.8145
▁sprint	-10.8146
▁murmur	-10.8146
▁delight	-10.8159
▁remove	-10.8166
▁stole	-10.8191
Accio	-10.8208
▁Horntail	-10.8208
▁Slowly	-10.8208
▁behavior	-10.8208
▁cellar	-10.8208
▁crooked	-10.8208
▁detect	-10.8208
▁disguise	-10.8208
▁faithful	-10.8208
▁impressive	-10.8208
▁incredulously	-10.8208
▁kettle	-10.8208
▁lantern	-10.8208
▁married	-10.8208
▁puzzled	-10.8208
▁retrieve	-10.8208
▁ridiculous	-10.8208
▁schedule	-10.8208
▁tentatively	-10.8208
▁thread	-10.8208
▁umbrella	-10.8208
▁constant	-10.8208
▁ticket	-10.8208
▁yelp	-10.8208
▁shoes	-10.8208
▁instance	-10.8209
▁Many	-10.8209
Leave	-10.8209
▁blew	-10.8209
▁talent	-10.8209
▁curtly	-10.8209
▁yourselves	-10.8209
▁chess	-10.821
▁extract	-10.821
▁gloomily	-10.8212
▁veil	-10.8212
▁Healer	-10.8213
▁gripped	-10.8213
▁slipping	-10.8213
Surely	-10.8213
▁poking	-10.8214
▁decent	-10.8216
▁beast	-10.8216
▁swiftly	-10.8219
▁hello	-10.8219
▁hoop	-10.8223
tual	-10.8242
other	-10.8246
▁creat	-10.8249
▁curtain	-10.8274
Making	-10.8385
Stand	-10.8393
▁press	-10.8433
Though	-10.8447
Severus	-10.8447
▁useless	-10.8461
▁struggle	-10.8488
▁rough	-10.8505
▁apprehensive	-10.8531
▁leaf	-10.8531
▁Chocolate	-10.8531
▁Halloween	-10.8531
▁Inferi	-10.8531
▁Merope	-10.8531
▁antidote	-10.8531
▁astonished	-10.8531
▁breeze	-10.8531
▁contrary	-10.8531
▁daresay	-10.8531
▁emotion	-10.8531
▁instrument	-10.8531
▁jeans	-10.8531
▁pudding	-10.8531
▁satisfaction	-10.8531
▁secure	-10.8531
▁shimmering	-10.8531
▁slamming	-10.8531
▁slug	-10.8531
▁stumbled	-10.8531
▁undoubtedly	-10.8531
▁potato	-10.8531
▁thirty	-10.8531
▁sprout	-10.8531
▁pouch	-10.8531
▁zooming	-10.8531
▁image	-10.8531
▁swam	-10.8531
Wonder	-10.8531
▁bewitched	-10.8531
▁mixture	-10.8531
▁occasionally	-10.8533
▁fuss	-10.8534
▁inspect	-10.8534
▁comfortable	-10.8536
▁button	-10.8538
▁shelf	-10.8539
▁shrilly	-10.8543
▁Law	-10.8543
Shall	-10.8596
▁pie	-10.8675
▁knee	-10.8682
face	-10.8739
green	-10.8781
▁gleam	-10.88
▁grunt	-10.8802
▁Macmillan	-10.8864
▁Office	-10.8864
▁Parseltongue	-10.8864
▁appreciate	-10.8864
▁archway	-10.8864
▁cautiously	-10.8864
▁clapping	-10.8864
▁community	-10.8864
▁confess	-10.8864
▁luggage	-10.8864
▁shuffled	-10.8864
▁swarm	-10.8864
▁unknown	-10.8864
▁vicious	-10.8864
▁arguing	-10.8864
▁brass	-10.8864
▁slimy	-10.8864
▁Owlery	-10.8864
▁Squib	-10.8864
▁Goblet	-10.8864
▁suppress	-10.8864
▁unlikely	-10.8864
▁imitat	-10.8865
▁poured	-10.8865
▁amused	-10.8865
▁daring	-10.8865
▁prodd	-10.8866
▁tale	-10.8866
▁manner	-10.8867
▁spite	-10.887
▁patting	-10.8871
▁sport	-10.8872
▁admitted	-10.8873
▁leak	-10.8877
▁Auntie	-10.888
▁deny	-10.8883
▁lace	-10.8892
▁whip	-10.8896
ridge	-10.8947
▁soot	-10.8998
▁Vol	-10.9077
Something	-10.9125
▁kneel	-10.9133
hot	-10.9146
▁bark	-10.9159
▁seize	-10.9168
▁realise	-10.9173
▁fierce	-10.9183
▁obscur	-10.9209
WHAT	-10.9209
▁Advanced	-10.9209
▁Decree	-10.9209
▁Felix	-10.9209
▁alleyway	-10.9209
▁disbelief	-10.9209
▁indicated	-10.9209
▁lopsided	-10.9209
▁nightmare	-10.9209
▁shabby	-10.9209
▁television	-10.9209
▁graveyard	-10.9209
▁hunt	-10.9209
▁rescue	-10.9209
▁squinted	-10.9209
▁milk	-10.9209
▁steak	-10.9209
▁wreck	-10.9209
▁brandishing	-10.9209
▁swaying	-10.9209
▁twitched	-10.9209
▁scroll	-10.9209
▁Bane	-10.9209
▁begin	-10.921
▁sought	-10.921
▁obey	-10.921
▁display	-10.921
▁capture	-10.9211
▁blurred	-10.9211
▁moonlight	-10.9212
▁midst	-10.9212
▁wandering	-10.9215
▁gripping	-10.9215
▁slightest	-10.9217
▁gown	-10.923
▁None	-10.923
post	-10.9257
DON	-10.9349
▁approach	-10.9439
▁attend	-10.9446
Still	-10.9482
glass	-10.9483
▁interrupt	-10.9503
▁receive	-10.9524
▁guilt	-10.9543
Marvolo	-10.9566
▁Flamel	-10.9566
▁Nagini	-10.9566
▁Wizengamot	-10.9566
▁amazement	-10.9566
▁caretaker	-10.9566
▁dramatic	-10.9566
▁gruffly	-10.9566
▁increasing	-10.9566
▁meanwhile	-10.9566
▁penetrate	-10.9566
▁popular	-10.9566
▁possibility	-10.9566
▁regain	-10.9566
▁register	-10.9566
▁slept	-10.9566
▁suspicion	-10.9566
▁swimming	-10.9566
▁Vanish	-10.9566
▁confidence	-10.9566
▁thumb	-10.9566
▁uncomfortably	-10.9566
▁pacing	-10.9566
▁request	-10.9566
Anything	-10.9566
▁remark	-10.9566
▁trolley	-10.9566
▁roof	-10.9566
▁organ	-10.9566
▁protest	-10.9567
▁loyal	-10.9567
▁label	-10.9567
▁flask	-10.9567
▁stroke	-10.9567
▁blazing	-10.9567
▁Floo	-10.9567
▁jug	-10.9568
▁Chang	-10.9568
▁popping	-10.957
▁mental	-10.9573
▁vein	-10.9575
May	-10.9584
moon	-10.9854
▁distinct	-10.991
▁splutter	-10.9937
ACK	-10.9937
▁Butterbeer	-10.9937
▁Carrow	-10.9937
▁Honeydukes	-10.9937
▁Ireland	-10.9937
▁amazed	-10.9937
▁await	-10.9937
▁basket	-10.9937
▁concentrating	-10.9937
▁cruel	-10.9937
▁despite	-10.9937
▁forbidden	-10.9937
▁giggling	-10.9937
▁include	-10.9937
▁necessary	-10.9937
▁revolv	-10.9937
▁rumbling	-10.9937
▁service	-10.9937
▁substance	-10.9937
▁swollen	-10.9937
▁traitor	-10.9937
▁Friday	-10.9937
▁Knight	-10.9937
▁extinguished	-10.9937
▁jolt	-10.9937
▁orphanage	-10.9937
▁rigid	-10.9937
▁strike	-10.9937
▁jabb	-10.9937
▁swish	-10.9937
▁underground	-10.9937
▁floated	-10.9937
▁scattered	-10.9937
▁habit	-10.9937
▁bigger	-10.9937
▁scoop	-10.9937
▁prisoners	-10.9939
▁coins	-10.994
▁wearily	-10.9942
▁straightening	-10.9944
▁shone	-10.9947
▁bla	-10.9948
▁coward	-10.9949
Say	-10.997
▁file	-11.0126
skirt	-11.0149
Percy	-11.0238
Miss	-11.024
Bill	-11.0241
▁groan	-11.0258
worthy	-11.0302
▁glee	-11.0321
▁mix	-11.0321
▁confirm	-11.0321
Expelliarmus	-11.0321
Macnair	-11.0321
Stupef	-11.0321
▁Deluminator	-11.0321
▁Felicis	-11.0321
▁Johnson	-11.0321
▁Jorkins	-11.0321
▁POTTER	-11.0321
▁September	-11.0321
▁Stunned	-11.0321
▁advanced	-11.0321
▁concentration	-11.0321
▁embarrassed	-11.0321
▁merpeople	-11.0321
▁practise	-11.0321
▁relative	-11.0321
▁respond	-11.0321
▁select	-11.0321
▁sparkling	-11.0321
▁telescope	-11.0321
▁tugging	-11.0321
▁valuable	-11.0321
▁Davies	-11.0321
▁Hepzibah	-11.0321
▁grandmother	-11.0321
▁neighbor	-11.0321
▁campsite	-11.0321
▁official	-11.0321
Again	-11.0321
▁consult	-11.0321
▁print	-11.0321
▁strangle	-11.0321
▁momentarily	-11.0321
▁Everything	-11.0321
▁hugged	-11.0321
▁retort	-11.0321
▁battered	-11.0321
▁tucked	-11.0321
▁canvas	-11.0321
▁drove	-11.0321
▁snore	-11.0322
▁alert	-11.0322
▁carved	-11.0322
▁history	-11.0324
▁chuckled	-11.0328
▁Father	-11.033
▁patted	-11.0331
Hold	-11.0494
Help	-11.0502
Perhaps	-11.0637
Muggle	-11.0638
who	-11.0638
Even	-11.064
some	-11.0644
please	-11.0646
▁squeal	-11.0658
▁Disapparate	-11.0678
lunk	-11.0719
ject	-11.0721
▁confide	-11.0721
▁menacing	-11.0721
▁reluctant	-11.0721
▁Astronomy	-11.0721
▁Fluffy	-11.0721
▁Hannah	-11.0721
▁Horace	-11.0721
▁Roberts	-11.0721
▁advantage	-11.0721
▁crouching	-11.0721
▁describe	-11.0721
▁disappointment	-11.0721
▁feebly	-11.0721
▁gamekeeper	-11.0721
▁grief	-11.0721
▁grindylow	-11.0721
▁gritted	-11.0721
▁incantation	-11.0721
▁knuckles	-11.0721
▁muddy	-11.0721
▁patronum	-11.0721
▁pronounce	-11.0721
▁resembled	-11.0721
▁spectacular	-11.0721
▁courage	-11.0721
▁despair	-11.0721
▁eagle	-11.0721
▁injuries	-11.0721
▁pavement	-11.0721
▁pinned	-11.0721
▁realizing	-11.0721
▁sausage	-11.0721
▁smart	-11.0721
▁stirred	-11.0721
▁withdrew	-11.0721
▁Malkin	-11.0721
▁Whomping	-11.0721
▁bounced	-11.0721
▁bouncing	-11.0721
▁crime	-11.0721
▁shrink	-11.0721
Expecto	-11.0721
▁funeral	-11.0721
▁muscle	-11.0721
Excuse	-11.0721
▁resentful	-11.0721
▁claim	-11.0721
▁series	-11.0721
▁steep	-11.0721
Probably	-11.0721
▁fancy	-11.0721
▁toppled	-11.0721
▁betrayed	-11.0721
▁compared	-11.0721
Number	-11.0722
▁deafening	-11.0722
▁palm	-11.0722
▁begun	-11.0722
▁ferret	-11.0723
▁Irish	-11.0724
▁permitted	-11.0724
▁ragged	-11.0725
▁flickered	-11.0725
▁saving	-11.073
▁base	-11.0732
Said	-11.0732
Stun	-11.0754
tcher	-11.0781
Put	-11.0816
▁colour	-11.0845
▁Secret	-11.088
▁Dementor	-11.0881
tray	-11.1051
Molly	-11.1054
▁suspect	-11.1075
▁prison	-11.1135
▁unnatural	-11.1138
Quite	-11.1138
▁Arithmancy	-11.1138
▁Committee	-11.1138
▁Extendable	-11.1138
▁Michael	-11.1138
▁Nevertheless	-11.1138
▁Sneakoscope	-11.1138
▁Sorcerer	-11.1138
▁brutal	-11.1138
▁centuries	-11.1138
▁curiosity	-11.1138
▁currently	-11.1138
▁defense	-11.1138
▁develop	-11.1138
▁devoted	-11.1138
▁exasperated	-11.1138
▁fountain	-11.1138
▁haunt	-11.1138
▁lazily	-11.1138
▁maintain	-11.1138
▁pausing	-11.1138
▁promptly	-11.1138
▁rucksack	-11.1138
▁thief	-11.1138
▁torches	-11.1138
▁trapdoor	-11.1138
▁twinkling	-11.1138
▁ambition	-11.1138
▁blunder	-11.1138
▁bucket	-11.1138
▁cliff	-11.1138
▁departed	-11.1138
▁encounter	-11.1138
▁fruit	-11.1138
▁increase	-11.1138
▁bike	-11.1138
▁church	-11.1138
▁joking	-11.1138
▁rumble	-11.1138
▁bacon	-11.1138
▁gallop	-11.1138
▁sunken	-11.1138
▁command	-11.1138
▁darting	-11.1138
▁swelling	-11.1138
▁absent	-11.1138
▁cream	-11.1138
▁twitching	-11.1138
▁model	-11.1138
▁brick	-11.1138
▁pride	-11.1138
▁queue	-11.1138
▁price	-11.1138
▁elder	-11.1138
▁trial	-11.1138
▁mingled	-11.1138
▁amusing	-11.1138
▁Ern	-11.1139
Anyone	-11.1139
▁planned	-11.1139
▁clunk	-11.114
▁preferred	-11.1141
▁friendship	-11.1141
Stay	-11.1154
covered	-11.1207
▁fashion	-11.135
box	-11.1489
two	-11.1521
▁arrive	-11.153
▁urgent	-11.1547
▁shrivel	-11.1573
▁August	-11.1573
▁Cruciatus	-11.1573
▁Shield	-11.1573
▁Sunday	-11.1573
▁afford	-11.1573
▁arrogan	-11.1573
▁attitude	-11.1573
▁chandelier	-11.1573
▁chunk	-11.1573
▁dazzling	-11.1573
▁department	-11.1573
▁emptied	-11.1573
▁imagining	-11.1573
▁incredible	-11.1573
▁piercing	-11.1573
▁practicing	-11.1573
▁prediction	-11.1573
▁represent	-11.1573
▁restrain	-11.1573
▁surveyed	-11.1573
▁swerve	-11.1573
▁swore	-11.1573
▁transparent	-11.1573
▁Dedalus	-11.1573
▁Errol	-11.1573
▁Shacklebolt	-11.1573
▁skidded	-11.1573
▁vivid	-11.1573
▁Easter	-11.1573
▁period	-11.1573
▁session	-11.1573
▁shawl	-11.1573
▁teacup	-11.1573
▁tugged	-11.1573
▁venom	-11.1573
▁bundle	-11.1573
▁Amos	-11.1573
▁nature	-11.1573
▁enemy	-11.1573
▁swelled	-11.1573
▁crunch	-11.1573
▁recall	-11.1573
▁HIM	-11.1573
▁fiery	-11.1573
▁scales	-11.1573
▁insane	-11.1573
▁sugar	-11.1573
Shh	-11.1573
▁grade	-11.1573
▁pearly	-11.1573
Ready	-11.1573
▁damn	-11.1573
▁flickering	-11.1573
▁river	-11.1573
▁lady	-11.1574
▁mill	-11.1574
▁addition	-11.1574
▁pressure	-11.1575
▁existence	-11.1575
▁fleeting	-11.1576
▁forcefully	-11.1577
Wha	-11.158
Hmm	-11.1582
decorat	-11.18
place	-11.1885
figure	-11.1943
Winky	-11.1944
▁quiver	-11.1962
▁repeat	-11.1965
▁immediate	-11.2001
▁firm	-11.2002
▁branch	-11.2021
▁cloth	-11.2021
visibility	-11.2025
▁instruc	-11.2027
▁frequent	-11.2027
Impediment	-11.2027
▁dazed	-11.2027
▁delicate	-11.2027
▁indifferent	-11.2027
▁malicious	-11.2027
▁practical	-11.2027
▁Bagshot	-11.2027
▁Britain	-11.2027
▁Everybody	-11.2027
▁Through	-11.2027
▁appointment	-11.2027
▁atmosphere	-11.2027
▁bizarre	-11.2027
▁circumstances	-11.2027
▁earnestly	-11.2027
▁explosion	-11.2027
▁favourite	-11.2027
▁female	-11.2027
▁headmistress	-11.2027
▁knight	-11.2027
▁peculiar	-11.2027
▁prickling	-11.2027
▁refusing	-11.2027
▁ruddy	-11.2027
▁rustling	-11.2027
▁serenely	-11.2027
▁slash	-11.2027
▁thrill	-11.2027
▁uncontrollably	-11.2027
▁whereabouts	-11.2027
Avada	-11.2027
▁Feeling	-11.2027
▁complex	-11.2027
▁engine	-11.2027
▁eyelids	-11.2027
▁pursue	-11.2027
▁Dirk	-11.2027
▁amazing	-11.2027
▁material	-11.2027
▁nevertheless	-11.2027
▁mopping	-11.2027
▁grimace	-11.2027
▁stooped	-11.2027
Always	-11.2027
▁Squad	-11.2027
▁limb	-11.2027
▁snout	-11.2027
▁grabbing	-11.2027
▁cries	-11.2028
▁banned	-11.2028
▁dabb	-11.2028
▁bread	-11.2028
Goblin	-11.2028
▁nail	-11.2028
▁slope	-11.2028
▁curved	-11.2028
▁patrol	-11.2028
▁flaming	-11.2028
Ouch	-11.2028
▁nudged	-11.2028
Silence	-11.2029
▁earshot	-11.2029
▁lime	-11.2029
▁chattering	-11.203
▁stray	-11.203
▁prize	-11.203
Sometimes	-11.2032
Better	-11.2033
▁Dumb	-11.2034
▁compete	-11.2049
fire	-11.2056
Three	-11.242
Bellatrix	-11.242
free	-11.2422
▁smash	-11.2441
▁refuse	-11.2461
under	-11.247
nfortunately	-11.2479
▁Kedavra	-11.2503
▁remote	-11.2503
▁shrewd	-11.2503
▁Kendra	-11.2503
▁Omnioculars	-11.2503
▁Padma	-11.2503
▁Rookwood	-11.2503
▁Secrecy	-11.2503
▁Summoning	-11.2503
▁Warrington	-11.2503
▁accompany	-11.2503
▁arriving	-11.2503
▁bezoar	-11.2503
▁collided	-11.2503
▁dissolved	-11.2503
▁escort	-11.2503
▁essential	-11.2503
▁fluffy	-11.2503
▁hammering	-11.2503
▁identical	-11.2503
▁indicating	-11.2503
▁invitation	-11.2503
▁jealous	-11.2503
▁judging	-11.2503
▁language	-11.2503
▁mantelpiece	-11.2503
▁retreated	-11.2503
▁sandwich	-11.2503
▁scribbling	-11.2503
▁sinister	-11.2503
▁sleek	-11.2503
▁smoking	-11.2503
▁sprawl	-11.2503
▁stubbornly	-11.2503
▁surveying	-11.2503
▁swooping	-11.2503
▁unaware	-11.2503
▁untidy	-11.2503
▁whatsoever	-11.2503
▁June	-11.2503
▁companion	-11.2503
▁launched	-11.2503
▁provide	-11.2503
Level	-11.2503
▁version	-11.2503
▁ladder	-11.2503
▁process	-11.2503
strewn	-11.2503
▁swig	-11.2503
▁mistress	-11.2503
▁straw	-11.2504
hearted	-11.2504
▁method	-11.2504
▁Bode	-11.2504
▁fourteen	-11.2504
▁admire	-11.2504
▁random	-11.2504
▁handbag	-11.2504
▁flattened	-11.2504
▁collar	-11.2504
▁bunk	-11.2504
▁foreign	-11.2504
▁dug	-11.2504
obbed	-11.2504
▁lungs	-11.2504
▁gleefully	-11.2505
▁Headquarters	-11.2505
▁beginning	-11.2505
Nah	-11.2505
▁trot	-11.2505
Six	-11.2507
▁ease	-11.2518
Cheer	-11.2537
▁express	-11.2559
▁robe	-11.2748
Luna	-11.292
seven	-11.2921
▁exchange	-11.2961
▁brow	-11.2976
▁frantic	-11.3002
▁Restrict	-11.3003
▁Twenty	-11.3003
▁spray	-11.3003
▁swivel	-11.3003
Lumos	-11.3003
Naturally	-11.3003
Sturgis	-11.3003
▁Blotts	-11.3003
▁Cadogan	-11.3003
▁Dungbomb	-11.3003
▁Flourish	-11.3003
▁Leanne	-11.3003
▁Sickles	-11.3003
▁appeal	-11.3003
▁bruise	-11.3003
▁celebrate	-11.3003
▁circling	-11.3003
▁crush	-11.3003
▁demonstrate	-11.3003
▁enthusiasm	-11.3003
▁especially	-11.3003
▁glisten	-11.3003
▁grandfather	-11.3003
▁greasy	-11.3003
▁grumpily	-11.3003
▁interrogat	-11.3003
▁intrude	-11.3003
▁jewel	-11.3003
▁motorbike	-11.3003
▁neighbour	-11.3003
▁original	-11.3003
▁photo	-11.3003
▁revenge	-11.3003
▁shakily	-11.3003
▁sympathetic	-11.3003
▁throbbing	-11.3003
▁fortune	-11.3003
▁livid	-11.3003
▁rippling	-11.3003
▁teenage	-11.3003
▁rejoin	-11.3003
▁droop	-11.3003
▁police	-11.3003
Ended	-11.3003
▁Roger	-11.3004
▁headstone	-11.3004
▁lunged	-11.3004
▁sphere	-11.3004
▁wisp	-11.3004
▁title	-11.3004
▁Cole	-11.3004
▁prat	-11.3004
▁issuing	-11.3004
▁undertone	-11.3004
▁Howler	-11.3004
▁Day	-11.3004
▁camera	-11.3004
▁rich	-11.3005
▁fading	-11.3005
▁Ears	-11.3005
▁cork	-11.3005
▁blaze	-11.3006
lipped	-11.3029
Watch	-11.3032
Mind	-11.3075
ONS	-11.3139
▁extend	-11.3262
▁Galleon	-11.3272
▁surprising	-11.3306
Run	-11.3317
RON	-11.3389
Krum	-11.3446
YOU	-11.3446
which	-11.3446
floor	-11.3446
▁anythin	-11.3522
▁permit	-11.3526
▁aggressi	-11.353
▁incident	-11.353
▁transport	-11.353
Dawlish	-11.353
Somebody	-11.353
▁Dennis	-11.353
▁English	-11.353
▁Marchbanks	-11.353
▁October	-11.353
▁Rufus	-11.353
▁Shunpike	-11.353
▁Skrewt	-11.353
▁Thicknesse	-11.353
▁Thursday	-11.353
▁Tuesday	-11.353
▁WILL	-11.353
▁Wednesday	-11.353
▁adventure	-11.353
▁confusion	-11.353
▁dashing	-11.353
▁defiantly	-11.353
▁exceptionally	-11.353
▁exciting	-11.353
▁glided	-11.353
▁glimmer	-11.353
▁gnarled	-11.353
▁petrified	-11.353
▁protruding	-11.353
▁reassuring	-11.353
▁scurrying	-11.353
▁spellbooks	-11.353
▁stammered	-11.353
▁uneasy	-11.353
▁vampire	-11.353
▁writhing	-11.353
▁precious	-11.353
▁sloping	-11.353
▁stroking	-11.353
▁temple	-11.353
▁bustled	-11.353
▁bustling	-11.353
▁drunk	-11.353
▁limit	-11.353
▁rustle	-11.353
▁divide	-11.353
▁sallow	-11.353
▁women	-11.353
▁boulder	-11.353
▁copies	-11.353
▁vomit	-11.353
▁regard	-11.353
▁Box	-11.353
▁flex	-11.353
▁Pince	-11.353
▁attached	-11.353
▁lonely	-11.353
▁behave	-11.353
▁placing	-11.353
▁banner	-11.353
▁intense	-11.353
▁sauce	-11.353
▁sidecar	-11.353
Hurry	-11.353
▁decorated	-11.353
▁brim	-11.353
▁built	-11.3531
▁bully	-11.3531
▁kit	-11.3532
▁tiptoe	-11.3532
▁scrape	-11.3546
▁chip	-11.3666
washed	-11.3746
Tea	-11.3868
point	-11.4002
wizard	-11.4002
Fleur	-11.4002
Slughorn	-11.4002
Fudge	-11.4002
blue	-11.4002
Great	-11.4002
when	-11.4002
great	-11.4003
Cho	-11.4009
▁glare	-11.4043
▁convince	-11.4043
▁wipe	-11.4044
after	-11.4074
▁knob	-11.4085
Students	-11.4085
▁Animagus	-11.4085
▁BANG	-11.4085
▁Magnolia	-11.4085
▁Magorian	-11.4085
▁Mandrake	-11.4085
▁Peverell	-11.4085
▁Witchcraft	-11.4085
▁astonishment	-11.4085
▁complicated	-11.4085
▁conclusion	-11.4085
▁confiscate	-11.4085
▁constrict	-11.4085
▁contract	-11.4085
▁courtyard	-11.4085
▁disgruntled	-11.4085
▁doorknob	-11.4085
▁driving	-11.4085
▁electric	-11.4085
▁hostage	-11.4085
▁imagination	-11.4085
▁jeering	-11.4085
▁keyhole	-11.4085
▁magnified	-11.4085
▁monstrous	-11.4085
▁nonsense	-11.4085
▁remorse	-11.4085
▁shaggy	-11.4085
▁silhouette	-11.4085
▁strict	-11.4085
▁transfixed	-11.4085
▁violet	-11.4085
▁chapter	-11.4085
▁crossbow	-11.4085
▁disagree	-11.4085
▁Atrium	-11.4085
▁flapping	-11.4085
▁invented	-11.4085
▁mortal	-11.4085
▁eerie	-11.4085
▁maroon	-11.4085
▁propped	-11.4085
▁spitting	-11.4085
▁squirm	-11.4085
▁Witch	-11.4085
▁clanking	-11.4085
▁glory	-11.4085
▁whizz	-11.4085
Follow	-11.4085
▁Crack	-11.4085
▁preparing	-11.4085
▁schoolbag	-11.4085
Welcome	-11.4085
▁starving	-11.4085
▁Army	-11.4085
▁zoo	-11.4085
▁windowsill	-11.4086
▁spoon	-11.4086
▁etched	-11.4086
▁dais	-11.4086
▁flop	-11.4086
▁ajar	-11.4086
▁worm	-11.4086
▁flee	-11.4086
▁booming	-11.4086
Point	-11.4086
▁clasp	-11.4087
Clear	-11.4093
▁dense	-11.4094
▁jog	-11.4224
fashioned	-11.4379
People	-11.4589
count	-11.459
From	-11.459
Two	-11.459
Dudley	-11.459
Umbridge	-11.459
▁drag	-11.4668
▁deaf	-11.4673
▁contemptuous	-11.4674
▁encouraging	-11.4674
Dragon	-11.4674
Fletchley	-11.4674
Honestly	-11.4674
qualified	-11.4674
stricken	-11.4674
▁Argus	-11.4674
▁Bowtruckle	-11.4674
▁Enforcement	-11.4674
▁Knut	-11.4674
▁Scabior	-11.4674
▁Seven	-11.4674
▁Spinnet	-11.4674
▁Trevor	-11.4674
▁believing	-11.4674
▁celebration	-11.4674
▁chimney	-11.4674
▁colleague	-11.4674
▁contorted	-11.4674
▁cubicle	-11.4674
▁departure	-11.4674
▁desperation	-11.4674
▁disapproving	-11.4674
▁employ	-11.4674
▁injury	-11.4674
▁instinctively	-11.4674
▁knives	-11.4674
▁leprechaun	-11.4674
▁reproachful	-11.4674
▁response	-11.4674
▁similar	-11.4674
▁skulk	-11.4674
▁vegetable	-11.4674
▁vigorously	-11.4674
▁Ancient	-11.4674
▁Whinging	-11.4674
▁porridge	-11.4674
▁Doxy	-11.4674
▁Hokey	-11.4674
▁stride	-11.4674
▁bloodshot	-11.4674
▁rubber	-11.4674
▁adult	-11.4674
▁freedom	-11.4674
▁liking	-11.4674
onko	-11.4674
▁draped	-11.4674
▁Beedle	-11.4674
▁pathetic	-11.4674
▁Weird	-11.4674
▁reverse	-11.4675
▁sputter	-11.4675
Poor	-11.4694
▁steel	-11.4698
harp	-11.4742
filled	-11.4743
WHO	-11.4754
mouthed	-11.4885
▁bomb	-11.5036
Tha	-11.5111
Albus	-11.5215
Draco	-11.5215
Slytherin	-11.5215
Crouch	-11.5215
Hogwarts	-11.5215
large	-11.5216
▁shoot	-11.5234
▁swallow	-11.5236
▁release	-11.5256
▁vague	-11.5272
▁abrupt	-11.5272
▁definite	-11.5272
▁shrill	-11.5275
Brilliant	-11.5299
Funny	-11.5299
IGHT	-11.5299
▁Abbott	-11.5299
▁Confederation	-11.5299
▁Corner	-11.5299
▁Defensive	-11.5299
▁Demelza	-11.5299
▁Disarm	-11.5299
▁Fletcher	-11.5299
▁Mafalda	-11.5299
▁Millicent	-11.5299
▁Monster	-11.5299
▁Nicolas	-11.5299
▁Romilda	-11.5299
▁Shrieking	-11.5299
▁advancing	-11.5299
▁advised	-11.5299
▁agitated	-11.5299
▁appalled	-11.5299
▁bronze	-11.5299
▁coffee	-11.5299
▁crisp	-11.5299
▁delay	-11.5299
▁delicious	-11.5299
▁determination	-11.5299
▁enclosure	-11.5299
▁fraction	-11.5299
▁frustration	-11.5299
▁importance	-11.5299
▁indignation	-11.5299
▁inherited	-11.5299
▁irritated	-11.5299
▁niffler	-11.5299
▁paddock	-11.5299
▁perplexed	-11.5299
▁puncture	-11.5299
▁responsibility	-11.5299
▁responsible	-11.5299
▁rummaged	-11.5299
▁rummaging	-11.5299
▁sarcastically	-11.5299
▁significant	-11.5299
▁splinter	-11.5299
▁squeezing	-11.5299
▁sworn	-11.5299
▁treacle	-11.5299
▁turban	-11.5299
▁unfolded	-11.5299
▁whistling	-11.5299
Imagine	-11.5299
Prefect	-11.5299
▁Class	-11.5299
▁grubby	-11.5299
▁mercy	-11.5299
▁warlock	-11.5299
▁Jinx	-11.5299
▁flapped	-11.5299
▁investigate	-11.5299
▁stalked	-11.5299
▁steering	-11.5299
rimmed	-11.5299
▁perfume	-11.5299
▁prickle	-11.5299
▁signature	-11.5299
solution	-11.5299
▁biggest	-11.5299
▁slack	-11.5299
▁value	-11.5299
▁cowering	-11.5299
▁depend	-11.5299
▁expand	-11.5299
▁tramp	-11.5299
▁loathed	-11.5299
True	-11.5299
▁Runes	-11.5299
▁diff	-11.5299
▁freak	-11.5299
▁Finch	-11.5299
▁cozy	-11.5299
▁frost	-11.5299
▁dumb	-11.5299
▁rubbed	-11.5299
▁interfere	-11.5299
Oooh	-11.5299
▁tune	-11.5299
▁blade	-11.5299
GET	-11.5302
Third	-11.5302
ONE	-11.533
Close	-11.5344
Daddy	-11.5349
Break	-11.5367
pressed	-11.5531
witnesses	-11.5769
length	-11.5881
jinx	-11.5881
Nearly	-11.5881
Black	-11.5882
▁snarl	-11.5903
▁emerge	-11.5923
▁impatient	-11.5939
OUR	-11.5958
▁expel	-11.5962
▁appreciative	-11.5965
▁deflect	-11.5965
Obviously	-11.5965
Personally	-11.5965
STOP	-11.5965
▁Apparating	-11.5965
▁Bogrod	-11.5965
▁Cleansweep	-11.5965
▁Egypt	-11.5965
▁Lynch	-11.5965
▁MAGIC	-11.5965
▁NEWT	-11.5965
▁Network	-11.5965
▁Padfoot	-11.5965
▁Snorkack	-11.5965
▁aghast	-11.5965
▁apologetic	-11.5965
▁autograph	-11.5965
▁blushing	-11.5965
▁challenge	-11.5965
▁contemplat	-11.5965
▁crimson	-11.5965
▁dagger	-11.5965
▁enclosed	-11.5965
▁execution	-11.5965
▁fascinating	-11.5965
▁fervently	-11.5965
▁frail	-11.5965
▁ghoul	-11.5965
▁glorious	-11.5965
▁gratitude	-11.5965
▁grilles	-11.5965
▁grudgingly	-11.5965
▁hysterical	-11.5965
▁illuminating	-11.5965
▁inclined	-11.5965
▁influence	-11.5965
▁irritable	-11.5965
▁malevolent	-11.5965
▁marquee	-11.5965
▁mournful	-11.5965
▁obsessed	-11.5965
▁overwhelm	-11.5965
▁pincers	-11.5965
▁precaution	-11.5965
▁rabbit	-11.5965
▁reassure	-11.5965
▁reduced	-11.5965
▁slithering	-11.5965
▁superior	-11.5965
▁temporarily	-11.5965
▁tentacle	-11.5965
▁thrashing	-11.5965
▁tiara	-11.5965
▁toffee	-11.5965
▁trousers	-11.5965
▁twirl	-11.5965
▁unhappy	-11.5965
▁utmost	-11.5965
▁cackling	-11.5965
▁caution	-11.5965
▁character	-11.5965
▁destination	-11.5965
▁hooves	-11.5965
▁shuffling	-11.5965
Happy	-11.5965
▁bemused	-11.5965
▁flustered	-11.5965
▁superb	-11.5965
▁tragic	-11.5965
▁waft	-11.5965
▁roast	-11.5965
▁slippery	-11.5965
▁balance	-11.5965
▁moldy	-11.5965
▁pelted	-11.5965
▁snide	-11.5965
▁loathing	-11.5965
▁scandal	-11.5965
▁dusk	-11.5965
▁Owl	-11.5965
▁Street	-11.5965
▁snuff	-11.5965
▁wax	-11.5965
▁reckless	-11.5965
Lucky	-11.5966
▁haze	-11.5966
vestig	-11.5966
▁basic	-11.598
coloured	-11.6459
play	-11.6595
Narcissa	-11.6595
minute	-11.6596
Tonks	-11.6596
Moody	-11.6596
▁wrench	-11.6617
▁croak	-11.6617
▁occur	-11.6678
▁blackthorn	-11.6679
OUCH	-11.6679
▁Crescent	-11.6679
▁absurd	-11.6679
▁distress	-11.6679
▁eavesdrop	-11.6679
▁interpret	-11.6679
▁quantit	-11.6679
▁sacrifice	-11.6679
▁scrawl	-11.6679
▁textbook	-11.6679
▁tradition	-11.6679
▁wheezy	-11.6679
Dangerous	-11.668
Educational	-11.668
Precisely	-11.668
Special	-11.668
knitted	-11.668
▁Boggart	-11.668
▁Control	-11.668
▁Headmistress	-11.668
▁Karkus	-11.668
▁Legilimency	-11.668
▁Studies	-11.668
▁THAT	-11.668
▁Veritaserum	-11.668
▁Warlock	-11.668
▁applauding	-11.668
▁belief	-11.668
▁boarhound	-11.668
▁brace	-11.668
▁conclude	-11.668
▁criminal	-11.668
▁crucial	-11.668
▁custom	-11.668
▁dismissively	-11.668
▁exasperation	-11.668
▁flourish	-11.668
▁handwriting	-11.668
▁horizon	-11.668
▁jammed	-11.668
▁miniature	-11.668
▁motorcycle	-11.668
▁occupant	-11.668
▁opponent	-11.668
▁persisted	-11.668
▁pixie	-11.668
▁plotting	-11.668
▁practising	-11.668
▁pyjamas	-11.668
▁research	-11.668
▁rusty	-11.668
▁scrubb	-11.668
▁scuttled	-11.668
▁slapping	-11.668
▁slopp	-11.668
▁tablecloth	-11.668
▁temptation	-11.668
▁tempted	-11.668
▁trophy	-11.668
▁uniform	-11.668
▁wrestling	-11.668
Morning	-11.668
▁enemies	-11.668
▁energy	-11.668
▁merrily	-11.668
▁GOT	-11.668
▁credit	-11.668
▁tuft	-11.668
▁doorstep	-11.668
▁pardon	-11.668
▁Standard	-11.668
▁subdue	-11.668
▁conquer	-11.668
▁fulfill	-11.6681
▁cease	-11.6681
Knock	-11.6681
Devil	-11.6682
▁locate	-11.6684
Before	-11.7365
Bathilda	-11.7365
Wizard	-11.7365
Karkaroff	-11.7365
Cedric	-11.7365
Gryffindor	-11.7365
▁collapse	-11.7406
▁conjure	-11.7406
▁squeeze	-11.7406
▁swift	-11.7422
▁wrought	-11.7449
▁pompous	-11.7449
Cormac	-11.7449
HERMIONE	-11.7449
▁Albania	-11.7449
▁Alecto	-11.7449
▁Crumple	-11.7449
▁Diggle	-11.7449
▁FROM	-11.7449
▁Gabrielle	-11.7449
▁Gellert	-11.7449
▁Hangleton	-11.7449
▁Hippogriff	-11.7449
▁Memory	-11.7449
▁Mostafa	-11.7449
▁Petrified	-11.7449
▁Podmore	-11.7449
▁Pucey	-11.7449
▁Quill	-11.7449
▁Regulation	-11.7449
▁Resurrection	-11.7449
▁Runcorn	-11.7449
▁Smelting	-11.7449
▁Statute	-11.7449
▁Wheezes	-11.7449
▁Yule	-11.7449
▁alternative	-11.7449
▁anguished	-11.7449
▁anxiety	-11.7449
▁appointed	-11.7449
▁associat	-11.7449
▁audible	-11.7449
▁benefit	-11.7449
▁blackmail	-11.7449
▁century	-11.7449
▁commotion	-11.7449
▁diversion	-11.7449
▁drenched	-11.7449
▁dwarf	-11.7449
▁escaping	-11.7449
▁frustrated	-11.7449
▁governors	-11.7449
▁gracefully	-11.7449
▁gracious	-11.7449
▁grumpy	-11.7449
▁hiccup	-11.7449
▁imprisoned	-11.7449
Q	-13.0146
̈	-13.0147
q	-13.0148
