<unk>	0
<s>	0
</s>	0
,	-2.93345
.	-3.22759
▁the	-3.39509
'	-3.63192
▁to	-3.97236
▁and	-4.0304
▁`	-4.19095
▁of	-4.1961
▁a	-4.24022
s	-4.27467
▁Harry	-4.42412
▁he	-4.47644
▁was	-4.52028
▁said	-4.59783
▁his	-4.64505
▁in	-4.74171
▁it	-4.79137
▁you	-4.8299
▁'	-4.90565
▁had	-4.92705
▁that	-4.97214
▁I	-4.99701
▁.	-5.02917
t	-5.11805
▁at	-5.15333
,`	-5.17558
▁	-5.29728
▁on	-5.31356
▁him	-5.31831
.`	-5.33931
▁as	-5.34578
-	-5.40264
▁with	-5.41328
▁Ron	-5.46443
▁for	-5.58341
▁her	-5.59058
▁Hermione	-5.64032
?`	-5.64719
▁they	-5.65076
▁not	-5.66169
▁He	-5.68365
▁be	-5.74736
▁out	-5.78762
▁-	-5.79348
▁up	-5.79649
▁were	-5.81842
I	-5.82771
▁them	-5.85143
▁have	-5.85883
▁but	-5.86198
▁from	-5.86883
▁all	-5.9001
!`	-5.90081
▁she	-5.90353
;	-5.96176
▁into	-6.02733
▁been	-6.08922
▁back	-6.0926
▁what	-6.10043
▁is	-6.11772
▁Dumbledore	-6.11932
▁The	-6.15776
▁we	-6.20674
▁me	-6.21104
?	-6.21619
▁could	-6.23287
▁who	-6.24962
▁this	-6.26491
d	-6.32408
▁their	-6.33721
▁so	-6.34305
▁there	-6.34913
▁an	-6.35682
▁about	-6.36495
▁over	-6.37282
▁one	-6.37868
ing	-6.39933
▁looked	-6.41249
▁like	-6.41853
▁down	-6.42188
▁know	-6.43889
▁would	-6.45044
▁now	-6.45607
ve	-6.4791
re	-6.48352
▁do	-6.48822
▁around	-6.48839
?'	-6.51268
▁by	-6.5148
▁just	-6.53767
▁did	-6.54795
!	-6.56164
▁got	-6.5653
▁then	-6.56892
▁your	-6.57689
▁if	-6.57799
▁Hagrid	-6.61728
▁more	-6.61801
▁very	-6.61956
▁when	-6.62698
▁can	-6.64189
▁see	-6.64378
ll	-6.64649
▁again	-6.64881
▁Professor	-6.65101
▁off	-6.65897
▁are	-6.67811
You	-6.68599
▁no	-6.69019
▁though	-6.69512
▁Snape	-6.71867
▁think	-6.71881
▁time	-6.73044
▁my	-6.74748
▁still	-6.77318
n	-6.78398
▁eyes	-6.79253
▁wand	-6.7971
m	-6.79843
▁get	-6.79973
▁It	-6.80994
▁don	-6.81274
▁face	-6.8149
▁looking	-6.82159
▁Weasley	-6.83073
ed	-6.8348
▁through	-6.83908
▁right	-6.86227
▁--	-6.86323
▁or	-6.86758
,'	-6.86833
▁voice	-6.87088
▁going	-6.8882
...	-6.91893
▁which	-6.92026
▁than	-6.9352
▁before	-6.93665
:	-6.94616
▁didn	-6.96844
▁̈C	-6.97484
▁go	-6.97687
▁door	-6.97921
!'	-6.98776
▁They	-6.99179
▁too	-6.99771
▁room	-7.00515
▁will	-7.00839
▁here	-7.00847
▁Malfoy	-7.01531
▁thought	-7.0258
▁look	-7.03131
▁head	-7.03145
▁only	-7.0376
What	-7.0451
▁saw	-7.06593
▁how	-7.07335
▁Mr	-7.07989
He	-7.09619
▁other	-7.11128
▁Voldemort	-7.11163
▁hand	-7.11333
▁way	-7.13449
▁where	-7.141
▁seemed	-7.14559
▁away	-7.15004
▁something	-7.15253
▁himself	-7.15434
▁behind	-7.16424
It	-7.16525
▁asked	-7.16921
▁told	-7.19368
▁Potter	-7.1947
Harry	-7.19581
▁turned	-7.19768
▁come	-7.19894
▁Sirius	-7.21094
▁us	-7.21759
▁last	-7.21831
▁never	-7.2192
▁long	-7.2249
▁much	-7.24243
▁after	-7.24736
▁knew	-7.27025
▁want	-7.27297
▁You	-7.29209
▁She	-7.30078
But	-7.30081
▁once	-7.30319
▁little	-7.30615
▁And	-7.30921
▁first	-7.32691
Well	-7.33697
▁two	-7.34135
▁tell	-7.34181
▁made	-7.34248
▁heard	-7.34261
▁left	-7.34883
▁But	-7.35012
▁moment	-7.35256
▁any	-7.35783
▁A	-7.35789
▁even	-7.37359
▁felt	-7.38319
And	-7.38489
The	-7.38497
▁say	-7.38806
▁Fred	-7.39931
▁some	-7.40599
▁There	-7.41247
▁people	-7.413
We	-7.4211
`	-7.42546
No	-7.43081
▁good	-7.43284
▁really	-7.43426
▁Hogwarts	-7.43781
▁might	-7.44608
▁Mrs	-7.44693
▁well	-7.44723
.``	-7.44726
▁...	-7.45761
▁front	-7.48531
▁has	-7.4903
▁ever	-7.49267
Oh	-7.51269
▁Lupin	-7.51977
▁toward	-7.52813
▁George	-7.53526
▁came	-7.53653
▁feet	-7.55916
?``	-7.56487
▁Neville	-7.57293
▁because	-7.57303
▁must	-7.58203
▁Ginny	-7.58951
▁McGonagall	-7.59334
▁took	-7.59347
▁let	-7.59631
▁sure	-7.60693
▁make	-7.61456
▁anything	-7.61585
▁take	-7.61828
▁open	-7.62274
▁old	-7.62731
▁trying	-7.63378
▁its	-7.63837
▁table	-7.64265
▁few	-7.64602
▁went	-7.66402
▁another	-7.66695
▁inside	-7.67589
▁next	-7.679
▁floor	-7.68222
▁while	-7.69739
▁under	-7.70364
▁find	-7.70569
▁own	-7.71177
▁large	-7.7128
▁put	-7.71931
▁three	-7.72567
▁thing	-7.73433
▁school	-7.73834
ly	-7.74533
▁found	-7.74943
▁great	-7.75073
▁house	-7.75723
▁Umbridge	-7.75798
▁course	-7.76115
▁need	-7.76606
▁gave	-7.77273
▁seen	-7.77291
▁hear	-7.78369
▁stood	-7.79291
▁Gryffindor	-7.79625
▁Ministry	-7.7964
▁nothing	-7.79805
▁-`	-7.80571
▁hands	-7.80833
▁why	-7.80846
▁mean	-7.80925
▁end	-7.81255
▁night	-7.81444
▁pulled	-7.81887
▁hair	-7.81997
▁Death	-7.84311
▁upon	-7.84569
y	-7.84625
▁our	-7.84988
Yes	-7.85235
▁wanted	-7.85609
▁across	-7.85628
▁bit	-7.86337
▁place	-7.86413
▁man	-7.86976
▁air	-7.87047
▁each	-7.88169
▁both	-7.88888
Yeah	-7.8904
▁black	-7.89291
▁being	-7.89378
▁without	-7.90066
▁every	-7.90476
▁done	-7.90685
▁does	-7.90889
▁side	-7.9096
▁happened	-7.91409
▁most	-7.91532
▁wasn	-7.91683
▁quite	-7.91762
▁couldn	-7.91797
▁against	-7.91983
▁Dark	-7.92349
▁dark	-7.92466
▁light	-7.9268
▁better	-7.93705
▁boy	-7.93711
▁His	-7.94972
▁doing	-7.95003
▁help	-7.95399
▁mind	-7.95745
▁enough	-7.96895
▁Vernon	-7.96903
▁along	-7.97165
▁second	-7.97761
▁else	-7.97913
▁Moody	-7.99083
▁wizard	-7.99272
▁year	-7.99516
▁keep	-7.99651
▁bed	-7.99797
▁Then	-8.00581
▁robes	-8.01725
▁already	-8.01902
▁years	-8.0207
▁walked	-8.02126
So	-8.02184
▁staring	-8.02746
▁should	-8.03018
▁half	-8.03177
▁small	-8.03365
▁hard	-8.03538
▁fell	-8.03816
▁sat	-8.03823
▁set	-8.03993
▁Uncle	-8.0404
▁mouth	-8.04514
▁those	-8.06014
▁rather	-8.06236
▁gone	-8.06423
▁won	-8.06863
▁between	-8.07128
▁whispered	-8.0715
▁Fudge	-8.07374
▁past	-8.07389
▁day	-8.0779
▁suddenly	-8.08042
▁standing	-8.08328
▁give	-8.08355
Who	-8.0838
▁these	-8.08942
▁--`	-8.08963
▁began	-8.09399
▁until	-8.09632
▁opened	-8.10027
▁many	-8.10139
That	-8.112
▁tried	-8.11259
▁slightly	-8.11963
▁yet	-8.11975
▁onto	-8.12057
▁sitting	-8.12193
▁Black	-8.12684
▁We	-8.12829
▁window	-8.13183
▁full	-8.1332
▁quickly	-8.13391
▁office	-8.13623
▁top	-8.13729
▁raised	-8.13881
▁same	-8.141
▁am	-8.1498
▁reached	-8.15333
▁talking	-8.1543
▁Quidditch	-8.15568
▁Dudley	-8.15576
▁things	-8.15704
▁castle	-8.158
She	-8.16514
▁started	-8.1684
▁new	-8.16861
▁As	-8.1737
They	-8.18332
▁Lord	-8.18544
▁able	-8.1866
▁wouldn	-8.18667
▁.`	-8.19238
▁ground	-8.19429
▁name	-8.20014
How	-8.20021
▁Slughorn	-8.20329
▁shouted	-8.21093
you	-8.21282
▁always	-8.21335
▁Percy	-8.21629
▁forward	-8.21778
▁almost	-8.22377
▁anyone	-8.22381
▁Dobby	-8.2249
▁ter	-8.22707
A	-8.22865
▁together	-8.22903
▁coming	-8.22915
▁called	-8.23222
▁later	-8.2343
▁yeh	-8.25038
▁father	-8.25269
▁arm	-8.2537
▁fire	-8.26163
▁feeling	-8.2624
▁work	-8.26359
▁feel	-8.26443
▁wall	-8.26641
▁however	-8.26653
▁stared	-8.26684
▁far	-8.2677
There	-8.2703
▁dead	-8.27704
▁watching	-8.28967
▁quietly	-8.29153
▁students	-8.29752
▁mother	-8.29978
▁beside	-8.3027
▁whole	-8.30602
▁What	-8.30987
▁Hall	-8.31977
▁ask	-8.32017
▁rest	-8.32084
▁Eaters	-8.3238
▁eye	-8.32424
▁idea	-8.32823
▁sight	-8.33085
!``	-8.33878
▁caught	-8.34006
▁outside	-8.34007
▁everything	-8.3401
▁life	-8.34292
▁stop	-8.3438
▁believe	-8.34498
▁read	-8.34669
▁lot	-8.34752
▁kept	-8.34898
▁Slytherin	-8.35015
....	-8.35182
▁When	-8.35643
▁stopped	-8.36084
▁everyone	-8.36098
▁If	-8.36319
▁whether	-8.36391
▁slowly	-8.36391
▁words	-8.36514
▁Muggle	-8.37146
▁passed	-8.37329
▁saying	-8.37425
▁best	-8.37447
▁close	-8.37672
▁muttered	-8.37902
▁supposed	-8.37945
▁getting	-8.38533
▁Luna	-8.3947
▁cold	-8.397
▁word	-8.39929
▁class	-8.403
▁taken	-8.40938
▁Magic	-8.41001
▁someone	-8.41009
▁Crouch	-8.41026
▁sir	-8.4133
▁wizards	-8.41522
▁Madam	-8.41633
▁use	-8.41667
▁stone	-8.41831
▁leave	-8.4184
▁haven	-8.4216
▁sound	-8.42207
▁holding	-8.43313
▁shoulder	-8.4373
▁nose	-8.43835
▁red	-8.43889
▁moved	-8.44021
▁corridor	-8.44117
...`	-8.44147
If	-8.44665
Don	-8.45034
▁silence	-8.45308
▁since	-8.45513
▁try	-8.45681
▁appeared	-8.45858
▁Cedric	-8.45862
▁alone	-8.46171
▁talk	-8.46473
▁loudly	-8.46534
▁making	-8.46857
▁empty	-8.47007
▁wearing	-8.47206
▁crowd	-8.47343
▁taking	-8.4752
▁remember	-8.47573
▁minutes	-8.48042
▁high	-8.48141
▁scar	-8.49897
▁silver	-8.50196
e	-8.50546
▁followed	-8.50609
▁magic	-8.50932
▁morning	-8.50936
Why	-8.51085
▁towards	-8.51129
▁arms	-8.51671
▁watched	-8.51713
▁pointing	-8.52136
▁chair	-8.5271
▁heart	-8.52823
▁white	-8.52834
▁Riddle	-8.53077
▁pointed	-8.53094
▁o	-8.53146
▁point	-8.53162
▁sort	-8.53322
▁This	-8.53423
▁closed	-8.53605
▁Cloak	-8.53747
▁corner	-8.53851
▁Petunia	-8.54126
▁That	-8.54223
▁hit	-8.54241
▁understand	-8.54295
▁book	-8.54783
▁common	-8.54828
▁desk	-8.54881
▁Bill	-8.55191
▁water	-8.55607
▁thinking	-8.55853
▁four	-8.56
▁several	-8.56284
▁Aunt	-8.56294
▁Minister	-8.56295
▁cloak	-8.56363
▁such	-8.56654
▁having	-8.56655
▁hall	-8.56675
▁yes	-8.57492
▁shaking	-8.57767
▁body	-8.57768
▁family	-8.58511
▁Filch	-8.58523
▁others	-8.59277
Not	-8.59471
▁usual	-8.59607
and	-8.59782
▁green	-8.60079
▁letter	-8.60766
▁yelled	-8.60806
▁held	-8.61178
▁sorry	-8.61178
▁given	-8.61751
▁used	-8.61835
▁parchment	-8.61946
▁speak	-8.62918
▁team	-8.63366
▁lay	-8.64654
▁continued	-8.64752
▁hurried	-8.65058
▁owl	-8.65325
▁telling	-8.65326
▁Lockhart	-8.65507
▁added	-8.65546
▁Kreacher	-8.65634
but	-8.65785
▁breath	-8.65816
▁wrong	-8.65859
▁moving	-8.65906
▁fast	-8.66228
▁smile	-8.6633
▁kill	-8.66375
▁ten	-8.66631
▁Trelawney	-8.66721
▁lost	-8.66729
▁At	-8.66878
▁fingers	-8.66899
▁watch	-8.67238
▁...`	-8.67464
▁books	-8.67469
▁pain	-8.6749
▁answer	-8.67504
▁move	-8.67576
▁low	-8.68343
▁ran	-8.68363
▁fact	-8.68571
Hermione	-8.68657
Ron	-8.68659
▁deep	-8.6872
▁either	-8.68776
▁shut	-8.68792
▁gold	-8.68797
▁dear	-8.69014
Know	-8.69266
▁died	-8.69295
▁matter	-8.69371
▁bag	-8.69472
▁exactly	-8.70032
▁kitchen	-8.70747
▁themselves	-8.7088
....`	-8.70962
S	-8.71087
▁Great	-8.71342
▁Krum	-8.71344
▁turn	-8.71361
▁straight	-8.72569
▁Goyle	-8.72593
▁spoke	-8.72908
▁five	-8.73058
▁days	-8.73072
▁round	-8.73238
▁tiny	-8.73463
▁returned	-8.73977
▁noise	-8.74263
▁Tonks	-8.74364
▁nearly	-8.7437
▁shook	-8.74773
▁dropped	-8.74773
▁waiting	-8.74904
▁girl	-8.75169
▁``	-8.75193
▁Bagman	-8.75224
▁Fleur	-8.75257
▁hope	-8.75378
▁d	-8.75546
▁bad	-8.75596
▁above	-8.7567
▁blood	-8.75714
▁parents	-8.75719
▁short	-8.76047
▁least	-8.76106
▁ago	-8.76692
▁turning	-8.76728
▁loud	-8.76942
▁Crabbe	-8.77026
▁noticed	-8.771
▁Cho	-8.77452
▁witch	-8.77461
▁start	-8.77654
▁also	-8.77913
▁kind	-8.78166
▁foot	-8.78208
▁glass	-8.78353
▁darkness	-8.78392
▁All	-8.78459
▁Dursleys	-8.78461
▁seem	-8.78531
▁lying	-8.7883
▁home	-8.78835
▁stairs	-8.78921
▁burst	-8.79068
▁steps	-8.79107
▁real	-8.7923
▁snake	-8.79297
▁beneath	-8.79299
▁entered	-8.79317
▁Draco	-8.79327
▁In	-8.80474
▁case	-8.80679
▁golden	-8.8069
▁sign	-8.80877
er	-8.81011
▁trouble	-8.81083
▁person	-8.81146
▁sent	-8.81626
▁finished	-8.81664
▁ceiling	-8.82099
▁entrance	-8.82578
▁clear	-8.82728
▁run	-8.82926
▁For	-8.82974
▁whose	-8.8303
▁leaving	-8.83058
▁friends	-8.83812
▁please	-8.83886
Come	-8.83961
▁staircase	-8.84029
▁Dean	-8.84512
▁threw	-8.84991
▁shall	-8.84999
▁stay	-8.85227
▁chance	-8.85349
▁hat	-8.85391
This	-8.85438
▁grounds	-8.85699
▁hour	-8.85905
▁flew	-8.85974
▁arrived	-8.85997
▁neck	-8.86049
My	-8.86438
▁stuff	-8.86695
Now	-8.86936
▁legs	-8.86981
▁managed	-8.87004
▁thick	-8.87391
Dumbledore	-8.87434
▁ears	-8.87444
▁magical	-8.87453
▁Christmas	-8.8747
▁Now	-8.88008
▁potion	-8.88092
▁free	-8.88289
▁pocket	-8.88309
▁chest	-8.88553
▁running	-8.88982
▁evening	-8.8933
▁glasses	-8.89519
▁soon	-8.89551
▁So	-8.89645
▁times	-8.89694
▁trunk	-8.90159
▁Hedwig	-8.90546
▁nobody	-8.9104
▁glanced	-8.91106
▁longer	-8.91122
▁death	-8.91143
▁world	-8.91559
▁became	-8.91566
▁seized	-8.91585
▁doors	-8.91711
▁match	-8.91797
▁near	-8.91903
▁vanished	-8.92096
▁number	-8.92246
▁within	-8.92421
Good	-8.92584
▁Invisibility	-8.92609
▁woman	-8.9261
All	-8.92861
▁S	-8.93042
▁walls	-8.93172
▁expression	-8.93315
▁perhaps	-8.93688
▁son	-8.94122
▁except	-8.94204
▁friend	-8.94388
▁wide	-8.94557
▁enormous	-8.94696
▁Wood	-8.94758
▁Wormtail	-8.9477
▁ready	-8.94823
▁care	-8.94907
▁One	-8.95481
▁known	-8.95627
Er	-8.95635
▁herself	-8.95837
▁finally	-8.95843
looking	-8.9588
▁walking	-8.95953
▁met	-8.95971
▁stupid	-8.96321
▁angry	-8.96372
▁thin	-8.9638
Where	-8.96382
▁pulling	-8.96998
▁says	-8.97012
▁elf	-8.97267
▁seat	-8.97642
▁looks	-8.97672
▁sword	-8.97684
▁call	-8.97717
▁return	-8.97759
▁happy	-8.98035
▁.'	-8.98244
▁wait	-8.98283
▁How	-8.98653
▁listening	-8.98698
▁killed	-8.98739
▁odd	-8.98808
▁angrily	-8.9915
▁Bellatrix	-8.99213
▁flying	-8.99239
▁broken	-8.99265
▁week	-8.99468
▁broom	-8.99476
▁question	-8.99476
▁dementors	-8.99614
▁instead	-8.99715
▁anyway	-8.9972
▁pale	-8.99748
▁Arts	-8.99751
▁broke	-9.00172
▁Prophet	-9.00284
▁smiling	-9.00285
Did	-9.00315
▁clearly	-9.00335
▁tonight	-9.00345
▁Eater	-9.00618
▁memory	-9.00856
▁nodded	-9.00858
▁Seamus	-9.00863
▁true	-9.00864
▁stand	-9.01034
▁un	-9.01165
▁portrait	-9.01189
▁Well	-9.01199
▁below	-9.01434
▁Azkaban	-9.01438
▁completely	-9.01447
Professor	-9.01473
▁car	-9.01577
▁suppose	-9.01829
▁windows	-9.01888
▁less	-9.02315
▁lesson	-9.02374
▁Snitch	-9.0258
▁barely	-9.0318
▁spell	-9.03569
▁repeated	-9.03729
▁James	-9.03805
▁meant	-9.04065
▁trees	-9.04395
▁pair	-9.04746
▁forced	-9.05055
▁job	-9.05322
▁dragon	-9.05358
▁shot	-9.05552
▁Magical	-9.05563
▁fine	-9.05706
▁hurt	-9.05735
▁reckon	-9.05829
▁seconds	-9.06005
▁horrible	-9.0615
▁story	-9.06151
▁tears	-9.06377
▁No	-9.06431
Look	-9.06495
▁teacher	-9.06594
▁ahead	-9.06806
▁Albus	-9.06807
▁laugh	-9.06847
▁train	-9.07068
▁ought	-9.07357
▁stepped	-9.07367
▁big	-9.07823
▁show	-9.08491
▁different	-9.08552
▁important	-9.08558
▁lake	-9.08599
▁snapped	-9.08599
▁giving	-9.08599
▁young	-9.08643
▁happen	-9.08781
▁middle	-9.09218
▁led	-9.0961
▁hundred	-9.09715
▁quiet	-9.09787
▁blue	-9.09902
▁hold	-9.10035
▁Muggles	-9.10222
▁hours	-9.10348
▁summer	-9.10472
▁hidden	-9.10491
▁expect	-9.10509
Are	-9.10941
▁wands	-9.11017
▁sky	-9.11109
▁third	-9.11113
▁Order	-9.11114
▁whom	-9.11154
▁heads	-9.11329
▁edge	-9.12072
▁late	-9.12317
▁probably	-9.12392
▁bottle	-9.12932
▁silent	-9.12985
▁dangerous	-9.12987
▁Pomfrey	-9.13028
▁brought	-9.1303
▁pushed	-9.13056
▁forest	-9.13161
▁power	-9.13594
▁yourself	-9.1369
▁roared	-9.13719
▁carrying	-9.13741
Let	-9.13799
▁hardly	-9.13807
▁sounded	-9.13892
▁during	-9.14331
▁possible	-9.14331
▁part	-9.14707
▁couple	-9.14783
▁points	-9.1492
▁giant	-9.14958
▁knows	-9.15079
D	-9.15424
▁bright	-9.15456
▁cried	-9.15652
▁rose	-9.15653
▁expected	-9.15765
▁laughed	-9.15766
Of	-9.15774
▁break	-9.15863
▁nor	-9.15892
▁tree	-9.16271
▁worse	-9.1632
▁Crookshanks	-9.17009
a	-9.17391
▁goblin	-9.17637
▁sit	-9.17664
▁laughter	-9.17667
▁Hogsmeade	-9.17674
▁closer	-9.17682
▁yeah	-9.17696
▁Rita	-9.17699
▁Peeves	-9.17707
▁covered	-9.17788
em	-9.17882
▁spot	-9.17932
▁leg	-9.18035
▁aren	-9.18312
▁drew	-9.18345
▁picked	-9.18387
▁jumped	-9.18388
▁Karkaroff	-9.18391
▁meet	-9.18888
▁fear	-9.18959
▁funny	-9.1903
▁heavy	-9.19034
▁pleased	-9.19286
▁may	-9.19726
▁realized	-9.19816
▁truth	-9.19836
▁difficult	-9.21072
▁sister	-9.2108
▁simply	-9.21114
▁stomach	-9.21115
▁indeed	-9.21115
▁merely	-9.21127
▁tent	-9.21237
▁tea	-9.21266
▁walk	-9.21554
▁ear	-9.22136
in	-9.2244
▁Horcrux	-9.22519
▁gasped	-9.22551
▁apart	-9.22572
▁reason	-9.23153
▁wondered	-9.23312
▁screamed	-9.23313
▁aside	-9.23387
▁Why	-9.23633
▁slid	-9.23773
▁fight	-9.23778
▁dad	-9.23963
▁alive	-9.23964
▁myself	-9.23967
▁become	-9.23975
▁Granger	-9.23978
▁cup	-9.24
▁Ravenclaw	-9.2402
▁girls	-9.24049
Ah	-9.24142
▁starting	-9.24222
▁teeth	-9.24685
▁breakfast	-9.24687
▁hole	-9.2472
▁remained	-9.24743
▁Winky	-9.24769
▁joined	-9.24774
``	-9.25064
▁news	-9.25112
▁picture	-9.25291
▁throat	-9.25355
▁somebody	-9.25416
▁actually	-9.2542
▁brother	-9.2555
▁laughing	-9.25623
▁catch	-9.25787
▁needed	-9.25881
▁master	-9.26114
▁field	-9.26158
▁carefully	-9.26177
▁wing	-9.26187
▁street	-9.26195
▁direction	-9.2623
▁leapt	-9.26251
▁remembered	-9.26383
Just	-9.26399
▁note	-9.2686
▁terrible	-9.26891
▁dinner	-9.26892
▁bent	-9.26916
▁With	-9.27062
Right	-9.27148
▁surprise	-9.27448
▁mad	-9.2758
▁Against	-9.27638
▁somewhere	-9.27643
▁Lucius	-9.27667
▁sleep	-9.27718
▁paper	-9.27744
▁Her	-9.27828
▁smiled	-9.27969
▁worry	-9.28142
▁sense	-9.28306
▁apparently	-9.28393
▁Lavender	-9.28399
▁wish	-9.2887
▁weren	-9.29024
▁beyond	-9.29147
▁Daily	-9.29147
▁twenty	-9.29149
▁Flitwick	-9.29157
▁Scrimgeour	-9.2919
▁teachers	-9.29363
▁knees	-9.29446
▁faces	-9.29495
▁safe	-9.29862
▁slipped	-9.29911
▁information	-9.29913
▁clutching	-9.29916
▁climbed	-9.29935
▁sharply	-9.29938
▁tightly	-9.29945
▁allowed	-9.2996
▁surprised	-9.30094
▁wants	-9.30394
▁nice	-9.30624
▁mirror	-9.30679
▁single	-9.30683
▁attention	-9.30691
▁Diggory	-9.30706
▁decided	-9.30768
▁today	-9.30844
▁After	-9.30844
the	-9.31223
T	-9.31333
▁Cup	-9.31466
▁Skeeter	-9.31469
▁piece	-9.31631
▁Potions	-9.31634
▁huge	-9.31647
▁plan	-9.31902
▁working	-9.31925
▁die	-9.32157
▁hasn	-9.32161
▁living	-9.3224
▁Charm	-9.32256
▁itself	-9.32314
▁closely	-9.32347
Hagrid	-9.32488
▁lessons	-9.32537
Do	-9.32648
▁forehead	-9.33023
▁worried	-9.33024
▁bottom	-9.33025
▁forgotten	-9.33035
▁Griphook	-9.33072
▁On	-9.33176
▁shock	-9.33539
▁bring	-9.33644
▁upstairs	-9.33819
▁hiding	-9.33852
▁view	-9.33978
▁backward	-9.34039
▁P	-9.34068
▁speaking	-9.34151
▁C	-9.34417
▁attack	-9.34532
▁opposite	-9.34617
▁happily	-9.34619
▁boys	-9.34648
▁filled	-9.34709
▁following	-9.34733
▁dog	-9.34808
Eye	-9.34859
▁sudden	-9.3538
▁pink	-9.35418
▁box	-9.35422
▁hospital	-9.35422
▁gazing	-9.35423
▁afraid	-9.35432
▁none	-9.3544
▁Parvati	-9.35447
▁lit	-9.35515
▁strange	-9.36168
▁Scabbers	-9.36265
▁seeing	-9.3628
▁er	-9.36333
▁swung	-9.37056
▁extremely	-9.37062
▁purple	-9.37065
▁?	-9.37142
▁line	-9.37165
▁present	-9.372
▁House	-9.37337
▁marble	-9.37882
▁Buckbeak	-9.37898
▁Mundungus	-9.37934
▁classroom	-9.38103
▁tail	-9.38158
▁keeping	-9.38565
▁grinning	-9.38716
▁disappeared	-9.38741
▁furiously	-9.38745
▁change	-9.38783
▁quill	-9.39003
▁cat	-9.39017
As	-9.39115
▁listen	-9.393
▁placed	-9.39556
▁okay	-9.39556
▁Quirrell	-9.39567
▁Angelina	-9.39572
Very	-9.39858
▁live	-9.39896
he	-9.40229
▁cut	-9.40312
▁dormitory	-9.40403
▁immediately	-9.40411
▁six	-9.40648
▁Curse	-9.407
Can	-9.40719
elf	-9.40778
▁weeks	-9.40788
▁join	-9.40964
▁food	-9.41258
▁strode	-9.41258
▁hastily	-9.41258
▁footsteps	-9.41277
▁whatever	-9.41285
▁knocked	-9.413
▁Tom	-9.41403
▁subject	-9.41461
▁step	-9.41602
▁figure	-9.41607
▁THE	-9.41957
▁powerful	-9.42086
▁terrified	-9.42123
▁homework	-9.42123
▁bellowed	-9.42126
▁wondering	-9.42209
▁Severus	-9.42263
▁egg	-9.42272
▁waited	-9.42283
▁group	-9.42338
▁page	-9.42472
▁minute	-9.42538
▁Slytherins	-9.42697
▁library	-9.4299
▁landed	-9.43009
▁attacked	-9.43104
▁cauldron	-9.43333
▁send	-9.4369
▁means	-9.43862
▁path	-9.4387
▁bedroom	-9.43874
▁rolled	-9.43905
▁Dad	-9.43981
▁staff	-9.44555
▁afternoon	-9.44759
▁nearer	-9.44778
▁nervously	-9.44788
it	-9.44853
▁Arthur	-9.44917
▁scared	-9.45049
like	-9.45208
▁touch	-9.4532
▁Pettigrew	-9.45662
▁softly	-9.4568
▁cannot	-9.45683
▁map	-9.45698
▁usually	-9.45754
▁wind	-9.45776
▁love	-9.45983
▁task	-9.46034
▁Hufflepuff	-9.46054
▁meeting	-9.46259
we	-9.46441
▁twelve	-9.46546
▁firmly	-9.46553
▁shop	-9.46955
es	-9.47106
▁bathroom	-9.47455
▁locket	-9.47455
▁Myrtle	-9.47482
▁To	-9.47512
▁visit	-9.4755
▁playing	-9.47587
that	-9.47867
▁explain	-9.48099
▁spent	-9.48373
▁Firebolt	-9.48378
▁particularly	-9.48389
▁showed	-9.48529
▁drink	-9.48625
▁doubt	-9.48654
▁reading	-9.48895
▁Head	-9.48909
▁mention	-9.49022
▁Mad	-9.49043
▁deal	-9.49132
▁prophecy	-9.49298
▁halfway	-9.49302
▁Nick	-9.49441
▁beard	-9.49479
▁normal	-9.49496
▁curse	-9.49603
▁cage	-9.49706
▁owls	-9.49714
▁secret	-9.49725
▁sideways	-9.50233
▁Tower	-9.50233
▁Katie	-9.50241
▁surface	-9.50254
▁oh	-9.50317
▁Fang	-9.50502
▁worked	-9.50596
▁copy	-9.51003
▁glad	-9.51131
▁tight	-9.51134
▁cabin	-9.51175
▁waving	-9.51182
▁Forest	-9.51184
▁asleep	-9.51185
▁Lily	-9.51266
▁changed	-9.5138
C	-9.51562
r	-9.51586
▁finger	-9.52124
▁heavily	-9.52131
▁diary	-9.52132
▁fallen	-9.52133
▁Prime	-9.52136
▁certainly	-9.52162
▁Miss	-9.52317
is	-9.52321
▁Not	-9.52816
▁dare	-9.52914
▁fixed	-9.53076
▁deserted	-9.53097
▁Ollivander	-9.5314
▁My	-9.53156
▁fighting	-9.53311
▁notice	-9.53407
▁spells	-9.53431
▁D	-9.53474
▁garden	-9.53528
▁skin	-9.53606
▁cast	-9.53774
▁fall	-9.53915
▁Where	-9.54044
▁Maxime	-9.54061
▁T	-9.54069
▁approached	-9.54085
▁beaming	-9.54095
▁Charlie	-9.54095
▁tall	-9.54109
▁crossed	-9.54122
▁missed	-9.54142
▁Madame	-9.54153
▁earth	-9.54176
▁corridors	-9.54314
▁forget	-9.54475
clock	-9.54498
▁ball	-9.54583
▁broomstick	-9.54624
▁sank	-9.55041
▁hoping	-9.55046
▁scarlet	-9.55046
▁leaned	-9.55059
▁brightly	-9.55105
▁throwing	-9.55146
▁falling	-9.55208
▁brain	-9.55343
▁pass	-9.55369
Get	-9.55475
▁hanging	-9.55714
▁trembling	-9.56031
▁nasty	-9.56034
▁poor	-9.56035
▁grass	-9.56041
▁unless	-9.56046
▁frowning	-9.5605
▁anger	-9.56059
▁hot	-9.56153
▁shoulders	-9.56317
Snape	-9.56496
▁quick	-9.56966
▁maybe	-9.5707
▁stretched	-9.57071
▁seven	-9.57111
▁Two	-9.57121
▁hurrying	-9.57158
▁often	-9.57261
▁voices	-9.57281
▁force	-9.57495
When	-9.57506
▁using	-9.57756
▁bound	-9.58021
▁further	-9.58041
▁eagerly	-9.58054
▁perfectly	-9.58059
▁muttering	-9.5806
▁eyebrows	-9.58163
▁attempt	-9.58423
▁save	-9.58434
▁row	-9.58687
▁check	-9.58791
E	-9.58808
▁distant	-9.59014
▁months	-9.59053
▁Department	-9.59076
▁busy	-9.59077
▁putting	-9.59084
▁practice	-9.59517
P	-9.59537
less	-9.59737
▁facing	-9.60093
▁fifty	-9.60093
▁tomorrow	-9.60093
▁snarled	-9.60098
▁Ernie	-9.60102
▁Lee	-9.60139
▁pressed	-9.60147
▁B	-9.60222
▁conversation	-9.60327
▁dream	-9.60457
▁scream	-9.60508
Maybe	-9.60589
▁problem	-9.60759
▁YOU	-9.60761
▁fly	-9.6097
▁impatiently	-9.61141
▁unable	-9.61141
▁invisible	-9.61142
▁nearest	-9.61142
▁inches	-9.61186
▁Weasleys	-9.61193
▁waved	-9.6126
▁term	-9.61338
▁fer	-9.61429
▁whisper	-9.61528
▁An	-9.61624
▁shouldn	-9.61689
▁soul	-9.61735
▁nervous	-9.62138
▁Did	-9.62139
▁luck	-9.62148
▁neither	-9.62187
▁pretty	-9.6219
▁echoed	-9.62191
▁witches	-9.62206
▁early	-9.62251
▁showing	-9.62469
▁Oh	-9.6249
▁wonder	-9.6252
▁handed	-9.62526
Your	-9.62899
▁flat	-9.63172
▁cupboard	-9.63252
▁frightened	-9.63268
▁Greyback	-9.63271
▁seems	-9.63306
▁thrown	-9.63327
▁drawing	-9.63347
▁liked	-9.63439
▁Mum	-9.63624
▁rain	-9.63899
▁goblet	-9.63998
▁gray	-9.64184
▁determined	-9.64285
▁split	-9.64323
▁grabbed	-9.64326
▁growled	-9.64342
▁emerged	-9.64349
▁obviously	-9.64352
▁form	-9.64375
▁screaming	-9.64497
▁questions	-9.64815
▁position	-9.6502
▁asking	-9.65045
▁lips	-9.65098
▁Even	-9.6536
▁soft	-9.65373
▁hesitated	-9.65424
▁spotted	-9.65432
▁ill	-9.65477
▁Wizarding	-9.65485
▁control	-9.65504
▁passing	-9.65604
▁hissed	-9.65632
Have	-9.65994
▁fault	-9.66029
▁human	-9.66244
▁business	-9.66504
enophilius	-9.66512
▁shrieked	-9.66549
▁badly	-9.66619
▁sun	-9.66635
Because	-9.67071
▁flames	-9.67125
▁dungeon	-9.67338
▁wake	-9.67624
▁carried	-9.67624
▁twice	-9.67627
▁anymore	-9.67628
▁Kingsley	-9.67662
▁trust	-9.68169
▁pitch	-9.68449
▁headmaster	-9.68461
▁hide	-9.68535
▁tone	-9.68732
▁reach	-9.68741
▁village	-9.68745
▁Sprout	-9.68747
▁fresh	-9.68747
▁stuck	-9.68747
▁writing	-9.6875
▁Mark	-9.68756
▁Patronus	-9.68794
▁age	-9.69236
▁Just	-9.69593
▁play	-9.69614
▁Bludger	-9.69621
▁familiar	-9.69883
▁midair	-9.69883
▁easy	-9.69893
▁definitely	-9.69894
In	-9.6991
▁Who	-9.70128
▁tables	-9.70378
▁Dursley	-9.70471
▁sounding	-9.70474
▁helped	-9.70488
▁danger	-9.70693
▁Potion	-9.70801
▁student	-9.70803
▁pause	-9.70852
▁hung	-9.71014
▁worst	-9.71033
▁yer	-9.71035
▁wooden	-9.71036
▁rising	-9.71049
▁Horcruxes	-9.71061
▁Longbottom	-9.71068
▁Nearly	-9.71125
▁shouting	-9.71148
▁smell	-9.71317
Mr	-9.71434
to	-9.71531
▁follow	-9.71572
▁pile	-9.71765
▁snow	-9.71961
▁teach	-9.71992
▁halt	-9.72089
▁downstairs	-9.72195
▁shining	-9.72196
▁Chamber	-9.72205
▁party	-9.72265
▁However	-9.7227
▁worth	-9.72277
▁leading	-9.72324
▁thinks	-9.72724
Listen	-9.72814
▁letters	-9.72917
▁re	-9.73155
▁sharp	-9.73267
▁Drive	-9.73372
▁Privet	-9.73372
▁understood	-9.73373
▁Stone	-9.73373
▁eh	-9.73382
▁gleaming	-9.73392
▁seriously	-9.73409
▁creatures	-9.73433
▁hearing	-9.73443
▁growing	-9.73451
▁lifted	-9.73479
▁highly	-9.73523
▁coldly	-9.73536
Is	-9.7367
▁seats	-9.73967
Potter	-9.74026
▁objects	-9.7425
▁pull	-9.74301
▁Quaffle	-9.74562
▁excitement	-9.74562
▁glittering	-9.74573
▁t	-9.74588
▁excitedly	-9.74599
▁louder	-9.74604
▁packed	-9.74634
▁nine	-9.75241
▁bin	-9.7534
▁Charms	-9.75509
▁warning	-9.75531
▁patch	-9.75608
▁Triwizard	-9.75767
▁soared	-9.7578
▁swept	-9.75784
▁properly	-9.75784
▁lucky	-9.75822
▁Every	-9.75867
▁Once	-9.75892
▁thanks	-9.75913
▁Dementors	-9.76225
▁s	-9.76408
Dobby	-9.76451
▁size	-9.76501
▁birthday	-9.76673
▁ink	-9.7672
▁champions	-9.76774
▁escape	-9.76807
▁eat	-9.76817
▁tip	-9.76862
▁furious	-9.76944
▁scene	-9.76983
▁famous	-9.76991
▁somehow	-9.77004
▁Gringotts	-9.77006
▁aware	-9.77015
▁sighed	-9.77034
▁interested	-9.77035
▁burning	-9.77075
▁Three	-9.77122
▁Was	-9.77346
See	-9.7756
Then	-9.77689
haired	-9.77705
▁avoid	-9.77982
▁fit	-9.78026
▁certain	-9.78178
▁careful	-9.78184
▁grip	-9.7822
▁relief	-9.78221
▁dunno	-9.78225
▁solid	-9.7823
▁learned	-9.78295
▁deeply	-9.7835
▁saved	-9.78441
▁thank	-9.78495
▁surely	-9.78606
▁names	-9.78743
▁holidays	-9.78778
Go	-9.79379
▁sick	-9.79415
W	-9.79467
▁slammed	-9.79471
▁impression	-9.79472
▁sped	-9.79481
▁Headless	-9.79494
▁anybody	-9.79496
▁Defense	-9.79515
▁recognized	-9.79559
▁shortly	-9.79593
▁lived	-9.7975
▁breathing	-9.80003
of	-9.80103
▁rid	-9.80128
up	-9.80132
▁rock	-9.80169
▁moments	-9.80186
▁R	-9.80273
▁cover	-9.80315
▁horror	-9.80476
▁ghost	-9.80568
▁Stan	-9.80575
▁spider	-9.80618
▁By	-9.80647
▁calmly	-9.80775
▁higher	-9.80796
▁bet	-9.80961
Here	-9.81208
Sorry	-9.81412
▁lift	-9.81606
on	-9.81637
▁crack	-9.81721
▁smoke	-9.81804
▁order	-9.81844
▁joke	-9.81869
▁list	-9.81917
▁strong	-9.81959
▁cool	-9.81959
▁mine	-9.82021
▁lunch	-9.82022
▁everybody	-9.82024
▁landing	-9.82063
▁lowered	-9.82115
▁knowing	-9.8292
▁rang	-9.8312
▁hurry	-9.83153
▁lie	-9.83201
▁effort	-9.83214
▁detention	-9.83219
▁square	-9.8325
▁expelled	-9.83321
▁written	-9.83322
▁Room	-9.83329
▁Transfiguration	-9.83329
▁Fat	-9.8333
▁clothes	-9.83337
▁anxiously	-9.83357
▁bell	-9.83485
▁sounds	-9.83768
▁thoughts	-9.83943
year	-9.84031
▁remain	-9.84282
▁headed	-9.84289
Be	-9.84403
▁double	-9.84449
▁compartment	-9.84449
▁Wand	-9.84543
▁prefect	-9.84559
▁creature	-9.84569
▁panic	-9.84631
▁money	-9.84634
▁likely	-9.84638
▁yellow	-9.8468
▁silvery	-9.84785
▁happening	-9.84986
▁twins	-9.85242
Voldemort	-9.85432
faced	-9.85479
▁mistake	-9.85755
▁realize	-9.85792
▁movement	-9.8591
▁extra	-9.85966
▁Pensieve	-9.85967
▁feast	-9.85967
▁dragged	-9.85967
▁uncle	-9.85967
▁suit	-9.85968
▁mum	-9.8597
▁distance	-9.85971
▁anywhere	-9.85982
▁dozen	-9.85986
▁desperately	-9.86002
▁escaped	-9.86165
▁cleared	-9.86263
ness	-9.8637
▁act	-9.86931
▁bar	-9.86997
▁wings	-9.87154
▁St	-9.87172
▁drop	-9.87273
▁blank	-9.87292
▁Lady	-9.87318
▁impossible	-9.87318
▁protection	-9.87321
▁flung	-9.87323
▁directly	-9.87325
▁nearby	-9.87326
▁space	-9.87331
▁missing	-9.87477
▁Come	-9.87479
▁members	-9.88225
▁narrow	-9.88341
▁glance	-9.88451
▁contact	-9.88564
▁platform	-9.88634
▁serious	-9.88643
▁final	-9.88646
▁wood	-9.88672
▁ugly	-9.88688
▁werewolf	-9.88707
▁peering	-9.88724
▁Cornelius	-9.88729
▁Phineas	-9.88752
▁suggested	-9.88753
▁agreed	-9.88783
▁sometimes	-9.88807
▁attempted	-9.88831
▁Everyone	-9.88933
al	-9.89173
▁fat	-9.89229
▁believed	-9.89532
▁rage	-9.89888
▁write	-9.90017
▁excited	-9.90034
▁post	-9.90074
▁panted	-9.90078
▁jet	-9.90078
▁fury	-9.90087
▁children	-9.90089
▁month	-9.90101
▁Their	-9.90147
▁locked	-9.90164
▁Perhaps	-9.90262
▁curtains	-9.90522
▁loads	-9.90593
▁game	-9.91105
▁miss	-9.91233
▁wild	-9.91433
▁everywhere	-9.91492
▁Borgin	-9.91497
▁Divination	-9.91512
▁harder	-9.91588
▁Gryffindors	-9.91624
▁heading	-9.91638
▁explained	-9.91653
▁touched	-9.91653
Nothing	-9.92386
▁anxious	-9.92882
▁struggling	-9.92914
▁glancing	-9.92918
▁Alley	-9.92919
▁Firenze	-9.92941
▁among	-9.92964
▁rat	-9.92989
▁shocked	-9.9311
▁paused	-9.93139
▁opening	-9.93141
▁Galleons	-9.9329
▁breaking	-9.93313
▁forwards	-9.93386
▁Gr	-9.93526
For	-9.93826
Thank	-9.93881
▁interest	-9.94082
▁calm	-9.94123
▁gaze	-9.94183
▁spread	-9.94196
▁Lovegood	-9.94235
▁previous	-9.94319
▁ring	-9.94349
▁doorway	-9.94355
▁World	-9.94363
▁raising	-9.94368
▁Colin	-9.94368
▁Sorting	-9.94372
▁basin	-9.94374
▁marched	-9.94392
▁Aberforth	-9.94423
▁dived	-9.94453
▁G	-9.94507
▁wished	-9.94582
▁finish	-9.94681
▁support	-9.94904
▁hoped	-9.94965
▁guard	-9.95606
▁lower	-9.95631
▁imagine	-9.95653
▁choice	-9.95664
▁shadow	-9.95771
▁confused	-9.95779
▁delighted	-9.95838
▁London	-9.95838
▁twisted	-9.9585
▁Ludo	-9.9587
▁fireplace	-9.95889
▁goblins	-9.95906
▁brown	-9.95925
▁pure	-9.95967
▁Nobody	-9.96015
▁fun	-9.96142
▁hundreds	-9.96156
▁ones	-9.96312
▁weight	-9.96637
Never	-9.96779
Sirius	-9.96792
or	-9.96822
elves	-9.96856
▁complete	-9.97094
▁warm	-9.97161
▁shadows	-9.97234
▁lead	-9.97247
▁mood	-9.97281
▁Godric	-9.97326
▁visible	-9.97333
▁therefore	-9.97336
▁ripped	-9.97338
▁Creatures	-9.97338
▁Frank	-9.97339
▁demanded	-9.97341
▁swallowed	-9.97342
▁murmured	-9.97353
▁settled	-9.97369
▁although	-9.97388
▁burned	-9.974
▁fourth	-9.97412
▁goal	-9.97512
▁state	-9.98045
▁win	-9.98388
▁Of	-9.98431
▁Don	-9.98446
▁clean	-9.985
▁continue	-9.98662
▁chairs	-9.98712
▁reveal	-9.98735
▁appearance	-9.98772
▁Ogden	-9.98782
▁wave	-9.98793
▁color	-9.98839
▁echoing	-9.9885
▁useful	-9.98855
▁Marge	-9.98871
▁Prince	-9.98879
▁failed	-9.98886
▁passage	-9.98932
▁armchair	-9.98948
▁interesting	-9.9897
▁gazed	-9.9903
▁c	-9.99116
▁expecting	-9.99327
His	-9.9951
▁Let	-10.0013
▁slip	-10.0031
▁unpleasant	-10.0034
▁baby	-10.0038
▁panting	-10.0038
▁grinned	-10.0038
▁forgot	-10.0039
▁leaning	-10.0041
▁level	-10.0046
▁ignored	-10.0049
▁statue	-10.0052
▁plate	-10.0054
▁checking	-10.0065
▁Hat	-10.0072
▁F	-10.0076
▁O	-10.0124
▁tower	-10.0174
▁dust	-10.0179
▁bang	-10.0184
An	-10.0186
▁brilliant	-10.019
▁Grawp	-10.0192
▁Burrow	-10.0194
▁nodding	-10.0194
▁peered	-10.0197
▁McLaggen	-10.0197
▁kicked	-10.0198
▁received	-10.02
▁caused	-10.0205
▁crying	-10.021
▁Hallows	-10.0215
▁upward	-10.0216
▁teaching	-10.0217
▁attempting	-10.0221
▁Do	-10.0267
▁throw	-10.0333
▁decide	-10.0335
▁pay	-10.0336
▁buy	-10.0337
M	-10.0343
▁crystal	-10.0353
▁examining	-10.0353
▁Place	-10.0353
▁Saturday	-10.0353
▁easily	-10.0353
▁Durmstrang	-10.0354
▁dressed	-10.0364
▁pretending	-10.0367
▁essay	-10.0367
▁Yes	-10.037
▁brave	-10.0371
▁fellow	-10.0372
▁notes	-10.0393
▁leaves	-10.0411
▁grave	-10.0424
▁awake	-10.0433
▁Your	-10.0458
One	-10.0462
B	-10.048
▁flash	-10.0481
▁wife	-10.0514
▁knife	-10.0515
▁dirty	-10.0515
▁excellent	-10.0516
▁smashed	-10.0516
▁handsome	-10.0516
▁abruptly	-10.0517
▁beat	-10.0521
▁Narcissa	-10.0526
▁risk	-10.0526
▁Some	-10.0533
en	-10.0536
▁dragons	-10.0566
▁inch	-10.0611
▁jus	-10.0623
Kreacher	-10.0625
▁weak	-10.0629
▁jump	-10.0641
▁speed	-10.0643
▁wizarding	-10.0644
▁cry	-10.0663
▁helping	-10.0664
▁slight	-10.0672
▁roar	-10.0673
▁keen	-10.0674
▁innocent	-10.0674
▁desperate	-10.0674
▁shout	-10.0675
▁lose	-10.0677
▁Requirement	-10.0678
▁glaring	-10.0678
▁stadium	-10.0678
▁tournament	-10.0678
▁difference	-10.0678
▁dying	-10.0679
▁wrote	-10.0679
▁simple	-10.0679
▁History	-10.068
▁curled	-10.068
▁classes	-10.0682
▁security	-10.0683
▁realised	-10.0687
▁difficulty	-10.0688
▁finding	-10.0688
▁pushing	-10.0688
▁Something	-10.0704
▁Or	-10.072
▁calling	-10.0727
▁......	-10.0733
bye	-10.0734
▁figures	-10.078
Thanks	-10.0782
▁wanting	-10.0783
R	-10.0803
▁crash	-10.0817
▁journey	-10.082
▁stick	-10.0843
▁eleven	-10.0844
▁Elder	-10.0845
▁tired	-10.0845
▁grew	-10.0846
▁floating	-10.0847
▁wildly	-10.085
▁bought	-10.0851
▁grin	-10.0853
▁removed	-10.0854
▁Most	-10.0856
▁favorite	-10.0868
▁champion	-10.0875
▁dementor	-10.0879
▁socks	-10.0881
▁stands	-10.0916
▁lives	-10.0954
Okay	-10.0956
▁whistle	-10.0995
▁stare	-10.1
▁dancing	-10.1014
▁striding	-10.1014
▁Pansy	-10.1015
▁overhead	-10.1016
▁mark	-10.1022
▁tied	-10.1023
▁circle	-10.1024
▁Bathilda	-10.1026
▁instructions	-10.1028
▁orders	-10.1028
▁badge	-10.1034
▁Had	-10.1036
▁Gaunt	-10.1037
▁fist	-10.1046
▁clearing	-10.1074
▁enter	-10.1109
ion	-10.1114
ubbly	-10.1135
i	-10.1141
▁slow	-10.1153
▁dress	-10.1155
▁aunt	-10.1164
o	-10.117
▁private	-10.1182
▁company	-10.1187
▁gigantic	-10.1187
▁possibly	-10.1187
▁rubbish	-10.1187
▁stunned	-10.1187
▁taught	-10.1187
▁gently	-10.1187
▁planning	-10.1187
▁clutched	-10.1188
▁Nigellus	-10.1188
▁filthy	-10.1188
▁tongue	-10.1188
▁Grimmauld	-10.1189
▁squeaked	-10.119
▁King	-10.119
▁Morfin	-10.1191
▁Fawkes	-10.1192
▁frozen	-10.1194
▁E	-10.1196
▁rolling	-10.1199
▁vault	-10.1203
▁mentioned	-10.1207
▁Molly	-10.1208
▁Seeker	-10.1209
▁carriage	-10.122
▁fully	-10.1224
▁sleeping	-10.1225
▁answered	-10.1232
▁Master	-10.1235
▁staying	-10.1245
▁stars	-10.1251
▁temper	-10.1274
Hello	-10.1281
Hi	-10.1327
▁spiral	-10.1332
▁learn	-10.1336
▁count	-10.1347
▁p	-10.1354
▁mass	-10.1356
▁dull	-10.1358
▁phoenix	-10.1361
▁Norris	-10.1362
▁midnight	-10.1362
▁surrounded	-10.1362
▁losing	-10.1362
▁battle	-10.1363
▁zoomed	-10.1364
▁considered	-10.1367
▁becoming	-10.1367
▁discovered	-10.1367
▁sprinted	-10.1368
▁struggled	-10.1372
▁handle	-10.1374
▁oddly	-10.1376
▁lights	-10.1382
▁men	-10.1382
▁eating	-10.1388
▁upset	-10.1418
▁breathed	-10.1419
▁Secrets	-10.1421
▁dreams	-10.1422
▁H	-10.1433
as	-10.1454
▁lap	-10.1465
▁terror	-10.1487
th	-10.1516
▁welcome	-10.1521
▁M	-10.1527
▁wonderful	-10.1536
▁obvious	-10.1536
Plank	-10.1541
▁fought	-10.1541
▁disappointed	-10.1541
▁folded	-10.1542
▁croaked	-10.1542
▁interrupted	-10.1544
▁whenever	-10.1544
▁reminded	-10.1545
▁convinced	-10.1548
▁Before	-10.1553
▁sending	-10.1575
▁OK	-10.1577
▁message	-10.1578
▁surrounding	-10.1579
▁photograph	-10.158
▁stuffed	-10.1582
▁lawn	-10.1588
h	-10.161
▁m	-10.1629
est	-10.1645
▁makes	-10.1665
▁draw	-10.1692
▁carry	-10.1706
▁station	-10.1711
▁admit	-10.1722
▁crept	-10.1723
▁memories	-10.1723
▁scrambled	-10.1724
▁Headmaster	-10.1726
▁applause	-10.1727
▁Both	-10.1727
▁deeper	-10.173
▁Grindelwald	-10.173
▁bowed	-10.1733
▁bank	-10.1737
▁effect	-10.1738
▁spiders	-10.174
▁lamp	-10.1743
▁Keeper	-10.1743
▁newspaper	-10.1763
▁sleeve	-10.1766
▁ages	-10.1769
able	-10.1805
▁sea	-10.183
Must	-10.1851
ers	-10.186
▁faint	-10.189
▁Hollow	-10.1908
▁pleasure	-10.1908
▁including	-10.1908
▁sunlight	-10.1908
▁shrugged	-10.1908
▁straightened	-10.191
▁entirely	-10.191
mon	-10.1911
▁laid	-10.1912
▁refused	-10.1913
▁warned	-10.1914
▁struck	-10.1919
▁Half	-10.192
▁drawn	-10.1924
▁People	-10.1925
▁From	-10.1925
▁envelope	-10.1925
▁test	-10.1926
▁sparks	-10.1928
▁goes	-10.1928
▁imagined	-10.1931
▁powers	-10.1933
▁tunnel	-10.1936
▁Delacour	-10.1945
▁toilet	-10.1948
▁dropping	-10.195
▁object	-10.1956
▁b	-10.1964
▁brooms	-10.1987
▁places	-10.2015
Please	-10.2042
▁bow	-10.2069
▁blow	-10.2071
▁Figg	-10.2091
▁eight	-10.2096
▁Alicia	-10.2096
▁Hooch	-10.2096
▁aloud	-10.2096
▁evidence	-10.2096
▁clapped	-10.2097
▁staggered	-10.2097
▁thoroughly	-10.2097
▁fifth	-10.2097
▁OF	-10.2097
▁fake	-10.2097
▁vaguely	-10.2098
▁massive	-10.2098
▁bitterly	-10.2098
▁Muriel	-10.2099
▁Diagon	-10.2099
▁singing	-10.2099
▁weather	-10.2101
▁prepared	-10.2102
▁glared	-10.2102
▁cracked	-10.2113
▁contents	-10.2114
▁appear	-10.2116
▁whispering	-10.2126
▁road	-10.2129
▁Mungo	-10.2134
▁hippogriff	-10.2141
▁amount	-10.2146
▁troll	-10.2148
▁Auror	-10.2152
▁due	-10.2236
▁pretend	-10.2262
▁smooth	-10.2273
▁pick	-10.2283
▁clever	-10.2286
▁Tournament	-10.2289
▁relieved	-10.2289
▁closing	-10.2289
▁beautiful	-10.2289
▁country	-10.2289
▁causing	-10.2289
▁Beauxbatons	-10.2289
▁Several	-10.2289
▁Peter	-10.229
▁Regulus	-10.229
▁impressed	-10.2291
▁wore	-10.2291
▁beak	-10.2291
▁dashed	-10.2291
▁muffled	-10.2291
▁Remus	-10.2296
▁Viktor	-10.2297
▁hate	-10.2302
▁mist	-10.2311
▁bowl	-10.2322
▁shown	-10.2325
▁bringing	-10.2329
▁darkly	-10.2332
▁skull	-10.2333
▁lip	-10.2343
▁moon	-10.2344
▁portraits	-10.2371
At	-10.2375
▁rules	-10.2381
▁Can	-10.2414
Course	-10.2422
eyed	-10.2429
▁marks	-10.2448
▁brothers	-10.2464
▁blame	-10.2466
▁study	-10.2467
▁raise	-10.2467
▁proud	-10.2481
▁families	-10.2485
▁plenty	-10.2485
▁High	-10.2488
▁till	-10.2488
▁spectacles	-10.2492
▁offered	-10.2497
▁picking	-10.2502
▁kindly	-10.2504
▁older	-10.2506
▁murder	-10.251
▁wear	-10.2539
▁horse	-10.2544
▁bird	-10.2548
▁crowded	-10.2548
▁backed	-10.2572
▁clock	-10.2595
▁trunks	-10.2624
Really	-10.2626
Ginny	-10.2631
▁plates	-10.2664
▁shake	-10.2675
▁irritably	-10.2685
▁mumbled	-10.2685
▁chamber	-10.2685
▁wiping	-10.2685
▁wrapped	-10.2685
▁grimly	-10.2687
▁dreadful	-10.2688
▁pounding	-10.2689
▁knocking	-10.27
▁checked	-10.2707
▁barrier	-10.2729
▁Anyway	-10.2729
▁Only	-10.2746
▁centaur	-10.2749
▁eggs	-10.2807
▁centaurs	-10.2824
Sir	-10.2835
▁discuss	-10.2861
▁bear	-10.2861
▁search	-10.2862
▁dry	-10.2865
▁handing	-10.2871
▁curious	-10.2885
▁jinx	-10.2885
▁painful	-10.2886
▁counter	-10.2889
▁jar	-10.2889
▁Pigwidgeon	-10.2889
▁rubbing	-10.2889
▁occurred	-10.2889
▁buried	-10.2889
▁replied	-10.2889
▁Ariana	-10.2891
▁pool	-10.2891
▁fiercely	-10.2891
▁Defence	-10.2892
▁wrenched	-10.2892
▁nowhere	-10.2892
▁blinked	-10.2893
▁curiously	-10.2893
▁Jordan	-10.2894
▁dusty	-10.2894
▁self	-10.2896
▁song	-10.2896
▁Next	-10.2897
▁larger	-10.2899
▁silently	-10.2903
▁giants	-10.2911
▁roots	-10.2917
▁bottles	-10.292
▁exam	-10.2957
▁cave	-10.2983
▁ice	-10.301
▁ended	-10.302
▁exams	-10.3029
▁W	-10.3038
Master	-10.3043
▁persuade	-10.3079
▁destroy	-10.3087
▁evil	-10.3094
▁godfather	-10.3097
▁wedding	-10.3097
▁Mysteries	-10.3097
▁branches	-10.3098
▁Cattermole	-10.3098
▁ignoring	-10.3098
▁flight	-10.3098
▁shelves	-10.3099
▁seventh	-10.3101
▁setting	-10.3102
▁Rosmerta	-10.3104
▁younger	-10.3106
▁safely	-10.3109
▁remaining	-10.3124
▁yell	-10.3139
▁stayed	-10.3143
▁member	-10.3172
▁pages	-10.3225
▁abou	-10.3249
Like	-10.3256
ish	-10.3266
▁protect	-10.3279
▁knock	-10.3281
▁rush	-10.3283
▁desire	-10.329
▁unconscious	-10.3305
▁vast	-10.3309
▁child	-10.331
▁pub	-10.331
▁thirteen	-10.331
▁seventeen	-10.331
▁ourselves	-10.331
▁Occlumency	-10.3311
▁Phoenix	-10.3311
▁startled	-10.3311
▁bleeding	-10.3311
▁snatched	-10.3312
▁instantly	-10.3313
▁beamed	-10.3315
▁Yaxley	-10.332
▁chosen	-10.3321
l	-10.3323
▁searching	-10.3327
▁grown	-10.3327
▁ward	-10.3333
▁lock	-10.3346
▁report	-10.3348
▁sink	-10.335
▁charm	-10.3358
▁Sir	-10.3366
▁Cauldron	-10.3378
▁Nothing	-10.3392
▁Have	-10.3423
▁cross	-10.344
▁special	-10.3451
Malfoy	-10.3474
Or	-10.3475
Only	-10.3477
years	-10.3486
▁pictures	-10.3506
▁swear	-10.351
▁woke	-10.3516
▁weird	-10.3523
▁bewildered	-10.3527
▁circular	-10.3527
▁tapped	-10.3528
▁icy	-10.3528
▁Thomas	-10.3528
▁Binns	-10.3528
▁breathlessly	-10.353
▁hopefully	-10.353
▁grunted	-10.3531
▁Care	-10.3531
▁moaned	-10.3531
▁barked	-10.3531
▁Justin	-10.3531
▁Barty	-10.3532
▁Doge	-10.3534
▁blankly	-10.3534
▁enjoying	-10.3537
▁lies	-10.3542
▁yelling	-10.3545
▁bearing	-10.355
Got	-10.3577
▁trick	-10.359
▁chocolate	-10.359
▁hated	-10.3596
▁cabinet	-10.3602
▁elbow	-10.3603
▁vision	-10.3604
▁excuse	-10.3605
▁coat	-10.361
▁toad	-10.3653
▁accept	-10.368
▁TO	-10.3683
down	-10.3688
▁backwards	-10.3692
Yeh	-10.3695
Weasley	-10.3696
▁plans	-10.37
g	-10.3704
ity	-10.3718
▁suggest	-10.3722
▁damage	-10.3731
▁rise	-10.3741
▁sensation	-10.3749
▁juice	-10.375
▁presence	-10.375
▁sprang	-10.375
▁permission	-10.375
▁whipped	-10.375
▁changing	-10.375
▁bodies	-10.375
▁clenched	-10.3751
▁replaced	-10.3751
▁indignantly	-10.3751
▁spat	-10.3751
▁injured	-10.3751
▁Parkinson	-10.3752
▁forcing	-10.3752
▁Herbology	-10.3753
▁Map	-10.3753
▁daughter	-10.3753
▁sweeping	-10.3753
▁Aragog	-10.3754
blood	-10.3754
▁greatest	-10.3755
▁Hog	-10.3757
▁played	-10.3771
▁DA	-10.3774
▁listened	-10.3778
born	-10.3781
▁noises	-10.3787
▁Someone	-10.3793
▁frame	-10.3816
▁spoken	-10.3816
▁gets	-10.3819
▁matters	-10.3822
▁clue	-10.383
▁package	-10.3831
▁cloud	-10.3832
Hey	-10.388
by	-10.3882
▁quills	-10.3899
Excellent	-10.3917
white	-10.3923
Would	-10.3923
▁promise	-10.3959
▁steal	-10.396
▁allow	-10.396
▁burn	-10.3974
▁thud	-10.3977
▁wardrobe	-10.3977
▁Forbidden	-10.3977
▁connection	-10.3977
▁evidently	-10.3977
▁choked	-10.3978
▁faded	-10.398
▁spun	-10.398
▁orange	-10.3981
▁armor	-10.3981
▁jerked	-10.3981
▁exploded	-10.3982
▁bother	-10.3982
▁soaring	-10.3983
▁heaved	-10.3983
▁concerned	-10.3984
▁exchanged	-10.3985
▁annoyed	-10.3986
▁alarmed	-10.3987
▁sinking	-10.3995
▁cheerful	-10.4001
▁lined	-10.4031
▁training	-10.404
my	-10.4056
▁monster	-10.4065
▁Spell	-10.4069
▁brains	-10.4072
▁balls	-10.4074
▁boat	-10.4078
▁cheek	-10.4085
▁ha	-10.409
▁keeps	-10.4126
quot	-10.415
▁sixteen	-10.4153
Blimey	-10.4153
▁pieces	-10.416
▁Go	-10.4168
▁hang	-10.418
▁mustache	-10.4186
▁chose	-10.4198
▁Imperius	-10.4198
▁signs	-10.4201
abini	-10.4209
▁Moaning	-10.4209
▁Smith	-10.4209
▁handkerchief	-10.4209
▁ancient	-10.421
▁diadem	-10.421
▁sobbed	-10.421
▁sobbing	-10.4211
▁horrified	-10.4211
▁enchanted	-10.4211
▁Gilderoy	-10.4211
▁guilty	-10.4211
▁sneered	-10.4213
▁coolly	-10.4217
▁Finally	-10.4218
▁stolen	-10.4219
▁Little	-10.4219
▁beating	-10.4239
▁strength	-10.4279
▁board	-10.4286
▁shape	-10.4287
▁needs	-10.4287
▁de	-10.4288
if	-10.4296
▁cousin	-10.4298
▁passageway	-10.4301
▁pumpkin	-10.4301
▁source	-10.4302
▁mate	-10.4305
▁possession	-10.4305
▁building	-10.4307
▁born	-10.4315
us	-10.4338
▁lines	-10.4379
▁righ	-10.4387
▁pockets	-10.4388
▁hats	-10.4404
▁glimpse	-10.4429
▁foul	-10.4433
▁dance	-10.4435
▁foolish	-10.4442
▁w	-10.4443
▁emerging	-10.4448
▁liquid	-10.4448
▁uncomfortable	-10.4448
▁International	-10.4448
▁stories	-10.4448
▁Entrance	-10.4448
▁dragging	-10.4448
▁knowledge	-10.4448
▁rapidly	-10.4448
▁noticing	-10.4448
▁oak	-10.4449
▁erupted	-10.445
▁metal	-10.4451
▁stopping	-10.4452
▁gotten	-10.4455
▁upside	-10.4457
▁forever	-10.4459
▁strangely	-10.446
▁Still	-10.4484
▁wishing	-10.45
▁catching	-10.4502
▁roll	-10.4505
▁wet	-10.4516
▁gap	-10.4518
▁Marauder	-10.4537
▁track	-10.4539
▁article	-10.454
▁sentence	-10.4541
▁weapon	-10.4543
▁unicorn	-10.4548
▁Mudblood	-10.456
▁gates	-10.4563
▁curses	-10.4567
c	-10.457
so	-10.4592
ave	-10.4597
what	-10.4622
▁damp	-10.4636
Anyway	-10.4637
▁toast	-10.4641
▁Apparate	-10.4673
▁perfect	-10.4675
▁fair	-10.4685
▁speech	-10.469
▁extraordinary	-10.4691
▁miserably	-10.4691
▁opportunity	-10.4691
▁rattling	-10.4691
▁sofa	-10.4691
▁earlier	-10.4691
▁miserable	-10.4691
▁spinning	-10.4692
▁dangling	-10.4692
▁awful	-10.4692
▁Creevey	-10.4692
▁silly	-10.4692
▁briskly	-10.4692
▁lightning	-10.4693
▁card	-10.4693
▁squealed	-10.4694
▁wine	-10.4695
▁overheard	-10.4696
▁weakly	-10.4698
▁Gregorovitch	-10.4699
▁wiped	-10.4699
▁concealed	-10.4699
▁murdered	-10.4705
▁lately	-10.4708
▁Broomsticks	-10.4711
▁torn	-10.4712
▁dressing	-10.4715
▁acting	-10.4725
About	-10.4759
▁talked	-10.477
To	-10.4773
▁trip	-10.4787
▁arrival	-10.479
▁decision	-10.479
▁sweet	-10.4799
▁yard	-10.4799
▁wound	-10.4799
▁date	-10.4803
▁flame	-10.4838
Fine	-10.4866
...``	-10.4867
▁tha	-10.4883
Give	-10.4886
▁cloaks	-10.4887
After	-10.4888
because	-10.4888
Was	-10.4888
On	-10.4889
▁fists	-10.4895
▁pack	-10.4897
no	-10.4909
▁alarm	-10.4914
▁grey	-10.4922
▁manage	-10.4925
▁powder	-10.4931
▁chin	-10.4932
▁Express	-10.4941
▁Nimbus	-10.4941
▁fifteen	-10.4941
▁future	-10.4941
▁horribly	-10.4941
▁bench	-10.4942
▁prospect	-10.4942
▁reply	-10.4942
▁Bones	-10.4942
▁easier	-10.4942
▁paid	-10.4942
▁accompanied	-10.4942
▁Finnigan	-10.4942
▁safety	-10.4942
▁center	-10.4943
▁ensure	-10.4943
Nice	-10.4943
▁hitting	-10.4944
▁Quibbler	-10.4944
▁sadly	-10.4944
▁dis	-10.4944
▁hungry	-10.4945
▁clicked	-10.4946
▁suspected	-10.4946
▁squeezed	-10.4947
▁faster	-10.4951
▁approaching	-10.4951
▁ingredients	-10.4954
▁examined	-10.4956
▁?'	-10.4957
▁gang	-10.4958
▁Captain	-10.4961
▁sticking	-10.4966
▁Look	-10.4967
▁fangs	-10.4979
ling	-10.4983
▁loved	-10.4994
-`	-10.5
▁sliding	-10.5
▁Would	-10.5002
▁poison	-10.5012
▁bones	-10.5012
well	-10.5017
L	-10.5034
▁fool	-10.5036
▁password	-10.5048
▁idiot	-10.505
▁mess	-10.5054
▁jacket	-10.5054
▁thousand	-10.5059
▁cared	-10.5076
▁Spells	-10.5096
▁Very	-10.5106
▁prefer	-10.5112
Named	-10.5141
Wait	-10.5141
Which	-10.5141
With	-10.5144
Neville	-10.5144
ful	-10.5154
▁Though	-10.5154
▁recognize	-10.518
▁ignore	-10.5182
▁froze	-10.5186
▁Good	-10.5188
▁suspicious	-10.5194
▁velvet	-10.5194
▁feeble	-10.5197
▁Thousand	-10.5198
▁dormitories	-10.5198
▁drank	-10.5198
▁opinion	-10.5198
▁telephone	-10.5198
▁necklace	-10.5198
▁veela	-10.5198
▁truly	-10.5198
▁frantically	-10.5198
▁loss	-10.5198
▁positively	-10.5199
▁Monday	-10.5199
▁underneath	-10.5199
▁reflected	-10.5199
▁outstretched	-10.5199
▁sixth	-10.5199
▁amongst	-10.5199
▁swooped	-10.5199
▁Bertha	-10.5201
▁ducked	-10.5203
▁perched	-10.5203
▁groaned	-10.5203
▁ribs	-10.5204
▁shadowy	-10.5205
▁sooner	-10.5206
▁Bell	-10.5207
▁pressing	-10.5211
▁jumping	-10.5224
▁feelings	-10.5227
ie	-10.5241
▁sides	-10.5259
▁rounded	-10.5261
▁agree	-10.5274
▁returning	-10.5276
▁candles	-10.5277
▁screams	-10.5287
▁chain	-10.531
▁tray	-10.5312
▁Lestrange	-10.5317
▁bite	-10.5333
le	-10.5372
▁horses	-10.5383
▁See	-10.5387
Could	-10.5407
▁killing	-10.5414
▁push	-10.5434
▁sweat	-10.5438
▁greet	-10.5444
▁meaning	-10.5449
ic	-10.5452
▁unusual	-10.5457
▁yours	-10.5461
▁bulging	-10.5461
▁yesterday	-10.5461
▁ordinary	-10.5461
▁Marietta	-10.5462
▁Brown	-10.5462
▁ashamed	-10.5463
▁illuminated	-10.5464
▁Polyjuice	-10.5465
▁quivering	-10.5465
▁boxes	-10.5466
▁Dolores	-10.5466
▁Neither	-10.5466
▁proof	-10.5466
▁letting	-10.5467
▁collapsed	-10.5467
▁conjured	-10.5467
▁flashed	-10.5479
▁smaller	-10.548
▁Yet	-10.5486
▁insides	-10.5488
▁friendly	-10.5491
▁supporters	-10.5491
▁casting	-10.5507
OK	-10.5508
▁N	-10.5537
▁prove	-10.5549
▁trace	-10.5558
▁rows	-10.5559
▁situation	-10.5576
▁horn	-10.5578
▁wrist	-10.5583
▁law	-10.5584
▁serpent	-10.5586
▁Aurors	-10.5658
▁sigh	-10.566
Shut	-10.5664
Take	-10.5676
▁prevent	-10.5703
▁blast	-10.5703
▁steam	-10.5714
▁correct	-10.5716
▁interview	-10.572
▁Leaky	-10.5731
▁basilisk	-10.5731
▁slumped	-10.5731
▁seizing	-10.5731
▁Cross	-10.5731
▁tapestry	-10.5731
▁steady	-10.5732
▁crouched	-10.5732
▁cutting	-10.5732
▁bedside	-10.5733
▁involved	-10.5734
▁stronger	-10.5735
▁Flint	-10.5735
▁gathered	-10.5735
▁suspiciously	-10.5736
▁Travers	-10.5737
▁shivering	-10.5737
▁AND	-10.5737
▁shooting	-10.5739
▁bending	-10.574
▁nostrils	-10.5741
▁guessed	-10.5742
▁offer	-10.5743
▁normally	-10.5744
▁destroyed	-10.5745
▁cause	-10.5746
▁ghosts	-10.5758
▁Ted	-10.5762
▁visited	-10.5764
▁lied	-10.5771
▁Could	-10.5788
ING	-10.5804
ation	-10.5808
ily	-10.5813
▁houses	-10.5841
▁carpet	-10.5843
▁shield	-10.585
▁butterbeer	-10.5854
▁cottage	-10.5855
Me	-10.5857
▁height	-10.5859
▁servant	-10.5859
▁add	-10.5947
Someone	-10.5955
▁sneak	-10.5956
▁perform	-10.5981
▁guess	-10.5982
▁glow	-10.5983
▁spare	-10.5991
▁spend	-10.5992
▁rude	-10.6003
▁particular	-10.6005
▁instant	-10.6005
▁leather	-10.6005
▁bloke	-10.6009
▁husband	-10.6009
▁racing	-10.6009
▁stool	-10.6009
▁shade	-10.6009
▁crumpled	-10.6009
▁Instead	-10.601
legged	-10.6011
▁trapped	-10.6011
▁distinctly	-10.6011
▁exhausted	-10.6011
▁Stunning	-10.6011
▁pouring	-10.6012
▁hurtled	-10.6012
▁upper	-10.6012
▁wherever	-10.6012
▁wheeled	-10.6013
▁swirling	-10.6014
▁misty	-10.6015
▁faintly	-10.6016
▁released	-10.6017
▁swinging	-10.6017
▁traveling	-10.6019
▁dawn	-10.6023
enthusiastically	-10.6024
▁pretended	-10.6025
▁prefects	-10.6025
▁BE	-10.6036
▁regret	-10.6051
▁Are	-10.6098
▁bags	-10.6101
▁heels	-10.6104
▁comes	-10.6134
▁boggart	-10.6135
ment	-10.6135
▁sack	-10.6142
▁argument	-10.6145
▁gargoyle	-10.6147
▁record	-10.6147
▁weekend	-10.6149
▁accident	-10.615
▁Maybe	-10.6158
▁clouds	-10.6185
▁fork	-10.6191
▁beds	-10.6215
Hang	-10.6237
Arthur	-10.6241
▁knot	-10.6257
▁dislike	-10.6277
▁thrust	-10.6278
▁drive	-10.6284
acharias	-10.6295
▁absence	-10.6295
▁clipboard	-10.6295
▁emerald	-10.6295
▁screwed	-10.6295
▁motionless	-10.6295
▁happier	-10.6296
▁parcel	-10.6296
▁squinting	-10.6296
▁silk	-10.6297
▁Behind	-10.6297
▁Norbert	-10.6297
▁otherwise	-10.6298
▁i	-10.63
▁twisting	-10.63
▁smirking	-10.63
▁dully	-10.6301
▁hut	-10.6303
▁addressed	-10.6303
▁L	-10.6308
▁Disapparated	-10.6308
▁Minerva	-10.6308
▁blond	-10.6309
▁searched	-10.631
▁madly	-10.6312
▁More	-10.6317
▁widely	-10.6318
▁thickly	-10.632
▁waste	-10.6323
▁OWL	-10.6329
▁r	-10.6329
▁bat	-10.6336
▁miles	-10.6338
▁signed	-10.6362
▁happens	-10.6367
▁hurting	-10.6375
▁Here	-10.6408
▁rule	-10.6427
▁hint	-10.6429
▁ropes	-10.6434
▁remembering	-10.6439
▁Portkey	-10.6441
sized	-10.6443
▁hedge	-10.6443
▁nerve	-10.6446
▁gate	-10.6448
▁rope	-10.645
▁cheeks	-10.6471
▁presents	-10.6498
▁potions	-10.6519
pitched	-10.6532
Mum	-10.6535
▁share	-10.6571
▁clatter	-10.6572
▁hollow	-10.6576
▁lack	-10.6577
▁progress	-10.6578
▁forgive	-10.6583
▁flesh	-10.6584
Exactly	-10.6589
▁Dolohov	-10.6589
▁advice	-10.6589
▁magazine	-10.6589
Indeed	-10.6589
▁gliding	-10.6589
▁happiness	-10.6589
▁lane	-10.6589
▁grab	-10.6589
▁Willow	-10.6589
▁tipped	-10.6589
▁farther	-10.6589
▁continuing	-10.659
▁uncertainly	-10.659
▁alongside	-10.659
▁pop	-10.6591
▁Patil	-10.6591
▁urgently	-10.6592
▁mud	-10.6592
▁roughly	-10.6593
▁Oliver	-10.6593
▁depths	-10.6595
▁smoothly	-10.6596
▁satisfied	-10.6596
▁flatly	-10.6601
▁performed	-10.6601
▁hooded	-10.6603
▁rushed	-10.6604
▁iron	-10.6605
▁bored	-10.6607
▁discussing	-10.6613
▁dreamed	-10.662
▁towering	-10.6621
▁Tell	-10.664
▁Please	-10.6651
▁details	-10.6659
ry	-10.6685
▁pairs	-10.6692
▁gasp	-10.6717
▁broomsticks	-10.6718
▁measure	-10.673
▁charge	-10.673
▁explanation	-10.674
▁action	-10.6742
▁key	-10.6748
▁twin	-10.675
▁cake	-10.675
▁bits	-10.6762
▁owner	-10.678
poster	-10.6837
Blood	-10.6837
Everyone	-10.6838
Does	-10.6839
Fred	-10.684
▁bald	-10.6868
▁examine	-10.6873
▁bore	-10.6876
▁mysterious	-10.6887
▁illegal	-10.6888
▁proper	-10.6888
▁broad	-10.6888
▁shiny	-10.6892
▁threshold	-10.6892
▁maze	-10.6892
▁shrugging	-10.6892
▁steadily	-10.6892
▁duty	-10.6892
▁protective	-10.6892
▁sake	-10.6892
▁swayed	-10.6892
▁Montague	-10.6893
▁crammed	-10.6893
▁hushed	-10.6893
▁suspended	-10.6893
▁accidentally	-10.6893
▁darted	-10.6895
▁drifted	-10.6895
▁NOT	-10.6895
▁thoughtfully	-10.6896
▁proceeded	-10.6896
▁School	-10.6898
▁Fire	-10.6901
▁upright	-10.6902
▁ze	-10.6903
▁Meanwhile	-10.6905
▁pajamas	-10.6907
▁While	-10.691
▁mistaken	-10.6919
▁avoiding	-10.6933
▁reaching	-10.6937
▁tin	-10.6945
▁rumors	-10.6969
▁dungeons	-10.6971
▁dive	-10.6972
▁hissing	-10.6989
▁cheer	-10.6992
▁plant	-10.7006
▁kids	-10.7013
▁shriek	-10.7028
▁chains	-10.7057
▁fetch	-10.7058
▁Boy	-10.7059
▁holiday	-10.7065
▁feather	-10.7072
not	-10.7085
Stop	-10.7144
▁U	-10.7146
Tell	-10.715
Lupin	-10.7151
▁public	-10.7154
ce	-10.7161
▁papers	-10.7161
▁argue	-10.7186
▁remove	-10.7187
▁urge	-10.7189
▁stole	-10.7193
▁punch	-10.7194
▁delight	-10.7194
▁various	-10.7199
▁chill	-10.7201
▁shame	-10.7204
▁Horntail	-10.7204
▁behavior	-10.7204
▁kettle	-10.7204
▁instance	-10.7204
▁cellar	-10.7205
▁decent	-10.7205
▁poking	-10.7205
▁blew	-10.7205
▁breathe	-10.7205
▁slipping	-10.7205
▁gloomily	-10.7205
▁gripped	-10.7205
▁ridiculous	-10.7205
▁married	-10.7205
▁tentatively	-10.7205
▁puzzled	-10.7205
▁incredulously	-10.7205
▁curtly	-10.7205
▁crooked	-10.7206
▁lurking	-10.7206
▁swiftly	-10.7206
▁yourselves	-10.7206
▁threatening	-10.7208
▁plainly	-10.7209
▁drained	-10.7209
▁trembled	-10.7211
▁snorted	-10.7211
▁painfully	-10.7212
▁Slowly	-10.7212
▁blinking	-10.7213
▁hex	-10.7214
▁blocked	-10.7214
Mrs	-10.7214
▁snowy	-10.7215
▁connected	-10.7215
▁Many	-10.7216
▁hello	-10.7218
▁stretching	-10.7219
▁filling	-10.7221
▁shoes	-10.7221
▁narrowed	-10.7229
▁bloody	-10.7233
▁These	-10.7248
▁faced	-10.7289
▁edged	-10.7295
▁hero	-10.7323
▁ways	-10.7329
ier	-10.7333
▁players	-10.7344
▁respect	-10.7354
▁secrets	-10.7364
▁sweater	-10.7374
▁stranger	-10.7375
▁examination	-10.7381
▁Hufflepuffs	-10.7382
▁mountain	-10.7385
b	-10.7389
▁player	-10.739
▁h	-10.7412
▁birds	-10.743
Certainly	-10.7468
▁sprint	-10.7473
Severus	-10.7473
black	-10.7473
▁directions	-10.7492
▁climb	-10.75
▁tense	-10.7501
▁kiss	-10.7501
▁struggle	-10.7509
▁spy	-10.7511
▁press	-10.7515
▁entire	-10.7523
▁neat	-10.7523
▁breeze	-10.7527
▁contrary	-10.7527
▁daresay	-10.7527
▁jeans	-10.7527
▁satisfaction	-10.7527
▁undoubtedly	-10.7527
▁Halloween	-10.7527
▁slamming	-10.7527
▁personal	-10.7527
▁shelf	-10.7527
▁comfortable	-10.7527
▁shimmering	-10.7528
▁Merope	-10.7528
▁pouch	-10.7528
▁clambered	-10.7528
▁bewitched	-10.7529
▁shrilly	-10.7529
▁stumbled	-10.7529
▁occasionally	-10.7529
▁astonished	-10.753
▁descended	-10.753
▁abandoned	-10.7531
▁reappeared	-10.7531
▁zooming	-10.7531
▁recently	-10.7531
▁Chocolate	-10.7532
▁thirty	-10.7532
▁Apparition	-10.7535
▁belonged	-10.7536
▁gulped	-10.7538
▁blasted	-10.754
▁streaming	-10.7541
ary	-10.7542
▁kissing	-10.7544
▁remains	-10.7547
▁Be	-10.7547
▁promised	-10.7554
▁roaring	-10.756
▁banging	-10.7562
▁results	-10.7595
▁hairy	-10.7602
▁Like	-10.7611
▁turns	-10.7617
▁purpose	-10.7618
▁theory	-10.7626
led	-10.7627
▁stag	-10.7638
borns	-10.7659
▁gulp	-10.7672
▁comfort	-10.7673
▁kneel	-10.7674
▁feathers	-10.7675
▁defend	-10.7697
▁choose	-10.7712
▁occasion	-10.7715
▁en	-10.7715
▁hood	-10.7717
▁beg	-10.773
▁length	-10.7735
▁pot	-10.7758
▁lamps	-10.778
for	-10.7791
green	-10.7807
ally	-10.7823
▁fill	-10.7835
▁Ravenclaws	-10.7839
▁dim	-10.7841
▁concentrate	-10.7842
▁...'	-10.7848
▁hover	-10.785
▁ends	-10.7853
▁plain	-10.7854
▁faithful	-10.7855
▁magnificent	-10.7856
▁recent	-10.7856
▁Goblet	-10.786
▁Macmillan	-10.786
▁Parseltongue	-10.786
▁brass	-10.786
▁luggage	-10.786
▁Owlery	-10.786
▁Office	-10.786
▁archway	-10.786
▁community	-10.786
▁clapping	-10.786
▁mail	-10.786
▁patting	-10.7861
▁cautiously	-10.7861
▁unknown	-10.7861
▁daring	-10.7861
▁slimy	-10.7861
▁shuffled	-10.7861
▁arguing	-10.7862
▁poured	-10.7862
▁bunch	-10.7864
▁unlikely	-10.7864
▁hoarsely	-10.7864
▁amused	-10.7864
▁Auntie	-10.7864
▁dimly	-10.7865
▁drowned	-10.7865
▁fluttered	-10.7865
▁strained	-10.7866
ur	-10.7875
▁lovely	-10.7877
▁climbing	-10.7878
▁cheering	-10.788
▁risen	-10.7881
▁howling	-10.7883
pose	-10.7888
▁counting	-10.7892
▁winged	-10.791
▁aback	-10.7946
▁spirits	-10.7955
--	-10.7956
Y	-10.7963
▁warn	-10.8016
▁honor	-10.8025
▁store	-10.8033
▁treasure	-10.8037
▁club	-10.8046
▁outline	-10.8047
▁reflection	-10.8053
▁bus	-10.806
▁chicken	-10.8061
▁Un	-10.8069
▁tap	-10.8069
▁Thanks	-10.8072
red	-10.8108
▁cart	-10.8116
Mad	-10.8128
Leave	-10.8137
Will	-10.815
Something	-10.8151
▁desks	-10.8152
they	-10.817
▁sorts	-10.8173
▁cough	-10.8177
▁treat	-10.8177
▁shudder	-10.8178
▁disappear	-10.8178
▁loose	-10.8187
▁seize	-10.8187
▁realise	-10.8188
▁ginger	-10.8196
▁numb	-10.8197
▁rough	-10.82
▁eager	-10.82
▁regular	-10.8201
▁waist	-10.8205
▁disbelief	-10.8205
▁graveyard	-10.8205
▁lopsided	-10.8205
▁shabby	-10.8205
▁steak	-10.8205
▁television	-10.8205
▁moonlight	-10.8205
▁gripping	-10.8205
▁Bane	-10.8205
▁scroll	-10.8205
▁brandishing	-10.8206
▁Advanced	-10.8206
▁blurred	-10.8206
▁slightest	-10.8206
▁swaying	-10.8206
▁squinted	-10.8206
▁midst	-10.8207
▁shattered	-10.8208
▁intently	-10.8208
▁plunged	-10.8208
▁indicated	-10.8208
▁Felix	-10.8208
▁sought	-10.8209
▁useless	-10.8209
▁awkwardly	-10.8209
▁twitched	-10.821
▁suffered	-10.8211
▁insisted	-10.8211
▁scratching	-10.8211
▁recognised	-10.8212
▁glinting	-10.8213
▁outta	-10.8215
▁survived	-10.822
▁shaken	-10.8225
▁Apparently	-10.8225
▁glowing	-10.8226
▁marked	-10.8227
▁proved	-10.8229
▁None	-10.8238
▁speeding	-10.8241
▁flashing	-10.8241
▁tips	-10.8251
▁feared	-10.826
▁drinking	-10.8269
▁knee	-10.827
an	-10.8277
▁attacking	-10.8278
▁Bludgers	-10.8286
▁Deathly	-10.8291
▁heat	-10.8301
▁worrying	-10.8316
▁area	-10.8331
▁judges	-10.8334
▁stretch	-10.8346
▁.``	-10.8369
▁lo	-10.8373
▁triumph	-10.8381
she	-10.8391
▁mixture	-10.8393
▁gift	-10.8401
▁umbrella	-10.8403
▁tracks	-10.841
▁favor	-10.8411
▁winning	-10.8411
▁account	-10.8412
▁painting	-10.8414
▁beetle	-10.8414
▁shapes	-10.8415
▁quarter	-10.8415
▁jaw	-10.8418
▁kid	-10.8421
▁hug	-10.8451
▁Bus	-10.847
▁duel	-10.848
▁photographs	-10.8481
Dunno	-10.8502
be	-10.8503
Keep	-10.8505
shaped	-10.8507
colored	-10.8508
Still	-10.8508
▁aim	-10.8514
▁l	-10.8515
id	-10.8525
▁fail	-10.8535
▁block	-10.8535
▁reasons	-10.8546
▁focus	-10.8553
▁borrow	-10.8553
▁Law	-10.8554
▁false	-10.8558
▁natural	-10.8558
▁chuck	-10.8562
▁caretaker	-10.8562
▁pacing	-10.8562
▁uncomfortably	-10.8562
▁amazement	-10.8562
▁swimming	-10.8562
▁meanwhile	-10.8562
▁popping	-10.8563
▁gruffly	-10.8563
▁blazing	-10.8563
▁Wizengamot	-10.8563
▁possibility	-10.8563
▁slept	-10.8563
▁Flamel	-10.8563
▁flask	-10.8563
▁absolutely	-10.8564
▁spite	-10.8564
▁Floo	-10.8565
▁Nagini	-10.8565
▁sternly	-10.8565
▁utterly	-10.8566
▁pleasantly	-10.8566
▁chilly	-10.8567
▁scribbled	-10.8567
▁broadly	-10.8568
▁slide	-10.8573
▁handful	-10.8574
▁drops	-10.8575
▁according	-10.8575
▁leaping	-10.8576
▁OUT	-10.8581
▁bothered	-10.8581
▁crashed	-10.8586
▁revealed	-10.8588
▁ordered	-10.8593
▁entering	-10.8598
▁works	-10.86
▁informed	-10.8602
▁Dear	-10.8603
▁war	-10.8607
▁inter	-10.8611
▁enchantments	-10.8628
▁cursed	-10.8634
▁lightly	-10.8644
▁skrewts	-10.8653
▁mere	-10.8656
old	-10.8669
▁ankles	-10.8674
▁stuffing	-10.8685
▁bursting	-10.8696
▁Never	-10.8696
▁enjoy	-10.8753
▁eyeing	-10.8774
▁exist	-10.8776
▁tear	-10.878
▁crate	-10.8781
▁symbol	-10.8788
▁Bulgarian	-10.8789
▁attacks	-10.8837
▁Right	-10.8838
face	-10.8861
▁shower	-10.8869
Making	-10.8872
moon	-10.888
se	-10.8884
▁corners	-10.8891
▁resist	-10.8904
ies	-10.8916
▁hid	-10.8917
▁button	-10.892
▁awoke	-10.8921
▁veil	-10.8921
▁address	-10.8922
▁stiff	-10.8928
▁grateful	-10.8928
there	-10.893
▁swam	-10.8933
▁milk	-10.8933
▁bigger	-10.8933
▁concentrating	-10.8933
▁necessary	-10.8933
▁swollen	-10.8933
▁despite	-10.8933
▁orphanage	-10.8933
▁rumbling	-10.8933
▁strike	-10.8933
▁Ireland	-10.8933
▁Knight	-10.8933
▁substance	-10.8933
▁extinguished	-10.8933
▁scattered	-10.8933
▁shone	-10.8933
▁underground	-10.8933
▁wearily	-10.8933
▁amazed	-10.8934
▁distracted	-10.8934
▁Friday	-10.8934
▁forbidden	-10.8935
▁curly	-10.8935
▁floated	-10.8935
▁jolt	-10.8935
▁beckoned	-10.8937
▁Honeydukes	-10.8937
▁straightening	-10.8937
▁frowned	-10.8937
▁contained	-10.8938
▁honestly	-10.8938
▁drifting	-10.8938
▁disturbed	-10.8938
▁giggling	-10.8938
▁fluttering	-10.8941
▁blonde	-10.8941
▁clicking	-10.8943
▁whoever	-10.8943
▁assured	-10.8944
▁narrowly	-10.8945
▁Over	-10.8946
▁pig	-10.8949
▁gaped	-10.8949
▁goodness	-10.8949
▁adding	-10.8957
▁f	-10.8958
▁acted	-10.8963
▁avoided	-10.8965
▁coins	-10.8968
▁prisoners	-10.8968
▁learning	-10.8968
▁Ten	-10.8971
▁hurriedly	-10.8974
▁guarding	-10.8975
▁covering	-10.8982
▁goin	-10.8985
▁....	-10.8986
▁Blood	-10.9
▁blankets	-10.9
▁touching	-10.9003
▁Thestrals	-10.9018
▁humans	-10.9039
▁star	-10.9043
▁Chasers	-10.9055
one	-10.9083
▁main	-10.9086
▁cheers	-10.9105
ted	-10.9118
▁V	-10.9143
▁experience	-10.9144
▁meetings	-10.9145
▁sweets	-10.9147
▁alleyway	-10.9149
▁begin	-10.915
▁judge	-10.9154
▁gown	-10.9158
▁frog	-10.9166
▁load	-10.9169
▁punishment	-10.9175
▁pillow	-10.9175
▁Chang	-10.9185
hand	-10.9192
ting	-10.9194
O	-10.9195
▁complain	-10.922
aded	-10.9221
▁ideas	-10.9236
▁badges	-10.9247
Percy	-10.9264
▁bare	-10.9266
Bill	-10.9266
▁bangs	-10.9278
▁limp	-10.9285
▁grow	-10.9286
▁flick	-10.9288
▁collect	-10.9289
▁storm	-10.929
▁suck	-10.93
▁punish	-10.9306
ance	-10.9311
▁fierce	-10.9312
▁awkward	-10.9312
▁fond	-10.9313
▁casual	-10.9313
▁bolt	-10.9316
▁music	-10.9317
▁snap	-10.9317
▁chat	-10.9317
▁Davies	-10.9317
▁Deluminator	-10.9317
▁Felicis	-10.9317
▁September	-10.9317
▁campsite	-10.9317
▁concentration	-10.9317
▁drove	-10.9317
▁merpeople	-10.9317
▁momentarily	-10.9317
▁fence	-10.9317
▁canvas	-10.9317
▁hugged	-10.9317
▁tugging	-10.9317
▁patted	-10.9317
▁roof	-10.9317
▁carved	-10.9318
▁tucked	-10.9318
▁Decree	-10.9318
▁Hepzibah	-10.9319
▁grandmother	-10.9319
▁valuable	-10.9319
▁benches	-10.9319
▁sparkling	-10.9319
▁battered	-10.9319
▁posts	-10.9319
▁firelight	-10.9319
▁sniggered	-10.9319
▁advanced	-10.9319
▁embarrassed	-10.932
▁precisely	-10.932
▁Jorkins	-10.932
▁Johnson	-10.9321
▁bushy	-10.9321
▁violently	-10.9321
▁chuckled	-10.9322
▁announced	-10.9322
▁bowler	-10.9323
▁POTTER	-10.9323
▁cheerfully	-10.9325
▁Stunned	-10.9325
▁whirled	-10.9325
▁history	-10.9328
▁jinxes	-10.9329
▁poked	-10.933
▁kissed	-10.933
▁lace	-10.9332
▁blocking	-10.9335
▁Father	-10.9336
▁protected	-10.9337
▁tortured	-10.9338
▁Everything	-10.934
▁sneaking	-10.9341
▁blinding	-10.9343
▁rushing	-10.9348
▁studying	-10.9351
▁paying	-10.9358
▁taste	-10.9359
▁Looking	-10.9361
▁gloves	-10.9371
▁Think	-10.9381
▁Beaters	-10.9393
▁grim	-10.9418
▁con	-10.9442
ous	-10.9447
▁Potters	-10.9448
▁cars	-10.9483
▁tie	-10.9487
▁cakes	-10.9501
▁understanding	-10.9502
▁stream	-10.9539
▁confidence	-10.955
▁pipe	-10.9551
▁rip	-10.9553
▁concern	-10.9559
▁Wizard	-10.9564
▁e	-10.9565
▁wandering	-10.9568
▁animal	-10.9575
▁belong	-10.9576
▁owned	-10.9587
Shall	-10.9658
Our	-10.9663
Perhaps	-10.9663
made	-10.9669
▁possess	-10.9688
▁vanish	-10.9689
▁Disapparate	-10.97
▁harm	-10.9705
▁rats	-10.9708
▁honest	-10.971
▁bath	-10.9713
▁impressive	-10.9713
▁general	-10.9713
▁hoarse	-10.9713
▁pleasant	-10.9713
▁admitted	-10.9713
▁gloom	-10.9714
▁mental	-10.9717
▁Malkin	-10.9717
▁Roberts	-10.9717
▁bounced	-10.9717
▁eagle	-10.9717
▁feebly	-10.9717
▁grief	-10.9717
▁injuries	-10.9717
▁pavement	-10.9717
▁withdrew	-10.9717
▁boring	-10.9717
▁Whomping	-10.9717
▁patronum	-10.9717
▁begun	-10.9717
▁bouncing	-10.9717
▁disappointment	-10.9717
▁series	-10.9717
▁gamekeeper	-10.9717
▁fancy	-10.9717
▁pinned	-10.9717
▁muddy	-10.9718
▁stirred	-10.9718
Probably	-10.9718
▁gritted	-10.9718
▁permitted	-10.9718
▁Hannah	-10.9719
▁Horace	-10.9719
▁Irish	-10.9719
▁advantage	-10.9719
▁funeral	-10.9719
▁agony	-10.9719
▁compared	-10.9719
▁ragged	-10.9719
▁Astronomy	-10.9719
▁crouching	-10.9719
▁toppled	-10.9719
▁underage	-10.9719
▁deafening	-10.972
▁resembled	-10.972
G	-10.972
▁flickered	-10.9721
▁Fluffy	-10.9721
▁realizing	-10.9721
▁yawned	-10.9721
▁gloomy	-10.9721
▁betrayed	-10.9722
▁cost	-10.9722
▁creaked	-10.9724
▁shoved	-10.9725
▁grasped	-10.9725
▁streaked	-10.9726
▁proudly	-10.9726
▁flicked	-10.9729
▁invited	-10.973
▁ghostly	-10.9731
▁knuckles	-10.9732
▁tearing	-10.9736
Said	-10.9736
▁non	-10.9743
▁detentions	-10.9748
▁intended	-10.9749
▁First	-10.9767
▁ringing	-10.9769
▁pupils	-10.9773
▁formed	-10.9786
▁colored	-10.9808
▁sobs	-10.9838
let	-10.9844
▁reckons	-10.9851
▁anti	-10.9867
▁Wizards	-10.9872
▁attempts	-10.9873
round	-10.9944
▁remind	-10.9955
▁cards	-10.9958
▁subjects	-10.9978
▁lump	-10.9983
▁Frog	-10.9987
▁Healer	-10.9987
▁yells	-10.9993
▁Dementor	-10.9994
▁Secret	-10.9997
▁deaths	-11.0003
▁respond	-11.0011
▁schedule	-11.0012
▁trolls	-11.0022
work	-11.0029
▁IT	-11.0044
▁heel	-11.0051
tion	-11.0061
▁-``	-11.0071
Stand	-11.008
headed	-11.0081
Dad	-11.0082
▁upwards	-11.0088
NO	-11.0099
▁approach	-11.0106
▁kick	-11.011
▁jug	-11.0113
▁`--	-11.0115
▁retrieve	-11.0115
▁introduce	-11.0115
im	-11.0115
▁violent	-11.0131
▁hopeful	-11.0132
▁bitter	-11.0133
▁popular	-11.0134
▁stir	-11.0134
▁Committee	-11.0134
▁Sorcerer	-11.0134
▁bacon	-11.0134
▁fountain	-11.0134
▁mingled	-11.0134
▁model	-11.0134
▁pausing	-11.0134
▁rucksack	-11.0134
▁thief	-11.0134
▁twinkling	-11.0134
▁unnatural	-11.0134
▁curiosity	-11.0134
▁trapdoor	-11.0134
▁amusing	-11.0134
▁queue	-11.0134
▁joking	-11.0134
▁lazily	-11.0134
▁pride	-11.0134
▁bike	-11.0134
▁thread	-11.0134
▁promptly	-11.0134
▁torches	-11.0134
▁sunken	-11.0134
▁friendship	-11.0134
▁unlike	-11.0135
▁planned	-11.0135
▁plump	-11.0135
▁rare	-11.0135
▁total	-11.0135
▁Arithmancy	-11.0135
▁preferred	-11.0135
▁centuries	-11.0135
▁currently	-11.0136
▁official	-11.0136
▁devoted	-11.0136
▁sad	-11.0137
▁departed	-11.0137
▁mounted	-11.0137
▁Extendable	-11.0138
▁Michael	-11.0138
Wow	-11.0138
▁brick	-11.0138
▁swelling	-11.0138
▁Ern	-11.0138
▁politely	-11.0138
▁stiffly	-11.0139
▁neatly	-11.014
▁Nevertheless	-11.014
▁darting	-11.014
▁flushed	-11.014
▁snatching	-11.0141
▁taller	-11.0141
▁fairly	-11.0142
▁twitching	-11.0142
▁huddled	-11.0143
▁gathering	-11.0144
▁flown	-11.0146
▁thundering	-11.0147
▁bars	-11.0149
▁mead	-11.0151
▁separated	-11.0152
▁movements	-11.0155
▁IN	-11.0156
▁spending	-11.0159
▁Without	-11.0164
▁glimpsed	-11.0166
▁Time	-11.0168
▁Those	-11.0175
▁greater	-11.0175
▁FOR	-11.0178
▁watery	-11.0181
▁lowering	-11.0183
▁soup	-11.0195
▁Keep	-11.0198
▁dared	-11.0215
EN	-11.023
▁Yeh	-11.0239
▁goblets	-11.0264
ter	-11.0283
long	-11.0302
▁mountains	-11.0321
▁OWLs	-11.0342
▁HE	-11.035
N	-11.0362
▁consider	-11.0371
▁Get	-11.0374
▁score	-11.0382
▁seek	-11.0394
▁bubble	-11.0404
▁Butterbeer	-11.0411
▁trolley	-11.0414
▁charms	-11.0415
▁curtain	-11.0418
▁Squib	-11.0419
▁pudding	-11.0421
▁Chaser	-11.0429
w	-11.0437
▁longing	-11.0442
....``	-11.0443
▁Ah	-11.0464
▁skill	-11.0467
how	-11.0467
▁leap	-11.0492
ked	-11.0494
Miss	-11.0496
▁pity	-11.05
Out	-11.0512
Another	-11.0514
four	-11.0515
Molly	-11.0515
Nobody	-11.0516
▁dread	-11.0536
▁fix	-11.0541
▁disgust	-11.0543
▁confident	-11.0544
▁separate	-11.0546
▁torture	-11.0551
▁arrive	-11.0551
▁display	-11.0551
▁conceal	-11.0558
▁talent	-11.0558
▁Under	-11.0564
▁polite	-11.0564
▁rigid	-11.0564
▁harsh	-11.0564
▁immense	-11.0564
▁urgent	-11.0565
▁spring	-11.0566
▁mid	-11.0568
▁courage	-11.0569
▁Cruciatus	-11.0569
▁HIM	-11.0569
▁Shacklebolt	-11.0569
▁Shield	-11.0569
▁Sunday	-11.0569
▁afford	-11.0569
▁chandelier	-11.0569
▁imagining	-11.0569
▁insane	-11.0569
▁period	-11.0569
▁transparent	-11.0569
▁incredible	-11.0569
▁nature	-11.0569
▁practicing	-11.0569
▁skidded	-11.0569
▁existence	-11.0569
▁fiery	-11.0569
▁Easter	-11.0569
▁tugged	-11.0569
▁Wizardry	-11.0569
▁tank	-11.0569
▁pearly	-11.0569
▁forcefully	-11.0569
▁pressure	-11.0569
▁warmth	-11.057
▁Inquisitor	-11.057
Ready	-11.057
▁August	-11.057
▁Dedalus	-11.057
▁enemy	-11.057
▁attitude	-11.057
▁surveyed	-11.057
▁swore	-11.0571
▁werewolves	-11.0571
▁widened	-11.0571
▁hatred	-11.0571
▁swelled	-11.0571
▁hoisted	-11.0571
▁emptied	-11.0572
▁unfortunately	-11.0572
▁lady	-11.0572
▁polished	-11.0572
▁Errol	-11.0573
▁directed	-11.0574
▁flickering	-11.0574
▁yawning	-11.0575
▁unusually	-11.0576
▁achieved	-11.0577
▁thumping	-11.0577
▁screeched	-11.0578
▁scales	-11.0578
▁Amos	-11.058
▁sacked	-11.0585
can	-11.0587
▁ship	-11.0587
▁ability	-11.0588
▁pit	-11.0588
▁hotly	-11.0588
▁Merlin	-11.0592
▁woken	-11.0592
▁packing	-11.0598
▁blown	-11.06
▁eaten	-11.0603
▁magically	-11.061
▁cleaning	-11.0619
▁doubted	-11.062
▁Another	-11.0624
▁Ronan	-11.0627
▁twigs	-11.0636
▁aching	-11.0638
▁Will	-11.0638
▁deadly	-11.064
▁lid	-11.0664
▁utter	-11.0678
out	-11.0688
▁elves	-11.0733
▁hangings	-11.0757
▁fashion	-11.0759
F	-11.077
▁teams	-11.0815
▁wan	-11.0834
▁basket	-11.0855
▁rack	-11.0857
▁survive	-11.0861
▁saving	-11.0862
▁pace	-11.0865
▁...``	-11.0876
▁cushion	-11.0881
▁afterward	-11.0882
▁ankle	-11.0882
▁candle	-11.0885
▁career	-11.0891
▁habit	-11.0904
cause	-11.0936
▁nod	-11.0948
▁co	-11.0951
Remember	-11.0955
Excuse	-11.0956
hot	-11.0967
go	-11.0969
off	-11.0969
Winky	-11.097
quarters	-11.0971
Some	-11.0971
two	-11.0971
Her	-11.0982
▁ex	-11.0987
all	-11.099
▁discover	-11.099
yes	-11.0994
▁transform	-11.0994
f	-11.0995
said	-11.0998
▁attend	-11.0998
▁assume	-11.1005
▁deny	-11.1007
▁deliver	-11.1008
this	-11.1008
▁floors	-11.1011
▁request	-11.1012
▁stroll	-11.1013
▁squash	-11.1013
▁bush	-11.1016
▁g	-11.1017
▁scann	-11.1018
▁brand	-11.1019
▁brief	-11.1019
▁unexpected	-11.1019
▁triumphant	-11.1019
▁immediate	-11.1019
▁guilt	-11.1019
▁branch	-11.1023
▁price	-11.1023
▁fright	-11.1023
▁gentle	-11.1023
▁Bagshot	-11.1023
▁Britain	-11.1023
▁atmosphere	-11.1023
▁female	-11.1023
▁grabbing	-11.1023
▁nevertheless	-11.1023
▁peculiar	-11.1023
▁prickling	-11.1023
▁refusing	-11.1023
▁rustling	-11.1023
▁uncontrollably	-11.1023
▁engine	-11.1023
▁favourite	-11.1023
▁knight	-11.1023
▁whereabouts	-11.1023
▁Baron	-11.1023
▁banned	-11.1023
▁lime	-11.1023
▁tapping	-11.1023
▁mopping	-11.1023
Better	-11.1024
▁cries	-11.1024
▁barman	-11.1024
▁amazing	-11.1024
▁serenely	-11.1024
▁skinny	-11.1024
▁bushes	-11.1024
▁curved	-11.1025
▁Squad	-11.1025
▁Dirk	-11.1025
▁earshot	-11.1025
▁ruddy	-11.1025
▁church	-11.1025
▁earnestly	-11.1025
Avada	-11.1026
▁stooped	-11.1026
▁bread	-11.1027
▁nudged	-11.1027
▁Through	-11.1027
▁UP	-11.1028
▁deepest	-11.1028
▁immensely	-11.1028
▁spilled	-11.1029
▁distractedly	-11.1029
▁Feeling	-11.103
▁ruined	-11.1031
▁chattering	-11.1031
▁traveled	-11.1032
▁noble	-11.1033
▁issued	-11.1033
▁resumed	-11.1033
▁circumstances	-11.1034
▁frightening	-11.1035
▁outraged	-11.1035
▁Everybody	-11.1035
▁Inside	-11.1036
▁suffering	-11.1036
▁required	-11.1036
▁unpleasantly	-11.1037
▁enjoyed	-11.1037
▁eyelids	-11.104
▁disgusting	-11.1041
▁glowed	-11.1041
Number	-11.1041
▁sneering	-11.1043
▁heaving	-11.1044
▁experienced	-11.1045
▁shrieking	-11.1048
▁offering	-11.1055
▁pan	-11.1061
▁bowing	-11.1065
▁headline	-11.1067
▁Five	-11.1073
▁spreading	-11.1077
▁features	-11.1079
▁Out	-11.1082
▁visitors	-11.1087
▁slope	-11.11
▁flowers	-11.1101
▁explaining	-11.1108
▁Use	-11.1124
ey	-11.1187
▁animals	-11.1188
▁Because	-11.1257
▁mis	-11.1274
▁shops	-11.1282
iest	-11.1293
▁race	-11.1312
▁ambition	-11.1331
▁cliff	-11.1331
▁bucket	-11.1331
▁stack	-11.1334
▁beam	-11.1348
▁nightmare	-11.1351
▁service	-11.1352
▁image	-11.1353
▁beast	-11.1355
▁tale	-11.1356
▁slit	-11.1358
▁pie	-11.1361
▁sob	-11.1362
▁DO	-11.1368
▁sleeves	-11.1386
▁carriages	-11.1407
Even	-11.1427
▁aid	-11.1429
▁minds	-11.1436
Accio	-11.1443
Dear	-11.1445
Three	-11.1446
Bellatrix	-11.1446
worthy	-11.1472
▁practise	-11.148
▁penetrate	-11.148
▁ferret	-11.1481
▁land	-11.1485
▁alert	-11.1488
▁feed	-11.1488
▁snakes	-11.1489
▁sugar	-11.1494
▁vicious	-11.1495
▁defensive	-11.1495
▁Inferi	-11.1499
▁despair	-11.1499
nfortunately	-11.1499
▁cruel	-11.1499
▁June	-11.15
▁Kedavra	-11.15
▁Kendra	-11.15
▁arriving	-11.15
▁collar	-11.15
▁indicating	-11.15
▁invitation	-11.15
▁judging	-11.15
▁lungs	-11.15
▁mantelpiece	-11.15
▁random	-11.15
▁scribbling	-11.15
▁untidy	-11.15
▁whatsoever	-11.15
▁identical	-11.15
▁ladder	-11.15
▁bezoar	-11.15
▁bunk	-11.15
▁chess	-11.15
▁launched	-11.15
▁dug	-11.15
▁freezing	-11.15
▁smoking	-11.15
▁fluffy	-11.15
▁dissolved	-11.15
▁chas	-11.15
▁shopping	-11.15
▁stubbornly	-11.15
▁blackboard	-11.1501
▁Padma	-11.1501
▁Warrington	-11.1501
▁followers	-11.1501
Nah	-11.1501
▁handbag	-11.1502
▁Headquarters	-11.1502
▁gleefully	-11.1502
▁hopelessly	-11.1502
▁hammering	-11.1502
▁surveying	-11.1502
▁retreated	-11.1502
▁flattened	-11.1503
▁fish	-11.1503
▁bobbing	-11.1503
▁Secrecy	-11.1504
▁git	-11.1504
▁Summoning	-11.1504
▁swooping	-11.1504
▁collided	-11.1504
▁rarely	-11.1505
▁Omnioculars	-11.1505
▁casually	-11.1505
▁scowled	-11.1505
▁gotta	-11.1506
▁Rookwood	-11.1506
▁palm	-11.1506
▁hooked	-11.1507
▁succeeded	-11.1507
▁sniffed	-11.1507
▁shifting	-11.1509
▁flooding	-11.1509
▁worn	-11.1509
▁Bode	-11.1509
▁forgetting	-11.1509
▁blackened	-11.151
▁defeated	-11.151
▁tangled	-11.151
▁automatically	-11.1511
▁express	-11.1512
▁shuddered	-11.1514
▁treated	-11.1514
▁hooting	-11.1517
▁rear	-11.1523
strewn	-11.1523
▁sleepy	-11.1526
▁largest	-11.1526
▁gaping	-11.1533
▁efforts	-11.1538
rs	-11.1541
▁blowing	-11.1543
▁Thank	-11.1543
▁trusted	-11.1546
Has	-11.1547
▁crashing	-11.155
▁Remember	-11.1558
p	-11.1569
▁parted	-11.1579
▁events	-11.1581
▁Burkes	-11.1587
▁winding	-11.1591
▁victims	-11.1594
▁seated	-11.1596
▁sensed	-11.1619
term	-11.1624
▁shows	-11.1634
▁cornered	-11.1646
▁answering	-11.17
▁hi	-11.1719
▁YOUR	-11.1725
▁Heads	-11.1757
▁thousands	-11.1772
▁takes	-11.178
ny	-11.1781
ame	-11.1788
at	-11.1792
▁secure	-11.1796
▁pet	-11.1799
▁groups	-11.1808
▁Four	-11.1836
▁equal	-11.184
▁Sneakoscope	-11.184
▁Book	-11.185
▁manner	-11.1854
▁spirit	-11.1857
▁named	-11.186
▁bone	-11.1864
▁questioning	-11.1886
▁sc	-11.1907
▁mistress	-11.1912
▁shouts	-11.1925
Expelliarmus	-11.1941
May	-11.1942
Should	-11.1945
who	-11.1945
Luna	-11.1946
First	-11.1948
Keeper	-11.195
▁screech	-11.197
▁groan	-11.1971
▁ease	-11.1978
▁produce	-11.1981
▁exchange	-11.1981
▁appreciate	-11.1985
▁gestur	-11.1986
▁damn	-11.1987
▁snort	-11.1989
▁repair	-11.199
▁firm	-11.1994
▁bizarre	-11.1994
▁piercing	-11.1994
▁spectacular	-11.1995
▁steep	-11.1995
▁ominous	-11.1995
▁stern	-11.1995
▁dazzling	-11.1996
▁frantic	-11.1999
▁compete	-11.1999
▁greasy	-11.2
Ended	-11.2
▁Blotts	-11.2
▁Cadogan	-11.2
▁Flourish	-11.2
▁Roger	-11.2
▁circling	-11.2
▁grumpily	-11.2
▁issuing	-11.2
▁motorbike	-11.2
▁rippling	-11.2
▁shakily	-11.2
▁throbbing	-11.2
▁Leanne	-11.2
▁enthusiasm	-11.2
▁livid	-11.2
▁fading	-11.2
▁undertone	-11.2
Lumos	-11.2
▁original	-11.2
▁Twenty	-11.2
▁Cole	-11.2
▁lunged	-11.2
▁flaming	-11.2
▁stew	-11.2
▁reasonably	-11.2
▁camera	-11.2001
▁fortune	-11.2001
lunk	-11.2001
▁prat	-11.2001
▁girlfriend	-11.2001
▁daylight	-11.2002
▁widening	-11.2002
▁patches	-11.2003
▁mildly	-11.2003
▁ruffled	-11.2003
▁heartily	-11.2003
▁Sickles	-11.2004
▁grandfather	-11.2004
▁especially	-11.2004
▁greenish	-11.2004
▁crush	-11.2004
▁sealed	-11.2005
▁scratched	-11.2005
▁smirked	-11.2006
▁masked	-11.2006
ant	-11.2007
▁wider	-11.2007
▁boiling	-11.2008
▁winking	-11.2008
▁revenge	-11.2008
▁personally	-11.2009
▁scowling	-11.2009
u	-11.201
▁painted	-11.201
▁strolled	-11.2011
▁squashed	-11.2011
▁tents	-11.2012
▁creaking	-11.2012
▁creeping	-11.2013
▁stormed	-11.2014
▁blackness	-11.2014
▁Again	-11.2015
▁possessed	-11.2015
▁wandered	-11.2015
▁previously	-11.2015
▁Macnair	-11.2015
▁skirt	-11.2019
▁sneaked	-11.2019
▁vanishing	-11.2021
▁Marvolo	-11.2021
▁WHAT	-11.2024
▁bend	-11.2025
▁slowed	-11.2032
▁banged	-11.2035
▁Any	-11.2048
▁gives	-11.205
▁Should	-11.2055
▁Ears	-11.2055
▁NO	-11.2061
▁Our	-11.207
▁piles	-11.2109
▁doe	-11.2112
ch	-11.212
▁robe	-11.2122
▁biting	-11.2147
▁slits	-11.2151
▁cushions	-11.2159
▁pillows	-11.2189
VE	-11.2212
▁mug	-11.2236
▁nerves	-11.2249
▁vo	-11.2251
▁emotion	-11.2258
ad	-11.2307
▁squeak	-11.2339
▁gesture	-11.2343
▁clunk	-11.2345
▁rag	-11.2358
sen	-11.2365
▁discussion	-11.2368
▁fragment	-11.2368
▁department	-11.2368
▁telescope	-11.2376
▁partner	-11.2382
▁lookout	-11.2382
▁antidote	-11.2385
▁drawer	-11.2388
▁Galleon	-11.239
▁hill	-11.2401
▁north	-11.2407
▁lawns	-11.2408
▁command	-11.2416
▁heap	-11.2452
▁senses	-11.2455
▁ah	-11.2456
Ouch	-11.246
Stupef	-11.246
Expecto	-11.2467
covered	-11.247
just	-11.2472
please	-11.2472
YOU	-11.2472
free	-11.2472
Krum	-11.2472
which	-11.2472
floor	-11.2472
Once	-11.2473
Sit	-11.2476
▁blind	-11.2476
handed	-11.2482
▁jerk	-11.2493
▁duck	-11.2496
▁grasp	-11.2498
▁thunder	-11.2498
▁receive	-11.2507
▁capture	-11.2507
▁sell	-11.2516
▁brutal	-11.252
▁whirl	-11.2521
▁health	-11.2522
▁ME	-11.2525
▁perch	-11.2525
▁peace	-11.2526
▁Marchbanks	-11.2526
▁October	-11.2526
▁Pince	-11.2526
▁Shunpike	-11.2526
▁Thicknesse	-11.2526
▁Tuesday	-11.2526
▁Wednesday	-11.2526
▁confusion	-11.2526
▁exciting	-11.2526
▁gnarled	-11.2526
▁precious	-11.2526
▁protruding	-11.2526
▁stroking	-11.2526
▁temple	-11.2526
▁writhing	-11.2526
▁copies	-11.2526
▁petrified	-11.2526
▁women	-11.2526
▁placing	-11.2526
▁uneasy	-11.2526
▁sallow	-11.2526
▁mound	-11.2526
▁tripped	-11.2526
▁starry	-11.2526
▁tiptoe	-11.2526
▁sidecar	-11.2526
▁topmost	-11.2527
▁sloping	-11.2527
▁stammered	-11.2527
▁exceptionally	-11.2527
▁lonely	-11.2527
▁decorated	-11.2527
▁deliberately	-11.2527
▁defiantly	-11.2527
▁anythin	-11.2527
▁Dennis	-11.2528
▁English	-11.2528
▁Thursday	-11.2528
▁built	-11.2528
▁bustling	-11.2528
▁authority	-11.2528
▁Grim	-11.2528
▁dashing	-11.2529
▁scarves	-11.2529
▁beaten	-11.2529
▁youngest	-11.2529
▁ripping	-11.253
▁grate	-11.253
▁spellbooks	-11.253
▁Rufus	-11.253
▁bustled	-11.253
▁fumbled	-11.2531
▁crawled	-11.2531
▁briefly	-11.2531
▁pointless	-11.2531
▁lingered	-11.2531
▁dodged	-11.2532
▁gleamed	-11.2532
▁relaxed	-11.2532
▁winked	-11.2532
▁clamp	-11.2532
▁glided	-11.2532
▁naturally	-11.2532
▁shifted	-11.2533
▁shivered	-11.2533
▁Ronald	-11.2533
▁witnessed	-11.2534
▁sweaty	-11.2534
▁attached	-11.2534
▁forty	-11.2534
▁containing	-11.2535
▁overgrown	-11.2535
▁Sure	-11.2535
▁marching	-11.2535
▁smallest	-11.2536
▁wandlight	-11.2536
▁transformed	-11.2538
▁n	-11.2538
▁somewhat	-11.254
▁ride	-11.2542
▁wandmaker	-11.2542
▁Today	-11.2543
▁jerking	-11.2543
▁borrowed	-11.2544
▁deserved	-11.2547
▁howled	-11.2551
▁counted	-11.2559
▁adventure	-11.2563
▁charged	-11.2563
▁crossing	-11.2568
▁bothering	-11.2568
▁darker	-11.257
▁appearing	-11.2574
▁WILL	-11.2575
▁buying	-11.2583
▁Carrows	-11.2584
▁guests	-11.2594
▁dreaming	-11.2613
▁forming	-11.2616
Yer	-11.2635
▁boots	-11.2639
▁Take	-11.2639
▁Has	-11.265
ably	-11.2652
▁drawers	-11.2672
▁kitchens	-11.2692
▁Yeah	-11.2706
▁Up	-11.275
▁fur	-11.2755
king	-11.2767
v	-11.2773
▁wasted	-11.2778
▁plants	-11.2781
▁conscious	-11.2782
▁owners	-11.2796
.'`	-11.28
▁drinks	-11.2817
▁tasks	-11.2837
▁yards	-11.2837
fashioned	-11.2842
ened	-11.2847
▁Mudbloods	-11.2853
▁cauldrons	-11.2861
▁sons	-11.2887
▁unaware	-11.2913
▁beginning	-11.2914
▁reaction	-11.2914
▁swing	-11.2914
▁protest	-11.2915
▁suspect	-11.2919
▁howl	-11.2923
▁Eye	-11.2925
▁comment	-11.2936
▁skrewt	-11.294
▁rumor	-11.2941
▁gnome	-11.2943
▁heaven	-11.2943
▁string	-11.2944
▁bu	-11.2955
▁sheet	-11.2958
▁DON	-11.2999
▁poke	-11.3003
▁mo	-11.3012
▁fellows	-11.3015
Anything	-11.3025
Those	-11.3027
blue	-11.3028
Great	-11.3028
Fleur	-11.3028
Fudge	-11.3028
Slughorn	-11.3028
when	-11.3028
Lily	-11.3029
Won	-11.3031
▁statues	-11.3031
Had	-11.3043
▁poster	-11.3047
▁river	-11.3055
▁flow	-11.3055
RE	-11.3058
▁venom	-11.3059
▁bundle	-11.3062
▁invite	-11.3063
▁wipe	-11.3063
▁convince	-11.3063
▁glare	-11.3063
▁reward	-11.307
▁dazed	-11.3077
▁practical	-11.3077
▁intent	-11.3077
▁success	-11.308
▁fleeting	-11.308
▁Animagus	-11.3081
▁Magnolia	-11.3081
▁Magorian	-11.3081
▁ajar	-11.3081
▁clanking	-11.3081
▁courtyard	-11.3081
▁disgruntled	-11.3081
▁doorknob	-11.3081
▁driving	-11.3081
▁eerie	-11.3081
▁monstrous	-11.3081
▁nonsense	-11.3081
▁police	-11.3081
▁preparing	-11.3081
▁shaggy	-11.3081
▁transfixed	-11.3081
▁maroon	-11.3081
▁BANG	-11.3081
▁astonishment	-11.3081
▁glory	-11.3081
▁imagination	-11.3081
▁noisy	-11.3081
▁flapping	-11.3081
▁starving	-11.3081
▁kidding	-11.3081
▁propped	-11.3081
▁crossbow	-11.3081
▁conclusion	-11.3081
▁raw	-11.3081
▁exasperated	-11.3082
▁silhouette	-11.3082
▁candlelight	-11.3082
▁spitting	-11.3082
Welcome	-11.3082
▁stirring	-11.3082
▁Army	-11.3082
▁windowsill	-11.3082
▁etched	-11.3082
▁magnified	-11.3082
▁Day	-11.3082
▁chapter	-11.3082
▁jeering	-11.3082
▁Killing	-11.3083
▁schoolbag	-11.3083
▁hallway	-11.3083
▁feverishly	-11.3083
▁Witchcraft	-11.3083
ian	-11.3084
▁gettin	-11.3084
▁booming	-11.3084
▁complicated	-11.3084
▁Top	-11.3085
▁whizz	-11.3085
▁billowing	-11.3086
▁groped	-11.3086
▁Atrium	-11.3086
▁wise	-11.3087
▁murderer	-11.3088
▁flooded	-11.3088
▁binding	-11.3089
▁dense	-11.3089
▁invented	-11.309
▁obscured	-11.309
▁whimpering	-11.3091
▁bully	-11.3091
▁spilling	-11.3092
▁buzzing	-11.3092
▁trailing	-11.3092
▁delivered	-11.3095
▁straining	-11.3095
▁woods	-11.3096
▁punished	-11.3097
▁cooking	-11.3097
▁arrogant	-11.3097
▁tough	-11.3098
▁served	-11.3098
▁clearer	-11.31
▁reminding	-11.3104
▁limping	-11.3106
▁driven	-11.3106
▁fed	-11.3109
▁disappearing	-11.3109
▁reported	-11.311
▁aiming	-11.311
▁chased	-11.311
▁gasping	-11.3113
▁clattering	-11.3114
▁urged	-11.3115
▁fate	-11.3116
▁shared	-11.3117
--``	-11.3118
▁web	-11.3118
▁dangerously	-11.3121
▁stealing	-11.3123
▁supported	-11.3125
▁Surely	-11.3129
▁mend	-11.313
▁HARRY	-11.313
▁seeking	-11.3132
ine	-11.3133
▁allowing	-11.3149
▁finishing	-11.3149
▁owe	-11.3177
▁instruments	-11.3185
▁dealing	-11.3186
▁tickets	-11.3193
▁joining	-11.3196
▁forth	-11.3204
▁conditions	-11.321
▁shaped	-11.3214
▁greenhouses	-11.3218
▁mane	-11.3222
▁toes	-11.3223
▁bubbles	-11.3269
ble	-11.3276
▁Know	-11.3283
▁terms	-11.3285
,'`	-11.3296
▁dais	-11.3354
▁Listen	-11.3355
▁possessions	-11.3428
▁frames	-11.3446
back	-11.3453
Muggle	-11.3468
▁stage	-11.3474
▁cats	-11.3479
▁insult	-11.3491
▁Howler	-11.3502
▁headstone	-11.3504
▁deserve	-11.3505
▁essential	-11.351
▁version	-11.3512
▁fan	-11.3512
▁explosion	-11.3515
▁detail	-11.3517
▁crime	-11.3521
▁incantation	-11.3524
▁lantern	-11.3526
▁greenhouse	-11.3528
light	-11.3557
time	-11.3573
Any	-11.3576
▁chances	-11.3588
▁Love	-11.3598
thing	-11.36
Hold	-11.3611
From	-11.3616
People	-11.3616
Two	-11.3616
Dudley	-11.3616
Umbridge	-11.3616
why	-11.3616
▁firs	-11.3616
will	-11.3619
None	-11.362
Ten	-11.3625
▁camp	-11.3638
▁spoon	-11.364
▁repeat	-11.3641
▁murmur	-11.3642
▁click	-11.3642
▁blink	-11.3642
▁guards	-11.3647
▁inform	-11.3647
▁severe	-11.3647
▁assure	-11.3652
▁stroke	-11.3656
▁affect	-11.3658
▁encounter	-11.3658
▁defeat	-11.3659
▁cook	-11.366
▁motion	-11.3664
Thought	-11.3665
▁sleek	-11.3665
▁sinister	-11.3665
▁vivid	-11.3665
▁resentful	-11.3665
▁apprehensive	-11.3665
▁foreign	-11.3666
▁constant	-11.3667
▁potato	-11.3669
▁drag	-11.3669
Shh	-11.3669
▁prison	-11.3669
▁straw	-11.367
onko	-11.367
▁Beedle	-11.367
▁Scabior	-11.367
▁Spinnet	-11.367
▁contorted	-11.367
▁defence	-11.367
▁desperation	-11.367
▁injury	-11.367
▁knives	-11.367
▁vigorously	-11.367
▁departure	-11.367
▁porridge	-11.367
▁response	-11.367
▁Enforcement	-11.367
▁Whinging	-11.367
▁freedom	-11.367
▁Ancient	-11.367
▁bloodshot	-11.367
▁liking	-11.367
▁sunk	-11.367
▁instinctively	-11.367
▁dripping	-11.367
▁considerable	-11.367
▁collection	-11.367
▁snapping	-11.367
▁snout	-11.367
Arry	-11.367
▁lion	-11.3671
▁dried	-11.3671
▁shallow	-11.3671
▁crackling	-11.3671
▁yellowish	-11.3671
▁hexes	-11.3671
▁Vanishing	-11.3671
▁revolv	-11.3671
▁believing	-11.3672
▁Argus	-11.3672
▁Trevor	-11.3672
▁Each	-11.3672
▁Side	-11.3672
▁hurtling	-11.3672
▁hic	-11.3672
▁pronounced	-11.3672
▁spluttered	-11.3673
▁severely	-11.3674
▁meantime	-11.3674
▁stamped	-11.3675
▁Hokey	-11.3675
▁winced	-11.3675
▁littered	-11.3675
▁descending	-11.3675
▁breathless	-11.3676
▁wishes	-11.3676
▁generally	-11.3676
▁draped	-11.3676
▁mainly	-11.3677
▁highest	-11.3677
▁Amycus	-11.3678
▁scraping	-11.3678
▁described	-11.3678
▁Dippet	-11.3679
▁arranged	-11.3679
▁rattled	-11.3679
▁stamping	-11.3679
▁snakelike	-11.368
▁filed	-11.3681
▁swarming	-11.3681
▁Weird	-11.3681
▁laden	-11.3682
▁prodding	-11.3682
▁repaired	-11.3682
▁Blast	-11.3683
▁signal	-11.3683
▁inner	-11.3683
▁similar	-11.3684
▁poisonous	-11.3685
▁throughout	-11.3685
▁limped	-11.3686
▁oldest	-11.3686
▁tart	-11.3687
▁scrape	-11.3689
▁Heir	-11.369
▁punched	-11.369
▁scanning	-11.3692
▁considering	-11.3693
▁invisibility	-11.3694
▁complaining	-11.3696
▁boarded	-11.3697
▁dueling	-11.3699
▁accepted	-11.3699
▁fled	-11.37
▁gestured	-11.3703
▁sweating	-11.3708
▁scars	-11.3711
▁persuaded	-11.3724
▁Vol	-11.3725
▁smelled	-11.3726
▁relatives	-11.3727
▁sausages	-11.3735
Put	-11.3737
▁lifting	-11.3749
▁award	-11.375
▁newly	-11.3778
▁visiting	-11.3784
▁edges	-11.3792
▁rescue	-11.3805
▁cares	-11.3823
▁heavens	-11.3826
▁headmasters	-11.3827
▁belt	-11.3829
▁sheets	-11.3831
▁greatly	-11.3835
▁paces	-11.386
ere	-11.3865
▁belongs	-11.3886
▁Nor	-11.389
▁Crack	-11.3892
▁j	-11.3893
tle	-11.3896
ned	-11.3902
Erm	-11.3912
▁troubled	-11.3914
▁answers	-11.3925
▁--?`	-11.3926
▁pots	-11.3934
▁Malfoys	-11.3943
▁wasting	-11.395
▁measures	-11.3958
ible	-11.3975
ED	-11.4015
fingered	-11.4016
▁wash	-11.4028
▁resting	-11.403
▁rolls	-11.4032
▁pre	-11.4055
▁permit	-11.407
▁moan	-11.411
▁dirt	-11.4115
▁arrest	-11.4116
▁brow	-11.4117
▁refuse	-11.4122
▁scurrying	-11.4128
▁rooms	-11.413
▁paw	-11.4132
▁aisle	-11.4136
▁appointment	-11.4143
▁teacup	-11.4145
▁Ha	-11.4148
▁cream	-11.4148
▁muscle	-11.415
▁suspicion	-11.415
▁hoop	-11.4151
▁condition	-11.4152
▁Thestral	-11.4153
Wha	-11.417
▁necks	-11.4197
▁hairs	-11.42
Hmm	-11.4208
foot	-11.4225
▁pathetic	-11.4225
Hurry	-11.4229
Think	-11.4229
turn	-11.423
Quick	-11.4234
Quite	-11.4237
Stay	-11.4237
Anyone	-11.4237
▁sock	-11.4238
HARRY	-11.424
Over	-11.424
filled	-11.424
great	-11.424
Albus	-11.4241
Draco	-11.4241
Crouch	-11.4241
Slytherin	-11.4241
Every	-11.4241
Hogwarts	-11.4241
Five	-11.4242
▁swig	-11.4246
Want	-11.4252
▁Riddles	-11.4254
▁sneer	-11.4257
▁suppress	-11.4262
don	-11.4262
▁insist	-11.4266
▁peer	-11.4268
▁gain	-11.4269
▁smart	-11.427
seven	-11.4273
▁Box	-11.4275
▁surprising	-11.4276
▁serve	-11.4277
▁chase	-11.4279
▁distinct	-11.428
▁endure	-11.4282
▁obey	-11.4284
▁settle	-11.4285
▁release	-11.4286
new	-11.4286
▁surge	-11.4288
▁shoot	-11.429
▁mild	-11.429
▁unfortunate	-11.429
▁abrupt	-11.429
▁vague	-11.429
▁definite	-11.429
▁shrill	-11.4291
ley	-11.4291
▁gaunt	-11.4293
▁complex	-11.4294
▁remorse	-11.4295
▁Confederation	-11.4295
▁Demelza	-11.4295
▁Mafalda	-11.4295
▁Shrieking	-11.4295
▁agitated	-11.4295
▁appalled	-11.4295
▁indignation	-11.4295
▁managing	-11.4295
▁paddock	-11.4295
▁responsible	-11.4295
▁rummaging	-11.4295
▁value	-11.4295
Yep	-11.4295
▁Tale	-11.4295
▁determination	-11.4295
▁enclosure	-11.4295
▁frustration	-11.4295
▁mercy	-11.4295
▁sarcastically	-11.4295
▁rubbed	-11.4295
▁fraction	-11.4295
▁unfolded	-11.4295
Oooh	-11.4295
▁delicious	-11.4295
▁flapped	-11.4295
▁perplexed	-11.4295
▁coffee	-11.4295
▁signature	-11.4295
▁treacle	-11.4295
Funny	-11.4295
▁responsibility	-11.4295
▁squeezing	-11.4295
▁turban	-11.4295
▁dramatically	-11.4295
▁grubby	-11.4295
▁Corner	-11.4295
▁sworn	-11.4295
▁stalked	-11.4295
▁advancing	-11.4295
▁comin	-11.4295
▁sharing	-11.4295
▁irritated	-11.4295
▁loathed	-11.4295
Outstanding	-11.4295
▁panicked	-11.4295
▁electric	-11.4295
▁hugging	-11.4296
▁faintest	-11.4296
▁glowering	-11.4296
▁inherited	-11.4296
▁boomed	-11.4296
▁rummaged	-11.4296
▁Class	-11.4297
▁Defensive	-11.4297
▁Fletcher	-11.4297
▁Millicent	-11.4297
▁Nicolas	-11.4297
▁biggest	-11.4297
▁bronze	-11.4297
▁whistling	-11.4297
▁cozy	-11.4297
▁importance	-11.4297
▁investigate	-11.4297
▁Finch	-11.4297
▁seared	-11.4297
▁goggling	-11.4297
▁sold	-11.4297
▁puffy	-11.4297
▁scooped	-11.4297
▁spin	-11.4298
▁sprawled	-11.4298
▁increasingly	-11.4298
▁glittered	-11.4298
▁steering	-11.4298
▁bitten	-11.4299
▁savagely	-11.4299
▁Abbott	-11.4299
▁mixed	-11.4299
ered	-11.4299
▁hooted	-11.4299
▁locker	-11.4299
▁controlled	-11.43
▁threatened	-11.43
▁Romilda	-11.43
▁brushed	-11.4301
▁cowering	-11.4301
▁mission	-11.4302
▁swerved	-11.4302
rimmed	-11.4303
▁wary	-11.4303
▁galloping	-11.4303
▁pounded	-11.4303
▁increased	-11.4304
▁brushing	-11.4304
▁stumped	-11.4305
▁paler	-11.4305
▁earned	-11.4305
▁curling	-11.4305
▁overcome	-11.4305
▁strangled	-11.4306
▁sweetly	-11.4306
▁Although	-11.4307
▁Seven	-11.4308
▁Runes	-11.4309
▁chewing	-11.4312
▁range	-11.4312
▁giggled	-11.4313
▁advised	-11.4314
▁strongly	-11.4317
▁shorter	-11.4318
▁Piers	-11.4318
▁capable	-11.4318
▁assistant	-11.4319
▁dreading	-11.4319
▁corrected	-11.432
▁ARE	-11.432
▁scored	-11.4322
▁Best	-11.4322
▁shuddering	-11.4326
▁discussed	-11.4329
▁balding	-11.433
do	-11.4332
▁messing	-11.4348
▁AT	-11.4348
▁angle	-11.4349
▁annoying	-11.4363
▁God	-11.4365
▁heir	-11.4369
▁feels	-11.437
▁tune	-11.4373
▁fireworks	-11.4374
Bet	-11.4378
owing	-11.4379
▁army	-11.4392
▁lookin	-11.4392
um	-11.4399
▁slugs	-11.4402
▁trained	-11.4419
▁hoops	-11.444
ius	-11.445
▁gnomes	-11.4459
▁tones	-11.446
▁colour	-11.4478
▁sorted	-11.4508
;`	-11.4512
▁fog	-11.4533
ard	-11.4536
lit	-11.4593
▁din	-11.4594
coloured	-11.4616
oh	-11.4628
▁uses	-11.4628
▁gas	-11.4654
▁HAVE	-11.4654
▁mouthed	-11.4664
▁wounds	-11.4668
pe	-11.4675
▁im	-11.4697
H	-11.4705
▁tricks	-11.4718
▁expressions	-11.4725
U	-11.4729
Ha	-11.4745
▁lots	-11.4752
▁Houses	-11.4767
▁believes	-11.4772
il	-11.4774
▁bark	-11.4779
▁require	-11.4788
▁disguise	-11.4788
▁exit	-11.479
▁summon	-11.4793
▁keyhole	-11.4794
▁violet	-11.4794
▁giggle	-11.4799
▁title	-11.4807
▁language	-11.4812
▁mouthful	-11.4815
▁result	-11.482
▁stair	-11.4822
ap	-11.4823
ities	-11.4827
▁boot	-11.4836
Wonder	-11.4866
▁mortal	-11.487
Kill	-11.4875
take	-11.4875
▁annoy	-11.4878
Fletchley	-11.4886
Honestly	-11.4886
ten	-11.4902
Wish	-11.4904
Back	-11.4904
length	-11.4907
Time	-11.4907
Nearly	-11.4908
Black	-11.4908
five	-11.4908
three	-11.4909
▁armchairs	-11.4914
▁material	-11.4917
Yet	-11.4917
▁fears	-11.4922
▁goals	-11.4929
▁stump	-11.4932
▁frighten	-11.4933
▁sniff	-11.4933
▁creak	-11.4934
▁suffer	-11.4934
▁strain	-11.4936
▁lurch	-11.4937
▁accord	-11.4937
▁consult	-11.4944
▁stock	-11.4944
▁build	-11.4945
▁recall	-11.495
▁register	-11.495
▁succeed	-11.4951
▁ruin	-11.4951
▁stray	-11.4952
▁rich	-11.4955
▁impatient	-11.4957
▁pleading	-11.4957
▁boss	-11.4958
▁Ball	-11.4959
▁Apparating	-11.4961
▁Bogrod	-11.4961
▁Egypt	-11.4961
▁July	-11.4961
▁Network	-11.4961
▁aghast	-11.4961
▁cackling	-11.4961
▁caution	-11.4961
▁coast	-11.4961
▁crimson	-11.4961
▁fascinating	-11.4961
▁flustered	-11.4961
▁ghoul	-11.4961
▁gratitude	-11.4961
▁irritable	-11.4961
▁latter	-11.4961
▁loathing	-11.4961
▁marquee	-11.4961
▁temporarily	-11.4961
▁tiara	-11.4961
▁utmost	-11.4961
▁hooves	-11.4961
▁snide	-11.4961
▁Shack	-11.4961
▁influence	-11.4961
▁bemused	-11.4961
▁destination	-11.4961
▁Trace	-11.4961
▁edging	-11.4961
▁trap	-11.4961
▁Road	-11.4961
▁misery	-11.4961
▁slithering	-11.4961
▁superb	-11.4961
▁waft	-11.4961
▁haze	-11.4961
▁whoosh	-11.4961
▁mouse	-11.4961
▁hilt	-11.4961
▁holly	-11.4961
▁rug	-11.4961
▁hastened	-11.4961
▁unhappy	-11.4961
▁shuffling	-11.4961
▁season	-11.4962
▁travelling	-11.4962
▁glorious	-11.4962
Happy	-11.4962
▁roast	-11.4962
▁dusk	-11.4962
▁dung	-11.4962
▁HERE	-11.4962
▁moldy	-11.4962
▁popped	-11.4962
Lucky	-11.4962
▁grudgingly	-11.4962
▁illuminating	-11.4962
▁thrashing	-11.4962
▁slippery	-11.4962
▁enjoyable	-11.4962
▁inclined	-11.4962
▁fervently	-11.4962
▁whip	-11.4962
▁attic	-11.4962
▁base	-11.4962
▁committed	-11.4962
▁precise	-11.4963
▁askew	-11.4963
▁darkening	-11.4963
▁breakout	-11.4963
▁fourteen	-11.4963
▁pelted	-11.4963
▁stowed	-11.4963
▁enclosed	-11.4963
▁frequently	-11.4963
▁Lynch	-11.4963
▁Padfoot	-11.4963
▁obsessed	-11.4963
▁apple	-11.4963
▁MAGIC	-11.4963
▁rabbit	-11.4963
▁reduced	-11.4964
▁spotting	-11.4964
▁tightened	-11.4966
▁flared	-11.4966
▁marry	-11.4966
▁constantly	-11.4966
▁blushing	-11.4966
▁trousers	-11.4967
▁resigned	-11.4967
▁blindly	-11.4967
▁frail	-11.4967
▁defensively	-11.4968
▁peeling	-11.4968
▁unexpectedly	-11.4968
▁wailed	-11.4972
▁lurched	-11.4972
▁related	-11.4973
▁gained	-11.4973
▁downward	-11.4973
▁cackled	-11.4973
▁swishing	-11.4974
▁Together	-11.4975
▁thundered	-11.4975
▁arrested	-11.4975
▁crossly	-11.4975
▁pincers	-11.4976
▁grilles	-11.4977
▁arrangements	-11.4977
▁wailing	-11.4977
▁murmuring	-11.4981
▁band	-11.4983
▁tomb	-11.4983
Ask	-11.4983
▁aimed	-11.4984
▁cheered	-11.4985
▁produced	-11.4986
▁focused	-11.4988
▁assumed	-11.4989
▁chained	-11.499
▁collecting	-11.4993
▁cell	-11.4995
▁decorations	-11.4996
▁rotting	-11.5006
▁Dungbombs	-11.5006
▁tested	-11.5007
▁charming	-11.5015
▁Quick	-11.5016
▁Seconds	-11.5026
▁fewer	-11.5037
▁fires	-11.5042
▁savage	-11.5044
▁beads	-11.5045
▁covers	-11.5045
▁lasted	-11.5046
▁bared	-11.5049
▁effective	-11.5058
▁pus	-11.5071
▁veins	-11.5087
Bye	-11.5091
▁Give	-11.5102
▁wa	-11.5116
▁doin	-11.5119
▁lanterns	-11.5127
▁posters	-11.5139
▁ideal	-11.5144
▁trusts	-11.5144
▁detect	-11.5146
▁partners	-11.5148
are	-11.5204
▁problems	-11.5214
▁practices	-11.5226
room	-11.5232
▁stones	-11.524
▁youth	-11.5246
▁brim	-11.5272
▁com	-11.5284
▁charges	-11.5292
K	-11.53
▁bats	-11.5301
▁accidents	-11.5312
ive	-11.5312
▁Got	-11.5321
▁Bard	-11.5338
Un	-11.5361
▁unicorns	-11.5374
▁IS	-11.5411
ped	-11.5417
▁ruff	-11.5426
▁travel	-11.5456
▁leak	-11.5463
me	-11.5469
▁traitor	-11.5472
iness	-11.5478
▁grunt	-11.5488
▁wail	-11.5489
▁jabb	-11.55
▁chimney	-11.5508
▁legend	-11.5508
▁lunchtime	-11.5509
▁evenings	-11.5518
▁Soon	-11.552
▁threat	-11.552
▁vampire	-11.5521
▁banner	-11.5521
ver	-11.5521
▁suggestion	-11.5522
▁jewel	-11.5524
▁companion	-11.5526
▁bump	-11.5528
▁trial	-11.5529
▁ticket	-11.5533
▁victim	-11.5533
▁J	-11.5534
▁Beater	-11.5534
▁chart	-11.5538
Though	-11.556
▁hag	-11.557
Jus	-11.557
▁distract	-11.5609
▁flee	-11.561
boy	-11.5617
Always	-11.5618
Help	-11.562
glass	-11.562
▁appeal	-11.562
Madam	-11.562
Narcissa	-11.5622
minute	-11.5622
Moody	-11.5622
Surely	-11.5622
James	-11.5622
Tonks	-11.5622
More	-11.5622
These	-11.5635
By	-11.5638
high	-11.5639
▁hook	-11.5647
▁cups	-11.5648
▁gather	-11.5648
▁flush	-11.5649
was	-11.5649
▁creep	-11.5653
▁Street	-11.5653
▁attract	-11.5653
▁hunt	-11.5656
▁demonstrate	-11.5656
▁rumble	-11.5657
▁outrage	-11.5657
▁crunch	-11.566
▁regain	-11.5665
▁witness	-11.5666
▁wrench	-11.5667
▁ev	-11.567
▁rubber	-11.5671
▁absent	-11.5671
▁disapproving	-11.5671
▁occasional	-11.5672
▁delicate	-11.5673
▁process	-11.5675
▁glee	-11.5675
▁Studies	-11.5676
▁research	-11.5676
▁tablecloth	-11.5676
Special	-11.5676
▁Crescent	-11.5676
▁Legilimency	-11.5676
▁Veritaserum	-11.5676
▁blackthorn	-11.5676
▁boarhound	-11.5676
▁canopy	-11.5676
▁credit	-11.5676
▁crucial	-11.5676
▁enemies	-11.5676
▁energy	-11.5676
▁exasperation	-11.5676
▁merrily	-11.5676
▁miniature	-11.5676
▁persisted	-11.5676
▁practising	-11.5676
▁pyjamas	-11.5676
▁rusty	-11.5676
▁trophy	-11.5676
▁uniform	-11.5676
Morning	-11.5676
▁stabbed	-11.5676
▁Moran	-11.5676
▁jammed	-11.5676
▁stab	-11.5676
▁pardon	-11.5676
▁belief	-11.5676
▁slapping	-11.5676
▁wrestling	-11.5676
▁disturbance	-11.5676
▁temptation	-11.5676
▁Standard	-11.5676
▁grinding	-11.5676
▁ninety	-11.5676
▁plotting	-11.5676
▁scum	-11.5676
▁scaly	-11.5676
▁wheezy	-11.5676
▁mice	-11.5676
▁dismissively	-11.5676
▁tartan	-11.5676
▁commentary	-11.5676
▁waking	-11.5676
▁handwriting	-11.5676
▁sandwiches	-11.5676
▁stubby	-11.5676
▁ornate	-11.5676
▁teapot	-11.5676
▁tankard	-11.5676
▁improvement	-11.5676
Knock	-11.5676
▁applauding	-11.5676
▁scuttled	-11.5676
▁filing	-11.5676
▁sincerely	-11.5676
▁stepping	-11.5676
▁matted	-11.5676
▁bracingly	-11.5676
▁trickling	-11.5676
▁tying	-11.5677
▁potatoes	-11.5677
▁flu	-11.5677
▁doorstep	-11.5677
▁crown	-11.5677
▁dreamily	-11.5677
ingly	-11.5678
▁rim	-11.5678
▁underwater	-11.5678
▁Boggart	-11.5678
▁Headmistress	-11.5678
▁Karkus	-11.5678
▁bony	-11.5678
▁glumly	-11.5678
▁sixty	-11.5678
▁sleepily	-11.5678
▁chorus	-11.5678
▁GOT	-11.5679
▁china	-11.5679
▁rapped	-11.5679
▁scarf	-11.5679
▁reluctantly	-11.5679
▁flashes	-11.5679
▁convicted	-11.568
▁tempted	-11.568
▁labeled	-11.5681
▁apprehensively	-11.5681
▁Bella	-11.5681
▁healthy	-11.5681
▁dabbing	-11.5682
▁Control	-11.5682
▁Hestia	-11.5682
▁type	-11.5682
▁sacrifice	-11.5682
▁united	-11.5682
▁island	-11.5682
▁lumpy	-11.5683
▁grimy	-11.5683
▁clinging	-11.5684
▁al	-11.5684
▁accused	-11.5684
▁gingerly	-11.5685
▁mounting	-11.5685
▁cheery	-11.5685
▁According	-11.5686
▁Elphias	-11.5686
▁THAT	-11.5686
▁amid	-11.5686
▁regained	-11.5686
▁confirmed	-11.5687
▁shrinking	-11.5689
▁correctly	-11.569
▁Theory	-11.569
▁mended	-11.569
Devil	-11.569
▁offended	-11.5691
▁draining	-11.5691
Educational	-11.5692
▁streaking	-11.5692
ring	-11.5693
▁approval	-11.5693
▁disgusted	-11.5694
▁Dawlish	-11.5694
▁dining	-11.5695
▁pinch	-11.5697
▁Sturgis	-11.5698
▁awoken	-11.5701
▁feeding	-11.5701
▁warningly	-11.5703
eaten	-11.5703
▁planted	-11.5704
▁dawned	-11.5704
▁prevented	-11.5705
▁paced	-11.5706
▁Trying	-11.5706
▁pod	-11.5709
▁colder	-11.5714
▁meat	-11.5715
▁smoothed	-11.5717
▁argued	-11.5721
▁included	-11.5723
▁founders	-11.573
▁Apparated	-11.5731
▁stupidly	-11.5736
▁spots	-11.5739
▁nest	-11.576
▁grades	-11.5767
▁sessions	-11.5767
▁riding	-11.5775
▁cracking	-11.578
Been	-11.5783
▁willing	-11.5784
.`...	-11.5788
▁piled	-11.5799
▁thumbs	-11.58
▁Does	-11.5815
HE	-11.5825
▁giggles	-11.5833
▁blur	-11.5859
▁strings	-11.5865
ors	-11.5873
▁fragments	-11.5877
cy	-11.5878
▁backing	-11.5882
▁intense	-11.5883
aged	-11.5887
▁mouths	-11.5892
▁noses	-11.5909
▁matching	-11.5918
▁punishments	-11.5954
▁jaws	-11.5976
▁rested	-11.5976
▁v	-11.5977
▁Fi	-11.5981
te	-11.6012
▁keys	-11.6031
▁watering	-11.6032
▁se	-11.6056
▁cap	-11.6058
▁squat	-11.6059
▁cork	-11.6069
▁laws	-11.6076
lessly	-11.608
▁dates	-11.6109
▁monsters	-11.6143
▁cuts	-11.6185
▁Too	-11.6199
ow	-11.6232
▁streak	-11.6249
▁sport	-11.6253
ever	-11.6255
▁prize	-11.6258
▁moth	-11.6275
▁forearm	-11.6278
▁blade	-11.6278
▁surroundings	-11.6278
▁freak	-11.6279
▁dial	-11.6283
▁Bowtruckle	-11.6286
▁vegetable	-11.6286
▁celebration	-11.6286
▁boulder	-11.6293
way	-11.6295
▁dish	-11.6297
▁chunk	-11.6299
▁grindylow	-11.63
▁neighbor	-11.63
▁instrument	-11.6302
▁Burke	-11.6303
▁Jinx	-11.6303
▁enchantment	-11.6303
▁blanket	-11.6304
▁trod	-11.6304
▁vein	-11.6304
▁HA	-11.6329
▁greeting	-11.6341
ng	-11.6344
▁occur	-11.6345
where	-11.6355
Follow	-11.638
Merry	-11.638
mouthed	-11.6384
▁town	-11.6384
▁masters	-11.6386
ball	-11.6386
Without	-11.6391
Half	-11.6391
Bathilda	-11.6391
Most	-11.6391
Before	-11.6391
Karkaroff	-11.6391
Cedric	-11.6391
Gryffindor	-11.6391
▁eyed	-11.6395
now	-11.6399
ack	-11.6403
▁locate	-11.6415
▁interrupt	-11.6416
▁fireplaces	-11.6416
▁drown	-11.6417
▁glint	-11.6417
▁drain	-11.6417
▁flutter	-11.6417
▁improve	-11.6426
▁pound	-11.6426
▁include	-11.6426
▁collapse	-11.6427
▁squeeze	-11.6427
▁prepare	-11.6427
▁conjure	-11.6427
▁confess	-11.6433
▁escort	-11.6434
▁retort	-11.6434
▁proceed	-11.6434
▁doze	-11.6439
▁elder	-11.644
▁swift	-11.644
▁filth	-11.6441
▁park	-11.6441
▁shelter	-11.6442
▁birth	-11.6445
▁loyal	-11.6445
Horned	-11.6445
▁Crumple	-11.6445
▁FROM	-11.6445
▁Gurg	-11.6445
▁Hangleton	-11.6445
▁Mostafa	-11.6445
▁Pucey	-11.6445
▁Resurrection	-11.6445
▁Statute	-11.6445
▁Terry	-11.6445
▁Wheezes	-11.6445
▁Yule	-11.6445
▁access	-11.6445
▁aloft	-11.6445
▁alternative	-11.6445
▁anxiety	-11.6445
▁audible	-11.6445
▁choking	-11.6445
▁choosing	-11.6445
▁frustrated	-11.6445
▁knelt	-11.6445
▁minuscule	-11.6445
▁plinth	-11.6445
▁slithered	-11.6445
▁summat	-11.6445
▁unmistakable	-11.6445
▁uproar	-11.6445
▁volunteer	-11.6445
▁Diggle	-11.6445
▁Memory	-11.6445
▁Regulation	-11.6445
▁clump	-11.6445
▁grumpy	-11.6445
▁resentment	-11.6445
▁vibrating	-11.6445
▁celebrating	-11.6445
▁commotion	-11.6445
▁drenched	-11.6445
▁education	-11.6445
▁fox	-11.6445
▁Mason	-11.6445
▁briefcase	-11.6445
▁wreckage	-11.6445
▁digging	-11.6445
▁liar	-11.6445
▁unwrapped	-11.6445
▁racket	-11.6445
▁unnoticed	-11.6445
▁comfortably	-11.6445
▁inspection	-11.6445
▁countryside	-11.6445
▁imprisoned	-11.6445
▁performance	-11.6445
▁prowled	-11.6445
▁brandished	-11.6445
▁skies	-11.6445
▁slam	-11.6445
▁gracefully	-11.6445
▁chatting	-11.6445
▁behave	-11.6446
▁unlocked	-11.6446
Oi	-11.6446
▁escaping	-11.6446
▁purring	-11.6446
▁firing	-11.6446
▁male	-11.6446
▁sunny	-11.6446
▁musical	-11.6446
▁woolly	-11.6446
▁Snare	-11.6446
▁tension	-11.6446
▁weakness	-11.6446
▁fitted	-11.6446
▁timidly	-11.6447
▁ON	-11.6447
▁pierced	-11.6447
▁tucking	-11.6447
▁Albania	-11.6447
▁Gabrielle	-11.6447
▁Gellert	-11.6447
▁Petrified	-11.6447
▁century	-11.6447
▁diversion	-11.6447
▁splattered	-11.6447
▁Runcorn	-11.6447
▁somethin	-11.6447
▁loyalty	-11.6447
▁searing	-11.6447
▁squid	-11.6447
▁remotely	-11.6447
▁prominent	-11.6448
▁Grade	-11.6448
▁maliciously	-11.6448
▁indifferently	-11.6448
▁appointed	-11.6448
▁swapped	-11.6448
▁centre	-11.6448
▁craning	-11.6448
▁Inquisitorial	-11.6448
▁anguished	-11.6449
▁menacingly	-11.6449
▁Snap	-11.6449
▁twittering	-11.645
▁poring	-11.645
▁darkened	-11.645
Knew	-11.645
▁humming	-11.6451
▁sniggering	-11.6451
▁sodden	-11.6451
▁Podmore	-11.6452
▁Alecto	-11.6452
▁wrought	-11.6452
▁ominously	-11.6452
Riddikulus	-11.6452
▁quivered	-11.6452
▁retreating	-11.6452
▁confidently	-11.6453
▁safer	-11.6453
▁melted	-11.6453
▁Standing	-11.6454
▁glistening	-11.6454
▁fondly	-11.6454
▁puffed	-11.6454
▁zat	-11.6455
▁extracted	-11.6455
▁clawed	-11.6455
▁Witch	-11.6455
▁retorted	-11.6456
▁threateningly	-11.6456
▁statement	-11.6457
▁registered	-11.6457
▁quicker	-11.6458
▁Avery	-11.6458
▁obeyed	-11.6458
▁di	-11.6459
▁Quill	-11.6459
▁dwelling	-11.6459
▁longingly	-11.6462
▁confided	-11.6462
▁governors	-11.6463
▁reared	-11.6463
▁uttered	-11.6463
▁improved	-11.6464
▁awaiting	-11.6465
▁reread	-11.6465
▁collected	-11.6467
▁loop	-11.6467
▁rate	-11.6468
▁hunting	-11.6472
▁tottering	-11.6473
▁WE	-11.6474
▁determinedly	-11.6478
▁poisoned	-11.6479
▁tracked	-11.6481
▁sporting	-11.6482
▁Impediment	-11.6483
▁Sometimes	-11.6483
▁Last	-11.6483
▁humor	-11.6484
▁treating	-11.6484
▁piped	-11.6485
▁bandages	-11.6486
▁facedown	-11.6486
▁powerfully	-11.6487
▁intending	-11.6492
▁guessing	-11.6493
▁eighteen	-11.6495
gged	-11.6497
▁importantly	-11.6503
▁prodd	-11.6503
▁suggesting	-11.6506
▁Help	-11.6508
▁massag	-11.6514
▁freely	-11.6516
▁Skrewts	-11.6516
▁pal	-11.6519
▁photos	-11.6521
▁patched	-11.6524
▁alley	-11.6526
▁lifts	-11.6534
▁fasten	-11.6537
▁muster	-11.6539
▁predictions	-11.6556
▁shawls	-11.6556
▁doubled	-11.6562
▁slice	-11.6579
▁claws	-11.658
▁revive	-11.6581
▁neighbors	-11.6591
Up	-11.661
▁mop	-11.6611
▁mostly	-11.6632
▁Blimey	-11.6638
--`	-11.6648
▁mugs	-11.6663
▁K	-11.6667
Were	-11.6667
▁Gold	-11.6676
▁oil	-11.6682
el	-11.6692
▁Must	-11.6695
▁survives	-11.6699
▁Thought	-11.6716
▁bun	-11.6716
own	-11.6719
skin	-11.6724
▁pulse	-11.6739
smelling	-11.6741
▁conversations	-11.6747
▁facts	-11.6763
▁occasions	-11.6794
Too	-11.6847
▁emptying	-11.6859
side	-11.6873
▁Lestranges	-11.6891
ook	-11.6989
ping	-11.6993
▁Curses	-11.6995
▁repel	-11.6997
▁murders	-11.7039
▁AN	-11.7042
▁appears	-11.7064
Say	-11.7068
▁expel	-11.7075
▁effects	-11.7091
▁stall	-11.7099
▁messages	-11.71
▁tangle	-11.7101
▁wheel	-11.7102
▁strip	-11.711
▁basic	-11.7113
co	-11.7113
▁mask	-11.7118
▁mock	-11.7118
▁Y	-11.7119
▁leader	-11.712
▁claw	-11.7122
▁defense	-11.713
▁flower	-11.7132
▁deaf	-11.7132
▁Peverell	-11.7134
▁slug	-11.7135
▁thumb	-11.7136
▁circles	-11.7138
sh	-11.7139
den	-11.7148
his	-11.7157
Tha	-11.7166
▁graves	-11.718
nosed	-11.7198
Precisely	-11.7204
Gone	-11.7205
V	-11.7211
Brilliant	-11.7216
Imagine	-11.7217
Make	-11.722
Second	-11.7221
Naturally	-11.7221
Mundungus	-11.7224
Griphook	-11.7224
Peeves	-11.7224
giant	-11.7224
with	-11.7225
Lord	-11.7225
Death	-11.7225
▁colors	-11.7225
gold	-11.7225
However	-11.7227
Whatever	-11.7231
making	-11.7233
▁prod	-11.7235
▁leads	-11.7237
ar	-11.7239
▁per	-11.724
▁cow	-11.7244
▁fuss	-11.7245
▁twitch	-11.7246
▁shiver	-11.7246
▁shift	-11.7249
▁flood	-11.725
▁extract	-11.725
▁reappear	-11.725
▁trail	-11.725
▁smirk	-11.7251
▁frown	-11.7251
did	-11.7252
▁reverse	-11.7259
▁grimace	-11.7259
▁confide	-11.7259
▁huddle	-11.726
▁issue	-11.726
▁cure	-11.726
▁trickle	-11.7261
▁accompany	-11.7261
▁swarm	-11.7261
▁lure	-11.7261
▁meal	-11.7262
▁advise	-11.7263
▁explode	-11.7263
▁direct	-11.7264
▁wreck	-11.7266
▁transport	-11.7267
▁confirm	-11.7267
▁vomit	-11.7268
▁jealous	-11.7272
▁shov	-11.7273
▁sickening	-11.7273
▁copper	-11.7273
▁shrewd	-11.7274
▁menacing	-11.7274
▁apparent	-11.7274
▁wisp	-11.7274
▁gleeful	-11.7274
▁fearful	-11.7277
▁addition	-11.7278
urried	-11.7278
▁court	-11.7278
▁sip	-11.7278
▁generous	-11.7278
▁horizon	-11.7278
Definitely	-11.7278
Enough	-11.7278
▁Beans	-11.7278
▁Edgecombe	-11.7278
▁February	-11.7278
▁Oracle	-11.7278
▁Tofty	-11.7278
▁Vane	-11.7278
▁WAS	-11.7278
▁assembled	-11.7278
▁babble	-11.7278
▁blimey	-11.7278
▁copied	-11.7278
▁deciding	-11.7278
▁despise	-11.7278
▁embroider	-11.7278
▁junk	-11.7278
▁lousy	-11.7278
▁miracle	-11.7278
▁occupied	-11.7278
▁pat	-11.7278
▁penalty	-11.7278
▁shrank	-11.7278
▁sympathy	-11.7278
▁variety	-11.7278
▁victory	-11.7278
▁writhe	-11.7278
▁Draught	-11.7278
▁Harper	-11.7278
▁Totalu	-11.7278
▁jagged	-11.7278
▁napkin	-11.7278
▁relationship	-11.7278
▁bidding	-11.7278
▁cramped	-11.7278
▁groping	-11.7278
▁pursuing	-11.7278
▁vertical	-11.7278
▁Life	-11.7278
▁gonna	-11.7278
▁pallid	-11.7278
▁scrambling	-11.7278
▁increasing	-11.7278
▁emitting	-11.7278
▁Section	-11.7278
▁minor	-11.7278
▁sunshine	-11.7278
▁gentlemen	-11.7278
▁thunderstruck	-11.7278
▁example	-11.7278
▁stout	-11.7278
▁assistance	-11.7278
▁hopped	-11.7278
▁Weekly	-11.7278
▁incredibly	-11.7278
▁annoyance	-11.7278
▁considerably	-11.7278
▁unwise	-11.7279
▁sang	-11.7279
▁jeered	-11.7279
▁immersed	-11.7279
▁revision	-11.7279
▁mystery	-11.7279
▁nastily	-11.7279
▁sulky	-11.7279
▁sagging	-11.7279
▁tethered	-11.7279
▁agreement	-11.7279
▁scattering	-11.7279
▁appreciatively	-11.7279
▁straightaway	-11.7279
▁solemnly	-11.728
▁loomed	-11.728
▁wrinkled	-11.728
▁barrel	-11.728
▁scathingly	-11.728
▁skulking	-11.728
▁hunched	-11.7281
▁dramatic	-11.7281
▁parties	-11.7281
▁clap	-11.7281
▁skip	-11.7281
▁Bulstrode	-11.7281
▁Salazar	-11.7281
▁Twycross	-11.7281
▁applied	-11.7281
▁quality	-11.7281
▁bridge	-11.7281
▁sensible	-11.7281
▁beady	-11.7281
▁furry	-11.7281
▁steered	-11.7281
▁flipped	-11.7282
▁significant	-11.7282
▁Somehow	-11.7282
▁bravery	-11.7282
▁pelting	-11.7282
▁flowery	-11.7282
▁buckled	-11.7282
▁cluttered	-11.7282
▁unrolled	-11.7282
▁pump	-11.7283
▁Sybill	-11.7283
▁embarrassing	-11.7283
▁worthless	-11.7283
▁leering	-11.7283
▁nighttime	-11.7284
▁madness	-11.7284
▁squeaky	-11.7285
▁clinking	-11.7285
▁fumes	-11.7285
▁Alastor	-11.7286
▁Twice	-11.7286
▁angrier	-11.7286
▁KNOW	-11.7286
▁abroad	-11.7286
▁amusement	-11.7286
▁Dung	-11.7286
▁brandy	-11.7286
▁nothin	-11.7287
▁confiscated	-11.7287
▁whimpered	-11.7287
▁rooted	-11.7287
▁yelped	-11.7287
▁knocker	-11.7287
▁Leav	-11.7288
▁reacted	-11.7288
▁trailed	-11.7289
▁regularly	-11.7289
▁glinted	-11.729
▁hind	-11.7291
▁summoned	-11.7292
▁suppressed	-11.7293
▁cloudy	-11.7294
▁topped	-11.7294
▁bury	-11.7294
▁drunk	-11.7295
▁Patronuses	-11.7297
▁maniac	-11.7298
▁stacked	-11.7298
▁leaking	-11.7298
ather	-11.7298
▁accusing	-11.7298
▁grunting	-11.7299
ricket	-11.7299
▁drowning	-11.73
▁stricken	-11.73
▁washing	-11.7304
▁Students	-11.7305
▁selling	-11.7306
▁squeaking	-11.7306
▁severed	-11.7308
▁rescued	-11.731
▁Somebody	-11.731
▁tentacles	-11.731
▁fixing	-11.7312
▁platforms	-11.7312
▁dreamy	-11.7312
▁Snatchers	-11.7313
▁stained	-11.7315
▁guardian	-11.7316
▁cope	-11.7318
▁badger	-11.732
▁disguised	-11.7321
▁comforting	-11.7323
▁spying	-11.7324
▁Silence	-11.7325
▁planets	-11.7329
▁thrusting	-11.733
▁belly	-11.733
▁alarming	-11.7333
▁performing	-11.7334
▁shunt	-11.7335
▁pillars	-11.7336
▁washed	-11.7337
▁swish	-11.734
▁guarded	-11.7345
▁Wonder	-11.735
▁Char	-11.7352
▁lighter	-11.7354
k	-11.737
▁hearty	-11.738
▁methods	-11.7387
▁pointedly	-11.7388
▁nails	-11.7399
▁boils	-11.7399
▁limbs	-11.74
▁assist	-11.7406
▁mastered	-11.7407
▁killer	-11.7408
▁markings	-11.7412
▁grindylows	-11.7438
▁paws	-11.7477
▁suspicions	-11.7477
▁exercise	-11.75
▁earn	-11.7504
▁rags	-11.7511
▁antidotes	-11.7516
▁ash	-11.752
OUR	-11.753
▁Stun	-11.7537
▁slopp	-11.7546
rotting	-11.7551
▁afterwards	-11.7555
ade	-11.7599
▁whispers	-11.76
▁symbols	-11.762
▁exists	-11.7621
et	-11.7649
▁scare	-11.7654
▁print	-11.7661
▁armed	-11.768
▁wander	-11.7686
Bit	-11.7701
ters	-11.7709
▁pu	-11.772
▁breaths	-11.772
tempered	-11.7724
na	-11.7751
▁serpents	-11.7752
-``	-11.7773
ne	-11.7776
▁towel	-11.7795
▁finds	-11.78
▁pen	-11.7823
ching	-11.7837
dore	-11.7844
▁excuses	-11.7859
age	-11.7875
am	-11.7885
▁sub	-11.7893
▁fired	-11.7895
▁numbers	-11.7904
▁Reg	-11.7911
ew	-11.7911
struck	-11.7922
day	-11.7943
▁kn	-11.7953
▁hates	-11.796
▁tests	-11.7968
man	-11.7972
▁newspapers	-11.7981
▁claim	-11.799
▁mutter	-11.7992
▁th	-11.7993
▁puff	-11.8018
▁motorcycle	-11.802
▁Owl	-11.8028
▁Cleansweep	-11.8028
▁autograph	-11.8028
▁leaflet	-11.8028
▁hip	-11.8029
▁stride	-11.8036
▁adult	-11.8036
▁De	-11.8038
▁disappearance	-11.8038
▁ye	-11.804
▁neighbour	-11.804
right	-11.8042
▁fang	-11.8043
▁twig	-11.8045
▁mile	-11.8046
▁roars	-11.8064
▁standard	-11.8065
though	-11.8068
▁orb	-11.8068
▁weed	-11.812
hood	-11.812
Qu	-11.8121
Cheer	-11.8122
Crucio	-11.8122
shirt	-11.8125
▁wha	-11.8128
Hand	-11.8128
Level	-11.8129
blond	-11.813
▁passages	-11.8132
Apparently	-11.8133
Everything	-11.8133
While	-11.8133
Watch	-11.8133
House	-11.8134
Scrimgeour	-11.8134
Petunia	-11.8134
Quidditch	-11.8134
Ministry	-11.8134
George	-11.8134
Riddle	-11.8134
▁marking	-11.8137
▁virtu	-11.8149
turned	-11.815
backed	-11.8151
▁scratch	-11.8154
▁cloth	-11.8157
▁thrill	-11.8157
▁march	-11.8158
▁relax	-11.8158
▁abandon	-11.8159
▁scowl	-11.816
▁growl	-11.816
▁twist	-11.816
▁challenge	-11.8163
▁spill	-11.8163
▁gleam	-11.8163
▁dwell	-11.8165
▁author	-11.8167
▁rustle	-11.8168
▁provide	-11.8168
▁blaze	-11.8169
▁tremble	-11.8169
▁frost	-11.817
▁shrink	-11.817
▁holes	-11.817
▁buzz	-11.817
▁recognise	-11.8171
▁thump	-11.8171
▁bless	-11.8172
▁chew	-11.8175
▁limit	-11.8176
▁stain	-11.8177
▁modest	-11.8182
▁crisp	-11.8182
▁reluctant	-11.8183
▁peaceful	-11.8183
▁coward	-11.8183
▁Slug	-11.8184
▁react	-11.8185
▁teenage	-11.8186
▁fruit	-11.8186
▁headmistress	-11.8186
▁interpret	-11.8187
▁superior	-11.8187
▁incident	-11.8187
▁Elixir	-11.8187
▁shaky	-11.8187
Cool	-11.8187
clad	-11.8187
▁Celestina	-11.8187
▁Club	-11.8187
▁Flavor	-11.8187
▁Jones	-11.8187
▁Kwikspell	-11.8187
▁Olympe	-11.8187
▁Sensor	-11.8187
▁Solution	-11.8187
▁Suddenly	-11.8187
▁admiration	-11.8187
▁admiring	-11.8187
▁affronted	-11.8187
▁assortment	-11.8187
▁bullfrog	-11.8187
▁clung	-11.8187
▁contradict	-11.8187
▁crocodile	-11.8187
▁cunning	-11.8187
▁derisive	-11.8187
▁emblazoned	-11.8187
▁flailing	-11.8187
▁forefinger	-11.8187
▁furniture	-11.8187
▁genuine	-11.8187
▁guarantee	-11.8187
▁interjected	-11.8187
▁inviting	-11.8187
▁mirth	-11.8187
▁resolve	-11.8187
▁riot	-11.8187
▁skeletal	-11.8187
▁supply	-11.8187
▁throng	-11.8187
▁tinkling	-11.8187
▁vulture	-11.8187
▁Marcus	-11.8187
▁Sisters	-11.8187
▁renewed	-11.8187
▁resolutely	-11.8187
▁valley	-11.8187
▁dipped	-11.8187
▁genius	-11.8187
▁pinstriped	-11.8187
▁budge	-11.8187
▁disapproval	-11.8187
▁dodging	-11.8187
▁essence	-11.8187
▁awestruck	-11.8187
▁absentmindedly	-11.8187
▁stung	-11.8187
▁apologetically	-11.8187
▁mistletoe	-11.8187
▁stomp	-11.8187
▁Boot	-11.8187
▁pillowcase	-11.8187
▁priority	-11.8187
▁ranks	-11.8187
▁flitted	-11.8187
▁observing	-11.8187
▁obsession	-11.8187
▁wincing	-11.8187
▁jam	-11.8187
Calm	-11.8187
▁phrase	-11.8187
▁turkey	-11.8187
▁Underage	-11.8187
▁battling	-11.8187
▁identity	-11.8187
Absolutely	-11.8187
▁blurted	-11.8188
▁firewhisky	-11.8188
▁million	-11.8188
Protego	-11.8188
▁tripping	-11.8188
▁affection	-11.8188
▁tide	-11.8188
▁additional	-11.8188
▁snooz	-11.8188
▁Turn	-11.8188
▁conductor	-11.8188
▁ignited	-11.8188
▁wheezing	-11.8188
▁whipping	-11.8188
▁unblinkingly	-11.8188
▁staffroom	-11.8188
▁MY	-11.8188
▁comprised	-11.8189
▁subsided	-11.8189
▁truthfully	-11.8189
▁headmistresses	-11.8189
▁encouragingly	-11.819
▁patiently	-11.819
▁jumble	-11.819
▁retired	-11.819
▁flinched	-11.819
▁tragic	-11.819
▁sympathetic	-11.819
▁flaw	-11.819
▁Peakes	-11.819
▁Snuffles	-11.819
▁Prongs	-11.819
▁activity	-11.819
▁behaviour	-11.819
▁league	-11.819
▁burden	-11.819
▁grayish	-11.819
▁screen	-11.819
▁manager	-11.819
▁knobbly	-11.819
▁zero	-11.819
▁THIS	-11.8191
▁gin	-11.8191
▁toadlike	-11.8191
▁exposed	-11.8191
▁healed	-11.8191
▁relish	-11.8192
▁sprouted	-11.8192
▁elderly	-11.8193
▁slashed	-11.8193
▁overcoat	-11.8193
▁stifled	-11.8194
▁lifetime	-11.8194
▁vain	-11.8194
▁drawling	-11.8194
▁diff	-11.8195
▁developed	-11.8195
▁Perkins	-11.8195
▁observed	-11.8195
▁Evans	-11.8195
▁stove	-11.8196
▁triumphantly	-11.8197
▁twinge	-11.8197
▁harshly	-11.8197
▁bellowing	-11.8197
▁swirled	-11.8197
▁strangest	-11.8197
▁meself	-11.8197
▁apron	-11.8199
Nor	-11.8199
▁sherry	-11.82
▁latest	-11.82
▁Dangerous	-11.8201
▁airily	-11.8201
▁smashing	-11.8201
▁witnesses	-11.8202
▁matches	-11.8202
▁splashing	-11.8203
▁squealing	-11.8203
▁hurl	-11.8204
▁puffing	-11.8205
▁tricky	-11.8205
▁wig	-11.8205
▁awed	-11.8206
▁qualified	-11.8206
▁reappearing	-11.8206
▁GO	-11.8206
▁Mother	-11.8206
▁affected	-11.8208
▁Cannons	-11.8209
▁fingernails	-11.8209
▁snogg	-11.8209
▁ma	-11.8209
▁dresser	-11.821
▁created	-11.821
COME	-11.8211
▁solution	-11.8211
▁Third	-11.8211
▁trainers	-11.8214
▁tooth	-11.8215
▁backside	-11.8215
▁moaning	-11.8216
▁delightedly	-11.8216
▁gifted	-11.8216
▁stroked	-11.8217
▁coughed	-11.8217
▁tryin	-11.8217
▁rocky	-11.8218
▁hovered	-11.8218
▁rapt	-11.8219
▁net	-11.8221
▁sickly	-11.8221
▁endless	-11.8222
▁Things	-11.8222
▁hearth	-11.8222
▁pixies	-11.8222
▁streetlamps	-11.8222
▁goodbye	-11.8223
▁tensely	-11.8226
▁laz	-11.8227
▁Big	-11.8228
▁messed	-11.8229
▁flicking	-11.8229
▁glances	-11.823
▁failing	-11.8232
▁tasted	-11.8233
▁sour	-11.8234
▁resisting	-11.8234
▁coughing	-11.8234
▁introduced	-11.8235
▁Told	-11.8235
▁bid	-11.8236
▁sucking	-11.8237
▁assuming	-11.8242
▁concentrated	-11.8243
▁steaming	-11.8247
Eat	-11.8252
▁cleaned	-11.8256
▁mistakes	-11.8257
▁repeatedly	-11.826
▁um	-11.8263
▁testing	-11.8275
▁halted	-11.8277
▁Mandrakes	-11.8279
▁cores	-11.8295
▁Accio	-11.8298
▁arrows	-11.8301
▁grouped	-11.8308
▁snores	-11.8321
▁trusting	-11.8333
▁wobble	-11.8337
▁raining	-11.8342
▁sunli	-11.8349
▁Close	-11.8357
▁bust	-11.8362
gone	-11.8363
▁traitors	-11.8379
▁Which	-11.8384
▁shocking	-11.839
surprisingly	-11.8404
▁regard	-11.8406
▁Fo	-11.847
▁beasts	-11.8477
▁WHO	-11.8485
ward	-11.849
AL	-11.8494
▁u	-11.8499
Hear	-11.8511
ning	-11.8514
▁guide	-11.8543
▁jobs	-11.8552
▁rounding	-11.8569
▁swim	-11.8585
▁taps	-11.8592
▁chickens	-11.8593
otes	-11.8619
sight	-11.8633
`?'	-11.8698
lining	-11.8735
gs	-11.8735
▁pin	-11.8741
ro	-11.8752
ST	-11.8767
ent	-11.877
ying	-11.8781
DON	-11.8783
▁loves	-11.8791
▁lad	-11.887
▁changes	-11.889
used	-11.8897
▁tails	-11.89
posed	-11.8926
▁amounts	-11.8932
▁lick	-11.8946
▁dogs	-11.8973
cross	-11.8974
▁.....	-11.8975
ging	-11.8977
▁yelp	-11.8991
▁contain	-11.8995
try	-11.8997
▁squeal	-11.9
printing	-11.9003
▁curl	-11.9006
dy	-11.901
▁gran	-11.9014
▁disagree	-11.9019
▁rooster	-11.902
▁target	-11.902
▁bullet	-11.902
▁snore	-11.9026
▁reporter	-11.9028
▁imitation	-11.9028
▁depend	-11.9029
▁Snorkack	-11.9033
▁bond	-11.9033
▁courtroom	-11.9033
▁Monster	-11.9036
▁ray	-11.9036
▁cubicle	-11.9038
▁root	-11.9039
▁sphere	-11.9041
▁limb	-11.9042
▁shawl	-11.9043
▁prediction	-11.9043
▁boil	-11.9044
▁breed	-11.9044
over	-11.9047
▁glove	-11.9048
▁parent	-11.9048
▁visitor	-11.9051
▁sting	-11.9051
▁pupil	-11.9054
▁tells	-11.9057
▁lighting	-11.9059
▁nail	-11.9072
▁splash	-11.9093
half	-11.9095
WEASLEY	-11.9114
grown	-11.9115
ound	-11.9116
Bad	-11.9123
▁streets	-11.9124
Open	-11.9127
six	-11.9127
Point	-11.9129
Poor	-11.913
▁waves	-11.9131
Mind	-11.9131
Silence	-11.9131
Unless	-11.9131
wizard	-11.9132
house	-11.9132
Merlin	-11.9133
OUT	-11.9133
Ollivander	-11.9134
Rita	-11.9134
Hedwig	-11.9134
Wormtail	-11.9134
yeh	-11.9134
gray	-11.9135
▁tend	-11.9136
▁thoughtful	-11.9139
known	-11.9139
▁recover	-11.9154
▁await	-11.9158
▁blunder	-11.9158
▁swallow	-11.9159
▁snatch	-11.9159
▁whimper	-11.9159
▁linger	-11.916
▁swirl	-11.916
▁wink	-11.916
▁Try	-11.9161
▁elaborate	-11.9164
▁lean	-11.9164
Looks	-11.9166
▁referee	-11.9168
▁blackmail	-11.9168
▁celebrate	-11.9168
▁cackle	-11.9169
▁strangle	-11.9169
▁slack	-11.9169
▁emerge	-11.9169
▁resume	-11.917
▁file	-11.9171
▁chatter	-11.9171
ech	-11.9171
▁employ	-11.9173
▁zoo	-11.9175
▁spoil	-11.9175
▁bomb	-11.9175
▁contract	-11.9176
▁connect	-11.9176
▁Restrict	-11.9176
▁beckon	-11.9177
▁rejoin	-11.918
▁reckless	-11.9181
▁furtive	-11.9182
▁gracious	-11.9182
▁absurd	-11.9182
▁rub	-11.9183
▁contemptuous	-11.9183
▁strict	-11.9183
▁absolute	-11.9183
▁extreme	-11.9183
kiving	-11.9185
▁gloating	-11.9186
▁wolf	-11.9187
▁mill	-11.9187
▁character	-11.9187
Petrificus	-11.9187
▁Chudley	-11.9187
▁Cottage	-11.9187
▁Future	-11.9187
▁Guide	-11.9187
▁Injuries	-11.9187
▁Parselmouth	-11.9187
▁Poltergeist	-11.9187
▁Remembrall	-11.9187
▁STINKS	-11.9187
▁Susan	-11.9187
▁brilliance	-11.9187
▁computer	-11.9187
▁contempt	-11.9187
▁crude	-11.9187
▁culprit	-11.9187
▁discomfort	-11.9187
▁disembodied	-11.9187
▁expulsion	-11.9187
▁fragile	-11.9187
▁furrowed	-11.9187
▁glazed	-11.9187
▁helmet	-11.9187
▁impatience	-11.9187
▁inspiration	-11.9187
▁keeled	-11.9187
▁moleskin	-11.9187
▁noisily	-11.9187
▁pineapple	-11.9187
▁poltergeist	-11.9187
▁refuge	-11.9187
▁skidding	-11.9187
▁sleet	-11.9187
▁splendid	-11.9187
▁substitute	-11.9187
▁swipe	-11.9187
▁temporary	-11.9187
▁tumult	-11.9187
▁turquoise	-11.9187
▁unkempt	-11.9187
▁vacation	-11.9187
▁violence	-11.9187
Reparo	-11.9187
▁Unforgivable	-11.9187
▁exploding	-11.9187
▁gillyweed	-11.9187
▁mousy	-11.9187
▁spindly	-11.9187
▁torturing	-11.9187
▁trooped	-11.9187
▁Disposal	-11.9187
▁affair	-11.9187
▁crumbling	-11.9187
▁fudge	-11.9187
▁haughty	-11.9187
▁reference	-11.9187
▁route	-11.9187
▁Underground	-11.9187
▁introduction	-11.9187
▁radio	-11.9187
▁WITH	-11.9187
▁encouragement	-11.9187
▁fabulous	-11.9187
▁punctuated	-11.9187
▁skimm	-11.9187
▁verge	-11.9187
▁snoring	-11.9187
▁probation	-11.9187
▁remarkably	-11.9187
▁worries	-11.9187
▁anticipation	-11.9187
▁reputation	-11.9187
▁waistcoat	-11.9187
▁wizened	-11.9187
▁cursing	-11.9187
▁Shop	-11.9187
▁fortnight	-11.9187
▁ornament	-11.9187
▁shrunken	-11.9187
▁rubies	-11.9187
▁unfocused	-11.9187
▁Snackboxes	-11.9187
▁plunging	-11.9187
▁slapped	-11.9187
▁clumsily	-11.9188
▁dingy	-11.9188
▁brew	-11.9188
▁lemon	-11.9188
▁tennis	-11.9188
▁guffaw	-11.9188
................	-11.9188
▁lain	-11.9188
▁thinner	-11.9188
▁travelled	-11.9188
▁remainder	-11.9188
▁peril	-11.9188
▁basement	-11.9188
▁belch	-11.9188
▁tug	-11.9188
Barely	-11.9188
▁Halfway	-11.9188
▁Bole	-11.9188
▁interruption	-11.9188
▁deposited	-11.9188
▁slouched	-11.9188
▁Inferius	-11.9188
▁wheezed	-11.9188
▁executioner	-11.9188
▁kit	-11.9188
▁idly	-11.9188
▁scratches	-11.9188
▁balance	-11.9188
▁staggering	-11.9188
▁engraved	-11.9188
▁intrigued	-11.9188
▁prowling	-11.9188
▁frankly	-11.9188
▁cobble	-11.9189
▁villagers	-11.9189
▁childish	-11.9189
▁fancied	-11.9189
▁revolted	-11.9189
▁eventually	-11.9189
▁flanked	-11.9189
▁dismissed	-11.9189
▁outbreak	-11.9189
▁pants	-11.9189
▁cluster	-11.9189
▁heatedly	-11.9189
▁doorbell	-11.919
▁soothingly	-11.919
▁aggressively	-11.919
▁smuggle	-11.919
▁pang	-11.919
▁Fenrir	-11.9191
▁Hospital	-11.9191
▁Rubeus	-11.9191
▁dignified	-11.9191
▁Mons	-11.9191
▁Dream	-11.9191
ompletely	-11.9191
▁reassuringly	-11.9191
▁shriveled	-11.9191
▁White	-11.9191
▁haunted	-11.9191
▁Moony	-11.9191
▁OFF	-11.9191
▁cowardly	-11.9192
▁untied	-11.9192
▁alarmingly	-11.9193
▁carelessly	-11.9193
▁glued	-11.9194
▁flexing	-11.9194
▁absently	-11.9194
▁splintered	-11.9194
▁coiling	-11.9194
▁startling	-11.9194
▁Dumble	-11.9194
▁lord	-11.9194
▁prey	-11.9194
▁rasping	-11.9194
▁create	-11.9195
Joke	-11.9195
▁twirling	-11.9195
▁snarling	-11.9195
▁inhabitants	-11.9196
▁clanged	-11.9196
▁imitated	-11.9196
▁DUMBLEDORE	-11.9196
▁Nymphadora	-11.9196
▁sufficient	-11.9196
▁luminous	-11.9196
▁fainter	-11.9196
▁Green	-11.9197
▁abuse	-11.9197
▁equally	-11.9197
▁astounded	-11.9197
▁slower	-11.9197
▁Restricted	-11.9198
▁rejoined	-11.9198
▁extended	-11.9198
▁scarred	-11.9199
▁warmer	-11.9199
▁safest	-11.9199
▁passes	-11.9199
▁recovered	-11.92
▁gratefully	-11.92
▁plus	-11.92
ONS	-11.92
▁KILL	-11.9202
▁Whether	-11.9202
▁Cormac	-11.9202
▁spit	-11.9202
▁Pig	-11.9203
▁bruised	-11.9204
bounds	-11.9204
▁extend	-11.9204
▁spraying	-11.9204
▁lingering	-11.9205
▁products	-11.9205
▁items	-11.9206
▁celebrated	-11.9206
▁insulted	-11.9207
▁spray	-11.9208
▁provided	-11.9208
▁cock	-11.9209
▁grimaced	-11.921
▁games	-11.921
▁banisters	-11.9211
▁intention	-11.9212
▁divided	-11.9213
▁sticky	-11.9213
▁brighter	-11.9213
your	-11.9213
▁rumbled	-11.9214
▁barking	-11.9215
▁grand	-11.9216
▁complained	-11.9217
▁Mom	-11.9217
▁brilliantly	-11.9217
▁loaded	-11.9218
▁gravely	-11.9218
▁grasping	-11.9221
▁oncoming	-11.9224
▁workers	-11.9225
▁bla	-11.9225
▁slippers	-11.9226
▁captured	-11.9226
▁bolted	-11.9226
▁appreciated	-11.9226
▁generations	-11.9226
▁Somewhere	-11.9233
▁fixedly	-11.9236
▁ir	-11.9237
▁inspect	-11.9238
▁gulping	-11.9242
▁occupants	-11.9242
▁betray	-11.9242
▁Mind	-11.9249
▁unwilling	-11.925
▁stationed	-11.9251
ul	-11.9252
▁inky	-11.9257
▁ham	-11.9261
▁partly	-11.9263
▁abandoning	-11.9263
▁differently	-11.9264
▁attended	-11.9268
Aha	-11.9273
▁damaged	-11.9277
▁colleagues	-11.9289
▁leprechauns	-11.9289
▁Hold	-11.9291
▁Knuts	-11.9292
▁Anything	-11.9292
▁framed	-11.9297
▁squares	-11.9297
▁poker	-11.9299
our	-11.9309
▁jokes	-11.9314
line	-11.9318
Lovely	-11.9319
▁headless	-11.9323
▁rocking	-11.9331
▁spheres	-11.9336
breeds	-11.9366
cold	-11.9372
ake	-11.9379
▁chunks	-11.9383
▁mentioning	-11.9384
▁dots	-11.9388
▁parts	-11.9389
▁questioned	-11.9397
▁trials	-11.9402
▁apologize	-11.9407
▁Wait	-11.9422
▁alight	-11.9439
▁deserves	-11.9447
use	-11.945
come	-11.9453
▁mattered	-11.9471
▁burnt	-11.9479
▁acid	-11.948
▁Re	-11.9485
▁manners	-11.9494
▁caf	-11.9496
▁pitched	-11.9497
▁images	-11.951
▁pies	-11.9512
▁booked	-11.9512
gy	-11.9518
▁sing	-11.9527
▁careers	-11.9534
▁ho	-11.9613
▁forms	-11.9651
ta	-11.9652
▁outlines	-11.9655
▁examinations	-11.9671
▁Walk	-11.9672
▁chap	-11.9685
ised	-11.9713
▁hedges	-11.972
▁weekends	-11.9737
▁haste	-11.9766
▁visits	-11.9812
▁Je	-11.9817
▁fatal	-11.9825
▁y	-11.9838
▁Al	-11.9848
▁pumpkins	-11.9852
▁sources	-11.9852
▁boats	-11.9867
▁burns	-11.9873
▁packages	-11.9885
▁trot	-11.9899
▁coats	-11.9899
▁su	-11.991
▁visions	-11.9911
▁tick	-11.9919
ory	-11.9924
haven	-11.9935
▁po	-11.9945
▁careless	-11.9962
▁que	-11.9964
▁Bit	-11.9977
lent	-11.9987
▁droppings	-12.0035
▁Nott	-12.0048
Mudblood	-12.0077
▁wad	-12.0081
▁host	-12.0087
▁tramp	-12.0097
J	-12.0098
▁restrain	-12.01
bound	-12.0104
li	-12.013
▁shamrock	-12.0132
▁column	-12.0132
▁wrapper	-12.0132
▁vase	-12.0132
▁noticeboard	-12.0132
▁favorites	-12.0136
▁Hippogriff	-12.0139
▁thestral	-12.014
▁volume	-12.014
▁speck	-12.014
▁floorboard	-12.0143
▁criminal	-12.0144
▁textbook	-12.0144
▁spine	-12.0148
▁niffler	-12.0149
▁hostage	-12.0151
▁Age	-12.0152
▁method	-12.0153
▁Doxy	-12.0154
▁session	-12.0154
▁guest	-12.0156
formed	-12.0158
▁smash	-12.0158
▁eyebrow	-12.0159
▁worm	-12.0159
▁Goblin	-12.016
▁Hallow	-12.0162
▁pattern	-12.0162
▁firework	-12.0162
ied	-12.0168
▁grade	-12.0168
als	-12.0186
armed	-12.0193
▁Er	-12.0199
footed	-12.0209
▁onward	-12.021
▁ski	-12.0219
Glass	-12.0221
▁taunt	-12.0222
Bin	-12.0224
Forget	-12.0227
▁hiccup	-12.0231
▁diet	-12.0237
ries	-12.0238
knitted	-12.0239
STOP	-12.024
Having	-12.0241
washed	-12.0242
Sometimes	-12.0243
Impediment	-12.0243
Four	-12.0243
Off	-12.0243
WHAT	-12.0244
Father	-12.0244
Minerva	-12.0244
Yaxley	-12.0244
Phineas	-12.0245
Dementors	-12.0245
yeah	-12.0245
Crabbe	-12.0245
bright	-12.0245
Dark	-12.0245
magical	-12.0245
Told	-12.0245
fourth	-12.0246
telling	-12.0253
dor	-12.0256
Last	-12.0261
▁enthusiastic	-12.0262
▁crawl	-12.027
▁quiver	-12.0271
▁yawn	-12.0271
▁dart	-12.0271
▁drift	-12.0271
▁rot	-12.0274
▁nurse	-12.0278
▁approve	-12.0278
▁flourish	-12.028
▁divide	-12.0281
▁rattle	-12.0281
▁sur	-12.0281
▁sweep	-12.0282
▁ban	-12.0282
▁restore	-12.0283
▁arrange	-12.0283
▁seal	-12.0285
▁torch	-12.0285
▁disarm	-12.0287
▁delay	-12.0287
▁impress	-12.0287
▁erupt	-12.0287
▁clasp	-12.0287
▁Bulgaria	-12.0291
▁accurate	-12.0293
▁reproachful	-12.0294
▁indifferent	-12.0294
▁malicious	-12.0294
▁current	-12.0294
▁brisk	-12.0294
▁reassuring	-12.0294
ate	-12.0295
▁sale	-12.0296
▁Inter	-12.0296
▁leaf	-12.0297
▁convincing	-12.0297
upport	-12.0297
▁patrol	-12.0297
▁stitch	-12.0297
▁soot	-12.0298
▁takin	-12.0298
▁refer	-12.0298
▁quantit	-12.0298
▁plot	-12.0298
▁favour	-12.0298
▁interfere	-12.0298
▁Levi	-12.0298
▁Romania	-12.0298
▁Sorcery	-12.0298
▁boundaries	-12.0298
▁champagne	-12.0298
▁gruesome	-12.0298
▁mundane	-12.0298
▁tersely	-12.0298
▁unique	-12.0298
Correct	-12.0298
Exceeds	-12.0298
Reckon	-12.0298
▁Basilisk	-12.0298
▁Expectations	-12.0298
▁Filibuster	-12.0298
▁Gobstones	-12.0298
▁Improper	-12.0298
▁Lived	-12.0298
▁Mullet	-12.0298
▁Sinistra	-12.0298
▁apply	-12.0298
▁chalk	-12.0298
▁chortled	-12.0298
▁combination	-12.0298
▁communicating	-12.0298
▁comprehension	-12.0298
▁convenient	-12.0298
▁debris	-12.0298
▁dignity	-12.0298
▁disconcerted	-12.0298
▁displeasure	-12.0298
▁entitled	-12.0298
▁grapefruit	-12.0298
▁impulse	-12.0298
▁index	-12.0298
▁lenses	-12.0298
▁lilac	-12.0298
▁megaphone	-12.0298
▁mismatched	-12.0298
▁naked	-12.0298
▁navel	-12.0298
▁oblivious	-12.0298
▁qualities	-12.0298
▁receiving	-12.0298
▁retching	-12.0298
▁soccer	-12.0298
▁solitary	-12.0298
▁studied	-12.0298
▁surreptitiously	-12.0298
▁traffic	-12.0298
▁trudged	-12.0298
▁unnecessary	-12.0298
▁unnerved	-12.0298
▁ushered	-12.0298
▁vicinity	-12.0298
▁welcoming	-12.0298
▁PATRONU	-12.0298
▁Patrick	-12.0298
▁altogether	-12.0298
▁beauty	-12.0298
▁navy	-12.0298
▁sheaf	-12.0298
▁stumbling	-12.0298
▁profile	-12.0298
▁siphon	-12.0298
▁Maintenance	-12.0298
▁Maladies	-12.0298
▁drills	-12.0298
▁regime	-12.0298
▁DID	-12.0298
▁Disapparating	-12.0298
▁impenetrable	-12.0298
▁bargain	-12.0298
▁chipped	-12.0298
▁clammy	-12.0298
▁twilight	-12.0298
▁flock	-12.0298
▁lolling	-12.0298
▁shack	-12.0298
▁properties	-12.0298
▁referring	-12.0298
▁render	-12.0298
▁corpse	-12.0298
▁knitting	-12.0298
▁rotten	-12.0298
elius	-12.0298
▁nagging	-12.0298
▁nickname	-12.0298
▁opportunities	-12.0298
Full	-12.0299
▁Tears	-12.0299
▁ownership	-12.0299
▁ladies	-12.0299
▁resignation	-12.0299
▁sympathetically	-12.0299
▁smoky	-12.0299
▁imploringly	-12.0299
▁suitcase	-12.0299
▁obediently	-12.0299
▁exhaustion	-12.0299
▁scrabbl	-12.0299
▁thus	-12.0299
lus	-12.0299
▁resistance	-12.0299
▁confession	-12.0299
▁crest	-12.0299
▁blustered	-12.0299
▁sunset	-12.0299
▁concealment	-12.0299
▁applauded	-12.0299
▁Antho	-12.0299
▁glossy	-12.0299
▁Body	-12.0299
▁Barry	-12.0299
▁avidly	-12.0299
▁treatment	-12.0299
▁descent	-12.0299
▁murderous	-12.0299
▁withdrawing	-12.0299
▁stinking	-12.03
▁wriggling	-12.03
▁slime	-12.03
▁deduced	-12.03
▁haircut	-12.03
▁mangled	-12.03
▁stony	-12.03
▁span	-12.03
▁sparkled	-12.03
▁fame	-12.03
▁testily	-12.03
▁receiver	-12.03
Ladi	-12.03
▁nicked	-12.03
▁weighed	-12.03
▁granted	-12.03
▁swiveled	-12.03
Tom	-12.0301
▁predicted	-12.0301
▁disdainful	-12.0301
▁Me	-12.0301
▁malevolently	-12.0301
▁weighing	-12.0301
▁absorbed	-12.0302
▁engulfed	-12.0302
▁scrawled	-12.0302
▁lurked	-12.0302
▁quaver	-12.0302
▁blushed	-12.0302
▁backfired	-12.0302
▁sidled	-12.0302
▁wordlessly	-12.0302
▁salt	-12.0302
▁Panting	-12.0302
▁ABOUT	-12.0302
▁Coote	-12.0302
▁Fortescue	-12.0302
▁Ignotus	-12.0302
▁crazy	-12.0302
▁eldest	-12.0302
▁Unfogging	-12.0302
▁Disillusionment	-12.0302
▁vacant	-12.0303
▁Line	-12.0303
▁BACK	-12.0303
▁background	-12.0303
▁surly	-12.0303
▁hammered	-12.0303
▁recovery	-12.0303
▁leered	-12.0303
▁captain	-12.0303
▁slanting	-12.0303
▁fascinated	-12.0303
▁Disarming	-12.0303
▁wringing	-12.0304
▁stowing	-12.0304
▁steel	-12.0304
▁spiked	-12.0304
▁pulsing	-12.0304
▁detached	-12.0304
▁faltered	-12.0304
▁shrewdly	-12.0304
▁linked	-12.0305
▁gagged	-12.0305
▁reasonable	-12.0305
▁fighters	-12.0305
▁Snow	-12.0305
▁downfall	-12.0306
▁clambering	-12.0306
▁deflected	-12.0306
▁fearfully	-12.0306
▁watchful	-12.0307
▁restlessly	-12.0307
▁sputtered	-12.0307
▁expanded	-12.0307
▁wriggled	-12.0307
▁brush	-12.0307
▁wisely	-12.0308
▁intervals	-12.0308
▁tactics	-12.0308
▁cleverer	-12.0308
▁subdued	-12.0308
▁pursed	-12.0308
▁Belby	-12.0309
▁Muffliato	-12.0309
▁Troy	-12.0309
▁tossed	-12.0309
▁bewitching	-12.0309
▁viciously	-12.0309
▁secondhand	-12.0309
▁clasped	-12.0309
▁justice	-12.031
▁terrifying	-12.031
▁reassured	-12.0311
▁armful	-12.0311
▁wove	-12.0311
▁prickled	-12.0313
▁falsely	-12.0313
fully	-12.0314
▁singed	-12.0314
▁Anti	-12.0314
▁hunger	-12.0315
▁pursued	-12.0315
▁soaked	-12.0315
▁stripped	-12.0315
▁crawling	-12.0316
▁perfumed	-12.0317
▁pine	-12.0317
▁Seer	-12.0318
▁splashed	-12.0319
▁tighter	-12.0319
▁awarded	-12.032
▁downright	-12.032
math	-12.032
▁accompanying	-12.0322
▁Loony	-12.0322
▁Other	-12.0322
▁headquarters	-12.0322
▁attracted	-12.0322
▁blazed	-12.0323
▁ending	-12.0324
sion	-12.0324
▁freckles	-12.0325
▁trickled	-12.0325
▁crunching	-12.0326
▁attracting	-12.0326
▁talented	-12.0328
▁sniffing	-12.0328
▁cured	-12.0329
▁insisting	-12.033
▁innocently	-12.0331
▁warmly	-12.0334
▁Personally	-12.0335
▁nothingness	-12.0336
▁honored	-12.0336
▁needing	-12.0338
size	-12.0338
▁cases	-12.0339
▁smelly	-12.034
▁chink	-12.0341
▁Might	-12.0342
▁guts	-12.0342
▁folds	-12.0342
▁rent	-12.0343
▁Daddy	-12.0343
Fair	-12.0343
▁straighter	-12.0343
Oho	-12.0345
▁Old	-12.0345
▁kicking	-12.0346
▁horned	-12.0347
lend	-12.0348
▁powdered	-12.035
▁sisters	-12.0354
▁raced	-12.0355
▁LI	-12.0356
▁tryouts	-12.036
▁jinxed	-12.0362
▁Unless	-12.0365
▁trie	-12.0367
▁tut	-12.0371
▁rely	-12.0371
▁Watch	-12.0374
▁manor	-12.0377
▁traced	-12.0381
▁joy	-12.0388
▁offense	-12.0389
▁accepting	-12.039
▁danced	-12.0391
▁Ch	-12.0392
▁glassy	-12.0405
▁scrap	-12.0405
▁sayin	-12.0409
▁intruders	-12.0412
▁sockets	-12.0412
sir	-12.0414
▁deck	-12.0415
▁plum	-12.0415
▁feature	-12.0418
▁Red	-12.0423
▁Won	-12.0426
▁circled	-12.0429
▁warming	-12.0435
▁hostages	-12.0448
▁runes	-12.0449
some	-12.045
▁completed	-12.0452
Whose	-12.0454
tip	-12.0455
▁neighbours	-12.0483
arry	-12.0485
.'``	-12.0494
▁defenses	-12.0501
▁wheels	-12.0501
neath	-12.0502
▁crowds	-12.0506
▁copying	-12.0516
▁meals	-12.0523
▁Hang	-12.0536
▁hopes	-12.0541
dishes	-12.0545
▁coach	-12.0555
▁pocketed	-12.0559
nd	-12.0572
▁muscles	-12.0572
Looking	-12.0582
▁purposeful	-12.0591
▁comments	-12.0608
▁parting	-12.0612
▁furs	-12.0619
▁sa	-12.0622
▁hills	-12.0625
▁sets	-12.0637
▁indistinct	-12.0643
▁onion	-12.065
▁tales	-12.0662
▁beams	-12.0663
▁OR	-12.0677
▁Frogs	-12.0716
ired	-12.0718
▁concerns	-12.0735
were	-12.0739
▁freed	-12.0749
▁Bulgarians	-12.0771
▁crates	-12.0775
▁treasures	-12.0809
▁lengths	-12.0825
ized	-12.083
expecto	-12.0842
Cho	-12.0856
▁ours	-12.0858
ments	-12.0873
▁gasps	-12.0883
ECTO	-12.0893
▁Court	-12.0914
Head	-12.0927
▁pro	-12.0937
▁conf	-12.0938
Made	-12.0963
▁restless	-12.0964
▁jackets	-12.0992
ag	-12.0999
▁buildings	-12.1048
▁passageways	-12.1048
▁port	-12.1071
away	-12.1073
ER	-12.1077
St	-12.1085
▁clues	-12.1086
KE	-12.1103
▁elbows	-12.1105
▁sheer	-12.1115
oo	-12.1126
▁ra	-12.1185
flecked	-12.1192
▁classrooms	-12.1206
ir	-12.1212
▁liver	-12.1227
▁bows	-12.1242
▁ca	-12.1245
▁envelopes	-12.1259
tering	-12.1272
▁Ma	-12.1276
▁bead	-12.1277
▁Hand	-12.128
tended	-12.1293
Ar	-12.1296
Show	-12.1341
▁benefit	-12.1368
▁stamp	-12.1369
Since	-12.1372
▁program	-12.1382
▁farewell	-12.1382
ise	-12.1382
ERS	-12.1383
▁driver	-12.1385
▁rob	-12.139
▁balloon	-12.139
▁dwarf	-12.1394
▁̈CAnd	-12.1394
▁location	-12.1394
▁nutter	-12.1394
▁pureblood	-12.1397
▁Warlock	-12.1397
▁opponent	-12.1397
▁NEWT	-12.1399
▁precaution	-12.1399
▁dagger	-12.1399
▁warlock	-12.14
▁omen	-12.1401
▁sausage	-12.1405
▁Carrow	-12.1406
:`	-12.141
▁attacker	-12.1417
▁spark	-12.1417
▁arrow	-12.1422
▁supporter	-12.1422
▁Ear	-12.1425
▁goat	-12.1429
▁essays	-12.143
▁core	-12.1451
then	-12.1454
have	-12.1458
▁rune	-12.1465
▁sole	-12.1467
Easy	-12.1476
Nick	-12.1483
heard	-12.1483
Explain	-12.1484
Six	-12.1487
Hope	-12.1488
open	-12.149
True	-12.1491
ship	-12.1491
Somewhere	-12.1492
Big	-12.1493
jinx	-12.1493
Marvolo	-12.1493
feather	-12.1494
Meanwhile	-12.1494
Little	-12.1494
magic	-12.1494
Grindelwald	-12.1494
Viktor	-12.1494
Aberforth	-12.1495
Lucius	-12.1495
everyone	-12.1495
Vernon	-12.1495
although	-12.1495
called	-12.1497
uff	-12.1501
▁closet	-12.1505
sharp	-12.1506
▁fulfill	-12.1515
▁resign	-12.1516
▁clang	-12.1519
▁maintain	-12.152
▁mount	-12.1521
▁croak	-12.1522
▁congratulate	-12.1525
▁threaten	-12.1526
▁flicker	-12.1527
▁pursue	-12.1528
▁solve	-12.1529
ext	-12.1529
▁puncture	-12.1529
▁gossip	-12.153
▁increase	-12.153
▁describe	-12.153
▁enable	-12.153
▁scribble	-12.153
▁achieve	-12.1531
▁uneven	-12.1532
▁gallop	-12.1533
▁arc	-12.1534
▁resort	-12.1535
▁boast	-12.1535
▁zoom	-12.1536
▁jostl	-12.1537
▁conquer	-12.1537
▁exhaust	-12.1537
▁charg	-12.1538
▁cheat	-12.1539
▁Gran	-12.1541
▁soften	-12.1541
▁bean	-12.1542
▁smug	-12.1542
▁mutinous	-12.1543
▁pompous	-12.1544
▁draft	-12.1544
▁mournful	-12.1544
▁hysterical	-12.1544
▁uncertain	-12.1544
▁glum	-12.1544
▁tuft	-12.1544
▁remote	-12.1544
▁unconcerned	-12.1544
▁earnest	-12.1545
▁tearful	-12.1545
▁conduct	-12.1547
▁wire	-12.1548
▁freeze	-12.1548
▁distinguish	-12.1548
▁faith	-12.1548
▁mornin	-12.1548
▁wax	-12.1548
▁Cresswell	-12.1548
▁SPEW	-12.1548
▁crestfallen	-12.1548
▁earmuffs	-12.1548
▁grotesque	-12.1548
▁indecent	-12.1548
▁mimbletonia	-12.1548
▁premises	-12.1548
▁tremendous	-12.1548
Ignoring	-12.1548
Rubbish	-12.1548
▁French	-12.1548
▁Gornuk	-12.1548
▁HOGWARTS	-12.1548
▁Misuse	-12.1548
▁Phlegm	-12.1548
▁Slinkhard	-12.1548
▁Stinksap	-12.1548
▁allegiance	-12.1548
▁binoculars	-12.1548
▁bookshelves	-12.1548
▁cheap	-12.1548
▁chintz	-12.1548
▁communication	-12.1548
▁cronies	-12.1548
▁dangled	-12.1548
▁darling	-12.1548
▁demonstrating	-12.1548
▁destruction	-12.1548
▁disheveled	-12.1548
▁eccentric	-12.1548
▁exclusive	-12.1548
▁gild	-12.1548
▁heavier	-12.1548
▁humiliation	-12.1548
▁inquiry	-12.1548
▁intact	-12.1548
▁judgment	-12.1548
▁landscape	-12.1548
▁loftily	-12.1548
▁lunatic	-12.1548
▁magenta	-12.1548
▁mattress	-12.1548
▁modified	-12.1548
▁monocle	-12.1548
▁necessarily	-12.1548
▁oaf	-12.1548
▁parlor	-12.1548
▁peacock	-12.1548
▁plaque	-12.1548
▁plummeted	-12.1548
▁preoccupied	-12.1548
▁pretense	-12.1548
▁rectangular	-12.1548
▁relinquish	-12.1548
▁removing	-12.1548
▁replacing	-12.1548
▁scalp	-12.1548
▁scuttling	-12.1548
▁society	-12.1548
▁spectators	-12.1548
▁sphinx	-12.1548
▁splattering	-12.1548
▁tattered	-12.1548
▁threadbare	-12.1548
▁triangular	-12.1548
▁twelfth	-12.1548
▁unbeatable	-12.1548
▁uninjured	-12.1548
▁unnecessarily	-12.1548
▁untouched	-12.1548
▁versus	-12.1548
▁walrus	-12.1548
▁windshield	-12.1548
▁wisdom	-12.1548
▁wretched	-12.1548
Aaah	-12.1548
Stupid	-12.1548
▁Championship	-12.1548
▁Cooperation	-12.1548
▁Despite	-12.1548
▁Sloper	-12.1548
▁announcing	-12.1548
▁averted	-12.1548
▁axe	-12.1548
▁disgrace	-12.1548
▁expensive	-12.1548
▁fingertips	-12.1548
▁fortress	-12.1548
▁patience	-12.1548
▁resemblance	-12.1548
▁treetops	-12.1548
witted	-12.1548
▁gradually	-12.1548
▁imprisonment	-12.1548
▁producing	-12.1548
▁raucous	-12.1548
▁sprung	-12.1548
▁tidy	-12.1548
▁whirring	-12.1548
▁Bott	-12.1548
▁misunderstood	-12.1548
▁unsure	-12.1548
▁coincidence	-12.1548
▁garage	-12.1548
▁strateg	-12.1548
▁cavern	-12.1548
▁Erised	-12.1548
▁emitted	-12.1548
▁fridge	-12.1548
▁unease	-12.1548
▁pitiful	-12.1548
▁torso	-12.1548
▁admirers	-12.1548
▁scuffling	-12.1548
▁settling	-12.1548
▁chessmen	-12.1548
▁frying	-12.1548
▁national	-12.1548
▁March	-12.1548
▁lyin	-12.1549
▁onlookers	-12.1549
▁oozing	-12.1549
▁zis	-12.1549
▁section	-12.1549
▁giantess	-12.1549
▁piggy	-12.1549
▁contrast	-12.1549
▁unlucky	-12.1549
▁hillside	-12.1549
▁unfair	-12.1549
▁rubble	-12.1549
▁Sports	-12.1549
▁headlights	-12.1549
▁windswept	-12.1549
▁conviction	-12.1549
▁Deathstick	-12.1549
▁stale	-12.1549
▁drowsy	-12.1549
▁earsplitting	-12.1549
▁incidentally	-12.1549
▁cradl	-12.1549
▁crease	-12.1549
▁unseen	-12.1549
▁childhood	-12.1549
▁Inner	-12.1549
▁jerkily	-12.1549
▁refrain	-12.1549
▁entertaining	-12.1549
▁wireless	-12.1549
▁intercepted	-12.1549
▁plastered	-12.1549
▁sopping	-12.1549
▁film	-12.1549
▁genially	-12.1549
encrusted	-12.1549
▁chuckling	-12.1549
▁morale	-12.1549
▁weakened	-12.1549
▁classmates	-12.1549
▁tonic	-12.1549
▁impassive	-12.155
▁bloodstained	-12.155
▁survivor	-12.155
▁inventing	-12.155
▁goggled	-12.155
▁triple	-12.155
▁poised	-12.155
▁tipping	-12.155
uck	-12.155
▁continually	-12.155
▁miraculously	-12.155
▁stationary	-12.155
eyond	-12.155
▁lull	-12.155
▁redder	-12.155
▁scabbed	-12.1551
eval	-12.1551
▁fistful	-12.1551
▁distorted	-12.1551
▁prompted	-12.1551
▁crave	-12.1551
▁harmless	-12.1551
▁moodily	-12.1551
▁Way	-12.1551
▁booklist	-12.1551
▁looming	-12.1552
▁soar	-12.1552
▁glimmered	-12.1552
▁rebounded	-12.1552
▁soundlessly	-12.1552
▁successfully	-12.1552
▁Golgomath	-12.1553
▁Ripper	-12.1553
▁clipping	-12.1553
▁Perce	-12.1553
▁betting	-12.1553
▁proving	-12.1553
▁tingling	-12.1553
▁fireside	-12.1553
▁sailed	-12.1553
▁steely	-12.1553
▁composed	-12.1553
▁recited	-12.1554
▁reproachfully	-12.1554
▁constricted	-12.1554
▁distressed	-12.1554
▁ruby	-12.1554
Turner	-12.1554
▁tallest	-12.1554
▁strictly	-12.1554
▁glimmering	-12.1554
▁folding	-12.1554
▁Test	-12.1555
▁wispy	-12.1555
▁crashes	-12.1555
▁sustained	-12.1555
▁hitched	-12.1555
▁headfirst	-12.1555
▁drawled	-12.1555
▁winter	-12.1556
▁sh	-12.1556
▁actual	-12.1556
▁suitable	-12.1557
▁dodgy	-12.1557
▁delicately	-12.1557
▁helplessly	-12.1557
▁fried	-12.1557
▁scarce	-12.1557
Read	-12.1558
▁bandaged	-12.1558
▁somber	-12.1558
▁selected	-12.1558
▁resentfully	-12.1558
▁tartly	-12.1558
▁teaches	-12.1559
▁smacking	-12.1559
▁polishing	-12.1559
▁weaving	-12.1559
▁representatives	-12.1559
▁poles	-12.156
▁maintained	-12.156
▁fishy	-12.156
▁Amelia	-12.156
▁England	-12.156
▁Exploding	-12.156
▁MINISTRY	-12.156
▁Penelope	-12.156
▁nephew	-12.156
▁Much	-12.156
▁average	-12.156
▁creepy	-12.156
▁rearranged	-12.1561
▁hoisting	-12.1561
▁hesitant	-12.1561
▁overnight	-12.1562
▁braced	-12.1562
▁concluded	-12.1562
▁contracted	-12.1563
▁stormy	-12.1563
▁demanding	-12.1564
▁comb	-12.1564
▁wilder	-12.1564
▁hopeless	-12.1565
▁maintaining	-12.1566
▁feathery	-12.1566
▁expressionless	-12.1566
▁confessed	-12.1567
▁escorted	-12.1567
▁flap	-12.1567
▁punctured	-12.1567
▁Outside	-12.1568
▁mysteriously	-12.1568
▁limited	-12.1568
▁domed	-12.1569
▁distinctive	-12.1569
▁NOW	-12.1569
▁detected	-12.1569
▁velvety	-12.157
▁soaking	-12.157
▁sealing	-12.157
▁blundering	-12.1571
▁stinging	-12.1571
▁recalled	-12.1571
▁begging	-12.1572
▁buck	-12.1573
▁Down	-12.1573
▁detailed	-12.1573
▁ashes	-12.1574
▁growling	-12.1574
▁restored	-12.1574
▁hearts	-12.1575
▁rustled	-12.1575
▁fairy	-12.1575
▁shell	-12.1576
▁Getting	-12.1576
▁strengthen	-12.1578
▁hinges	-12.1579
▁seething	-12.1579
▁bumping	-12.158
▁eighty	-12.1582
▁Except	-12.1582
▁consulting	-12.1582
▁curtained	-12.1582
▁risky	-12.1582
▁Grawpy	-12.1584
▁gaining	-12.1584
▁streamed	-12.1585
▁ver	-12.1586
▁informing	-12.1587
incomprehensible	-12.1587
▁Fly	-12.1588
▁existed	-12.1588
▁endured	-12.1589
▁GET	-12.159
▁OUCH	-12.159
▁talkin	-12.1591
▁Turning	-12.1592
▁thicker	-12.1592
▁transferr	-12.1593
▁screeching	-12.1594
▁propelle	-12.1597
▁Obviously	-12.1598
▁obstacles	-12.1599
▁denying	-12.1599
▁writes	-12.1606
▁possessing	-12.1606
▁True	-12.1606
▁belonging	-12.1606
Tonight	-12.1608
▁proven	-12.1608
▁retrieved	-12.1611
▁secretly	-12.1614
▁Having	-12.1614
▁Py	-12.1615
▁remarks	-12.1618
▁dustbins	-12.1618
▁shirt	-12.163
Oo	-12.1637
▁disliked	-12.1637
▁Naturally	-12.1638
taking	-12.1638
▁blasting	-12.1638
▁sprouts	-12.1639
▁Whatever	-12.1641
▁spared	-12.1643
▁towered	-12.1644
▁impostor	-12.1647
▁Always	-12.1652
▁swearing	-12.1655
Forgive	-12.1657
▁Back	-12.1661
▁enormously	-12.1662
▁murdering	-12.1666
▁Quite	-12.1668
▁Stay	-12.1668
▁Anyone	-12.1668
▁stillness	-12.1668
▁Want	-12.1669
▁Put	-12.1675
▁gash	-12.1676
ridden	-12.1677
▁toffees	-12.1679
▁slowing	-12.1683
▁beans	-12.1695
▁warlocks	-12.1699
▁convers	-12.17
▁May	-12.1704
▁Mars	-12.1714
▁Doxys	-12.1719
▁layer	-12.1719
▁presented	-12.173
▁panel	-12.1739
son	-12.1748
tinies	-12.1758
▁standards	-12.176
ssing	-12.177
Lies	-12.1778
▁masks	-12.178
▁starts	-12.178
▁fits	-12.1792
▁warnings	-12.1827
Muggles	-12.1828
▁Named	-12.1861
▁creams	-12.1861
▁perus	-12.1875
▁jabbe	-12.1876
▁airy	-12.1877
▁crimes	-12.1882
▁incantations	-12.1882
▁insults	-12.1883
lo	-12.189
▁Ly	-12.1891
▁medi	-12.1895
▁fleck	-12.1919
▁emotions	-12.1929
▁tackle	-12.1932
ames	-12.195
▁nightmares	-12.1965
▁Mar	-12.197
serted	-12.1971
▁openly	-12.1981
▁hail	-12.1984
▁Shell	-12.2003
▁puddings	-12.2006
shouldered	-12.2014
▁element	-12.2018
▁Okay	-12.2018
▁schedules	-12.2026
▁lumps	-12.2026
▁Healers	-12.2027
oi	-12.2039
securely	-12.2042
any	-12.2045
▁pipes	-12.2049
▁bind	-12.2066
AN	-12.2081
▁ties	-12.209
Re	-12.2096
ft	-12.2106
▁aims	-12.211
▁beetles	-12.2111
air	-12.2132
▁clubs	-12.2134
▁chooses	-12.2153
serving	-12.2162
sel	-12.2188
fetched	-12.219
▁shrieks	-12.2197
▁heave	-12.2209
▁offensive	-12.221
▁batt	-12.2217
▁moves	-12.2219
▁handy	-12.2221
▁k	-12.2235
▁hints	-12.2237
▁Portkeys	-12.2238
▁bein	-12.2243
▁notices	-12.2248
▁sacks	-12.2258
▁records	-12.2259
▁gargoyles	-12.2259
ee	-12.2278
▁horns	-12.2301
▁wrists	-12.2302
▁dre	-12.2316
▁odds	-12.2316
TH	-12.2336
▁doubts	-12.2344
▁idiots	-12.235
▁mar	-12.236
▁vote	-12.2364
`,'	-12.2368
▁Du	-12.238
▁weapons	-12.2388
▁gaps	-12.2388
▁calls	-12.2394
men	-12.2418
▁winds	-12.2419
glasses	-12.2422
opped	-12.2429
▁mates	-12.2439
▁toads	-12.2471
▁cabinets	-12.2475
▁reports	-12.25
▁caves	-12.2537
more	-12.2577
▁select	-12.2581
▁st	-12.2584
set	-12.2594
▁wears	-12.2595
▁hippogriffs	-12.2628
▁strap	-12.2637
rasped	-12.2644
▁toilets	-12.265
eneath	-12.2676
▁unravel	-12.2684
▁alike	-12.2688
coming	-12.269
owed	-12.2691
▁views	-12.2699
▁chant	-12.271
▁commit	-12.2722
TING	-12.2735
▁vaults	-12.2741
maker	-12.2742
▁Yours	-12.2754
aring	-12.2791
▁bruise	-12.2791
Wand	-12.2796
▁label	-12.2799
▁ache	-12.2801
▁instinct	-12.281
▁diamond	-12.281
▁individual	-12.281
▁moonstone	-12.2811
Ow	-12.2813
▁examiner	-12.2815
▁ribbon	-12.2815
▁Rain	-12.2816
▁reminder	-12.2816
▁wrapping	-12.2818
▁flagon	-12.2819
ize	-12.2819
▁objection	-12.2822
▁achievement	-12.2823
▁eyeball	-12.2823
▁bracket	-12.2824
▁risks	-12.2824
▁content	-12.2825
▁Smelting	-12.2825
▁relative	-12.2828
▁toffee	-12.2829
▁tradition	-12.2829
▁art	-12.283
▁socket	-12.283
▁Knut	-12.2831
▁leprechaun	-12.2831
▁photo	-12.2833
▁intruder	-12.2835
▁colleague	-12.2836
▁coin	-12.2839
▁prisoner	-12.284
lready	-12.2841
▁Mandrake	-12.2845
▁needle	-12.2851
▁Prefect	-12.2859
ged	-12.2859
▁ro	-12.2863
▁nu	-12.2868
▁UN	-12.2872
▁dizzy	-12.2874
▁tar	-12.288
hold	-12.2885
Hu	-12.2892
fire	-12.2893
water	-12.2897
Aguamenti	-12.2905
Mine	-12.2906
osa	-12.2911
Perfect	-12.2912
Night	-12.2916
Move	-12.2917
Careful	-12.2917
secretary	-12.2917
▁shred	-12.2918
Coming	-12.2918
Kind	-12.2918
HERMIONE	-12.2918
New	-12.2919
Dead	-12.292
Obviously	-12.292
Daddy	-12.2921
Somebody	-12.2921
capable	-12.2922
ighty	-12.2922
skirt	-12.2922
Aunt	-12.2923
Remus	-12.2923
brown	-12.2923
Defense	-12.2923
Many	-12.2923
Kingsley	-12.2923
Charlie	-12.2923
Finally	-12.2923
maybe	-12.2923
Scabbers	-12.2923
Diggory	-12.2923
perhaps	-12.2923
Filch	-12.2923
people	-12.2923
iron	-12.2923
▁swap	-12.2924
nothing	-12.2924
match	-12.2926
WE	-12.2928
ating	-12.293
▁Second	-12.2935
Best	-12.2936
▁alm	-12.294
RUN	-12.294
rk	-12.2943
▁shatter	-12.2948
▁float	-12.295
▁demand	-12.295
▁flatten	-12.295
▁litter	-12.2951
nine	-12.2955
▁hoot	-12.2955
▁squawk	-12.2955
▁campaign	-12.2955
▁vibrate	-12.2956
▁New	-12.2957
▁embrace	-12.2957
▁perfume	-12.2958
▁prickle	-12.2958
▁blossom	-12.2958
▁swerve	-12.2958
▁glide	-12.2959
▁fade	-12.2959
▁offend	-12.296
▁obscure	-12.296
▁chuckle	-12.296
▁glisten	-12.296
Loads	-12.2962
▁attach	-12.2963
▁melt	-12.2965
▁troubl	-12.2966
▁depart	-12.2966
▁straighten	-12.2966
Gro	-12.2967
zzing	-12.2968
▁cling	-12.2968
▁fiddl	-12.2968
▁blot	-12.2968
▁moor	-12.297
▁expand	-12.297
▁Point	-12.2971
etti	-12.2971
Step	-12.2971
▁scruff	-12.2972
▁disbelieving	-12.2972
▁relentless	-12.2972
▁beef	-12.2972
▁defiant	-12.2973
▁feverish	-12.2973
Clear	-12.2973
▁successful	-12.2973
▁Snar	-12.2975
rdinary	-12.2975
▁spurt	-12.2975
Might	-12.2976
▁sandwich	-12.2976
▁etc	-12.2976
▁Hermi	-12.2976
hapter	-12.2976
ulent	-12.2977
▁labor	-12.2977
ABLE	-12.2977
Acceptable	-12.2977
Alohomora	-12.2977
DUDLEY	-12.2977
Mount	-12.2977
eagled	-12.2977
▁Animagi	-12.2977
▁Arnold	-12.2977
▁Burbage	-12.2977
▁Decoy	-12.2977
▁Derrick	-12.2977
▁Friar	-12.2977
▁Goldstein	-12.2977
▁Junior	-12.2977
▁Mirror	-12.2977
▁Mulciber	-12.2977
▁Murtlap	-12.2977
▁November	-12.2977
▁Percival	-12.2977
▁Selwyn	-12.2977
▁Spellotape	-12.2977
▁Vampires	-12.2977
▁Vector	-12.2977
▁Wisteria	-12.2977
▁abashed	-12.2977
▁ambitious	-12.2977
▁apologies	-12.2977
▁banshee	-12.2977
▁berserk	-12.2977
▁breast	-12.2977
▁communicate	-12.2977
▁criticism	-12.2977
▁custard	-12.2977
▁cutlery	-12.2977
▁description	-12.2977
▁diagram	-12.2977
▁disastrous	-12.2977
▁draught	-12.2977
▁eardrums	-12.2977
▁escalator	-12.2977
▁forcibly	-12.2977
▁fraud	-12.2977
▁goose	-12.2977
▁graffiti	-12.2977
▁grizzled	-12.2977
▁grumbling	-12.2977
▁halves	-12.2977
▁happiest	-12.2977
▁harassed	-12.2977
▁hearthrug	-12.2977
▁hesitation	-12.2977
▁horde	-12.2977
▁hungrily	-12.2977
▁inexplicable	-12.2977
▁inflict	-12.2977
▁intensified	-12.2977
▁interfering	-12.2977
▁irritating	-12.2977
▁jowls	-12.2977
▁leisure	-12.2977
▁marmalade	-12.2977
▁niche	-12.2977
▁nightdress	-12.2977
▁nonplussed	-12.2977
▁occupy	-12.2977
▁opaque	-12.2977
▁outburst	-12.2977
▁physical	-12.2977
▁placidly	-12.2977
▁plastic	-12.2977
▁precariously	-12.2977
▁prudent	-12.2977
▁salamander	-12.2977
▁sarcasm	-12.2977
▁sliver	-12.2977
▁stifling	-12.2977
▁stress	-12.2977
▁trifle	-12.2977
▁turrets	-12.2977
▁twiddling	-12.2977
▁ungrateful	-12.2977
▁unmistakably	-12.2977
▁unmistakeable	-12.2977
▁unnerving	-12.2977
▁unscathed	-12.2977
▁vapour	-12.2977
▁wrath	-12.2977
▁Large	-12.2977
▁League	-12.2977
▁Prophecy	-12.2977
▁Puk	-12.2977
▁apprehension	-12.2977
▁exchanging	-12.2977
▁immobile	-12.2977
▁passenger	-12.2977
▁pencil	-12.2977
▁sullen	-12.2977
▁teeter	-12.2977
▁trespass	-12.2977
▁Florean	-12.2977
▁combined	-12.2977
▁dank	-12.2977
▁imperiously	-12.2977
▁intelligence	-12.2977
▁pretence	-12.2977
▁raven	-12.2977
▁ruefully	-12.2977
▁scrawny	-12.2977
▁semidarkness	-12.2977
▁tweed	-12.2977
▁denied	-12.2977
▁interference	-12.2977
▁reddish	-12.2977
▁Unbreakable	-12.2977
▁bickering	-12.2977
▁competing	-12.2977
▁conscience	-12.2977
▁throbbed	-12.2977
▁trash	-12.2977
Plenty	-12.2977
▁embarrassment	-12.2977
▁government	-12.2977
▁slyly	-12.2977
▁Castle	-12.2977
▁impersonating	-12.2977
▁instructed	-12.2977
▁revulsion	-12.2977
▁spindle	-12.2977
▁wastepaper	-12.2977
▁flurry	-12.2977
▁intensity	-12.2977
▁tombstone	-12.2977
▁waitress	-12.2977
▁dislodged	-12.2977
▁unbelievable	-12.2977
▁east	-12.2977
▁gun	-12.2977
▁property	-12.2977
▁railings	-12.2977
▁lament	-12.2977
▁snail	-12.2977
▁skipped	-12.2977
▁spattergroit	-12.2977
▁announcement	-12.2977
▁cavernous	-12.2977
▁ounce	-12.2977
▁border	-12.2977
▁immortality	-12.2977
▁hump	-12.2977
▁daybreak	-12.2977
▁advertisement	-12.2977
▁bubotuber	-12.2977
▁chestnut	-12.2977
▁brusquely	-12.2977
▁seventy	-12.2977
▁unceremoniously	-12.2977
▁disciplinar	-12.2977
▁scornfully	-12.2977
▁selection	-12.2977
▁tawny	-12.2977
▁entry	-12.2977
▁thunderous	-12.2977
▁Sitting	-12.2977
minent	-12.2978
▁mayhem	-12.2978
Check	-12.2978
Boys	-12.2978
▁thorough	-12.2978
▁mistaking	-12.2978
▁Hover	-12.2978
▁Vance	-12.2978
▁Switch	-12.2978
▁oven	-12.2978
▁procession	-12.2978
▁attraction	-12.2978
▁devastated	-12.2978
▁mossy	-12.2978
▁tilted	-12.2978
▁canceled	-12.2978
▁maimed	-12.2978
Uh	-12.2978
▁flopped	-12.2978
▁consumed	-12.2978
▁frequent	-12.2978
▁hopelessness	-12.2978
▁warily	-12.2978
▁vanquish	-12.2978
▁initial	-12.2978
▁duelling	-12.2978
▁silkily	-12.2978
▁regretted	-12.2978
▁stalking	-12.2978
▁stem	-12.2978
▁publicity	-12.2979
▁vacated	-12.2979
▁panicking	-12.2979
▁reprovingly	-12.2979
▁patrolling	-12.2979
▁respectable	-12.2979
▁possessor	-12.2979
▁bitterness	-12.2979
▁sadness	-12.2979
▁desktop	-12.2979
▁reside	-12.2979
▁doubtfully	-12.2979
▁Ske	-12.2979
▁bay	-12.2979
▁nightfall	-12.2979
▁deathday	-12.2979
▁baggy	-12.2979
▁screeches	-12.2979
▁admitting	-12.2979
▁cannon	-12.298
▁evaporated	-12.298
▁exclaimed	-12.298
▁greedy	-12.298
▁tame	-12.298
▁Hunt	-12.298
▁sideboard	-12.2981
▁reddening	-12.2981
▁permanently	-12.2981
▁bunches	-12.2981
factly	-12.2981
▁persuading	-12.2981
▁revolting	-12.2981
Running	-12.2981
▁chimed	-12.2981
▁banished	-12.2981
▁batlike	-12.2981
▁predicting	-12.2981
▁dazzled	-12.2981
▁encouraged	-12.2981
▁international	-12.2981
▁praying	-12.2982
▁braver	-12.2982
▁speechless	-12.2982
▁shapeless	-12.2982
▁Weatherby	-12.2982
▁congratulations	-12.2982
▁fiasco	-12.2982
▁Chief	-12.2982
▁bloom	-12.2982
▁Dudders	-12.2982
▁bubbling	-12.2982
▁January	-12.2982
▁Wheezy	-12.2982
▁appropriate	-12.2982
▁nonverbal	-12.2982
▁abnormal	-12.2982
▁WANT	-12.2982
▁Rose	-12.2982
▁Reasonable	-12.2982
▁mournfully	-12.2982
▁hysterically	-12.2982
nog	-12.2982
▁Brit	-12.2983
▁reappearance	-12.2983
Dreadful	-12.2983
▁thwarted	-12.2983
▁drooped	-12.2983
▁coiled	-12.2983
▁Cheering	-12.2984
▁contemptuously	-12.2984
▁nightshirt	-12.2984
▁paralyzed	-12.2984
▁shifty	-12.2984
▁plainer	-12.2984
▁listeners	-12.2985
▁behaving	-12.2985
▁captioned	-12.2985
▁recounted	-12.2985
▁frayed	-12.2985
▁stupidity	-12.2986
▁bandy	-12.2986
▁flinging	-12.2986
▁reflecting	-12.2986
▁jogged	-12.2986
▁scooping	-12.2987
Water	-12.2988
▁refill	-12.2988
▁businesslike	-12.2989
▁las	-12.2989
▁sprouting	-12.2989
▁pimples	-12.299
▁associated	-12.299
▁jeers	-12.299
▁yield	-12.299
▁ceased	-12.299
▁Twelve	-12.299
▁Otherwise	-12.299
▁apology	-12.299
▁Kiss	-12.2991
▁delivery	-12.2991
▁involving	-12.2991
▁discovery	-12.2991
▁reliable	-12.2991
▁photographer	-12.2991
▁loudest	-12.2991
▁becomes	-12.2991
▁Teddy	-12.2992
▁delayed	-12.2992
▁ponder	-12.2992
▁disturbing	-12.2992
▁reopen	-12.2992
▁aura	-12.2993
▁rippled	-12.2993
▁girlish	-12.2994
▁impressively	-12.2994
▁Willy	-12.2994
▁flattening	-12.2995
▁roused	-12.2995
▁Face	-12.2995
▁interests	-12.2995
▁interrogated	-12.2995
▁thrilled	-12.2995
▁limply	-12.2995
HOW	-12.2996
▁oily	-12.2997
▁transported	-12.2997
▁Nine	-12.2997
▁admired	-12.2998
really	-12.2998
▁ticking	-12.2999
▁parked	-12.2999
▁totally	-12.2999
▁Evidently	-12.2999
amous	-12.2999
▁Hardly	-12.2999
▁Potty	-12.2999
▁restraining	-12.3
▁spattered	-12.3
▁SCORE	-12.3
▁leathery	-12.3
▁strayed	-12.3002
▁resulted	-12.3002
▁recovering	-12.3003
▁yelping	-12.3003
▁clothing	-12.3006
▁encountered	-12.3006
▁scent	-12.3006
▁overturned	-12.3007
▁GRYFFINDOR	-12.3008
▁vomiting	-12.3008
▁extracting	-12.3008
▁market	-12.3009
▁curt	-12.301
▁brambles	-12.3012
▁ramparts	-12.3012
▁schemes	-12.3012
▁teenagers	-12.3012
▁customers	-12.3012
▁revolved	-12.3013
▁whiskers	-12.3014
fulness	-12.3016
▁unconvincing	-12.3016
▁dreaded	-12.3016
▁Talk	-12.3017
▁operation	-12.3017
▁Light	-12.3017
▁gum	-12.3017
▁quieter	-12.3018
▁clash	-12.3018
uous	-12.3022
▁insulting	-12.3022
▁resisted	-12.3023
▁Ro	-12.3024
▁Find	-12.3026
▁handling	-12.3028
▁toothless	-12.3029
▁jumper	-12.303
▁peck	-12.3031
Sound	-12.3035
▁Dead	-12.3036
▁penetrated	-12.3038
▁interviewed	-12.304
▁earthy	-12.3043
see	-12.3044
ening	-12.3044
▁storming	-12.3046
▁Knowing	-12.3053
▁pry	-12.3055
▁Off	-12.3055
▁tricked	-12.3055
▁keepin	-12.3057
▁bade	-12.3058
▁memos	-12.3059
▁Th	-12.3059
▁Poor	-12.3062
▁hugely	-12.3068
▁chops	-12.3068
▁nicely	-12.3069
▁fainted	-12.307
▁vaulted	-12.3077
▁En	-12.308
▁poisoning	-12.3083
Meaning	-12.3085
▁pil	-12.3095
▁wo	-12.3096
▁shovel	-12.31
▁accusations	-12.3105
▁cuffs	-12.3105
▁weary	-12.3109
▁ached	-12.3111
▁La	-12.3116
Whoever	-12.3118
▁blamed	-12.3128
▁spiraling	-12.3131
cid	-12.3138
HU	-12.3141
▁pret	-12.3144
rent	-12.3147
▁omens	-12.3152
▁NEWTs	-12.3152
▁daggers	-12.3152
▁precautions	-12.3152
BY	-12.3153
UST	-12.3153
▁BL	-12.3162
ages	-12.3165
▁whistled	-12.3166
▁scary	-12.3167
▁worms	-12.3175
▁onwards	-12.3176
▁nifflers	-12.3176
▁Wands	-12.3182
Says	-12.3183
der	-12.3191
▁cracks	-12.3194
▁hack	-12.3195
▁cubicles	-12.3199
▁curls	-12.32
▁traditional	-12.3212
cal	-12.3221
▁disappearances	-12.3223
▁puffs	-12.3224
cha	-12.3227
AKE	-12.3231
▁bounding	-12.3246
▁trampl	-12.3248
top	-12.3266
▁practiced	-12.3268
▁pasty	-12.3269
Wing	-12.327
▁companions	-12.3294
ished	-12.3308
▁matched	-12.3312
ph	-12.3313
ge	-12.3339
▁Charming	-12.3341
▁teacups	-12.3343
▁dock	-12.3353
ified	-12.3363
▁talks	-12.3365
▁Wi	-12.3368
▁quot	-12.3373
▁hum	-12.3385
▁smells	-12.3388
▁telescopes	-12.3415
▁Really	-12.344
▁Stand	-12.3441
▁pets	-12.3441
ke	-12.3448
▁relive	-12.3454
Pity	-12.3462
kin	-12.3492
lets	-12.3498
▁skills	-12.3498
ously	-12.3503
▁hourglass	-12.351
▁Squibs	-12.3518
▁defin	-12.3518
ently	-12.3531
▁reminds	-12.3538
▁event	-12.3539
▁ga	-12.3553
ak	-12.3566
▁Pro	-12.3572
itch	-12.3586
Am	-12.3592
▁frogs	-12.3593
aking	-12.3601
UM	-12.3603
▁wart	-12.3607
▁laughs	-12.3608
lly	-12.3618
▁hurts	-12.3619
▁Brut	-12.3626
▁signing	-12.3631
agging	-12.3637
▁le	-12.3661
▁lecture	-12.3669
gling	-12.3695
ral	-12.3698
ab	-12.3701
▁reserve	-12.372
pot	-12.3723
▁nineteen	-12.3727
▁declare	-12.3733
▁Sorry	-12.3733
til	-12.3753
▁nights	-12.3754
▁Bu	-12.3757
De	-12.376
▁tempt	-12.377
Bless	-12.3774
▁smiles	-12.3796
ckle	-12.3799
▁Boys	-12.38
bled	-12.3802
▁arguments	-12.381
▁gardens	-12.3821
▁servants	-12.3835
Um	-12.3839
▁quarters	-12.3854
▁paint	-12.3857
hosen	-12.3864
ti	-12.3865
▁uns	-12.3884
eemed	-12.3891
▁cages	-12.3893
▁passwords	-12.3911
▁fools	-12.3912
▁ledge	-12.3929
▁rightful	-12.3947
▁forgetful	-12.3958
▁cousins	-12.3988
▁mus	-12.4002
▁arch	-12.4005
▁expert	-12.4028
gal	-12.405
▁Cauldrons	-12.4091
▁Seem	-12.4101
RDER	-12.4112
ES	-12.4126
dboard	-12.4151
keeping	-12.4151
▁partial	-12.4181
SH	-12.4183
bout	-12.4184
wn	-12.4191
een	-12.4193
▁flavor	-12.42
▁impose	-12.4205
▁moons	-12.422
tted	-12.4235
name	-12.4258
makers	-12.429
night	-12.4298
tarnished	-12.4303
head	-12.4307
izing	-12.432
▁gri	-12.4326
▁Bl	-12.4337
ct	-12.4346
IN	-12.4351
sk	-12.4361
Kept	-12.4404
lbert	-12.4405
human	-12.4406
▁Gaunts	-12.4406
give	-12.4406
mber	-12.4408
▁ne	-12.4411
Righ	-12.4421
ecked	-12.4428
ice	-12.4429
▁plea	-12.4436
▁blister	-12.444
▁intend	-12.445
▁sticks	-12.4459
▁elephant	-12.4459
▁vapor	-12.4459
▁competition	-12.4459
▁portion	-12.446
▁trance	-12.446
▁snowball	-12.4461
scope	-12.4464
fronted	-12.4466
▁ripple	-12.447
▁patient	-12.4473
▁cuff	-12.4473
standing	-12.4476
▁pursuit	-12.4477
▁Cream	-12.4477
▁countercurse	-12.4477
▁chip	-12.4483
▁bulb	-12.4483
▁pamphlet	-12.4485
▁shortcut	-12.4486
▁Puff	-12.4486
▁helpings	-12.4489
▁transformation	-12.449
▁option	-12.4492
▁accusation	-12.4494
▁timetable	-12.4498
▁gagg	-12.4498
▁Skrewt	-12.4499
▁sto	-12.4501
▁Broomstick	-12.4503
▁instruction	-12.4504
▁topic	-12.4506
▁tape	-12.4508
thin	-12.4509
▁fore	-12.452
SE	-12.4522
▁gl	-12.4523
▁sometime	-12.4524
▁boa	-12.4532
▁procure	-12.4534
▁em	-12.4542
mort	-12.4551
ACK	-12.4552
after	-12.456
▁fee	-12.4566
▁levels	-12.4566
Wo	-12.4568
large	-12.4571
Password	-12.4572
Enter	-12.4572
▁Diddy	-12.4573
bag	-12.4574
pick	-12.4576
law	-12.4577
know	-12.4578
brush	-12.4582
Imperio	-12.4582
Run	-12.4583
▁bough	-12.4583
conscious	-12.4583
Fifty	-12.4584
SIRIUS	-12.4584
Cissy	-12.4584
Glad	-12.4585
loving	-12.4585
skinned	-12.4585
Find	-12.4586
Prefect	-12.4586
OUCH	-12.4587
GET	-12.4587
Personally	-12.4587
first	-12.4587
Students	-12.4588
WHO	-12.4588
▁Ever	-12.4588
Sturgis	-12.4588
Macnair	-12.4589
hanging	-12.4589
Again	-12.4589
Today	-12.4589
Gregorovitch	-12.459
Rosmerta	-12.459
security	-12.459
Cornelius	-12.459
Next	-12.459
Longbottom	-12.459
Myrtle	-12.459
Parvati	-12.459
Crookshanks	-12.459
Minister	-12.459
Potions	-12.459
morning	-12.459
hidden	-12.459
Uncle	-12.459
Wood	-12.459
▁states	-12.4591
friendly	-12.4592
breaking	-12.4592
fact	-12.4592
Doge	-12.4592
iv	-12.4596
▁Level	-12.4597
▁jog	-12.4599
▁drum	-12.4601
Their	-12.4602
Bind	-12.461
▁represent	-12.4613
▁squirm	-12.4614
▁disturb	-12.4615
▁hoist	-12.4615
▁retreat	-12.4616
▁descend	-12.4616
didn	-12.4616
▁swoop	-12.4616
▁glitter	-12.4616
▁bellow	-12.4617
▁pour	-12.4617
Ignore	-12.4618
▁Sea	-12.4623
▁tinkle	-12.4623
▁crumble	-12.4623
▁creat	-12.4624
▁admire	-12.4624
▁brace	-12.4625
▁conclude	-12.4625
▁reassure	-12.4625
▁confiscate	-12.4625
▁identify	-12.4625
▁announce	-12.4625
▁scramble	-12.4626
▁hesitate	-12.4626
▁illuminate	-12.4626
▁BO	-12.4626
▁swell	-12.4627
ational	-12.4629
▁Sc	-12.463
▁breach	-12.4632
▁neglect	-12.4632
▁strand	-12.4632
▁slaughter	-12.4632
▁haul	-12.4632
▁convict	-12.4632
▁deflect	-12.4633
▁entrances	-12.4633
hearted	-12.4634
think	-12.4634
▁brood	-12.4635
▁splinter	-12.4636
▁whack	-12.4637
▁gush	-12.4638
▁comical	-12.4638
▁ludicrous	-12.4638
▁ferocious	-12.4639
▁malevolent	-12.4639
▁fortunate	-12.4639
▁soothing	-12.4639
▁encouraging	-12.4639
▁scathing	-12.4639
▁timid	-12.4639
▁incredulous	-12.4639
▁positive	-12.4639
ide	-12.464
▁lone	-12.4641
▁feat	-12.4641
ATION	-12.4641
▁Pepper	-12.4642
▁deliberate	-12.4642
urging	-12.4642
▁radish	-12.4643
▁taut	-12.4643
▁wiz	-12.4643
lunging	-12.4643
▁grace	-12.4643
▁havin	-12.4643
▁drip	-12.4643
▁scandal	-12.4643
▁dumb	-12.4643
eeming	-12.4644
tcher	-12.4644
▁unwrap	-12.4644
UFF	-12.4644
natured	-12.4644
▁consequences	-12.4644
▁evasive	-12.4644
▁throb	-12.4644
Emmeline	-12.4644
FFLE	-12.4644
Fantastic	-12.4644
Ooooh	-12.4644
STUPEF	-12.4644
Search	-12.4644
Urgh	-12.4644
ardium	-12.4644
embossed	-12.4644
twined	-12.4644
uncharacteristic	-12.4644
▁Admittedly	-12.4644
▁Armando	-12.4644
▁Bryce	-12.4644
▁Feast	-12.4644
▁Fungi	-12.4644
▁HOUSE	-12.4644
▁Hungarian	-12.4644
▁Liaison	-12.4644
▁Liechtenstein	-12.4644
▁Nicholas	-12.4644
▁Powder	-12.4644
▁Ridgeback	-12.4644
▁Society	-12.4644
▁Spinner	-12.4644
▁Tornados	-12.4644
▁Volkov	-12.4644
▁Worple	-12.4644
▁Yorkshire	-12.4644
▁ablaze	-12.4644
▁abysmal	-12.4644
▁aquiver	-12.4644
▁balaclava	-12.4644
▁bewilderment	-12.4644
▁blearily	-12.4644
▁breezy	-12.4644
▁cheese	-12.4644
▁chortling	-12.4644
▁curfew	-12.4644
▁detour	-12.4644
▁devotion	-12.4644
▁disobey	-12.4644
▁eerily	-12.4644
▁excruciating	-12.4644
▁extent	-12.4644
▁fantastic	-12.4644
▁foreboding	-12.4644
▁grease	-12.4644
▁griffin	-12.4644
▁haughtily	-12.4644
▁hurricane	-12.4644
▁impartial	-12.4644
▁injustice	-12.4644
▁intervening	-12.4644
▁intimidating	-12.4644
▁irresponsible	-12.4644
▁jingling	-12.4644
▁loaf	-12.4644
▁lofty	-12.4644
▁misshapen	-12.4644
▁molten	-12.4644
▁murky	-12.4644
▁obituary	-12.4644
▁orchard	-12.4644
▁penetrating	-12.4644
▁podium	-12.4644
▁possibilities	-12.4644
▁presumably	-12.4644
▁procedure	-12.4644
▁puppet	-12.4644
▁recapture	-12.4644
▁recognizable	-12.4644
▁refusal	-12.4644
▁remnants	-12.4644
▁removal	-12.4644
▁revising	-12.4644
▁sample	-12.4644
▁savour	-12.4644
▁smudge	-12.4644
▁somersault	-12.4644
▁stunning	-12.4644
▁symptoms	-12.4644
▁system	-12.4644
▁terribly	-12.4644
▁toppling	-12.4644
▁tragedy	-12.4644
▁trepidation	-12.4644
▁trestle	-12.4644
▁unfamiliar	-12.4644
▁unhelpful	-12.4644
▁unison	-12.4644
▁waltz	-12.4644
▁whiff	-12.4644
▁Quietly	-12.4644
▁Rowle	-12.4644
▁Short	-12.4644
▁admirable	-12.4644
▁airborne	-12.4644
▁chute	-12.4644
▁conjuring	-12.4644
▁hobbled	-12.4644
▁impact	-12.4644
▁spiky	-12.4644
▁stabbing	-12.4644
▁tracing	-12.4644
▁Vicky	-12.4644
▁discard	-12.4644
▁fuming	-12.4644
▁ivy	-12.4644
▁malice	-12.4644
▁rammed	-12.4644
▁razor	-12.4644
▁reminiscent	-12.4644
▁shins	-12.4644
▁supper	-12.4644
▁forbidding	-12.4644
▁remedial	-12.4644
▁walnut	-12.4644
▁whiskey	-12.4644
Protection	-12.4644
▁Pulling	-12.4644
▁pheasant	-12.4644
▁retirement	-12.4644
▁Jump	-12.4644
▁WHAM	-12.4644
▁indifference	-12.4644
▁strung	-12.4644
ootsteps	-12.4644
▁blaming	-12.4644
▁clown	-12.4644
▁doormat	-12.4644
▁reception	-12.4644
▁striking	-12.4644
▁temperature	-12.4644
▁rosy	-12.4644
▁equipment	-12.4644
▁goatee	-12.4644
▁surname	-12.4644
▁Jelly	-12.4644
▁cardigan	-12.4644
▁cruelty	-12.4644
▁defiance	-12.4644
▁duties	-12.4644
▁ouch	-12.4644
▁unwrapping	-12.4644
▁describing	-12.4644
▁peppermint	-12.4644
▁scampered	-12.4644
Giving	-12.4644
▁cords	-12.4644
▁unwelcome	-12.4644
▁cowardice	-12.4644
▁operating	-12.4644
▁hilltop	-12.4644
▁combat	-12.4644
▁playground	-12.4644
▁speculation	-12.4644
▁tumbling	-12.4644
▁assault	-12.4644
▁panicky	-12.4644
▁stripping	-12.4644
▁mould	-12.4644
▁fancies	-12.4644
▁remarkable	-12.4644
▁flute	-12.4644
▁eyelashes	-12.4644
▁pantry	-12.4644
▁stup	-12.4644
Tongue	-12.4644
▁midday	-12.4644
▁hike	-12.4644
▁certainty	-12.4644
▁unconvinced	-12.4644
▁wages	-12.4644
▁constrictor	-12.4644
Later	-12.4644
▁Hoping	-12.4644
berries	-12.4644
▁faking	-12.4644
▁spawn	-12.4644
▁candlelit	-12.4644
▁replay	-12.4644
▁sorcerer	-12.4644
▁Jim	-12.4644
▁convulsively	-12.4644
▁thudded	-12.4644
▁Beside	-12.4644
▁praise	-12.4644
▁sweatshirt	-12.4644
▁legendary	-12.4644
▁proceedings	-12.4644
▁role	-12.4644
▁tactless	-12.4644
▁gateway	-12.4644
▁yerself	-12.4644
▁Vow	-12.4644
▁interior	-12.4644
▁destiny	-12.4644
▁ol	-12.4644
AME	-12.4645
▁squeakily	-12.4645
▁Cards	-12.4645
▁dig	-12.4645
▁wow	-12.4645
Detention	-12.4645
▁realistic	-12.4645
▁guiltily	-12.4645
▁traipsed	-12.4645
▁unbalanced	-12.4645
▁dummy	-12.4645
▁enjoyment	-12.4645
▁animatedly	-12.4645
▁sceptically	-12.4645
Shhh	-12.4645
▁heartstring	-12.4645
▁marshal	-12.4645
▁Draw	-12.4645
▁lethal	-12.4645
▁snatches	-12.4645
▁rally	-12.4645
▁surging	-12.4645
▁knotted	-12.4645
▁overflowing	-12.4645
▁tilting	-12.4645
▁fidgeting	-12.4645
▁jangling	-12.4645
▁Apothecary	-12.4646
▁pepper	-12.4646
▁flopping	-12.4646
▁permanent	-12.4646
miling	-12.4646
▁bold	-12.4646
▁skyward	-12.4646
▁madam	-12.4646
▁ditch	-12.4646
▁fourteenth	-12.4646
▁healing	-12.4646
▁hatching	-12.4647
▁trustworthy	-12.4647
▁yanked	-12.4647
▁aggressive	-12.4647
▁mutilated	-12.4647
▁anticipated	-12.4647
▁accomplished	-12.4647
▁switched	-12.4647
▁ashen	-12.4647
▁pleaded	-12.4647
▁dragonskin	-12.4647
▁depressed	-12.4647
▁style	-12.4647
▁foreseen	-12.4647
▁asks	-12.4647
▁rudeness	-12.4647
▁ANY	-12.4647
▁expectantly	-12.4647
▁bluntly	-12.4647
mindedly	-12.4647
▁glowered	-12.4648
▁city	-12.4648
▁boundary	-12.4648
▁noiselessly	-12.4648
▁forbid	-12.4648
▁seventeenth	-12.4648
Mmm	-12.4648
▁mummy	-12.4648
▁thinned	-12.4648
▁debating	-12.4648
▁formation	-12.4649
▁Vanished	-12.4649
▁recoiled	-12.4649
▁ricocheted	-12.4649
▁overwhelmed	-12.4649
rian	-12.4649
▁altered	-12.4649
▁twinkled	-12.4649
▁wildest	-12.4649
▁tufty	-12.4649
▁cloudless	-12.4649
▁abilities	-12.465
▁April	-12.465
▁Judging	-12.465
▁Jupiter	-12.465
▁Levski	-12.465
▁Mistress	-12.465
▁Potterwatch	-12.465
▁Study	-12.465
▁laundered	-12.465
▁notebook	-12.465
▁Brazil	-12.465
▁rival	-12.465
▁folk	-12.465
▁unfurled	-12.465
▁professor	-12.465
▁dumbstruck	-12.465
▁harp	-12.465
▁obliged	-12.465
▁offence	-12.465
▁protuberant	-12.465
▁Andromeda	-12.465
▁Silent	-12.465
▁Far	-12.4651
end	-12.4651
nham	-12.4651
▁Tiny	-12.4651
▁stopper	-12.4651
▁Table	-12.4651
▁cantered	-12.4652
HIS	-12.4652
▁drooling	-12.4652
▁hiccoughing	-12.4652
▁overwhelming	-12.4652
▁ebbing	-12.4652
▁slashing	-12.4652
▁elsewhere	-12.4652
▁aerial	-12.4652
▁scrubbed	-12.4652
▁fussy	-12.4653
quaking	-12.4653
▁consented	-12.4653
▁Station	-12.4653
▁dumped	-12.4654
▁redheaded	-12.4655
▁Jan	-12.4655
Gotta	-12.4655
▁gushed	-12.4655
▁Hex	-12.4655
▁drooping	-12.4655
▁mixing	-12.4655
▁slaughtered	-12.4655
▁squirmed	-12.4655
▁lank	-12.4655
▁diving	-12.4655
▁webbed	-12.4656
▁Award	-12.4656
▁smartly	-12.4657
▁exact	-12.4657
ial	-12.4657
▁fumbl	-12.4657
▁exception	-12.4657
▁gale	-12.4658
▁vividly	-12.4658
▁developing	-12.4658
▁recruiting	-12.4658
▁stooping	-12.4658
▁pox	-12.4658
▁exasperatedly	-12.4658
▁treading	-12.4659
▁scuffle	-12.4659
▁refilled	-12.4659
▁Herbs	-12.4659
▁talons	-12.4659
▁goggles	-12.4659
▁Artifacts	-12.4659
▁eclairs	-12.4659
▁mealtimes	-12.4659
▁shafts	-12.4659
▁conquered	-12.4659
▁tightening	-12.4659
▁footprints	-12.466
▁depressing	-12.466
▁Dimitrov	-12.466
▁Senior	-12.466
▁Evil	-12.466
▁flagged	-12.466
▁winner	-12.466
▁clockwise	-12.466
▁shine	-12.466
▁BOY	-12.466
▁squirming	-12.4661
▁rings	-12.4662
▁borne	-12.4662
▁taunted	-12.4662
▁dotted	-12.4662
▁cobwebs	-12.4662
▁rein	-12.4662
▁Mess	-12.4662
▁nosy	-12.4663
▁separately	-12.4663
counterclockwise	-12.4663
▁blundered	-12.4663
▁sill	-12.4665
▁ado	-12.4665
▁willow	-12.4667
licking	-12.4667
▁cooler	-12.4667
▁Barnab	-12.4668
▁boasting	-12.4668
▁whichever	-12.4668
▁sheltered	-12.467
▁readers	-12.467
prone	-12.467
▁solved	-12.467
▁Possibly	-12.467
▁kidney	-12.467
▁satisfactory	-12.467
▁Stick	-12.4671
▁illegally	-12.4671
▁claimed	-12.4672
▁breeding	-12.4674
▁SHE	-12.4674
▁imprint	-12.4674
▁swallowing	-12.4674
▁regarding	-12.4675
▁fullest	-12.4676
▁Mummy	-12.4676
▁doorways	-12.4676
uddy	-12.4676
▁thicket	-12.4677
▁drinker	-12.4677
▁Pot	-12.4677
Fanc	-12.4677
▁motioned	-12.4678
▁fussing	-12.4681
▁wheeling	-12.4682
▁mom	-12.4682
▁weirdly	-12.4682
▁Ham	-12.4683
spoken	-12.4685
▁withdrawn	-12.4685
▁Fear	-12.4686
▁spades	-12.4686
▁hooking	-12.4687
ugat	-12.4688
▁behaved	-12.4688
▁jogg	-12.4688
▁requested	-12.4688
▁prized	-12.4689
▁lured	-12.4689
▁links	-12.4689
▁lifeless	-12.4689
stained	-12.4691
▁demonstrated	-12.4692
▁watchin	-12.4692
▁killin	-12.4692
▁privately	-12.4692
▁Long	-12.4693
▁shredd	-12.4693
reathing	-12.4693
▁forged	-12.4693
▁beforehand	-12.4693
▁harmed	-12.4695
▁keenly	-12.4695
▁bravely	-12.4697
▁striped	-12.4697
▁cou	-12.4697
▁Totte	-12.4697
▁surged	-12.4699
▁loving	-12.47
▁windowless	-12.47
▁outcome	-12.47
▁Summon	-12.4705
▁skinned	-12.4705
▁groaning	-12.4707
▁Tha	-12.4708
Him	-12.4709
▁interestedly	-12.4713
▁HERMIONE	-12.4713
▁Kind	-12.4713
▁Caps	-12.4713
▁kittens	-12.4713
▁discovering	-12.4714
▁transforming	-12.4714
thought	-12.4716
▁apiece	-12.4716
▁feelin	-12.4717
▁displaying	-12.4717
▁forgiven	-12.4719
▁crab	-12.4723
▁fooled	-12.4725
spect	-12.4725
▁Hair	-12.4732
▁Imperiused	-12.4732
▁gladly	-12.4733
▁STOP	-12.4735
ious	-12.4735
▁charmed	-12.474
ches	-12.474
▁dodges	-12.4741
▁Being	-12.4742
▁coils	-12.4742
▁satin	-12.4742
▁bodi	-12.4744
▁prim	-12.4747
▁cower	-12.4748
▁wits	-12.4749
▁Glad	-12.475
eddy	-12.4752
Seen	-12.4753
▁Grand	-12.4762
▁plugs	-12.4762
▁preventing	-12.4763
nched	-12.4764
▁Make	-12.4768
▁agreeing	-12.4768
▁measured	-12.4768
▁rosettes	-12.4769
▁confront	-12.4769
▁imm	-12.4776
▁appealing	-12.4781
▁distracting	-12.4782
▁shadowed	-12.4784
▁Star	-12.4788
▁reporting	-12.4794
deeds	-12.4795
▁options	-12.4797
erm	-12.4801
▁fathers	-12.4803
Lead	-12.4804
▁Eve	-12.4806
▁Wish	-12.4806
▁Vi	-12.4812
▁submitt	-12.4815
▁imp	-12.4824
▁Smeltings	-12.4825
▁moonli	-12.4826
▁needles	-12.4828
▁tellin	-12.483
▁Expecto	-12.4844
hoodwinked	-12.4846
board	-12.4851
War	-12.4852
▁Warlocks	-12.4854
▁opponents	-12.4854
SO	-12.4854
▁stamps	-12.4854
▁Expelliarmus	-12.4855
▁faceless	-12.4856
▁balled	-12.4857
▁wandless	-12.4859
▁Vo	-12.4862
▁narrowing	-12.4882
▁repress	-12.4885
▁Ages	-12.4888
▁sp	-12.4893
▁Monsters	-12.4911
▁contains	-12.4911
▁Shall	-12.4912
▁gra	-12.4918
▁bobb	-12.4919
▁slot	-12.493
▁strides	-12.4939
▁adults	-12.4939
▁orbs	-12.4939
▁graying	-12.4948
▁rocks	-12.4962
▁fri	-12.4967
▁Peverells	-12.4967
▁strips	-12.4968
▁Qu	-12.497
lew	-12.4979
▁Certainly	-12.4979
▁IF	-12.4982
▁south	-12.4982
Add	-12.4988
port	-12.4995
▁boulders	-12.4996
▁bewitch	-12.5004
▁gurgl	-12.501
▁bumps	-12.5019
▁weeds	-12.5023
▁jewels	-12.5025
▁̈CHe	-12.503
CK	-12.5037
▁Alic	-12.5038
tions	-12.5039
ught	-12.5044
mashed	-12.5044
▁neared	-12.5046
▁languages	-12.5054
▁summons	-12.507
ttered	-12.5074
US	-12.508
▁appointments	-12.5083
ition	-12.5105
▁knowin	-12.5117
etty	-12.5122
▁Excellent	-12.5132
Alas	-12.5138
▁pictured	-12.5139
stone	-12.514
▁suspects	-12.5141
▁mu	-12.5153
▁Wo	-12.5164
▁follows	-12.518
▁dangers	-12.5188
▁bill	-12.52
Scared	-12.5204
ra	-12.5205
DER	-12.5214
▁Books	-12.5217
▁watered	-12.5226
ay	-12.5228
▁services	-12.5229
io	-12.523
▁ch	-12.5244
Use	-12.5253
Change	-12.5282
zing	-12.5283
Cause	-12.5319
▁Fight	-12.5322
▁positions	-12.5323
ome	-12.5327
▁SE	-12.5329
gar	-12.5348
▁explore	-12.535
▁sighted	-12.538
▁Moodys	-12.5383
ri	-12.5407
▁wars	-12.5433
▁accounts	-12.5437
▁winnings	-12.5437
▁favors	-12.5437
▁gifts	-12.5438
Pass	-12.544
▁caress	-12.5445
bum	-12.5466
▁reflections	-12.5467
▁firstly	-12.547
▁weightless	-12.5477
▁hap	-12.5482
▁hoods	-12.5497
▁saves	-12.5509
pelled	-12.5546
▁forces	-12.5552
▁Har	-12.5555
rse	-12.5573
▁explanations	-12.5588
▁forks	-12.5639
rest	-12.5643
▁painless	-12.5644
ig	-12.5649
cent	-12.5649
mi	-12.5653
LY	-12.5658
▁heights	-12.5677
hater	-12.5678
rimming	-12.5718
reserved	-12.5732
ran	-12.5744
▁agrees	-12.5747
ole	-12.577
ile	-12.5777
▁thankful	-12.5777
▁poisons	-12.5777
▁disentangle	-12.5796
▁decisions	-12.5804
▁arrivals	-12.5804
▁trips	-12.5806
robed	-12.5824
▁articles	-12.5835
ality	-12.5836
▁dabb	-12.5836
▁swords	-12.5841
conversationally	-12.5852
Sp	-12.5868
ology	-12.5875
former	-12.5891
▁crane	-12.5904
▁RE	-12.5904
▁hu	-12.5904
ister	-12.5906
▁stub	-12.5907
▁nip	-12.5909
bloods	-12.5943
▁Non	-12.5955
ery	-12.5959
▁Teach	-12.5992
tensely	-12.5993
nee	-12.5996
▁rightly	-12.6017
▁locks	-12.6021
tail	-12.6023
▁Send	-12.6024
ering	-12.6028
ched	-12.605
lter	-12.6065
▁stops	-12.6074
▁Scar	-12.6076
▁dump	-12.6086
▁reliv	-12.6092
ear	-12.6116
rous	-12.6117
▁unstead	-12.6121
ated	-12.6123
lar	-12.6138
▁project	-12.6139
tending	-12.6143
▁Tak	-12.6152
▁skulls	-12.6153
▁experiment	-12.6169
▁Hope	-12.6183
▁Delacours	-12.6218
▁li	-12.6239
ively	-12.6254
▁banks	-12.6256
▁lasting	-12.6273
▁chests	-12.6302
▁par	-12.6305
Us	-12.6318
lt	-12.6327
lover	-12.6337
rry	-12.6338
ple	-12.6345
minded	-12.635
▁ac	-12.6368
▁outer	-12.6381
ARE	-12.6397
▁tamper	-12.6402
ga	-12.6424
▁Norw	-12.6428
CH	-12.6428
Dragon	-12.6429
▁undo	-12.6432
▁WH	-12.6437
▁wince	-12.6444
heads	-12.6451
▁involve	-12.6459
▁Cabinet	-12.646
▁candidate	-12.646
▁hinkypunk	-12.646
▁valentine	-12.646
▁insect	-12.646
▁crumpet	-12.646
▁failure	-12.646
▁torrent	-12.6463
▁supplie	-12.6463
▁helpful	-12.6465
▁sprout	-12.6467
▁awe	-12.6476
Accident	-12.6477
▁flowerbed	-12.6477
▁compliment	-12.6478
growing	-12.6478
▁Team	-12.6485
▁airplane	-12.6485
▁tantrum	-12.6485
▁margin	-12.6485
▁peg	-12.6485
▁flag	-12.6488
▁rebellion	-12.6489
▁rosette	-12.6492
▁Force	-12.6498
▁nettle	-12.6499
▁pillar	-12.6499
▁Dungbomb	-12.65
ok	-12.6518
Thinking	-12.652
▁Wh	-12.652
▁Wa	-12.6528
▁throws	-12.6532
visibly	-12.6539
drawn	-12.6541
oping	-12.6541
RN	-12.6543
voiced	-12.6543
▁organ	-12.6549
visibility	-12.6552
cluded	-12.6553
▁speaker	-12.6556
came	-12.6559
eight	-12.6563
▁Art	-12.6564
cur	-12.6565
form	-12.6569
power	-12.6569
RON	-12.6569
other	-12.657
Stan	-12.6572
Drop	-12.6572
Congratulations	-12.6572
bolt	-12.6575
Signed	-12.6576
enter	-12.6578
wind	-12.6578
Almost	-12.6579
SHUT	-12.6579
Pretty	-12.6579
ja	-12.6581
▁arrogan	-12.6582
Either	-12.6582
Mimbu	-12.6583
brother	-12.6583
Lie	-12.6584
Small	-12.6584
Such	-12.6584
Shame	-12.6584
Sure	-12.6586
most	-12.6586
Talk	-12.6586
Light	-12.6586
operation	-12.6586
ELL	-12.6587
Except	-12.6587
inch	-12.6587
Third	-12.6588
standard	-12.6588
connected	-12.6588
solution	-12.6588
stricken	-12.6588
Close	-12.6588
Mom	-12.6588
Dawlish	-12.6588
mortal	-12.6589
Everybody	-12.6589
Amos	-12.6589
Apparition	-12.6589
satisfied	-12.6589
Speaking	-12.659
Jordan	-12.659
Both	-12.659
dementor	-12.659
Fawkes	-12.659
Prince	-12.659
Morfin	-12.659
Ludo	-12.659
Granger	-12.659
laid	-12.659
whether	-12.659
school	-12.659
McGonagall	-12.659
pink	-12.659
second	-12.659
passed	-12.659
darkness	-12.659
jinxes	-12.6591
master	-12.6591
Wh	-12.6591
Slowly	-12.6591
Inside	-12.6591
lost	-12.6591
hooting	-12.6592
lic	-12.6592
run	-12.6593
Trying	-12.6595
Year	-12.6596
than	-12.6597
Madame	-12.6598
▁Since	-12.6599
seeking	-12.6599
Wizarding	-12.66
wand	-12.6601
gum	-12.6602
Lost	-12.6603
LL	-12.6607
FORE	-12.6607
▁des	-12.6608
▁realiz	-12.6611
▁develop	-12.6612
ath	-12.6614
▁clench	-12.6614
▁splutter	-12.6615
▁stoop	-12.6615
▁polish	-12.6615
▁clutch	-12.6616
▁snarl	-12.6616
▁Firs	-12.6616
▁snigger	-12.6616
ia	-12.662
▁slim	-12.662
▁disrupt	-12.6622
▁tinge	-12.6623
▁postpone	-12.6623
▁wrestle	-12.6623
▁fret	-12.6624
▁provoke	-12.6624
▁cease	-12.6624
▁subdue	-12.6625
▁observe	-12.6625
▁purse	-12.6625
▁grope	-12.6625
▁recruit	-12.6626
▁tread	-12.6626
▁rouse	-12.6626
▁collide	-12.6626
▁tighten	-12.6626
escent	-12.6626
▁smack	-12.6626
▁twirl	-12.6626
▁dispose	-12.6627
▁bustle	-12.6627
tain	-12.6627
▁reverberat	-12.6629
▁nurs	-12.6629
rinkled	-12.6629
▁interrogat	-12.6629
▁bro	-12.663
▁compress	-12.663
sebleed	-12.663
▁doubl	-12.663
▁ambush	-12.6631
aaaah	-12.6631
▁zigzagg	-12.6632
▁consent	-12.6632
▁sustain	-12.6632
▁detach	-12.6633
get	-12.6633
▁recount	-12.6633
▁sprawl	-12.6633
▁indicate	-12.6633
▁caption	-12.6633
▁unroll	-12.6633
▁clutter	-12.6634
▁falter	-12.6634
▁whil	-12.6635
▁Say	-12.6637
▁fields	-12.6638
▁appraising	-12.6638
▁sheepish	-12.6639
▁blunt	-12.6639
ending	-12.6639
▁affectionate	-12.6639
▁plunge	-12.6639
▁greed	-12.6639
▁indignant	-12.6639
▁anguish	-12.6639
▁wil	-12.6639
▁pork	-12.6639
▁stubborn	-12.664
▁Part	-12.664
▁exceptional	-12.664
ug	-12.664
▁fruitless	-12.664
▁astonishing	-12.6641
▁cours	-12.6641
lumbering	-12.6642
▁execution	-12.6642
▁sauce	-12.6642
ouple	-12.6643
umpkin	-12.6643
▁pummel	-12.6643
quiringly	-12.6643
▁eavesdrop	-12.6643
▁immortal	-12.6643
▁THIN	-12.6643
▁kidnap	-12.6643
▁discern	-12.6643
acious	-12.6643
▁shrug	-12.6643
▁AGAIN	-12.6643
▁MAR	-12.6644
▁kip	-12.6644
▁accomplice	-12.6644
▁wiry	-12.6644
Collo	-12.6644
Ogwarts	-12.6644
STUBEFY	-12.6644
Wronski	-12.6644
ceilinged	-12.6644
egian	-12.6644
jawed	-12.6644
nceforth	-12.6644
▁Anglia	-12.6644
▁Archie	-12.6644
▁Basil	-12.6644
▁Bletchley	-12.6644
▁Catchpole	-12.6644
▁Clearwater	-12.6644
▁DARK	-12.6644
▁Dervish	-12.6644
▁Drooble	-12.6644
▁Dueling	-12.6644
▁Euan	-12.6644
▁FIREBOLT	-12.6644
▁Feint	-12.6644
▁Gregory	-12.6644
▁Harpies	-12.6644
▁Hopkirk	-12.6644
▁Malfay	-12.6644
▁Mermish	-12.6644
▁Nurmengard	-12.6644
▁President	-12.6644
▁SCHOOL	-12.6644
▁SERVANT	-12.6644
▁Sanguini	-12.6644
▁Services	-12.6644
▁Squinting	-12.6644
▁Status	-12.6644
▁Supplies	-12.6644
▁Syllabary	-12.6644
▁Uranus	-12.6644
▁Valentine	-12.6644
▁Vulchanov	-12.6644
▁Wellington	-12.6644
▁Widdershins	-12.6644
▁applicant	-12.6644
▁audience	-12.6644
▁autumn	-12.6644
▁banquet	-12.6644
▁bespectacled	-12.6644
▁bishop	-12.6644
▁blouse	-12.6644
▁brittle	-12.6644
▁cereal	-12.6644
▁chaos	-12.6644
▁cigarette	-12.6644
▁collapsing	-12.6644
▁confusing	-12.6644
▁criticise	-12.6644
▁criticizing	-12.6644
▁daily	-12.6644
▁dawdle	-12.6644
▁decay	-12.6644
▁delegation	-12.6644
▁device	-12.6644
▁discipline	-12.6644
▁discord	-12.6644
▁dishevelled	-12.6644
▁dissolving	-12.6644
▁distaste	-12.6644
▁downpour	-12.6644
▁emphasis	-12.6644
▁enhance	-12.6644
▁exceed	-12.6644
▁experiencing	-12.6644
▁fathom	-12.6644
▁fringe	-12.6644
▁fruitcake	-12.6644
▁furthest	-12.6644
▁gawping	-12.6644
▁gnaw	-12.6644
▁gorilla	-12.6644
▁gormless	-12.6644
▁grandparents	-12.6644
▁gravy	-12.6644
▁grudge	-12.6644
▁headdress	-12.6644
▁humiliate	-12.6644
▁ignorance	-12.6644
▁ignorant	-12.6644
▁inclination	-12.6644
▁incorporating	-12.6644
▁infusion	-12.6644
▁innocence	-12.6644
▁intriguing	-12.6644
▁irksome	-12.6644
▁irresistibl	-12.6644
▁irritation	-12.6644
▁jubilation	-12.6644
▁labyrinth	-12.6644
▁landlord	-12.6644
▁liberty	-12.6644
▁librarian	-12.6644
▁loincloth	-12.6644
▁lumbered	-12.6644
▁merchandise	-12.6644
▁mermaid	-12.6644
▁mullioned	-12.6644
▁muscular	-12.6644
▁orchestra	-12.6644
▁palomino	-12.6644
▁paranoid	-12.6644
▁parrot	-12.6644
▁particle	-12.6644
▁penalties	-12.6644
▁persistent	-12.6644
▁picturing	-12.6644
▁pockmarked	-12.6644
▁prickly	-12.6644
▁principle	-12.6644
▁quizzical	-12.6644
▁rafters	-12.6644
▁reassurance	-12.6644
▁recommend	-12.6644
▁reeled	-12.6644
▁reindeer	-12.6644
▁resounding	-12.6644
▁restricted	-12.6644
▁reunited	-12.6644
▁reverie	-12.6644
▁rhythm	-12.6644
▁routine	-12.6644
▁senior	-12.6644
▁sizzling	-12.6644
▁slumping	-12.6644
▁societies	-12.6644
▁suffocate	-12.6644
▁suffocating	-12.6644
▁sycophantically	-12.6644
▁tassel	-12.6644
▁teashop	-12.6644
▁tedious	-12.6644
▁tribute	-12.6644
▁twiddled	-12.6644
▁unctuous	-12.6644
▁undercover	-12.6644
▁undetected	-12.6644
▁unearthed	-12.6644
▁unleash	-12.6644
▁unmarked	-12.6644
▁unoccupied	-12.6644
▁unprotected	-12.6644
▁unsuccessful	-12.6644
▁unwanted	-12.6644
▁vindictive	-12.6644
▁wreath	-12.6644
HAGRID	-12.6644
ninny	-12.6644
▁Ghouls	-12.6644
▁Nargles	-12.6644
▁Puddifoot	-12.6644
▁angel	-12.6644
▁balancing	-12.6644
▁bawling	-12.6644
▁carving	-12.6644
▁cockroach	-12.6644
▁composition	-12.6644
▁discouraged	-12.6644
▁feign	-12.6644
▁formidable	-12.6644
▁honour	-12.6644
▁inclining	-12.6644
▁laundry	-12.6644
▁levitating	-12.6644
▁providing	-12.6644
▁raspberry	-12.6644
▁salute	-12.6644
▁sanity	-12.6644
▁secrecy	-12.6644
▁shoppers	-12.6644
▁swagger	-12.6644
▁tattoo	-12.6644
Sectumsempra	-12.6644
▁Furious	-12.6644
▁craving	-12.6644
▁excursion	-12.6644
▁footfalls	-12.6644
▁historian	-12.6644
▁lizard	-12.6644
▁rogue	-12.6644
▁Between	-12.6644
▁Sixty	-12.6644
▁berth	-12.6644
▁charred	-12.6644
▁crib	-12.6644
▁dashboard	-12.6644
▁enquired	-12.6644
▁ensuring	-12.6644
▁impertinent	-12.6644
▁minister	-12.6644
▁padlock	-12.6644
▁ponytail	-12.6644
▁residence	-12.6644
▁slab	-12.6644
▁suffice	-12.6644
Liar	-12.6644
▁graze	-12.6644
▁jail	-12.6644
ICE	-12.6644
▁characteristic	-12.6644
▁frock	-12.6644
▁roved	-12.6644
▁wistful	-12.6644
▁Erumpent	-12.6644
▁advisable	-12.6644
▁profession	-12.6644
▁quarry	-12.6644
▁unstable	-12.6644
▁Bank	-12.6644
▁WON	-12.6644
▁churning	-12.6644
▁monkey	-12.6644
▁Grinning	-12.6644
▁edition	-12.6644
▁entertainment	-12.6644
▁extraordinarily	-12.6644
▁flaring	-12.6644
▁insistence	-12.6644
▁major	-12.6644
▁rapping	-12.6644
▁scandalized	-12.6644
▁semi	-12.6644
▁syllable	-12.6644
▁weeping	-12.6644
▁Hermes	-12.6644
▁captor	-12.6644
▁population	-12.6644
▁eavesdropping	-12.6644
▁flexible	-12.6644
▁mince	-12.6644
▁revert	-12.6644
▁vigilance	-12.6644
▁bedspread	-12.6644
▁lurid	-12.6644
▁smuggling	-12.6644
▁bullied	-12.6644
▁stile	-12.6644
▁OWN	-12.6644
▁moron	-12.6644
▁tabby	-12.6644
▁expanse	-12.6644
▁haff	-12.6644
▁multicolored	-12.6644
▁organisation	-12.6644
▁treachery	-12.6644
▁France	-12.6644
▁unbidden	-12.6644
▁unsupported	-12.6644
▁Blowing	-12.6644
▁During	-12.6644
▁cartoon	-12.6644
▁parentage	-12.6644
▁shrivelled	-12.6644
▁tiled	-12.6644
▁whining	-12.6644
▁commentating	-12.6644
▁euphoria	-12.6644
▁foggy	-12.6644
▁skipping	-12.6644
▁stragglers	-12.6644
▁raving	-12.6644
▁enlarge	-12.6644
▁pinning	-12.6644
▁woolen	-12.6644
▁Banges	-12.6644
▁unrecognizable	-12.6644
▁jabbering	-12.6644
▁plait	-12.6644
Sweet	-12.6644
▁sunrise	-12.6644
Diffindo	-12.6644
endous	-12.6644
▁salmon	-12.6644
▁translation	-12.6644
PEE	-12.6644
▁hitherto	-12.6644
▁bangles	-12.6644
▁gentleman	-12.6644
▁honey	-12.6644
▁quantities	-12.6644
▁Ronnie	-12.6644
▁sagged	-12.6644
▁TALK	-12.6644
umors	-12.6644
▁Destiny	-12.6644
▁policy	-12.6644
▁uncanny	-12.6644
▁Mimsy	-12.6644
▁mumbling	-12.6644
▁necessity	-12.6644
Tricky	-12.6644
▁Bridge	-12.6644
▁Firewhisky	-12.6644
▁stark	-12.6644
▁undergrowth	-12.6644
▁GOING	-12.6644
▁pronouncement	-12.6644
▁devil	-12.6644
▁dripped	-12.6644
▁echoes	-12.6644
▁scoff	-12.6644
▁championship	-12.6644
▁creation	-12.6644
▁Spellman	-12.6644
▁muck	-12.6644
▁clutches	-12.6644
▁mountainside	-12.6644
▁supreme	-12.6644
▁Marsh	-12.6644
▁trotted	-12.6644
Interesting	-12.6644
▁smugness	-12.6645
▁unscrew	-12.6645
Silencio	-12.6645
▁handwritten	-12.6645
▁loophole	-12.6645
Agrid	-12.6645
▁radishes	-12.6645
▁distraction	-12.6645
▁adjusted	-12.6645
▁demolished	-12.6645
▁diminished	-12.6645
▁elongated	-12.6645
▁enslaved	-12.6645
▁fidgeted	-12.6645
▁guesswork	-12.6645
▁monitored	-12.6645
▁obtained	-12.6645
▁thrashed	-12.6645
slung	-12.6645
▁quilt	-12.6645
▁Scrim	-12.6645
▁wavy	-12.6645
ryone	-12.6645
▁divid	-12.6645
▁transfigured	-12.6645
▁courteously	-12.6645
▁consolingly	-12.6645
▁uncoil	-12.6645
▁quest	-12.6645
▁dorm	-12.6645
▁underestimate	-12.6645
▁dipping	-12.6645
▁joyfully	-12.6645
▁catastrophe	-12.6645
▁ascended	-12.6645
▁booth	-12.6645
▁fairies	-12.6645
▁patrolled	-12.6645
▁Carry	-12.6646
▁Laughing	-12.6646
▁advising	-12.6646
▁bristling	-12.6646
▁imprisoning	-12.6646
▁releasing	-12.6646
▁stiffened	-12.6646
▁improving	-12.6646
▁plunk	-12.6646
▁uncorked	-12.6646
▁Broom	-12.6646
▁streamers	-12.6646
▁riddle	-12.6646
▁HER	-12.6646
▁screwing	-12.6646
▁displeased	-12.6646
▁incensed	-12.6646
▁overexcited	-12.6646
▁sickened	-12.6646
▁varied	-12.6646
▁Witches	-12.6646
▁regretting	-12.6646
▁disagreement	-12.6646
▁elated	-12.6646
▁nightcap	-12.6646
▁approvingly	-12.6646
▁duelers	-12.6646
▁mercifully	-12.6646
▁Gray	-12.6646
Release	-12.6646
lga	-12.6647
▁innit	-12.6647
▁deluded	-12.6647
▁quickened	-12.6647
▁assent	-12.6647
▁snoutlike	-12.6647
▁wiser	-12.6647
▁sane	-12.6647
▁Gum	-12.6647
▁Near	-12.6647
▁retrac	-12.6647
▁hairpin	-12.6647
▁tremulously	-12.6647
▁regurgitating	-12.6647
▁mistreated	-12.6648
▁simpered	-12.6648
▁QUI	-12.6648
▁Tall	-12.6648
▁outnumber	-12.6648
▁beloved	-12.6648
▁football	-12.6648
▁everythin	-12.6648
▁affectionately	-12.6648
▁hasty	-12.6648
▁cleverest	-12.6648
▁pickled	-12.6649
tell	-12.6649
▁inkling	-12.6649
▁gouge	-12.6649
▁ferociously	-12.6649
▁fortunately	-12.6649
▁luckily	-12.6649
▁giveaway	-12.665
▁stunt	-12.665
▁simpering	-12.665
▁flanking	-12.665
▁hidin	-12.665
▁thankfully	-12.665
▁pate	-12.665
▁overpowered	-12.665
▁adopted	-12.665
▁swiveling	-12.665
▁difficulties	-12.665
▁reinstated	-12.665
▁freckled	-12.665
▁relentlessly	-12.665
▁household	-12.665
▁notorious	-12.6651
▁waxy	-12.6651
▁Legilimens	-12.6651
▁realising	-12.6651
▁ALBUS	-12.6651
▁ATTACK	-12.6651
▁Consider	-12.6651
▁Saturn	-12.6651
▁moustache	-12.6651
▁pewter	-12.6651
▁phase	-12.6651
▁spangled	-12.6651
▁strangling	-12.6651
▁Fortunately	-12.6651
▁Golpalott	-12.6651
▁HELP	-12.6651
▁thieves	-12.6651
▁wrap	-12.6651
▁Strong	-12.6651
▁invincible	-12.6651
▁Blaise	-12.6651
▁Shaking	-12.6651
▁spew	-12.6651
▁flies	-12.6651
▁tiredness	-12.6651
▁Catch	-12.6651
▁Dora	-12.6651
▁DIED	-12.6651
▁MORE	-12.6651
▁smugly	-12.6651
▁Ottery	-12.6652
▁pompously	-12.6652
▁leafy	-12.6652
▁hatched	-12.6652
▁debt	-12.6652
▁compost	-12.6652
Outer	-12.6652
▁shy	-12.6652
▁soggy	-12.6652
▁detection	-12.6652
▁CAN	-12.6652
imply	-12.6653
▁fray	-12.6653
▁Probe	-12.6653
▁boyfriend	-12.6653
ITCH	-12.6653
▁simmering	-12.6654
▁quake	-12.6654
▁mimed	-12.6654
vor	-12.6654
▁colorless	-12.6654
▁crackled	-12.6655
▁jealousy	-12.6655
▁Transfigured	-12.6655
▁crisply	-12.6655
▁peacefully	-12.6655
▁illness	-12.6655
▁zigzagged	-12.6655
▁contented	-12.6655
▁boos	-12.6656
▁internal	-12.6656
▁satisfying	-12.6656
▁THEM	-12.6656
▁van	-12.6657
▁lashed	-12.6657
▁demon	-12.6657
▁nosebleed	-12.6657
▁shockingly	-12.6658
▁neglected	-12.6658
▁stranded	-12.6658
▁brightest	-12.6658
▁haunting	-12.6658
▁loosening	-12.6658
▁swan	-12.6659
oud	-12.6659
▁intervened	-12.6659
▁Dep	-12.6659
▁ickle	-12.666
▁yearning	-12.666
▁Albert	-12.6661
▁Mary	-12.6661
▁spluttering	-12.6662
▁fleetingly	-12.6662
▁inquired	-12.6662
▁brightness	-12.6663
▁sightings	-12.6663
▁antlers	-12.6663
▁Beginners	-12.6663
▁Pastilles	-12.6663
▁goalposts	-12.6663
▁jostled	-12.6663
▁gagging	-12.6663
▁mascots	-12.6663
▁lateness	-12.6663
▁attractive	-12.6664
▁Dilys	-12.6664
▁spectacularly	-12.6664
▁steeply	-12.6664
▁Pick	-12.6664
▁Curious	-12.6664
▁dozing	-12.6665
▁EVER	-12.6665
▁touches	-12.6665
Locker	-12.6666
▁whacking	-12.6666
atic	-12.6666
▁merry	-12.6666
▁lightened	-12.6666
▁disarmed	-12.6666
▁dearest	-12.6666
▁overlarge	-12.6667
▁clink	-12.6667
▁endlessly	-12.6667
▁Confunded	-12.6668
▁inhabited	-12.6668
▁cleaner	-12.6669
▁throats	-12.6669
▁powerless	-12.6669
eeling	-12.6669
▁admittedly	-12.6669
Oy	-12.667
▁shattering	-12.667
▁flattering	-12.667
▁Bat	-12.6671
Goblins	-12.6671
▁doom	-12.6672
▁reality	-12.6673
TS	-12.6673
▁fussed	-12.6673
▁clanging	-12.6674
▁flowered	-12.6674
▁magnificently	-12.6675
Unti	-12.6675
vide	-12.6676
▁eff	-12.6676
Wizards	-12.6676
▁Beaky	-12.6677
▁Tomorrow	-12.6677
▁available	-12.6677
▁flourishing	-12.6678
▁plucked	-12.6678
▁Str	-12.6679
▁manic	-12.6679
▁Quickly	-12.6679
▁Gadd	-12.6681
▁whooping	-12.6681
lipped	-12.6682
▁LEAVE	-12.6682
▁humm	-12.6682
▁convey	-12.6682
▁sud	-12.6683
▁Hot	-12.6684
▁SM	-12.6685
▁balanced	-12.6685
▁relaxing	-12.6686
▁snored	-12.6686
▁claiming	-12.6687
▁eet	-12.6687
Losing	-12.6687
▁hardest	-12.6688
▁dishonor	-12.6688
▁billow	-12.6689
▁fastest	-12.6689
▁protested	-12.6689
▁theories	-12.6691
detectable	-12.6691
▁Europe	-12.6692
▁darkest	-12.6693
▁Gues	-12.6694
▁interrupting	-12.6694
▁dryly	-12.6695
▁Wel	-12.6695
hu	-12.6695
▁carols	-12.6696
▁alerted	-12.6696
▁reversed	-12.6698
▁blinded	-12.6699
▁disposed	-12.6701
▁gutter	-12.6702
being	-12.6702
▁jumpy	-12.6702
▁stumping	-12.6702
▁lurching	-12.6702
▁Year	-12.6703
▁Such	-12.6703
▁Shame	-12.6703
▁Small	-12.6703
▁Lost	-12.6704
▁acknowledge	-12.6704
▁bathed	-12.6707
▁pawn	-12.6707
▁moody	-12.6708
▁whine	-12.6708
▁soap	-12.6708
▁repeating	-12.671
▁camping	-12.671
▁veiled	-12.6712
▁approved	-12.6715
▁mending	-12.6715
▁triumphed	-12.6716
▁Fifty	-12.6717
▁SIRIUS	-12.6717
▁Cissy	-12.6717
▁bull	-12.6717
▁Hit	-12.6717
hank	-12.6718
▁dueled	-12.6718
▁flatter	-12.6719
mature	-12.672
TAL	-12.6721
▁bundled	-12.6721
▁patchy	-12.6723
▁Trust	-12.6724
▁Along	-12.6727
▁cute	-12.6727
▁kinder	-12.6727
▁Him	-12.673
dance	-12.673
▁progressed	-12.673
▁Nifflers	-12.6731
▁biscuits	-12.6731
▁degrees	-12.6731
▁descendants	-12.6731
▁flobberworms	-12.6731
▁eve	-12.6731
▁venomous	-12.6731
lot	-12.6731
▁hinted	-12.6731
▁nuts	-12.6733
▁Careful	-12.6733
▁secretary	-12.6736
Dragons	-12.6736
rbert	-12.6736
Th	-12.6741
▁practised	-12.6742
▁farthe	-12.6742
▁longest	-12.6743
▁Six	-12.6743
▁starve	-12.6744
▁rockets	-12.6746
▁distantly	-12.6747
handle	-12.6747
rice	-12.6751
▁touchy	-12.6752
▁carpeted	-12.6757
▁knitted	-12.6757
-----	-12.676
▁ALL	-12.6761
mity	-12.6763
▁defending	-12.6763
▁complaints	-12.6764
▁shards	-12.6765
▁earrings	-12.6765
▁ancestors	-12.6765
▁channels	-12.6765
▁orphans	-12.6765
▁preparations	-12.6765
▁skeletons	-12.6765
▁bookcases	-12.6765
▁haunts	-12.6765
▁boars	-12.6766
▁Jus	-12.6766
▁Stop	-12.6767
▁taunting	-12.6767
▁wonderingly	-12.6768
▁fretful	-12.6769
took	-12.677
▁treasured	-12.6772
▁insider	-12.6772
▁stored	-12.6773
▁misted	-12.6778
▁procur	-12.6779
▁frill	-12.6786
▁restraint	-12.6787
lines	-12.679
Pay	-12.679
▁WI	-12.6793
▁cring	-12.6794
▁journeyed	-12.6798
▁flags	-12.68
▁experiments	-12.6806
▁??``	-12.681
▁keepers	-12.6815
▁decree	-12.6817
▁Open	-12.6818
Hmmm	-12.682
▁spect	-12.6821
amo	-12.683
`.'	-12.6831
▁timetables	-12.6835
▁transformations	-12.6835
▁ripples	-12.6835
Goodness	-12.6838
getting	-12.6842
▁tickle	-12.6845
▁mot	-12.6845
kins	-12.6848
▁rocked	-12.6848
▁Di	-12.6849
▁desired	-12.6852
▁contacts	-12.6852
Yourself	-12.6857
▁achievements	-12.687
▁heated	-12.6872
▁dwarfs	-12.6905
▁locations	-12.6905
▁nutters	-12.6906
▁wrongly	-12.6908
▁calming	-12.6923
▁Comm	-12.6925
▁Man	-12.6925
Aqua	-12.6928
▁kinds	-12.693
▁Sit	-12.6936
▁criminals	-12.6941
▁textbooks	-12.6941
▁spines	-12.6944
case	-12.6944
heartedly	-12.6944
▁Conf	-12.6946
▁subjected	-12.6946
tom	-12.6956
▁compartments	-12.6957
raided	-12.696
▁Car	-12.6967
▁rays	-12.6976
▁bonds	-12.6976
▁courtrooms	-12.6976
▁vol	-12.6977
▁Snorkacks	-12.6984
ron	-12.6988
▁Goblins	-12.7003
▁reasoned	-12.7008
▁Making	-12.7009
▁raged	-12.7011
▁Dunno	-12.7022
ipping	-12.7027
▁barricade	-12.7053
▁concoct	-12.7057
▁lounge	-12.706
▁Evening	-12.7067
▁tarnish	-12.7073
▁towns	-12.7082
▁Bed	-12.7082
▁greetings	-12.7084
▁dila	-12.7094
reedy	-12.7099
▁wont	-12.7099
▁pods	-12.7107
▁vampires	-12.712
▁suggestions	-12.712
▁threats	-12.712
▁banners	-12.712
▁ladl	-12.7126
▁rasp	-12.7129
Ere	-12.713
▁charts	-12.7141
Du	-12.7148
rung	-12.7155
▁mouthfuls	-12.7156
▁titles	-12.7157
▁requires	-12.7158
▁disguises	-12.7158
▁barks	-12.7158
ture	-12.7159
▁colours	-12.7168
lled	-12.7176
▁Ice	-12.7179
▁plug	-12.718
ify	-12.718
▁angles	-12.7182
▁refuses	-12.7194
▁moans	-12.7194
▁accus	-12.7197
▁loo	-12.7211
▁explosions	-12.7229
▁protests	-12.7267
▁les	-12.7267
▁howls	-12.7267
▁lookouts	-12.7302
▁heaps	-12.7305
▁squeaks	-12.7305
▁si	-12.7318
▁mas	-12.7333
land	-12.7337
▁batch	-12.7344
▁ow	-12.7351
designed	-12.7354
oke	-12.7357
▁dribbl	-12.7359
▁Course	-12.7373
▁stacks	-12.7378
▁FL	-12.7382
▁scrubb	-12.7385
▁seating	-12.7399
▁lids	-12.7404
IR	-12.7432
▁trolleys	-12.7452
REE	-12.7457
▁pocketing	-12.747
▁te	-12.7478
▁pr	-12.7489
ded	-12.7494
lid	-12.7503
▁streams	-12.7529
gious	-12.7551
logy	-12.7559
▁experiences	-12.7567
OWLS	-12.7571
teenth	-12.7573
opping	-12.758
▁chanced	-12.7588
▁enjoys	-12.7604
ons	-12.7607
▁wade	-12.7608
▁Ford	-12.7613
▁flit	-12.7617
▁chop	-12.7618
▁duels	-12.7634
om	-12.764
▁paintings	-12.7641
▁wonders	-12.7645
ets	-12.765
▁stores	-12.7681
ggling	-12.7681
gu	-12.7684
mo	-12.772
▁busi	-12.7737
per	-12.7741
▁lettering	-12.7759
▁Beast	-12.7759
▁sweaters	-12.776
▁strangers	-12.7761
▁prise	-12.7764
rn	-12.7771
▁??`	-12.7772
▁joint	-12.7813
flating	-12.7821
▁Hi	-12.7849
▁ab	-12.7853
▁Per	-12.7853
gra	-12.7862
▁Lo	-12.7882
▁whoop	-12.7883
▁actions	-12.7888
ations	-12.7889
▁horrifi	-12.7902
sorted	-12.7904
▁Wil	-12.7906
▁skins	-12.7921
▁pa	-12.7922
Bu	-12.7926
▁Break	-12.7944
ards	-12.7952
▁cottages	-12.7952
▁butterbeers	-12.7952
▁carpets	-12.7953
hy	-12.7962
sle	-12.7965
▁situations	-12.7992
▁traces	-12.7994
▁proves	-12.7997
▁BA	-12.7997
▁ap	-12.8015
▁prop	-12.8027
▁trays	-12.803
▁killings	-12.8033
▁tour	-12.8045
▁fo	-12.8056
▁Cas	-12.8067
▁dedicate	-12.807
tained	-12.8077
▁silenced	-12.8108
▁wee	-12.8135
▁bites	-12.8144
▁sentences	-12.8151
▁Marauders	-12.8151
▁guid	-12.8156
▁Bob	-12.816
▁Reducto	-12.8164
sty	-12.8184
dded	-12.8194
pent	-12.82
ertie	-12.8207
ORD	-12.8223
▁scrub	-12.8233
udding	-12.8239
▁gravel	-12.8246
▁squelch	-12.8262
da	-12.8301
ure	-12.833
▁scrutini	-12.8335
printed	-12.8348
▁clo	-12.8352
▁planet	-12.8373
▁torment	-12.8386
Hard	-12.8388
▁Instant	-12.8398
▁scorch	-12.8404
▁Ask	-12.8407
Sh	-12.8418
▁accuse	-12.8421
au	-12.8424
▁hitch	-12.8449
tin	-12.8458
▁whiten	-12.8466
aving	-12.8474
vious	-12.8488
aught	-12.8497
▁Ar	-12.8501
aster	-12.8506
▁gar	-12.8514
▁engage	-12.852
▁active	-12.8545
▁ge	-12.8546
dgy	-12.8549
▁bowls	-12.8562
▁knob	-12.8565
part	-12.8571
`?	-12.8581
warts	-12.8588
z	-12.8593
very	-12.8595
afe	-12.8598
▁Mungos	-12.8604
ah	-12.8618
dden	-12.8623
▁peo	-12.8649
wig	-12.8652
ind	-12.8657
▁cur	-12.8657
ties	-12.8672
pressed	-12.8673
cre	-12.8683
lopping	-12.8686
IGH	-12.8695
ended	-12.8699
▁REAL	-12.8715
▁wobbl	-12.8717
front	-12.8725
YE	-12.8736
ines	-12.8737
had	-12.8754
oded	-12.8756
ssuming	-12.8759
▁whi	-12.8761
▁Trouble	-12.8769
▁TR	-12.8771
rested	-12.878
▁Were	-12.8786
▁handles	-12.8792
▁Less	-12.8799
▁snuff	-12.8805
verlasting	-12.8816
▁Seekers	-12.8818
▁fours	-12.882
HA	-12.8822
▁sec	-12.8836
ability	-12.8842
▁BIR	-12.8845
▁super	-12.8857
tified	-12.8873
worth	-12.8879
▁boo	-12.8888
▁submit	-12.889
▁transp	-12.8895
chart	-12.8905
▁fa	-12.8912
▁shove	-12.8913
▁corp	-12.8916
VES	-12.8927
▁pond	-12.8933
ock	-12.8934
bledore	-12.8938
▁overlook	-12.8939
even	-12.8942
Obliviate	-12.8944
awning	-12.895
▁myst	-12.8952
mate	-12.8959
▁Prewett	-12.896
▁bathrobe	-12.896
▁prince	-12.896
▁puddle	-12.896
▁commentator	-12.896
▁haunt	-12.896
▁trumpet	-12.8961
un	-12.8961
▁recipe	-12.8961
▁coil	-12.8964
raying	-12.897
ubble	-12.897
▁beats	-12.8972
▁boar	-12.8973
▁spear	-12.8973
▁dodge	-12.8974
▁log	-12.8976
▁Gurdyroot	-12.8978
▁phial	-12.8978
▁saucepan	-12.8978
▁code	-12.8978
▁relation	-12.8978
▁bandage	-12.8981
▁ou	-12.8982
▁privilege	-12.8985
▁invention	-12.8986
▁brat	-12.8986
▁vine	-12.8986
tray	-12.8986
▁opal	-12.8987
word	-12.8989
▁orphan	-12.899
▁ancestor	-12.899
▁channel	-12.899
▁preparation	-12.899
▁skeleton	-12.899
DO	-12.8991
bandoning	-12.8991
▁wit	-12.8992
▁bookcase	-12.8992
eal	-12.8993
▁earring	-12.8994
▁shard	-12.8994
▁dustbin	-12.8996
▁remark	-12.8996
▁Profes	-12.8997
▁occupant	-12.8998
▁cracker	-12.8999
▁decoration	-12.9
RR	-12.9002
▁pajama	-12.9003
▁ingredient	-12.9003
▁shoe	-12.9003
▁memo	-12.9003
▁Patronu	-12.9006
ong	-12.9006
▁sin	-12.901
Seven	-12.901
▁tryout	-12.9013
▁fr	-12.9018
ign	-12.9019
fore	-12.9021
app	-12.9028
▁fastening	-12.9028
▁holder	-12.904
witch	-12.9043
Under	-12.9045
▁def	-12.9048
▁digest	-12.9049
▁stays	-12.9054
▁Dragon	-12.9056
ided	-12.9056
wise	-12.9057
▁Dr	-12.9057
eno	-12.9062
▁lor	-12.9063
▁tur	-12.9063
▁outsider	-12.9064
breath	-12.9067
fall	-12.9067
ement	-12.9068
LET	-12.9068
▁ent	-12.9071
Fight	-12.9072
Family	-12.9073
Midnight	-12.9073
Tuney	-12.9073
Wit	-12.9073
Everard	-12.9073
view	-12.9073
▁staircases	-12.9078
Elf	-12.9078
specially	-12.9079
Answer	-12.908
Nasty	-12.908
grandson	-12.908
distinguishable	-12.908
▁migh	-12.908
Tut	-12.908
Straight	-12.9081
Clearly	-12.9082
Seriously	-12.9082
Odd	-12.9083
Drink	-12.9083
▁div	-12.9083
usual	-12.9084
▁buff	-12.9084
Trust	-12.9084
Gues	-12.9084
Sort	-12.9085
Bring	-12.9085
▁kep	-12.9085
HAVE	-12.9085
AND	-12.9085
Long	-12.9086
pin	-12.9086
worn	-12.9086
qualified	-12.9086
GRYFFINDOR	-12.9086
ALL	-12.9086
market	-12.9086
play	-12.9087
Gran	-12.9087
Loony	-12.9087
Other	-12.9087
Mars	-12.9087
balance	-12.9088
GO	-12.9088
Call	-12.9088
FOR	-12.9088
disguised	-12.9088
dum	-12.9088
figure	-12.9088
Mother	-12.9088
Together	-12.9088
Although	-12.9089
laden	-12.9089
Weird	-12.9089
lookin	-12.9089
bow	-12.9089
Bode	-12.9089
fine	-12.9089
proof	-12.9089
Stunned	-12.9089
School	-12.9089
girl	-12.9089
Travers	-12.909
Neither	-12.909
sentence	-12.909
Dolores	-12.909
Blast	-12.909
Magic	-12.909
Aragog	-12.909
Auror	-12.909
control	-12.909
wood	-12.909
McLaggen	-12.909
Headmaster	-12.909
Marge	-12.909
Divination	-12.909
Firenze	-12.909
about	-12.909
Greyback	-12.909
bend	-12.909
Pettigrew	-12.909
Angelina	-12.909
Buckbeak	-12.909
Skeeter	-12.909
order	-12.909
Ravenclaw	-12.909
deep	-12.909
Bagman	-12.909
awake	-12.909
until	-12.909
would	-12.909
good	-12.909
drunk	-12.909
Barty	-12.909
bird	-12.9091
framed	-12.9091
gown	-12.9091
home	-12.9091
must	-12.9091
team	-12.9091
Dean	-12.9091
acco	-12.9092
Went	-12.9093
steries	-12.9094
been	-12.9094
bull	-12.9095
empty	-12.9096
▁towers	-12.9096
Getting	-12.9096
mark	-12.9099
Ve	-12.91
string	-12.9101
best	-12.9101
listen	-12.9102
▁rap	-12.9102
does	-12.9103
Break	-12.9104
Along	-12.9104
Firstly	-12.9107
coat	-12.9107
ill	-12.9108
▁nudg	-12.9109
▁droop	-12.911
▁decipher	-12.911
EVE	-12.911
▁distress	-12.9111
mind	-12.9112
▁hush	-12.9114
itten	-12.9114
▁clamber	-12.9114
▁sputter	-12.9114
▁peel	-12.9115
▁mix	-12.9115
▁reflect	-12.9115
▁scoop	-12.9115
Charms	-12.9116
▁hammer	-12.9116
▁steer	-12.9116
▁echo	-12.9116
▁dash	-12.9116
▁tub	-12.9117
▁survey	-12.9117
▁leer	-12.9118
ject	-12.9118
iddikulus	-12.9118
into	-12.9118
▁foam	-12.912
▁scuff	-12.912
▁criticize	-12.912
▁enchant	-12.9121
▁drawl	-12.9121
▁drone	-12.9122
▁tack	-12.9122
▁marvel	-12.9123
▁organize	-12.9123
▁stu	-12.9124
▁intervene	-12.9124
▁croon	-12.9124
▁involuntar	-12.9125
▁stifle	-12.9125
▁stumble	-12.9126
▁aroun	-12.9126
▁resemble	-12.9126
▁imitate	-12.9126
▁confine	-12.9126
▁bleed	-12.9126
▁unite	-12.9127
▁interrogate	-12.9128
▁measur	-12.9128
▁wriggle	-12.9128
▁emptie	-12.9128
▁welled	-12.9128
▁emanat	-12.9128
▁flex	-12.9129
▁detest	-12.913
▁resum	-12.9131
▁achiev	-12.9131
▁obscur	-12.9131
ricks	-12.9131
▁crisscross	-12.9131
▁mistrust	-12.9131
▁squirt	-12.9131
▁shepherd	-12.9132
▁trundl	-12.9132
▁constrict	-12.9132
ttled	-12.9132
▁shrivel	-12.9132
▁thwart	-12.9132
▁appoint	-12.9132
▁basi	-12.9133
▁suspend	-12.9133
▁crook	-12.9133
▁operate	-12.9133
▁desert	-12.9133
going	-12.9134
▁fro	-12.9134
▁flare	-12.9135
▁associate	-12.9135
tual	-12.9135
▁filter	-12.9136
▁twitter	-12.9136
never	-12.9137
▁tube	-12.9137
holes	-12.9137
lax	-12.9137
▁sever	-12.9137
▁wicked	-12.9138
▁reign	-12.9138
stand	-12.9138
▁rash	-12.9138
Filth	-12.9138
▁jubilant	-12.9139
▁potential	-12.9139
▁skeptical	-12.9139
▁valiant	-12.9139
Coward	-12.9139
▁tremulous	-12.9139
▁dismal	-12.9139
▁rapid	-12.9139
▁thirst	-12.9139
▁solemn	-12.9139
▁hurtle	-12.9139
▁bulk	-12.9139
▁pep	-12.9141
ERO	-12.9141
mpty	-12.9141
ccasionally	-12.9142
▁fling	-12.9142
▁Silenc	-12.9142
▁moral	-12.9142
▁meaningful	-12.9142
▁tact	-12.9142
cowling	-12.9143
OY	-12.9143
Ooooo	-12.9143
dept	-12.9143
▁explosi	-12.9143
▁flop	-12.9143
▁shrunk	-12.9143
ractical	-12.9143
scribed	-12.9143
heeled	-12.9143
▁dyin	-12.9143
▁ecstatic	-12.9143
▁acqui	-12.9143
xperimental	-12.9143
engthening	-12.9143
ulking	-12.9143
▁apologetic	-12.9143
▁makin	-12.9143
reezing	-12.9143
▁Wors	-12.9143
geour	-12.9143
orrified	-12.9143
▁givin	-12.9143
▁reinforce	-12.9144
resolute	-12.9144
▁Clankers	-12.9144
Baddock	-12.9144
Darling	-12.9144
Frightened	-12.9144
Pathetic	-12.9144
Porpington	-12.9144
RAVENCLAW	-12.9144
Remove	-12.9144
SLYTHERIN	-12.9144
decker	-12.9144
libbering	-12.9144
uddleme	-12.9144
▁ALONE	-12.9144
▁AUNT	-12.9144
▁Accidental	-12.9144
▁Banshee	-12.9144
▁Bewildered	-12.9144
▁Bonaccord	-12.9144
▁Cadwallader	-12.9144
▁Corresponden	-12.9144
▁Country	-12.9144
▁Criminal	-12.9144
▁Eeylops	-12.9144
▁Fabian	-12.9144
▁Fancies	-12.9144
▁Fuming	-12.9144
▁Goshawk	-12.9144
▁Holyhead	-12.9144
▁INQUISITOR	-12.9144
▁Instinctively	-12.9144
▁Menagerie	-12.9144
▁Miranda	-12.9144
▁Occlumens	-12.9144
▁PLEASE	-12.9144
▁Pausing	-12.9144
▁Pellets	-12.9144
▁Permanent	-12.9144
▁Polkiss	-12.9144
▁Remover	-12.9144
▁Reversal	-12.9144
▁Robins	-12.9144
▁Royal	-12.9144
▁SHOULD	-12.9144
▁Spectrespecs	-12.9144
▁Spiders	-12.9144
▁Stoatshead	-12.9144
▁Stubby	-12.9144
▁Surrey	-12.9144
▁THREE	-12.9144
▁Taboo	-12.9144
▁Tibbles	-12.9144
▁Umbndge	-12.9144
▁Venus	-12.9144
▁Warbeck	-12.9144
▁abusing	-12.9144
▁activities	-12.9144
▁alchem	-12.9144
▁backpack	-12.9144
▁backseat	-12.9144
▁balcony	-12.9144
▁baleful	-12.9144
▁bartender	-12.9144
▁bawled	-12.9144
▁blandly	-12.9144
▁bleary	-12.9144
▁bloodstains	-12.9144
▁bonnet	-12.9144
▁buffeted	-12.9144
▁cactus	-12.9144
▁captive	-12.9144
▁casket	-12.9144
▁casserole	-12.9144
▁cathedral	-12.9144
▁cherub	-12.9144
▁clumsy	-12.9144
▁comparison	-12.9144
▁conspicuous	-12.9144
▁cornflakes	-12.9144
▁cotton	-12.9144
▁culminat	-12.9144
▁deliberation	-12.9144
▁deluge	-12.9144
▁dessert	-12.9144
▁disconsolate	-12.9144
▁discredit	-12.9144
▁dittany	-12.9144
▁elusive	-12.9144
▁emaciated	-12.9144
▁encircled	-12.9144
▁endurance	-12.9144
▁envy	-12.9144
▁excitable	-12.9144
▁exclamation	-12.9144
▁extensive	-12.9144
▁fascination	-12.9144
▁fiber	-12.9144
▁flabbergasted	-12.9144
▁flounc	-12.9144
▁generosity	-12.9144
▁grandeur	-12.9144
▁grievous	-12.9144
▁gunshot	-12.9144
▁hamburger	-12.9144
▁haphazardly	-12.9144
▁harness	-12.9144
▁havoc	-12.9144
▁haywire	-12.9144
▁hovel	-12.9144
▁incredulity	-12.9144
▁indication	-12.9144
▁indignity	-12.9144
▁infirmary	-12.9144
▁innumerable	-12.9144
▁insignificant	-12.9144
▁insubstantial	-12.9144
▁juicy	-12.9144
▁ketchup	-12.9144
▁mahogany	-12.9144
▁manacle	-12.9144
▁marriage	-12.9144
▁mediocre	-12.9144
▁meekly	-12.9144
▁menace	-12.9144
▁midriff	-12.9144
▁misfortune	-12.9144
▁misgivings	-12.9144
▁misleading	-12.9144
▁misunderstand	-12.9144
▁monument	-12.9144
▁mortified	-12.9144
▁multiply	-12.9144
▁ninth	-12.9144
▁obliterated	-12.9144
▁obliterating	-12.9144
▁observation	-12.9144
▁obsessive	-12.9144
▁opposition	-12.9144
▁ostentatiously	-12.9144
▁perturbed	-12.9144
▁plummeting	-12.9144
▁presume	-12.9144
▁pristine	-12.9144
▁privacy	-12.9144
▁queuing	-12.9144
▁rebirth	-12.9144
▁remedies	-12.9144
▁repulsed	-12.9144
▁reverence	-12.9144
▁riverbank	-12.9144
▁savior	-12.9144
▁sentinel	-12.9144
▁shrivelfig	-12.9144
▁singsong	-12.9144
▁skepticism	-12.9144
▁smattering	-12.9144
▁smoulder	-12.9144
▁snug	-12.9144
▁straightforward	-12.9144
▁sumptuous	-12.9144
▁talisman	-12.9144
▁tendency	-12.9144
▁thirtieth	-12.9144
▁treacherous	-12.9144
▁unaccompanied	-12.9144
▁unbearable	-12.9144
▁undamaged	-12.9144
▁unfolding	-12.9144
▁unpopular	-12.9144
▁unprecedented	-12.9144
▁unreasonable	-12.9144
▁vehement	-12.9144
▁voicing	-12.9144
▁waterlogged	-12.9144
Dinner	-12.9144
Eurgh	-12.9144
Farewell	-12.9144
Finite	-12.9144
Nonsense	-12.9144
VOLDEMORT	-12.9144
▁Fawcett	-12.9144
▁Fifteen	-12.9144
▁Kirke	-12.9144
▁Malcolm	-12.9144
▁NUMBER	-12.9144
▁bonus	-12.9144
▁contribute	-12.9144
▁editor	-12.9144
▁fungi	-12.9144
▁lamb	-12.9144
▁oblivion	-12.9144
▁palace	-12.9144
▁piano	-12.9144
▁putrid	-12.9144
▁queasy	-12.9144
▁retched	-12.9144
▁sabotage	-12.9144
▁smock	-12.9144
▁snuffbox	-12.9144
▁specific	-12.9144
▁trigger	-12.9144
▁unsuspect	-12.9144
▁ushering	-12.9144
▁wizardkind	-12.9144
Dissendium	-12.9144
proxim	-12.9144
▁Filius	-12.9144
▁Handbook	-12.9144
▁SUPPO	-12.9144
▁alternate	-12.9144
▁bulldog	-12.9144
▁burial	-12.9144
▁dumbfounded	-12.9144
▁flailed	-12.9144
▁gambling	-12.9144
▁gouging	-12.9144
▁groggy	-12.9144
▁isolated	-12.9144
▁ordeal	-12.9144
▁palmistry	-12.9144
▁peaky	-12.9144
▁radiant	-12.9144
▁recognizing	-12.9144
▁vengeance	-12.9144
Actually	-12.9144
Damn	-12.9144
▁Cakes	-12.9144
▁Immediately	-12.9144
▁enviously	-12.9144
▁external	-12.9144
▁memorial	-12.9144
▁recognition	-12.9144
▁twilit	-12.9144
Gerroff	-12.9144
Parents	-12.9144
▁Africa	-12.9144
▁Plimpies	-12.9144
▁WRONG	-12.9144
▁backyard	-12.9144
▁identification	-12.9144
▁nonexistent	-12.9144
▁spasm	-12.9144
▁trilled	-12.9144
▁Algie	-12.9144
▁END	-12.9144
▁Thick	-12.9144
▁cancelled	-12.9144
▁constitute	-12.9144
▁downcast	-12.9144
▁hawthorn	-12.9144
▁mermen	-12.9144
▁uncertainty	-12.9144
▁vermin	-12.9144
▁GREATE	-12.9144
▁beaver	-12.9144
▁diverted	-12.9144
▁merman	-12.9144
▁shark	-12.9144
▁wheedle	-12.9144
▁buoyant	-12.9144
▁enduring	-12.9144
▁grazing	-12.9144
▁mourning	-12.9144
wishers	-12.9144
▁boomslang	-12.9144
▁strawberry	-12.9144
▁taxi	-12.9144
▁tirelessly	-12.9144
ashio	-12.9144
▁Brock	-12.9144
▁Hastily	-12.9144
▁Hopefully	-12.9144
▁celebrity	-12.9144
▁contagious	-12.9144
▁courtesy	-12.9144
▁numerous	-12.9144
▁otter	-12.9144
onica	-12.9144
▁Medi	-12.9144
▁energetically	-12.9144
▁outcast	-12.9144
▁waistband	-12.9144
▁FATHER	-12.9144
▁beheading	-12.9144
▁expertise	-12.9144
▁foals	-12.9144
▁retribution	-12.9144
▁scald	-12.9144
▁scandalised	-12.9144
▁unsmiling	-12.9144
▁worthwhile	-12.9144
▁astride	-12.9144
▁contribution	-12.9144
▁deput	-12.9144
▁elapsed	-12.9144
▁repayment	-12.9144
▁Fail	-12.9144
▁kidnapped	-12.9144
▁peanuts	-12.9144
▁percent	-12.9144
▁toothbrush	-12.9144
YEH	-12.9144
▁nonstop	-12.9144
▁waddling	-12.9144
Awful	-12.9144
▁dismay	-12.9144
▁flowerpot	-12.9144
▁hazard	-12.9144
▁Barmy	-12.9144
▁Quest	-12.9144
▁acne	-12.9144
▁Peru	-12.9144
▁roam	-12.9144
▁strapping	-12.9144
▁tolerance	-12.9144
▁trade	-12.9144
▁tribe	-12.9144
▁Incantatem	-12.9144
DENTS	-12.9144
▁exert	-12.9144
Homework	-12.9144
▁Narrow	-12.9144
▁Rowena	-12.9144
▁jury	-12.9144
▁paragraph	-12.9144
▁LAST	-12.9144
▁ingenious	-12.9144
▁uneasily	-12.9144
▁sinew	-12.9144
Least	-12.9144
▁STILL	-12.9144
▁unbroken	-12.9144
▁banning	-12.9144
▁dismissal	-12.9144
▁garlic	-12.9144
▁simultaneously	-12.9144
▁marvelous	-12.9144
Slightly	-12.9144
[...]
