<unk>	0
<s>	0
</s>	0
[PAD]	0
,	-2.94117
.	-3.23071
▁the	-3.39408
'	-3.6652
▁to	-3.97139
▁and	-4.03104
▁`	-4.19285
▁of	-4.19617
▁a	-4.23909
s	-4.33793
▁Harry	-4.4257
▁he	-4.47794
▁was	-4.51921
▁said	-4.59801
▁his	-4.64568
▁in	-4.74405
▁it	-4.79615
▁you	-4.82962
▁	-4.92168
▁had	-4.92726
▁'	-4.95924
▁that	-4.97262
▁I	-5.00555
t	-5.1317
▁.	-5.13683
▁at	-5.15911
,`	-5.17807
▁on	-5.31301
▁him	-5.31848
.`	-5.32905
▁as	-5.34363
-	-5.3927
▁with	-5.41283
▁Ron	-5.465
▁for	-5.582
▁her	-5.59038
▁Hermione	-5.64138
?`	-5.65314
▁they	-5.65409
▁not	-5.66033
▁He	-5.68703
▁be	-5.74699
▁out	-5.78816
▁up	-5.79695
▁were	-5.81787
I	-5.81807
▁-	-5.83021
▁them	-5.85197
▁have	-5.85855
▁but	-5.8633
▁from	-5.86899
!`	-5.90077
▁all	-5.90172
▁she	-5.90479
;	-5.96161
▁into	-6.02863
▁been	-6.08958
▁back	-6.09469
▁what	-6.10087
▁Dumbledore	-6.12231
▁is	-6.12536
▁The	-6.16286
▁we	-6.20384
?	-6.2082
▁me	-6.20988
▁could	-6.23248
▁who	-6.24962
▁this	-6.26573
▁their	-6.3397
▁so	-6.34276
▁there	-6.35058
▁an	-6.36237
▁about	-6.36526
d	-6.37142
▁over	-6.3736
▁one	-6.39027
▁looked	-6.41262
▁down	-6.42229
▁like	-6.42793
▁know	-6.44097
▁would	-6.45009
▁now	-6.45683
▁do	-6.48467
ve	-6.48708
▁around	-6.48886
re	-6.49442
?'	-6.5007
▁by	-6.51527
,'	-6.51971
ing	-6.52544
▁just	-6.53835
▁did	-6.54772
!	-6.56605
▁got	-6.56616
▁if	-6.57882
▁your	-6.58429
▁then	-6.58661
▁more	-6.61832
▁Hagrid	-6.61879
▁very	-6.62014
▁when	-6.62731
▁can	-6.64347
▁see	-6.64606
▁again	-6.64903
ll	-6.65216
▁Professor	-6.65584
▁off	-6.66067
You	-6.66841
▁are	-6.67903
▁no	-6.68777
▁though	-6.69458
▁think	-6.72244
▁Snape	-6.72253
▁time	-6.73317
▁my	-6.75031
▁still	-6.77342
n	-6.7913
▁eyes	-6.79212
▁wand	-6.80078
▁get	-6.80327
▁don	-6.81196
▁face	-6.81776
▁looking	-6.82358
m	-6.83035
▁Weasley	-6.83415
▁through	-6.83919
▁It	-6.83981
▁--	-6.8642
▁right	-6.86499
▁voice	-6.87384
▁or	-6.87649
▁going	-6.88819
▁which	-6.92062
▁than	-6.93514
...	-6.93665
▁before	-6.93682
:	-6.95014
▁didn	-6.96946
▁̈C	-6.97889
▁go	-6.9789
!'	-6.98163
▁door	-6.98211
▁They	-6.99798
▁room	-7.00844
▁will	-7.00933
ed	-7.01362
▁too	-7.01585
▁Malfoy	-7.01975
▁here	-7.02219
What	-7.02797
▁thought	-7.03003
▁look	-7.0325
▁head	-7.0369
▁only	-7.0371
▁saw	-7.06609
▁how	-7.07374
He	-7.07482
▁Mr	-7.08334
▁other	-7.11436
▁hand	-7.11752
▁Voldemort	-7.12058
▁way	-7.13832
▁where	-7.14169
▁seemed	-7.14577
▁away	-7.151
▁something	-7.15276
▁himself	-7.15459
It	-7.16122
▁behind	-7.16441
▁asked	-7.16954
Harry	-7.1731
▁told	-7.1949
▁turned	-7.19811
▁Potter	-7.19965
▁come	-7.2026
▁Sirius	-7.21223
▁never	-7.21947
▁last	-7.22134
▁us	-7.22188
▁long	-7.22558
▁much	-7.24259
▁after	-7.24766
.'	-7.26597
▁knew	-7.27038
▁want	-7.27544
But	-7.28319
▁once	-7.30359
▁little	-7.30631
▁She	-7.3087
Well	-7.32021
▁You	-7.32312
▁And	-7.32573
▁first	-7.32731
`	-7.33666
▁two	-7.34193
▁heard	-7.34337
▁made	-7.3434
▁tell	-7.34552
▁left	-7.34902
▁moment	-7.35664
▁any	-7.35903
And	-7.36739
The	-7.36764
▁But	-7.36971
▁A	-7.37082
▁even	-7.37483
▁felt	-7.38342
▁say	-7.39051
▁Fred	-7.40014
We	-7.40392
▁some	-7.40645
▁people	-7.41338
No	-7.41528
▁There	-7.42014
▁good	-7.43373
▁really	-7.43454
▁Hogwarts	-7.43837
▁Mrs	-7.44475
▁might	-7.44642
.``	-7.44689
▁well	-7.44803
▁front	-7.4858
▁ever	-7.49347
Oh	-7.49506
▁has	-7.49606
▁...	-7.51299
▁Lupin	-7.52065
▁toward	-7.53064
▁George	-7.5357
▁came	-7.53693
▁feet	-7.55946
▁Neville	-7.57404
▁because	-7.57418
?``	-7.57671
▁must	-7.58138
▁its	-7.58642
▁Ginny	-7.59088
▁McGonagall	-7.59365
▁took	-7.59414
▁let	-7.59838
▁sure	-7.60753
▁make	-7.61608
▁anything	-7.61613
▁take	-7.62117
▁open	-7.62441
▁old	-7.63103
▁trying	-7.63382
▁table	-7.64569
▁few	-7.64586
▁went	-7.66463
▁another	-7.66727
▁inside	-7.67835
▁next	-7.6792
▁floor	-7.68752
▁while	-7.70083
▁under	-7.70476
▁find	-7.71034
▁large	-7.71244
▁own	-7.71449
▁put	-7.71976
▁three	-7.72814
▁thing	-7.74304
▁school	-7.75079
▁great	-7.75122
▁found	-7.75319
▁Umbridge	-7.75864
▁house	-7.7604
▁course	-7.76157
▁need	-7.77016
▁gave	-7.77295
▁seen	-7.77493
▁hear	-7.78964
▁stood	-7.7932
▁Ministry	-7.7969
▁nothing	-7.79869
▁Gryffindor	-7.79919
▁hands	-7.80375
▁why	-7.80926
▁-`	-7.80941
▁mean	-7.8114
▁end	-7.81599
▁pulled	-7.81902
▁night	-7.82206
▁hair	-7.82392
y	-7.83617
Yes	-7.83677
▁Death	-7.8437
▁upon	-7.8487
▁wanted	-7.85602
▁across	-7.85651
▁our	-7.85748
ly	-7.85802
▁bit	-7.86495
▁man	-7.86572
▁place	-7.86653
▁air	-7.87648
Yeah	-7.87828
▁each	-7.88291
▁both	-7.88891
▁being	-7.89339
▁black	-7.89344
▁without	-7.90203
▁every	-7.90518
▁side	-7.91266
▁done	-7.91369
▁happened	-7.91423
▁most	-7.91611
▁quite	-7.91781
▁does	-7.91828
▁against	-7.92055
▁couldn	-7.92127
▁Dark	-7.9243
▁dark	-7.92642
▁light	-7.93352
▁wasn	-7.93623
▁better	-7.93727
▁boy	-7.93995
▁doing	-7.94915
▁His	-7.95258
▁help	-7.96016
▁mind	-7.96524
▁enough	-7.9691
▁Vernon	-7.96947
▁along	-7.97257
▁else	-7.97923
▁second	-7.97995
▁Moody	-7.99545
▁wizard	-7.99666
▁keep	-7.9984
▁year	-8.00015
So	-8.00272
▁bed	-8.00791
▁Then	-8.01283
▁robes	-8.01741
▁already	-8.01921
▁years	-8.02055
▁walked	-8.02137
▁staring	-8.02767
▁should	-8.02952
▁half	-8.03226
▁small	-8.0336
▁hard	-8.03561
▁Uncle	-8.04077
▁fell	-8.04093
▁sat	-8.04368
▁set	-8.04556
▁mouth	-8.04881
▁those	-8.06041
▁gone	-8.0624
▁rather	-8.06261
Who	-8.06593
▁won	-8.06881
▁past	-8.07143
▁between	-8.07144
▁whispered	-8.07165
▁Fudge	-8.07459
▁suddenly	-8.08055
▁day	-8.08098
▁standing	-8.08362
▁give	-8.08602
▁--`	-8.09144
▁began	-8.09414
That	-8.09415
▁until	-8.09663
▁opened	-8.10038
▁these	-8.1006
▁many	-8.10194
▁tried	-8.11289
e	-8.11413
▁slightly	-8.11979
▁yet	-8.12069
▁sitting	-8.1221
▁onto	-8.12616
▁full	-8.13296
▁window	-8.13401
▁quickly	-8.13408
▁raised	-8.13903
▁Black	-8.14013
▁same	-8.14137
▁office	-8.14281
▁top	-8.1441
She	-8.14934
▁things	-8.15174
▁reached	-8.15349
▁talking	-8.15436
▁Quidditch	-8.15632
▁Dudley	-8.15664
▁castle	-8.16126
They	-8.16531
▁We	-8.16564
▁am	-8.16617
▁started	-8.16853
▁new	-8.17546
▁As	-8.17635
How	-8.18237
you	-8.1877
▁Lord	-8.18817
▁wouldn	-8.18994
▁able	-8.19167
▁ground	-8.19659
▁name	-8.20256
▁Slughorn	-8.20759
▁shouted	-8.21112
▁always	-8.21357
▁Percy	-8.21762
▁forward	-8.22029
▁almost	-8.22408
▁anyone	-8.22443
▁Dobby	-8.22882
▁together	-8.22927
▁coming	-8.22984
▁called	-8.2327
▁later	-8.2347
▁ter	-8.24078
A	-8.24275
▁yeh	-8.25097
There	-8.25198
▁father	-8.25682
▁arm	-8.25701
▁fire	-8.26443
▁feeling	-8.26489
....	-8.2668
▁however	-8.26685
▁feel	-8.26692
▁stared	-8.26707
▁far	-8.26727
▁work	-8.26929
▁wall	-8.27631
▁dead	-8.27763
▁watching	-8.28962
▁quietly	-8.29163
▁students	-8.29733
▁beside	-8.30536
▁whole	-8.30821
▁mother	-8.31608
▁Hall	-8.32052
▁rest	-8.32122
▁ask	-8.32257
▁Eaters	-8.32304
▁eye	-8.32914
▁idea	-8.32992
▁sight	-8.33826
▁outside	-8.33978
▁caught	-8.3402
▁everything	-8.34042
▁life	-8.34316
▁stop	-8.34719
!``	-8.34735
▁believe	-8.34773
▁read	-8.34887
▁kept	-8.34921
▁Slytherin	-8.35305
▁lot	-8.35474
▁stopped	-8.36104
▁everyone	-8.3618
▁When	-8.36188
▁words	-8.36333
▁slowly	-8.36403
▁whether	-8.36433
▁What	-8.37023
▁close	-8.37288
▁saying	-8.37354
▁passed	-8.37365
▁Muggle	-8.37449
▁muttered	-8.37918
▁supposed	-8.37997
▁best	-8.38158
▁If	-8.38326
▁getting	-8.38582
▁Luna	-8.39593
▁cold	-8.39753
▁word	-8.40224
▁class	-8.40376
▁Magic	-8.41029
▁someone	-8.41082
▁taken	-8.41085
▁Crouch	-8.41129
▁wizards	-8.41263
▁sir	-8.41434
▁Madam	-8.41519
▁leave	-8.42112
▁stone	-8.42175
▁sound	-8.42482
▁use	-8.42604
...`	-8.42687
Don	-8.42777
▁haven	-8.43034
If	-8.43048
▁holding	-8.43319
▁moved	-8.44081
▁nose	-8.44288
▁corridor	-8.44341
▁shoulder	-8.44498
▁silence	-8.45263
▁red	-8.45392
▁since	-8.45714
▁try	-8.4581
▁appeared	-8.45898
▁Cedric	-8.45952
▁alone	-8.46199
▁loudly	-8.4654
▁.`	-8.46712
▁making	-8.46949
▁empty	-8.47069
▁talk	-8.47071
▁wearing	-8.4724
▁taking	-8.47583
▁crowd	-8.4771
▁minutes	-8.47998
▁high	-8.48198
▁remember	-8.49009
Why	-8.49351
▁scar	-8.4988
▁silver	-8.5019
▁followed	-8.50622
▁towards	-8.50642
▁morning	-8.50988
▁magic	-8.51042
and	-8.51284
▁arms	-8.51447
▁watched	-8.51721
▁pointing	-8.5212
▁white	-8.52618
▁chair	-8.52953
▁pointed	-8.5312
▁heart	-8.5339
▁point	-8.53413
▁Riddle	-8.53453
▁sort	-8.53609
▁closed	-8.53685
▁corner	-8.54156
▁Petunia	-8.54564
▁Cloak	-8.54682
▁This	-8.54764
▁common	-8.54851
▁book	-8.54989
▁o	-8.55141
▁desk	-8.55142
▁understand	-8.55254
▁Bill	-8.55315
▁hit	-8.55483
▁thinking	-8.55674
▁several	-8.56298
▁Aunt	-8.56353
▁four	-8.56472
▁Minister	-8.56481
▁cloak	-8.5661
▁such	-8.56682
▁having	-8.56708
▁water	-8.5686
▁hall	-8.56971
▁That	-8.57018
▁shaking	-8.57805
▁body	-8.57893
Not	-8.57946
▁yes	-8.58112
▁others	-8.58289
er	-8.58405
▁family	-8.58532
▁Filch	-8.58582
▁usual	-8.59662
▁green	-8.60302
▁yelled	-8.60818
▁letter	-8.61036
▁sorry	-8.61228
▁held	-8.6143
▁given	-8.6186
▁used	-8.61956
▁parchment	-8.6196
▁team	-8.63694
but	-8.63878
▁speak	-8.64617
▁continued	-8.64787
▁hurried	-8.65085
▁telling	-8.65276
▁owl	-8.65531
▁Lockhart	-8.65536
▁added	-8.65601
▁moving	-8.65926
▁breath	-8.65949
Hermione	-8.66066
▁fast	-8.6607
Ron	-8.66082
▁Kreacher	-8.66085
▁wrong	-8.66359
▁kill	-8.66391
▁smile	-8.66628
▁Trelawney	-8.66751
▁lay	-8.66803
▁lost	-8.66803
▁fingers	-8.66837
▁ten	-8.67032
▁watch	-8.67204
▁books	-8.67282
▁move	-8.67804
▁answer	-8.67831
Know	-8.67841
▁At	-8.6811
▁either	-8.68812
▁fact	-8.68893
▁gold	-8.68906
▁low	-8.68985
▁pain	-8.69083
▁deep	-8.69125
▁died	-8.69352
▁shut	-8.69461
▁dear	-8.69503
▁matter	-8.69626
▁ran	-8.69658
▁bag	-8.69829
▁exactly	-8.70045
▁...`	-8.70104
....`	-8.70161
▁themselves	-8.70902
▁kitchen	-8.7103
▁turn	-8.71463
▁Great	-8.7149
▁Krum	-8.71498
▁straight	-8.72549
▁Goyle	-8.72621
▁days	-8.72698
▁five	-8.73218
▁spoke	-8.73353
▁tiny	-8.73479
▁returned	-8.73983
▁round	-8.74024
▁.'	-8.74229
S	-8.74259
▁nearly	-8.74382
▁Tonks	-8.74485
▁noise	-8.74507
▁dropped	-8.74787
▁shook	-8.74787
▁waiting	-8.74907
▁Bagman	-8.75268
▁bad	-8.75282
▁girl	-8.75409
▁Fleur	-8.7541
▁hope	-8.75641
▁above	-8.7568
▁parents	-8.75729
▁blood	-8.76086
▁least	-8.76124
▁turning	-8.76722
▁loud	-8.76969
▁ago	-8.77014
▁Crabbe	-8.77111
▁noticed	-8.77147
▁witch	-8.77727
▁short	-8.77867
▁also	-8.77925
▁Cho	-8.78021
▁foot	-8.78387
▁Dursleys	-8.78408
▁glass	-8.78417
▁darkness	-8.78445
▁seem	-8.78513
▁start	-8.78675
▁lying	-8.78948
▁stairs	-8.78984
▁steps	-8.79056
▁real	-8.79237
▁beneath	-8.79308
▁entered	-8.79334
▁kind	-8.79467
▁Draco	-8.7947
▁burst	-8.79525
▁snake	-8.79659
▁All	-8.80161
▁home	-8.80184
▁golden	-8.80715
▁``	-8.80739
▁sign	-8.81085
▁case	-8.81087
▁person	-8.81159
▁finished	-8.81693
▁sent	-8.81763
▁ceiling	-8.82117
Come	-8.82275
▁d	-8.82649
▁clear	-8.8277
▁leaving	-8.83085
▁whose	-8.83233
▁entrance	-8.83625
This	-8.83641
▁trouble	-8.83655
▁friends	-8.83673
▁please	-8.84027
▁For	-8.84181
▁staircase	-8.84453
▁run	-8.84481
▁Dean	-8.84569
My	-8.84729
▁In	-8.84849
▁threw	-8.85004
▁shall	-8.85061
Now	-8.85211
▁grounds	-8.85327
▁chance	-8.85586
Dumbledore	-8.8589
▁flew	-8.85983
▁arrived	-8.86017
▁stay	-8.86063
▁neck	-8.86334
▁hour	-8.86345
▁stuff	-8.8676
▁legs	-8.86847
▁managed	-8.87024
▁Christmas	-8.87503
▁ears	-8.87526
▁magical	-8.87558
▁times	-8.87699
▁thick	-8.87825
▁potion	-8.88348
▁free	-8.88449
▁pocket	-8.88586
▁chest	-8.88964
▁running	-8.88997
▁evening	-8.89468
▁glasses	-8.89604
▁Now	-8.89771
▁soon	-8.90014
▁doors	-8.90101
▁trunk	-8.90384
▁Hedwig	-8.9065
Good	-8.90842
▁nobody	-8.91061
▁glanced	-8.91129
▁longer	-8.91271
▁death	-8.91436
All	-8.91461
▁world	-8.9157
▁seized	-8.91602
▁became	-8.91603
▁match	-8.91798
▁near	-8.91889
▁S	-8.9195
▁vanished	-8.92109
▁number	-8.92588
▁Invisibility	-8.92623
▁woman	-8.92631
▁walls	-8.92652
▁hat	-8.92929
▁expression	-8.93597
▁perhaps	-8.93768
looking	-8.93805
▁So	-8.93947
▁except	-8.94226
▁wide	-8.94502
▁within	-8.94566
Where	-8.94597
▁care	-8.94606
▁friend	-8.94616
Er	-8.9465
▁enormous	-8.9472
▁Wood	-8.94832
▁Wormtail	-8.94879
▁ready	-8.95045
▁finally	-8.95851
▁herself	-8.9589
▁walking	-8.95955
▁says	-8.9596
▁stupid	-8.96354
▁angry	-8.96385
▁known	-8.96468
▁One	-8.96535
▁son	-8.96854
▁looks	-8.96896
▁pulling	-8.96996
▁thin	-8.97
▁met	-8.97623
▁call	-8.97945
▁seat	-8.98019
▁sword	-8.98024
▁happy	-8.98071
▁wait	-8.9832
Did	-8.98426
▁listening	-8.98706
▁killed	-8.98831
▁return	-8.98937
▁angrily	-8.99163
▁odd	-8.99238
▁flying	-8.99243
Professor	-8.99277
▁elf	-8.99327
▁broken	-8.9934
▁Bellatrix	-8.99437
▁dementors	-8.99571
▁question	-8.99602
▁week	-8.99701
▁pale	-8.99711
▁instead	-8.99727
▁anyway	-8.99753
▁Arts	-8.99765
▁broom	-8.99858
▁broke	-9.0014
a	-9.00255
▁smiling	-9.00304
▁clearly	-9.00333
▁tonight	-9.00509
▁Eater	-9.00817
▁memory	-9.00867
▁nodded	-9.00875
▁Seamus	-9.00905
▁true	-9.00928
▁stand	-9.01341
▁portrait	-9.0141
▁windows	-9.0141
▁completely	-9.01456
▁Azkaban	-9.01481
▁below	-9.01506
▁suppose	-9.01817
▁Prophet	-9.02161
▁Snitch	-9.02576
▁lesson	-9.02611
▁How	-9.02743
▁car	-9.02817
▁barely	-9.0319
▁repeated	-9.03763
▁less	-9.03784
▁James	-9.03962
▁spell	-9.04085
▁trees	-9.04204
▁s	-9.04311
▁meant	-9.04331
▁pair	-9.0502
▁un	-9.05063
▁forced	-9.05094
Look	-9.05157
▁seconds	-9.05423
▁dragon	-9.05588
▁Magical	-9.05598
▁job	-9.0563
▁reckon	-9.06079
▁hurt	-9.06111
▁shot	-9.06144
▁horrible	-9.06166
▁story	-9.06188
▁tears	-9.06367
▁fine	-9.06809
▁teacher	-9.06821
▁Albus	-9.0699
▁laugh	-9.07055
▁ahead	-9.07072
▁stepped	-9.07387
▁train	-9.07643
▁ought	-9.07968
▁wands	-9.08325
▁show	-9.08398
▁different	-9.08586
▁important	-9.08589
▁snapped	-9.08623
▁big	-9.08629
▁giving	-9.08629
▁happen	-9.08866
Are	-9.09214
▁middle	-9.09243
▁heads	-9.09415
▁young	-9.09453
▁lake	-9.09727
▁quiet	-9.09781
▁Muggles	-9.09914
▁hundred	-9.0996
▁expect	-9.10036
▁hours	-9.10077
▁blue	-9.10117
▁hold	-9.10353
▁Well	-9.10494
▁hidden	-9.10572
▁third	-9.11141
▁sky	-9.11147
▁Order	-9.11158
▁knows	-9.1121
▁whom	-9.11252
▁summer	-9.11449
Let	-9.12023
▁late	-9.12308
▁edge	-9.12335
▁probably	-9.12432
▁forest	-9.12836
▁silent	-9.13017
▁dangerous	-9.13023
▁Pomfrey	-9.13039
▁brought	-9.13054
▁pushed	-9.13076
▁bottle	-9.13163
▁led	-9.13224
he	-9.13513
in	-9.1371
▁roared	-9.13723
▁yourself	-9.13747
▁carrying	-9.13763
▁hardly	-9.13782
▁power	-9.13852
▁sounded	-9.13889
Of	-9.14059
▁during	-9.14344
▁possible	-9.14366
▁points	-9.14655
▁giant	-9.15295
▁part	-9.15318
▁bright	-9.15394
▁cried	-9.15664
▁laughed	-9.15765
▁expected	-9.15784
▁t	-9.15887
the	-9.15978
▁worse	-9.16368
▁couple	-9.1637
▁tree	-9.16571
▁nor	-9.1688
▁break	-9.16979
▁Crookshanks	-9.17095
▁sit	-9.17271
▁No	-9.17482
▁laughter	-9.17689
▁Hogsmeade	-9.17723
▁yeah	-9.17813
▁closer	-9.17815
▁Rita	-9.17828
▁Peeves	-9.17862
▁goblin	-9.17875
▁rose	-9.17976
▁covered	-9.18044
▁spot	-9.18232
▁drew	-9.18379
▁jumped	-9.18395
▁picked	-9.18417
▁aren	-9.1886
▁leg	-9.1903
▁funny	-9.1904
▁heavy	-9.19044
▁meet	-9.19051
▁Karkaroff	-9.19067
▁pleased	-9.19354
▁fear	-9.19384
▁may	-9.19794
▁realized	-9.19841
▁truth	-9.20404
em	-9.2059
▁difficult	-9.21051
▁simply	-9.21127
▁merely	-9.21139
▁stomach	-9.21139
▁indeed	-9.21141
▁sister	-9.21396
▁tent	-9.21722
Ah	-9.21986
D	-9.2227
▁Horcrux	-9.22518
▁gasped	-9.22559
▁tea	-9.22675
▁apart	-9.22687
▁walk	-9.23239
▁wondered	-9.23316
▁screamed	-9.23317
▁reason	-9.23384
▁slid	-9.23617
▁girls	-9.23736
▁aside	-9.23949
r	-9.23957
▁ear	-9.24003
▁myself	-9.24006
▁alive	-9.24024
▁dad	-9.24086
``	-9.24156
▁starting	-9.24195
▁Ravenclaw	-9.24286
▁become	-9.24357
▁cup	-9.24361
▁news	-9.24385
Just	-9.24623
▁teeth	-9.24694
▁breakfast	-9.24713
▁remained	-9.24748
▁joined	-9.24778
▁Winky	-9.25063
▁hole	-9.25227
▁Granger	-9.25248
Right	-9.25332
▁somebody	-9.25433
▁actually	-9.25447
▁picture	-9.25457
▁catch	-9.25549
▁fight	-9.25558
▁laughing	-9.25636
▁throat	-9.25694
▁needed	-9.25832
▁brother	-9.25995
▁carefully	-9.26182
▁leapt	-9.26275
▁remembered	-9.26381
▁direction	-9.26458
▁faces	-9.26472
▁master	-9.26494
▁street	-9.26496
▁field	-9.26547
▁terrible	-9.26903
▁dinner	-9.26915
▁bent	-9.27167
▁Why	-9.2726
▁mad	-9.27523
▁With	-9.27597
▁Against	-9.27651
▁somewhere	-9.27664
▁surprise	-9.2773
▁Lucius	-9.27784
o	-9.27999
▁paper	-9.28016
▁smiled	-9.28028
▁wing	-9.28089
▁worry	-9.28114
▁apparently	-9.28405
▁Lavender	-9.28452
▁sense	-9.28542
▁wants	-9.28758
▁wish	-9.28951
▁teachers	-9.29123
▁Daily	-9.29155
▁beyond	-9.29162
▁twenty	-9.29173
▁Flitwick	-9.2921
▁Scrimgeour	-9.29351
▁knees	-9.29442
▁safe	-9.29856
▁slipped	-9.29925
▁clutching	-9.29926
▁sharply	-9.2994
▁climbed	-9.29942
▁information	-9.29949
▁tightly	-9.29949
▁allowed	-9.30038
it	-9.30059
▁surprised	-9.30134
▁Her	-9.30504
▁sleep	-9.30505
Hagrid	-9.30512
▁nice	-9.30563
▁mirror	-9.30688
▁single	-9.30713
▁attention	-9.30715
▁decided	-9.30799
▁today	-9.31113
▁weren	-9.31399
▁After	-9.31403
▁Skeeter	-9.31536
▁Cup	-9.31545
▁huge	-9.31576
▁Potions	-9.31605
▁working	-9.31845
▁piece	-9.31889
▁lessons	-9.32305
▁living	-9.32319
▁closely	-9.32329
Do	-9.3243
▁hasn	-9.32432
▁itself	-9.32458
Eye	-9.32765
▁plan	-9.329
▁forehead	-9.33033
▁worried	-9.33034
▁forgotten	-9.33081
▁Griphook	-9.33252
▁On	-9.33569
▁shock	-9.33593
▁Diggory	-9.33639
▁bring	-9.33688
▁boys	-9.33743
▁hiding	-9.3386
▁upstairs	-9.33864
▁Charm	-9.33964
▁die	-9.3403
▁speaking	-9.3409
▁backward	-9.34278
▁opposite	-9.34628
▁happily	-9.34642
▁following	-9.34739
▁attack	-9.34745
▁filled	-9.34949
▁none	-9.35215
▁bottom	-9.35219
▁view	-9.35229
▁sudden	-9.354
▁gazing	-9.35448
▁hospital	-9.35449
▁box	-9.3545
▁afraid	-9.35458
▁pink	-9.3546
▁dog	-9.35471
▁Parvati	-9.35544
T	-9.35618
is	-9.3573
▁seeing	-9.3585
▁strange	-9.36133
▁note	-9.36357
▁Scabbers	-9.36378
As	-9.36457
▁lit	-9.36484
▁swung	-9.37063
▁extremely	-9.37087
▁purple	-9.37096
▁line	-9.37499
▁Buckbeak	-9.37968
Very	-9.38072
▁Mundungus	-9.38123
▁House	-9.38251
▁classroom	-9.38412
▁keeping	-9.38529
▁grinning	-9.38726
▁furiously	-9.38748
▁disappeared	-9.3875
Can	-9.38874
▁present	-9.38965
▁change	-9.39015
▁quill	-9.39237
▁C	-9.39414
▁okay	-9.39561
▁Quirrell	-9.39624
▁Angelina	-9.39643
▁placed	-9.39772
elf	-9.39902
▁live	-9.39999
▁cat	-9.40012
▁join	-9.40122
▁marble	-9.4018
▁listen	-9.40181
▁cut	-9.40222
▁dormitory	-9.40413
▁immediately	-9.4042
▁weeks	-9.40501
▁Curse	-9.41001
▁tail	-9.41169
▁hastily	-9.41267
▁strode	-9.41271
▁food	-9.41275
▁footsteps	-9.41291
▁knocked	-9.41306
▁six	-9.41306
▁whatever	-9.41375
▁Tom	-9.41554
▁step	-9.41811
▁P	-9.41869
▁figure	-9.41881
like	-9.42095
▁homework	-9.42133
▁powerful	-9.42138
▁bellowed	-9.42147
▁terrified	-9.42151
▁THE	-9.42151
▁Slytherins	-9.42156
▁wondering	-9.42224
▁waited	-9.42281
▁group	-9.42587
▁page	-9.42726
▁Severus	-9.4275
▁means	-9.42794
▁minute	-9.4291
▁library	-9.42998
▁landed	-9.43013
▁attacked	-9.43108
▁subject	-9.4327
that	-9.4335
▁cauldron	-9.43592
▁send	-9.43793
▁rolled	-9.43936
▁egg	-9.44164
▁Dad	-9.44393
▁staff	-9.44596
▁love	-9.44625
▁nervously	-9.44788
▁nearer	-9.4483
▁scared	-9.45065
▁touch	-9.4545
▁Arthur	-9.4548
▁bedroom	-9.45524
▁softly	-9.45678
▁Pettigrew	-9.45737
▁usually	-9.45775
▁cannot	-9.45789
▁wind	-9.45985
▁map	-9.46076
▁Hufflepuff	-9.46307
▁task	-9.46327
▁afternoon	-9.46437
▁meeting	-9.46441
▁path	-9.46452
▁twelve	-9.46553
▁firmly	-9.46559
▁shop	-9.47224
▁T	-9.4744
▁Myrtle	-9.47589
▁playing	-9.47592
▁visit	-9.47757
▁Mad	-9.48001
we	-9.48191
▁To	-9.48203
▁spent	-9.48388
▁Firebolt	-9.4841
▁particularly	-9.48414
▁showed	-9.48526
on	-9.4875
▁drink	-9.48854
▁reading	-9.4896
▁doubt	-9.48997
▁owls	-9.49167
▁locket	-9.49168
▁prophecy	-9.49307
▁halfway	-9.49326
▁Head	-9.49652
▁curse	-9.49823
▁Nick	-9.49824
▁secret	-9.50001
▁deal	-9.50025
▁cage	-9.50045
▁bathroom	-9.50072
▁normal	-9.50144
▁Tower	-9.50243
▁sideways	-9.50244
▁Katie	-9.50282
▁D	-9.50564
▁worked	-9.50579
▁explain	-9.50697
▁oh	-9.51009
▁copy	-9.51044
▁glad	-9.51159
▁cabin	-9.51175
▁Forest	-9.512
▁waving	-9.51219
▁asleep	-9.51254
▁tight	-9.51303
▁changed	-9.51455
▁Lily	-9.51576
▁mention	-9.51583
▁Fang	-9.51828
▁fallen	-9.52154
▁diary	-9.52157
▁heavily	-9.52158
▁certainly	-9.52176
▁Prime	-9.52178
▁finger	-9.52651
clock	-9.52686
▁Miss	-9.52954
▁spells	-9.53082
▁deserted	-9.53124
▁fixed	-9.53131
▁fighting	-9.53266
▁voices	-9.53324
▁beard	-9.53415
▁garden	-9.53477
to	-9.53479
▁cast	-9.53603
▁notice	-9.53605
Get	-9.53609
▁surface	-9.53625
▁corridors	-9.53715
▁Maxime	-9.54068
▁approached	-9.54093
Snape	-9.54096
▁beaming	-9.54107
▁dare	-9.54147
▁crossed	-9.54159
▁missed	-9.54176
▁earth	-9.5421
▁Charlie	-9.54226
▁forget	-9.54661
▁broomstick	-9.54838
▁Madame	-9.54889
▁skin	-9.54996
▁sank	-9.55057
▁hoping	-9.5506
▁scarlet	-9.55061
▁leaned	-9.55092
▁brightly	-9.55098
▁tall	-9.55101
▁throwing	-9.55155
▁falling	-9.55175
▁Ollivander	-9.55176
▁ball	-9.55223
▁pass	-9.55571
▁brain	-9.55618
When	-9.55639
▁shoulders	-9.55679
▁trembling	-9.56041
▁frowning	-9.56055
▁nasty	-9.5606
▁hanging	-9.56063
▁unless	-9.56068
▁poor	-9.5607
▁grass	-9.56089
▁anger	-9.56366
▁fall	-9.5672
▁Not	-9.5684
▁Weasleys	-9.56902
▁quick	-9.56951
▁stretched	-9.57131
▁hurrying	-9.5714
▁maybe	-9.57208
▁Where	-9.5732
▁seven	-9.57415
▁Two	-9.57431
▁often	-9.57482
▁using	-9.57512
▁force	-9.5773
▁hot	-9.57765
▁further	-9.58049
▁eagerly	-9.58058
▁perfectly	-9.58063
▁eyebrows	-9.5816
▁My	-9.58533
▁attempt	-9.58663
Maybe	-9.58835
▁months	-9.58917
▁distant	-9.59038
▁busy	-9.59103
▁putting	-9.59123
▁save	-9.59135
▁Department	-9.59141
▁row	-9.59706
▁practice	-9.59741
▁fifty	-9.60098
▁snarled	-9.60104
▁tomorrow	-9.60111
▁Ernie	-9.60146
▁facing	-9.60149
▁Lee	-9.60163
▁pressed	-9.60305
es	-9.60355
▁dream	-9.60648
▁check	-9.60686
▁scream	-9.60704
▁conversation	-9.60845
▁problem	-9.61024
▁muttering	-9.6108
▁fly	-9.61115
▁impatiently	-9.61148
▁unable	-9.6115
▁nearest	-9.61151
▁invisible	-9.61165
▁YOU	-9.61197
▁inches	-9.61222
▁waved	-9.61275
▁whisper	-9.61573
▁shouldn	-9.62017
E	-9.62093
▁nervous	-9.62158
▁luck	-9.62178
▁term	-9.6219
▁neither	-9.62195
▁echoed	-9.62198
▁pretty	-9.62218
C	-9.62252
▁witches	-9.62257
▁soul	-9.62277
▁showing	-9.62424
▁fer	-9.62471
▁early	-9.62529
▁handed	-9.62748
▁An	-9.63022
▁seems	-9.63115
▁frightened	-9.63274
▁drawing	-9.63341
▁Greyback	-9.63357
▁thrown	-9.63371
Your	-9.63469
▁wonder	-9.63653
▁flat	-9.63734
Have	-9.6423
▁goblet	-9.64234
▁determined	-9.64306
▁split	-9.64332
▁grabbed	-9.64333
▁obviously	-9.64353
▁growled	-9.6437
▁gray	-9.6438
▁form	-9.64389
▁emerged	-9.64401
▁liked	-9.64456
▁questions	-9.64469
▁screaming	-9.64474
▁Mum	-9.64903
▁control	-9.64947
▁lips	-9.64982
▁asking	-9.65173
Because	-9.65318
▁position	-9.65366
▁hesitated	-9.65434
▁spotted	-9.65506
less	-9.65537
▁Wizarding	-9.65583
▁passing	-9.65606
▁hissed	-9.65875
▁soft	-9.66129
▁Even	-9.66284
▁fault	-9.66376
▁cupboard	-9.66483
enophilius	-9.66491
▁business	-9.66508
▁shrieked	-9.66553
▁human	-9.66585
▁badly	-9.66592
▁Did	-9.66624
▁rain	-9.66936
▁flames	-9.67036
▁thinks	-9.67228
Is	-9.673
▁dungeon	-9.67548
▁carried	-9.67633
▁twice	-9.67653
▁anymore	-9.67658
▁Kingsley	-9.67811
▁tables	-9.68485
▁pitch	-9.6852
▁headmaster	-9.687
▁wake	-9.68754
▁stuck	-9.68776
▁Patronus	-9.68787
▁fresh	-9.68787
▁writing	-9.68795
▁Mark	-9.68802
▁reach	-9.68901
▁B	-9.68983
▁ill	-9.69122
▁sun	-9.69203
of	-9.69386
▁trust	-9.69524
Mr	-9.69718
▁Bludger	-9.69836
▁midair	-9.69889
▁familiar	-9.69893
▁definitely	-9.69921
▁easy	-9.69956
▁Sprout	-9.69961
▁sounding	-9.70365
▁helped	-9.70433
In	-9.70473
▁play	-9.70751
▁pause	-9.70837
▁Dursley	-9.70882
▁danger	-9.7089
▁student	-9.70971
▁Potion	-9.70986
▁hung	-9.70991
▁hide	-9.71033
▁wooden	-9.71052
Listen	-9.71074
▁worst	-9.71083
▁shouting	-9.71133
▁rising	-9.71135
▁Horcruxes	-9.71151
▁yer	-9.71169
▁Nearly	-9.7144
▁bound	-9.715
▁follow	-9.71546
or	-9.71748
Potter	-9.71769
▁teach	-9.7197
▁pile	-9.71978
▁snow	-9.72098
▁shining	-9.72205
▁downstairs	-9.72217
▁halt	-9.72226
▁Just	-9.72233
▁Chamber	-9.72255
▁letters	-9.72281
▁leading	-9.72308
▁party	-9.72323
▁However	-9.72533
▁smell	-9.73027
P	-9.7303
▁village	-9.73294
▁creatures	-9.73299
▁sharp	-9.73349
▁Drive	-9.73376
▁Privet	-9.73377
▁Stone	-9.73392
▁understood	-9.73395
▁gleaming	-9.73395
▁hearing	-9.73405
▁seriously	-9.73406
▁seats	-9.73415
▁highly	-9.73488
▁coldly	-9.73497
▁lifted	-9.73516
▁growing	-9.73566
▁Longbottom	-9.73591
▁worth	-9.74073
▁objects	-9.74142
▁tone	-9.74435
Dobby	-9.74519
▁Quaffle	-9.74568
▁excitement	-9.7457
▁glittering	-9.74579
▁excitedly	-9.74596
▁louder	-9.74678
▁packed	-9.74702
▁eh	-9.74903
▁age	-9.7518
▁b	-9.75222
▁pull	-9.75236
▁Charms	-9.75278
▁re	-9.75321
See	-9.7571
▁thanks	-9.75754
▁nine	-9.75759
▁Triwizard	-9.75774
▁properly	-9.75799
▁soared	-9.75803
▁warning	-9.75815
▁swept	-9.75858
▁lucky	-9.75905
▁Every	-9.76211
Then	-9.76289
▁Once	-9.76307
▁Dementors	-9.76377
W	-9.76418
▁champions	-9.76672
▁?	-9.76735
▁escape	-9.76791
▁furious	-9.7696
▁scene	-9.76987
▁famous	-9.77022
▁somehow	-9.77026
▁aware	-9.77029
▁sighed	-9.77036
▁interested	-9.77045
▁Oh	-9.77047
▁birthday	-9.77048
▁Gringotts	-9.77063
▁burning	-9.77088
▁tip	-9.77148
▁moments	-9.77211
haired	-9.77265
Go	-9.77324
▁Three	-9.77588
▁names	-9.77655
▁patch	-9.77797
▁avoid	-9.78016
▁careful	-9.78199
▁certain	-9.78205
▁relief	-9.78226
▁dunno	-9.78254
▁learned	-9.78293
▁deeply	-9.7832
▁Was	-9.78386
▁solid	-9.78442
▁saved	-9.7846
▁surely	-9.78531
▁holidays	-9.78741
h	-9.78765
▁bet	-9.78887
▁Who	-9.78897
▁eat	-9.7895
up	-9.79272
▁bin	-9.79411
▁sick	-9.79464
▁slammed	-9.79477
▁impression	-9.79478
▁anybody	-9.79503
▁thoughts	-9.7951
▁Headless	-9.79522
▁grip	-9.79523
▁shortly	-9.79566
▁recognized	-9.79579
▁Defense	-9.7968
▁sped	-9.79694
▁fit	-9.797
Sorry	-9.79704
▁ink	-9.7979
▁lived	-9.79843
▁thank	-9.79891
▁breathing	-9.79979
▁H	-9.80102
▁rock	-9.80409
▁R	-9.80598
Here	-9.80607
▁Stan	-9.80695
▁calmly	-9.80769
▁ghost	-9.80777
▁spider	-9.80813
▁By	-9.80832
▁higher	-9.80892
▁horror	-9.80904
▁size	-9.80919
▁rid	-9.8108
▁smoke	-9.81745
▁lift	-9.8191
▁strong	-9.81971
▁cool	-9.81977
▁knowing	-9.82025
▁list	-9.82029
▁lunch	-9.82048
▁landing	-9.82056
▁everybody	-9.82062
▁lowered	-9.82117
▁joke	-9.8218
▁mine	-9.82207
year	-9.82411
▁order	-9.82472
▁crack	-9.82531
▁sounds	-9.82971
▁rang	-9.83053
▁hurry	-9.83192
▁expelled	-9.83326
▁anxiously	-9.83353
▁written	-9.83355
▁Room	-9.8338
▁Transfiguration	-9.83385
▁clothes	-9.8342
▁effort	-9.83431
▁detention	-9.83432
▁cover	-9.83464
▁Fat	-9.83498
Voldemort	-9.83505
▁square	-9.83709
faced	-9.83905
▁likely	-9.84317
▁headed	-9.84388
▁remain	-9.84469
▁panic	-9.84629
▁money	-9.84636
▁lie	-9.84734
▁creature	-9.84758
▁prefect	-9.84762
▁compartment	-9.84777
▁yellow	-9.8478
▁silvery	-9.84912
▁happening	-9.84934
▁Wand	-9.85112
▁twins	-9.85132
▁realize	-9.85794
▁mistake	-9.85937
▁extra	-9.85969
▁Pensieve	-9.85972
▁dragged	-9.85972
▁uncle	-9.85976
▁dozen	-9.85988
▁desperately	-9.85999
▁distance	-9.86006
▁anywhere	-9.86033
▁movement	-9.86122
▁escaped	-9.862
▁cleared	-9.8624
▁double	-9.86253
▁wings	-9.86284
▁ones	-9.86571
Be	-9.869
▁mum	-9.86959
▁Lady	-9.8732
▁act	-9.87324
▁impossible	-9.87325
▁protection	-9.87326
▁directly	-9.87329
▁nearby	-9.87337
▁flung	-9.87354
▁blank	-9.87371
▁drop	-9.87417
▁missing	-9.87448
▁bell	-9.87835
▁c	-9.88013
▁bar	-9.88076
▁members	-9.881
▁fat	-9.88133
▁narrow	-9.88357
▁glance	-9.88581
▁serious	-9.88687
▁ugly	-9.88692
▁peering	-9.8872
▁final	-9.88724
▁suggested	-9.88751
▁werewolf	-9.8879
▁agreed	-9.88826
▁attempted	-9.88827
▁sometimes	-9.8886
▁platform	-9.88875
▁Cornelius	-9.88884
▁feast	-9.88918
▁contact	-9.88919
▁Phineas	-9.88979
▁St	-9.89005
▁wood	-9.89064
as	-9.89365
▁believed	-9.89677
▁Gryffindors	-9.89678
▁Everyone	-9.8977
▁rage	-9.89981
▁excited	-9.90051
▁panted	-9.90087
▁fury	-9.901
▁jet	-9.90127
▁children	-9.90146
▁locked	-9.90268
▁month	-9.90349
▁curtains	-9.90476
▁loads	-9.90546
▁Their	-9.90557
▁write	-9.90609
Nothing	-9.90641
▁post	-9.90737
▁Perhaps	-9.90892
▁heading	-9.91141
▁game	-9.91282
▁everywhere	-9.91509
▁Borgin	-9.91553
▁Divination	-9.91621
▁wild	-9.91647
▁touched	-9.91652
▁explained	-9.91661
▁harder	-9.9176
▁h	-9.91866
For	-9.92015
▁forwards	-9.92195
Thank	-9.92287
▁space	-9.92838
▁anxious	-9.92897
▁opening	-9.92909
▁struggling	-9.9292
▁Alley	-9.92932
▁among	-9.92943
▁glancing	-9.92954
▁rat	-9.92986
▁Come	-9.92986
▁miss	-9.93038
▁Firenze	-9.9305
▁shocked	-9.93121
▁paused	-9.93176
▁Galleons	-9.9325
▁breaking	-9.93404
▁calm	-9.94143
▁gaze	-9.94164
▁interest	-9.94202
▁spread	-9.94235
▁previous	-9.94334
▁World	-9.94365
▁Sorting	-9.94375
▁Colin	-9.944
▁basin	-9.9441
▁raising	-9.94416
Sirius	-9.94431
▁marched	-9.94448
▁dived	-9.94459
▁finish	-9.94536
▁Aberforth	-9.94638
▁Lovegood	-9.94672
▁wished	-9.94704
elves	-9.94715
▁doorway	-9.94716
Never	-9.95021
▁support	-9.95045
▁hoped	-9.95097
▁goblins	-9.95471
▁choice	-9.95561
▁suit	-9.95581
▁imagine	-9.95635
▁hundreds	-9.95691
▁guard	-9.95786
▁confused	-9.95797
▁lower	-9.95808
▁delighted	-9.95848
▁twisted	-9.95854
▁London	-9.9587
▁shadow	-9.9592
▁fun	-9.95938
▁Ludo	-9.96003
▁fireplace	-9.96124
▁brown	-9.96137
▁pure	-9.9615
▁er	-9.96248
▁Nobody	-9.96629
at	-9.96765
▁Gr	-9.96802
▁weight	-9.96949
▁complete	-9.9706
▁shadows	-9.97064
His	-9.97141
▁win	-9.97306
ness	-9.9732
▁Godric	-9.97329
▁therefore	-9.97344
▁swallowed	-9.97344
▁Creatures	-9.97346
▁murmured	-9.97354
▁demanded	-9.97373
▁Frank	-9.97396
▁visible	-9.97399
▁warm	-9.97409
▁settled	-9.97411
▁burned	-9.97418
▁ripped	-9.9743
▁although	-9.97605
▁fourth	-9.97695
▁mood	-9.97755
al	-9.97761
▁chairs	-9.97783
▁goal	-9.97806
▁lead	-9.98164
▁G	-9.98314
▁continue	-9.98651
▁ring	-9.9874
▁reveal	-9.9875
▁echoing	-9.98853
▁useful	-9.98853
▁failed	-9.98883
▁Marge	-9.98986
▁interesting	-9.98992
▁gazed	-9.9906
▁passage	-9.99142
▁appearance	-9.99159
▁armchair	-9.99173
▁color	-9.99194
▁Ogden	-9.99215
▁clean	-9.99285
▁expecting	-9.99316
▁wave	-9.99708
▁unpleasant	-10.0035
▁grinned	-10.0039
▁baby	-10.0039
▁panting	-10.0039
▁leaning	-10.0044
An	-10.0044
▁ignored	-10.0054
▁forgot	-10.0061
▁checking	-10.0069
▁O	-10.0069
▁statue	-10.0074
▁state	-10.0076
▁plate	-10.0082
▁level	-10.0083
▁m	-10.013
▁dust	-10.0168
▁F	-10.0179
▁Burrow	-10.0194
▁brilliant	-10.0195
▁nodding	-10.0196
▁peered	-10.0197
▁Grawp	-10.0197
▁kicked	-10.0198
▁received	-10.0201
▁caused	-10.0205
▁crying	-10.0206
▁McLaggen	-10.0209
▁teaching	-10.0214
▁attempting	-10.0217
▁slip	-10.022
▁Hallows	-10.0222
▁Of	-10.0227
▁tower	-10.0233
▁upward	-10.0244
st	-10.0248
▁Prince	-10.025
▁awake	-10.0272
One	-10.029
▁leaves	-10.0297
▁grave	-10.0318
▁decide	-10.0333
▁throw	-10.0337
▁Place	-10.0353
▁examining	-10.0354
▁easily	-10.0355
▁Saturday	-10.0357
▁Durmstrang	-10.0361
▁pretending	-10.0364
▁brave	-10.0367
▁bang	-10.0371
▁dressed	-10.0372
▁crystal	-10.0378
▁essay	-10.0393
▁notes	-10.0407
▁fellow	-10.0416
Kreacher	-10.0432
▁Let	-10.0472
▁flash	-10.048
▁buy	-10.0502
▁pay	-10.0504
▁Do	-10.0513
▁dragons	-10.0514
▁wife	-10.0514
▁dirty	-10.0517
▁abruptly	-10.0517
▁knife	-10.0518
▁smashed	-10.052
▁excellent	-10.0522
▁handsome	-10.0523
▁Narcissa	-10.0567
Thanks	-10.058
▁Some	-10.0601
▁wizarding	-10.062
▁jus	-10.0621
▁speed	-10.0645
▁finding	-10.0652
▁inch	-10.0666
▁helping	-10.0666
▁slight	-10.0673
▁innocent	-10.0675
▁desperate	-10.0675
▁stadium	-10.0678
▁glaring	-10.0679
▁tournament	-10.0679
▁Requirement	-10.0679
th	-10.0679
▁curled	-10.068
▁difference	-10.0681
▁wrote	-10.0682
▁simple	-10.0683
▁dying	-10.0685
▁History	-10.0686
▁pushing	-10.0687
▁classes	-10.0689
▁realised	-10.0689
M	-10.0691
▁keen	-10.0694
▁difficulty	-10.0695
▁security	-10.0701
▁calling	-10.0724
▁wanting	-10.0734
▁lose	-10.0738
▁figures	-10.0743
▁weak	-10.0767
▁......	-10.0768
▁Don	-10.0784
Okay	-10.0785
▁jump	-10.079
▁Something	-10.0791
▁risk	-10.0806
▁crash	-10.082
▁Your	-10.0833
▁cry	-10.0834
▁eleven	-10.0843
▁Elder	-10.0845
▁shout	-10.0846
▁floating	-10.0847
▁tired	-10.0848
▁wildly	-10.0848
▁roar	-10.085
▁grew	-10.0855
▁removed	-10.0856
▁bought	-10.0858
▁journey	-10.0863
▁stands	-10.0865
▁stick	-10.0865
▁socks	-10.0876
▁champion	-10.0893
▁favorite	-10.0893
▁Most	-10.0897
▁lives	-10.0908
▁dementor	-10.0911
▁p	-10.0965
▁Or	-10.0968
en	-10.0974
▁grin	-10.0988
▁whistle	-10.0992
▁orders	-10.0997
▁badge	-10.1006
▁striding	-10.1015
▁dancing	-10.1015
▁Pansy	-10.1018
▁beat	-10.1022
▁overhead	-10.1025
▁instructions	-10.1031
▁Hat	-10.1036
▁tied	-10.1038
▁stare	-10.1041
▁circle	-10.1047
▁mark	-10.1048
▁Gaunt	-10.1065
▁Bathilda	-10.1066
▁clearing	-10.1066
ubbly	-10.1071
▁fist	-10.1076
Hello	-10.1109
▁ha	-10.1116
▁enter	-10.1154
▁dress	-10.1154
▁lights	-10.1155
▁slow	-10.1156
▁private	-10.1183
▁rubbish	-10.1187
▁stunned	-10.1187
▁gigantic	-10.1187
▁possibly	-10.1187
▁planning	-10.1187
▁clutched	-10.1188
▁company	-10.1188
▁taught	-10.1189
▁Nigellus	-10.1189
▁gently	-10.119
▁filthy	-10.1192
▁squeaked	-10.1194
▁Grimmauld	-10.1199
▁frozen	-10.12
▁mentioned	-10.1204
▁Morfin	-10.1207
▁Fawkes	-10.1208
▁rolling	-10.1214
▁aunt	-10.1215
▁sleeping	-10.1217
▁answered	-10.1227
▁vault	-10.1229
▁staying	-10.1233
▁carriage	-10.1241
▁Seeker	-10.1244
▁M	-10.1268
▁King	-10.1274
▁Molly	-10.128
bye	-10.1299
▁stars	-10.1312
Hi	-10.1315
▁fully	-10.1316
▁makes	-10.133
▁spiral	-10.1337
▁learn	-10.1343
▁w	-10.1344
▁upset	-10.1348
▁Had	-10.1349
▁dull	-10.1357
▁phoenix	-10.136
▁Norris	-10.1362
▁midnight	-10.1362
▁surrounded	-10.1363
▁zoomed	-10.1364
▁battle	-10.1365
▁considered	-10.1366
▁sprinted	-10.1367
▁discovered	-10.1369
▁losing	-10.1371
▁oddly	-10.1372
▁struggled	-10.1373
▁becoming	-10.1375
▁Master	-10.1386
▁count	-10.1387
▁dreams	-10.1392
▁eating	-10.1399
▁handle	-10.1412
▁breathed	-10.1415
▁Secrets	-10.1417
i	-10.1425
▁mass	-10.1447
▁E	-10.1448
▁i	-10.1467
▁welcome	-10.1521
▁wonderful	-10.1537
▁obvious	-10.1538
Plank	-10.1539
▁disappointed	-10.1541
▁croaked	-10.1542
▁fought	-10.1543
▁folded	-10.1545
▁reminded	-10.1545
▁interrupted	-10.1547
▁whenever	-10.1552
▁convinced	-10.1554
▁sending	-10.1568
▁stuffed	-10.1587
▁Before	-10.1595
▁photograph	-10.1597
▁message	-10.1601
▁surrounding	-10.1601
▁tongue	-10.161
▁lawn	-10.1631
Must	-10.1635
▁men	-10.1684
▁OK	-10.1692
▁carry	-10.1709
▁spiders	-10.1712
▁station	-10.1714
▁terror	-10.1716
▁crept	-10.1722
▁admit	-10.1723
▁memories	-10.1723
▁scrambled	-10.1725
▁applause	-10.1727
▁ages	-10.1732
▁bowed	-10.1733
▁deeper	-10.1741
▁Both	-10.1744
▁temper	-10.1752
▁Grindelwald	-10.1757
▁bank	-10.1762
▁lamp	-10.1762
▁effect	-10.1764
▁places	-10.1777
▁lap	-10.1785
▁newspaper	-10.1786
▁sleeve	-10.1787
▁sea	-10.1847
▁draw	-10.1863
▁brooms	-10.1868
▁powers	-10.1879
▁Yes	-10.1886
▁faint	-10.1891
▁Hollow	-10.1908
▁including	-10.1908
▁sunlight	-10.1908
▁pleasure	-10.1909
▁straightened	-10.191
▁entirely	-10.191
▁shrugged	-10.1912
▁warned	-10.1913
▁refused	-10.1914
R	-10.1918
▁sparks	-10.1922
▁laid	-10.1923
▁imagined	-10.1934
▁envelope	-10.1945
▁drawn	-10.1947
▁bow	-10.1949
▁struck	-10.1958
▁goes	-10.1961
▁Half	-10.1964
▁tunnel	-10.1973
▁Delacour	-10.1974
▁object	-10.1974
▁toilet	-10.1974
▁dropping	-10.1976
▁People	-10.1982
▁From	-10.1982
▁Headmaster	-10.1988
▁test	-10.2002
Please	-10.202
B	-10.2086
▁Figg	-10.2087
▁Hooch	-10.2096
▁Alicia	-10.2096
▁evidence	-10.2096
▁clapped	-10.2097
▁staggered	-10.2097
▁thoroughly	-10.2097
▁vaguely	-10.2097
▁massive	-10.2098
▁bitterly	-10.2098
▁singing	-10.21
▁weather	-10.21
▁fifth	-10.21
▁OF	-10.2102
▁glared	-10.2103
▁Muriel	-10.2109
▁Diagon	-10.211
▁prepared	-10.211
▁contents	-10.2112
▁eight	-10.2113
▁aloud	-10.2114
▁cracked	-10.2115
▁appear	-10.212
▁whispering	-10.2122
▁fake	-10.2128
▁troll	-10.2158
▁Mungo	-10.2165
▁hippogriff	-10.2166
able	-10.2169
▁road	-10.2177
▁Auror	-10.2184
eyed	-10.2227
▁amount	-10.2238
Course	-10.2248
▁Keeper	-10.2251
▁due	-10.2261
▁clever	-10.2283
▁smooth	-10.2284
▁Tournament	-10.2289
▁beautiful	-10.2289
▁country	-10.2289
▁causing	-10.2289
▁impressed	-10.2291
▁closing	-10.2292
▁relieved	-10.2293
▁Several	-10.2293
▁Beauxbatons	-10.2293
▁mist	-10.2293
▁Peter	-10.2297
▁Regulus	-10.2298
▁dashed	-10.2298
▁muffled	-10.2298
▁portraits	-10.2304
At	-10.2316
▁bringing	-10.232
▁Remus	-10.232
▁darkly	-10.2321
▁pick	-10.2323
▁Viktor	-10.2325
mon	-10.2341
▁shown	-10.2346
▁wore	-10.235
▁skull	-10.2362
▁rules	-10.2368
Ginny	-10.2402
▁hate	-10.2403
▁lip	-10.2409
▁bowl	-10.2409
▁brothers	-10.2409
us	-10.2417
▁marks	-10.2432
Really	-10.2446
▁pretend	-10.2453
▁blame	-10.2463
▁study	-10.2464
▁raise	-10.2466
▁moon	-10.2475
▁beak	-10.2484
▁plenty	-10.2485
▁families	-10.2485
▁proud	-10.2486
▁spectacles	-10.2492
▁picking	-10.2498
▁offered	-10.2498
▁kindly	-10.2503
▁murder	-10.2528
▁blow	-10.2533
▁trunks	-10.2542
▁older	-10.2543
▁crowded	-10.2545
▁High	-10.2558
▁bird	-10.2568
▁horse	-10.2571
▁backed	-10.2578
▁plates	-10.2633
Sir	-10.2666
▁shake	-10.2679
▁irritably	-10.2685
▁mumbled	-10.2686
▁grimly	-10.2686
▁wiping	-10.2688
▁pounding	-10.2689
▁wear	-10.269
▁wrapped	-10.2691
▁dreadful	-10.2691
▁knocking	-10.2698
▁checked	-10.2712
▁till	-10.2716
est	-10.2725
▁gets	-10.273
▁eggs	-10.2737
▁barrier	-10.2764
▁centaur	-10.2767
▁centaurs	-10.2806
▁handing	-10.2809
▁giants	-10.2852
▁bottles	-10.2854
Master	-10.2858
▁discuss	-10.2865
▁search	-10.2868
▁Anyway	-10.2878
▁dry	-10.2881
▁painful	-10.2886
▁buried	-10.2889
▁replied	-10.2889
▁rubbing	-10.2889
▁jar	-10.2889
▁occurred	-10.2889
▁curious	-10.289
▁fiercely	-10.2891
▁wrenched	-10.2891
▁curiously	-10.2892
▁blinked	-10.2892
▁W	-10.2896
▁dusty	-10.2898
▁Ariana	-10.2898
▁counter	-10.2898
▁silently	-10.2899
▁Defence	-10.2903
▁roots	-10.2909
▁Only	-10.2909
▁Jordan	-10.2912
▁jinx	-10.2914
▁Next	-10.2919
▁nowhere	-10.2944
▁Can	-10.2956
▁clock	-10.297
▁exam	-10.2971
▁larger	-10.2974
▁exams	-10.3018
▁bear	-10.3031
l	-10.3061
▁ended	-10.3062
Like	-10.3073
▁cave	-10.3076
▁persuade	-10.3077
▁destroy	-10.3088
▁godfather	-10.3097
▁Mysteries	-10.3097
▁branches	-10.3098
▁wedding	-10.3099
▁shelves	-10.3102
▁ignoring	-10.3102
▁safely	-10.3106
▁setting	-10.3108
▁flight	-10.3111
▁seventh	-10.3114
▁self	-10.3115
▁remaining	-10.3119
▁younger	-10.3122
▁Rosmerta	-10.3126
▁stayed	-10.3136
▁yell	-10.3154
▁pages	-10.3173
▁Pigwidgeon	-10.3182
▁chamber	-10.3189
Malfoy	-10.3191
▁evil	-10.3193
▁pool	-10.3195
▁abou	-10.3205
▁member	-10.3216
years	-10.3226
an	-10.3227
▁protect	-10.3277
▁knock	-10.3282
▁desire	-10.3287
▁rush	-10.3292
Only	-10.3296
▁child	-10.3304
g	-10.3305
▁unconscious	-10.3306
▁pub	-10.331
▁thirteen	-10.331
▁vast	-10.3311
▁bleeding	-10.3311
▁snatched	-10.3312
▁instantly	-10.3313
▁ourselves	-10.3313
▁seventeen	-10.3313
▁startled	-10.3314
▁Phoenix	-10.3315
▁Occlumency	-10.3315
▁beamed	-10.3316
▁searching	-10.333
▁chosen	-10.333
down	-10.3346
▁Yaxley	-10.3354
▁lock	-10.336
▁report	-10.3371
▁grown	-10.3372
▁cross	-10.3384
▁sink	-10.3387
▁charm	-10.3387
▁Cattermole	-10.3403
Or	-10.3407
▁Cauldron	-10.3408
Got	-10.343
▁pictures	-10.3444
▁special	-10.347
▁lies	-10.348
▁song	-10.3499
▁woke	-10.3516
▁swear	-10.3517
Yeh	-10.3526
▁circular	-10.3527
▁bewildered	-10.3527
▁tapped	-10.3528
▁icy	-10.3529
▁breathlessly	-10.3529
▁hopefully	-10.3529
▁weird	-10.353
▁grunted	-10.353
▁moaned	-10.353
▁barked	-10.3531
▁Thomas	-10.3532
▁blankly	-10.3532
▁Binns	-10.3534
▁yours	-10.3537
▁enjoying	-10.354
▁yelling	-10.3542
▁Care	-10.3545
▁Barty	-10.3547
▁Sir	-10.355
▁Justin	-10.355
Weasley	-10.3553
▁bearing	-10.3553
▁Doge	-10.3558
▁hated	-10.3581
▁ward	-10.3584
▁elbow	-10.3627
▁excuse	-10.3627
▁cabinet	-10.3628
▁chocolate	-10.3629
ion	-10.3634
▁vision	-10.3635
▁plans	-10.3637
▁backwards	-10.3638
▁Nothing	-10.3664
▁noises	-10.367
▁accept	-10.3703
ers	-10.3703
▁matters	-10.3705
white	-10.3721
▁damage	-10.3728
Excellent	-10.3739
▁TO	-10.374
▁sprang	-10.3749
▁presence	-10.3749
▁permission	-10.375
▁whipped	-10.375
▁clenched	-10.375
▁replaced	-10.3751
▁indignantly	-10.3751
▁injured	-10.3752
▁sweeping	-10.3752
▁juice	-10.3752
▁forcing	-10.3753
▁bodies	-10.3754
▁changing	-10.3756
▁greatest	-10.3756
▁coat	-10.3756
blood	-10.3758
▁Parkinson	-10.376
▁Map	-10.3761
▁rise	-10.3762
▁spat	-10.3764
▁Herbology	-10.3765
▁Aragog	-10.377
▁trick	-10.3773
▁played	-10.3778
▁listened	-10.3791
▁suggest	-10.3827
Would	-10.3833
born	-10.3834
▁frame	-10.3839
▁quills	-10.3839
▁cloud	-10.3854
▁package	-10.3854
quot	-10.3859
▁clue	-10.3863
▁spoken	-10.3866
▁keeps	-10.3871
▁Hog	-10.3886
▁needs	-10.3912
▁Someone	-10.3941
▁promise	-10.3958
▁steal	-10.3962
by	-10.3963
Blimey	-10.3975
▁Forbidden	-10.3977
▁wardrobe	-10.3977
▁evidently	-10.3977
▁connection	-10.3977
▁choked	-10.3978
▁faded	-10.398
▁jerked	-10.3981
▁exploded	-10.3982
▁thud	-10.3983
▁annoyed	-10.3983
▁soaring	-10.3985
▁exchanged	-10.3986
▁alarmed	-10.3986
▁concerned	-10.3988
if	-10.3991
▁sinking	-10.3992
▁spun	-10.3992
▁heaved	-10.3992
▁orange	-10.3992
▁cheerful	-10.3998
▁armor	-10.4001
▁balls	-10.4015
▁sixteen	-10.4018
my	-10.4019
▁brains	-10.4019
▁training	-10.4029
Hey	-10.4034
▁allow	-10.4044
what	-10.4048
▁lined	-10.4054
▁sensation	-10.4077
▁hats	-10.4082
▁monster	-10.4087
▁Spell	-10.4087
▁signs	-10.4092
▁pieces	-10.4102
▁DA	-10.4126
▁boat	-10.4134
▁cheek	-10.415
▁Have	-10.4181
▁mustache	-10.4181
▁chose	-10.4193
▁Imperius	-10.4199
abini	-10.4207
▁Smith	-10.4209
▁Moaning	-10.4209
▁ancient	-10.4209
▁sobbing	-10.421
▁horrified	-10.4211
▁sneered	-10.4213
▁sobbed	-10.4213
▁guilty	-10.4213
▁diadem	-10.4214
▁coolly	-10.4215
▁enchanted	-10.4215
▁Gilderoy	-10.422
▁stolen	-10.4226
▁beating	-10.424
▁toad	-10.4243
▁hang	-10.4245
▁Finally	-10.4247
▁ice	-10.4252
▁Little	-10.4253
▁pockets	-10.4287
▁strength	-10.4305
▁bother	-10.4307
▁shape	-10.4308
▁lines	-10.4317
ish	-10.4322
▁pumpkin	-10.4324
▁cousin	-10.4324
▁passageway	-10.4324
▁possession	-10.4325
▁source	-10.4328
▁daughter	-10.4336
▁building	-10.4338
▁burn	-10.4351
▁righ	-10.4361
▁board	-10.4366
▁card	-10.4377
▁mate	-10.4405
▁glimpse	-10.4426
▁foolish	-10.4443
▁N	-10.4446
▁liquid	-10.4447
▁stories	-10.4447
▁dragging	-10.4447
▁International	-10.4447
▁rapidly	-10.4447
▁uncomfortable	-10.4448
▁Entrance	-10.4448
▁noticing	-10.4449
▁erupted	-10.4449
▁foul	-10.4451
▁emerging	-10.4455
Anyway	-10.4456
▁strangely	-10.4457
▁metal	-10.446
▁stopping	-10.4465
▁roll	-10.4475
▁gotten	-10.4477
▁upside	-10.4485
▁forever	-10.449
▁wishing	-10.4492
▁catching	-10.4492
▁curses	-10.4519
▁gates	-10.4541
▁handkerchief	-10.4559
▁Marauder	-10.4565
▁article	-10.4567
▁weapon	-10.4567
▁unicorn	-10.4568
▁track	-10.4578
▁born	-10.4578
▁sentence	-10.4587
▁Still	-10.4607
▁damp	-10.4619
▁Mudblood	-10.462
Fine	-10.4622
because	-10.464
--	-10.4659
▁perfect	-10.4676
▁dance	-10.4678
▁speech	-10.4688
▁de	-10.4689
▁rattling	-10.4691
▁earlier	-10.4691
▁opportunity	-10.4691
▁miserably	-10.4691
▁extraordinary	-10.4691
▁dangling	-10.4691
▁spinning	-10.4691
▁miserable	-10.4691
▁briskly	-10.4692
▁silly	-10.4692
▁fair	-10.4692
▁sofa	-10.4693
▁squealed	-10.4693
▁lightning	-10.4693
▁weakly	-10.4695
▁Creevey	-10.4696
▁awful	-10.4697
After	-10.47
On	-10.4701
▁overheard	-10.4702
▁murdered	-10.4703
▁lately	-10.4704
▁wiped	-10.4705
▁concealed	-10.4707
▁Broomsticks	-10.4708
▁dressing	-10.4714
▁Gregorovitch	-10.4725
▁cloaks	-10.4727
▁knowledge	-10.473
...``	-10.473
▁acting	-10.4738
Was	-10.4743
About	-10.4747
▁wine	-10.4757
▁gap	-10.4761
▁trip	-10.4762
▁talked	-10.4769
▁torn	-10.4789
-`	-10.4796
▁arrival	-10.4816
▁decision	-10.4821
▁yard	-10.4826
▁fists	-10.4854
▁date	-10.4873
▁sweet	-10.4877
red	-10.4891
Neville	-10.4894
▁toast	-10.49
▁flame	-10.4917
▁alarm	-10.4918
▁manage	-10.4921
▁Go	-10.4922
Wait	-10.4923
▁oak	-10.4923
Give	-10.4929
▁grey	-10.4936
▁powder	-10.4937
▁Nimbus	-10.4941
▁Express	-10.4941
▁fifteen	-10.4941
▁easier	-10.4941
▁reply	-10.4941
▁horribly	-10.4941
▁accompanied	-10.4942
▁sadly	-10.4942
▁hitting	-10.4945
▁clicked	-10.4945
▁bench	-10.4947
▁Finnigan	-10.4947
▁Bones	-10.4947
▁safety	-10.4947
▁squeezed	-10.4948
▁approaching	-10.4949
▁suspected	-10.495
▁paid	-10.4951
▁center	-10.4952
With	-10.4952
▁ingredients	-10.4953
▁examined	-10.4959
▁hungry	-10.496
▁sticking	-10.4961
Named	-10.4962
Nice	-10.4963
Which	-10.4963
▁faster	-10.4968
▁fangs	-10.497
To	-10.4981
ity	-10.4987
▁sliding	-10.4988
▁bones	-10.499
▁feelings	-10.499
▁ensure	-10.4993
▁sides	-10.4993
▁insides	-10.5005
▁loved	-10.5006
ave	-10.5014
▁Apparate	-10.5037
▁poison	-10.5042
c	-10.5058
▁fool	-10.506
▁f	-10.5062
▁password	-10.5073
▁idiot	-10.5077
▁Spells	-10.5079
▁Captain	-10.5085
▁jacket	-10.5091
ry	-10.5092
▁thousand	-10.5093
▁prefer	-10.5097
well	-10.5129
▁cared	-10.5137
▁tha	-10.5156
▁L	-10.5167
▁recognize	-10.5177
▁froze	-10.5181
▁ignore	-10.5183
▁velvet	-10.519
▁feeble	-10.519
▁suspicious	-10.5194
▁drank	-10.5197
▁veela	-10.5197
▁Thousand	-10.5197
▁dormitories	-10.5198
▁frantically	-10.5198
▁telephone	-10.5198
▁necklace	-10.5198
▁underneath	-10.5198
▁positively	-10.5198
▁truly	-10.5198
▁reflected	-10.5198
▁swooped	-10.5199
▁outstretched	-10.52
▁sixth	-10.5201
▁ribs	-10.5202
▁perched	-10.5202
▁groaned	-10.5202
▁ducked	-10.5202
▁amongst	-10.5203
▁Monday	-10.5203
▁Though	-10.5209
▁shadowy	-10.521
▁Bertha	-10.5215
▁sooner	-10.5218
▁pressing	-10.5219
▁jumping	-10.5219
▁comes	-10.5224
▁dis	-10.5225
▁loss	-10.5228
▁Bell	-10.5232
▁screams	-10.525
▁Would	-10.5257
▁rounded	-10.5259
▁returning	-10.526
▁candles	-10.5267
▁agree	-10.5294
▁wound	-10.5324
▁prospect	-10.5327
▁Quibbler	-10.5339
▁Lestrange	-10.5343
▁chain	-10.5348
▁horses	-10.5352
no	-10.5356
Could	-10.5357
▁chin	-10.5373
▁tray	-10.5374
▁pack	-10.5376
▁houses	-10.5387
▁meaning	-10.5399
▁killing	-10.5423
Shut	-10.5432
▁sweat	-10.5436
▁push	-10.5439
▁See	-10.5446
▁gang	-10.5447
▁unusual	-10.5457
▁bulging	-10.546
▁yesterday	-10.5461
▁quivering	-10.5464
▁illuminated	-10.5464
▁ordinary	-10.5466
▁Marietta	-10.5466
▁Brown	-10.5467
▁collapsed	-10.5467
▁conjured	-10.5467
▁letting	-10.547
▁ashamed	-10.5472
▁rows	-10.5474
▁flashed	-10.5476
▁Polyjuice	-10.5479
▁boxes	-10.548
▁Dolores	-10.5485
▁Neither	-10.5485
▁proof	-10.5485
Take	-10.5486
▁supporters	-10.5492
▁casting	-10.5504
▁friendly	-10.5508
▁smaller	-10.5513
▁Yet	-10.5556
▁prove	-10.5573
so	-10.5584
▁trace	-10.5584
▁future	-10.56
▁situation	-10.5604
▁serpent	-10.5607
▁wrist	-10.5608
L	-10.5626
▁Aurors	-10.563
▁law	-10.5639
▁sigh	-10.565
OK	-10.5651
▁Very	-10.5661
▁horn	-10.5669
▁mess	-10.5678
▁bite	-10.5702
▁beds	-10.5704
▁prevent	-10.5707
▁blast	-10.5711
▁ghosts	-10.5716
▁correct	-10.5718
▁steam	-10.5723
Me	-10.5729
▁Cross	-10.5731
▁Leaky	-10.5731
▁basilisk	-10.5731
▁slumped	-10.5731
▁tapestry	-10.5731
▁seizing	-10.5731
▁crouched	-10.5731
▁gathered	-10.5734
▁suspiciously	-10.5734
▁shivering	-10.5735
▁bedside	-10.5735
▁shooting	-10.5737
▁involved	-10.5739
▁stronger	-10.574
▁nostrils	-10.574
▁guessed	-10.574
▁steady	-10.5741
▁destroyed	-10.5743
▁bending	-10.5744
▁Flint	-10.5749
▁normally	-10.5754
▁Travers	-10.5756
▁AND	-10.5758
▁visited	-10.5762
▁greet	-10.5765
Someone	-10.5774
▁Ted	-10.5799
ING	-10.5814
▁lied	-10.5815
▁add	-10.5838
▁carpet	-10.5873
▁opinion	-10.5878
▁butterbeer	-10.5882
▁servant	-10.5883
▁cottage	-10.5888
led	-10.5894
▁bags	-10.5913
▁cause	-10.5925
▁Look	-10.5933
Hang	-10.5935
▁prefects	-10.5982
▁perform	-10.5985
▁glow	-10.599
▁spare	-10.5993
▁shield	-10.5998
▁spend	-10.6
▁Could	-10.6
▁leather	-10.6001
▁particular	-10.6005
▁instant	-10.6007
▁rude	-10.6008
▁bloke	-10.6008
▁husband	-10.6009
▁crumpled	-10.6009
▁pouring	-10.601
▁exhausted	-10.6011
▁shade	-10.6011
▁wheeled	-10.6012
▁swirling	-10.6012
▁faintly	-10.6013
▁hurtled	-10.6014
▁racing	-10.6014
▁Instead	-10.6015
▁swinging	-10.6015
▁distinctly	-10.6015
▁released	-10.6018
▁wherever	-10.6018
▁misty	-10.6018
▁trapped	-10.6018
▁upper	-10.6019
▁Stunning	-10.6021
▁pretended	-10.6022
enthusiastically	-10.6022
legged	-10.6024
▁traveling	-10.6033
Arthur	-10.6052
▁offer	-10.6066
▁dawn	-10.6081
▁heels	-10.6093
▁sneak	-10.6099
▁Good	-10.6104
▁guess	-10.611
▁....	-10.6126
▁height	-10.6137
▁...'	-10.6145
▁interview	-10.6147
▁clouds	-10.6158
▁boggart	-10.6166
▁accident	-10.6168
▁argument	-10.6169
▁gargoyle	-10.6169
▁weekend	-10.6172
▁Ha	-10.6175
▁Un	-10.6184
▁record	-10.6219
▁dislike	-10.6274
▁drive	-10.6277
▁thrust	-10.6281
one	-10.629
▁BE	-10.6291
acharias	-10.6293
▁absence	-10.6294
▁motionless	-10.6294
▁squinting	-10.6295
▁happier	-10.6297
▁twisting	-10.6298
▁smirking	-10.6299
▁parcel	-10.63
not	-10.63
▁screwed	-10.6301
▁addressed	-10.6302
le	-10.6303
▁dully	-10.6306
▁Behind	-10.6307
▁Norbert	-10.6307
▁searched	-10.6308
▁madly	-10.6308
▁otherwise	-10.6308
▁Disapparated	-10.6309
▁widely	-10.6311
▁thickly	-10.6314
▁sack	-10.6319
▁happens	-10.632
▁miles	-10.6326
▁bits	-10.6328
▁blond	-10.6344
▁l	-10.6344
pitched	-10.635
▁Minerva	-10.6354
▁hurting	-10.6357
ling	-10.636
▁signed	-10.6368
sized	-10.6383
▁potions	-10.6387
▁More	-10.64
▁ropes	-10.64
▁silk	-10.6402
▁remembering	-10.6409
▁presents	-10.6412
▁OWL	-10.6432
▁rule	-10.6437
▁hut	-10.6438
▁cheeks	-10.6444
▁cutting	-10.6461
▁Portkey	-10.6463
▁nerve	-10.6476
▁gate	-10.6477
▁hedge	-10.648
Mum	-10.6499
▁ways	-10.6511
ful	-10.6516
▁rope	-10.6554
▁wet	-10.6561
Fred	-10.6569
▁pairs	-10.6571
Y	-10.6572
▁hollow	-10.6574
▁share	-10.6583
▁flesh	-10.6584
▁hint	-10.6586
Exactly	-10.6587
▁grab	-10.6588
▁advice	-10.6588
▁Dolohov	-10.6588
▁gliding	-10.6588
▁happiness	-10.6588
▁Willow	-10.6589
▁uncertainly	-10.6589
▁urgently	-10.659
▁forgive	-10.6591
▁farther	-10.6591
▁fork	-10.6591
▁tipped	-10.6591
ily	-10.6592
▁smoothly	-10.6593
▁alongside	-10.6594
▁depths	-10.6594
▁lane	-10.6594
▁continuing	-10.6596
▁roughly	-10.6596
▁flatly	-10.6597
▁progress	-10.6598
▁r	-10.6601
▁Patil	-10.6601
▁clatter	-10.6604
▁performed	-10.6605
▁mud	-10.6606
▁discussing	-10.6608
▁Oliver	-10.6609
▁bored	-10.6609
▁pop	-10.661
▁hooded	-10.6616
▁towering	-10.6616
Blood	-10.6617
▁dreamed	-10.6618
▁satisfied	-10.6622
▁rushed	-10.6627
▁Maybe	-10.6647
▁details	-10.665
Everyone	-10.6653
▁iron	-10.6654
▁broomsticks	-10.666
Indeed	-10.6684
▁waste	-10.6685
Does	-10.67
▁gasp	-10.6729
▁lack	-10.673
▁measure	-10.6749
▁charge	-10.6751
▁clipboard	-10.6755
▁emerald	-10.6755
for	-10.676
▁stool	-10.6763
▁explanation	-10.6765
▁bat	-10.6767
▁cake	-10.678
▁twin	-10.6781
▁key	-10.6784
▁action	-10.6801
▁regret	-10.6801
▁-'	-10.682
▁Tell	-10.6841
Mrs	-10.6841
▁owner	-10.6848
▁examine	-10.6865
▁bald	-10.6874
Lupin	-10.6885
▁mysterious	-10.6888
▁illegal	-10.6888
▁proper	-10.6889
▁duty	-10.6891
▁threshold	-10.6891
▁shrugging	-10.6891
▁shiny	-10.6891
▁protective	-10.6891
▁swayed	-10.6892
▁crammed	-10.6892
▁suspended	-10.6892
▁hushed	-10.6893
▁darted	-10.6894
▁drifted	-10.6894
▁proceeded	-10.6894
ic	-10.6894
▁broad	-10.6896
▁maze	-10.6897
▁thoughtfully	-10.6897
▁Montague	-10.6898
▁accidentally	-10.6898
▁steadily	-10.69
▁pajamas	-10.6905
▁NOT	-10.6907
▁Fire	-10.6911
▁bore	-10.6913
▁dungeons	-10.6914
▁School	-10.6919
▁sake	-10.6919
▁Please	-10.6923
▁avoiding	-10.6926
▁reaching	-10.6931
▁upright	-10.6934
▁mistaken	-10.6936
▁Meanwhile	-10.6948
Stop	-10.6951
▁rumors	-10.6956
Tell	-10.6958
▁While	-10.6969
old	-10.6985
▁kids	-10.6988
▁chains	-10.7025
▁hissing	-10.7035
▁shriek	-10.7043
▁papers	-10.7069
▁holiday	-10.7081
▁Boy	-10.7105
▁public	-10.7165
▁fetch	-10.7166
poster	-10.7182
▁knot	-10.7183
▁argue	-10.7185
▁stole	-10.7188
▁remove	-10.7191
▁delight	-10.7195
▁various	-10.72
▁plant	-10.7201
▁kettle	-10.7204
▁Horntail	-10.7204
▁instance	-10.7204
▁blew	-10.7204
▁gloomily	-10.7204
▁cellar	-10.7204
▁tentatively	-10.7204
▁married	-10.7204
▁curtly	-10.7204
▁gripped	-10.7204
▁puzzled	-10.7204
▁poking	-10.7204
▁incredulously	-10.7204
▁slipping	-10.7204
▁decent	-10.7205
▁crooked	-10.7205
▁lurking	-10.7205
▁swiftly	-10.7205
▁ridiculous	-10.7205
▁behavior	-10.7205
▁plainly	-10.7206
▁yourselves	-10.7206
▁drained	-10.7208
▁snorted	-10.7209
▁painfully	-10.7209
▁trembled	-10.7211
▁chill	-10.7212
▁blinking	-10.7212
▁blocked	-10.7213
▁shame	-10.7214
▁shoes	-10.7219
▁stretching	-10.7219
▁snowy	-10.7221
▁threatening	-10.7225
▁narrowed	-10.7226
▁feather	-10.7233
black	-10.7234
▁filling	-10.7235
▁hello	-10.7236
▁connected	-10.7239
▁Slowly	-10.724
ment	-10.7249
▁Are	-10.7253
▁bloody	-10.7255
▁punch	-10.7256
▁Many	-10.7256
Severus	-10.7282
Certainly	-10.7284
▁secrets	-10.729
ation	-10.7304
▁Hufflepuffs	-10.7306
▁players	-10.7323
▁edged	-10.7332
▁breathe	-10.7375
▁respect	-10.7389
▁magazine	-10.7394
▁directions	-10.7396
▁examination	-10.7402
▁mountain	-10.7402
▁sweater	-10.7404
▁player	-10.7417
▁birds	-10.7418
▁stranger	-10.7425
▁These	-10.7433
▁ze	-10.7439
▁ends	-10.7451
they	-10.7452
ally	-10.7482
▁cheer	-10.7485
borns	-10.7503
▁tense	-10.7503
▁climb	-10.7503
▁remains	-10.7511
▁entire	-10.7523
▁spy	-10.7526
▁jeans	-10.7526
▁contrary	-10.7526
▁slamming	-10.7526
▁Halloween	-10.7526
▁undoubtedly	-10.7526
▁satisfaction	-10.7526
▁daresay	-10.7526
▁breeze	-10.7527
▁shimmering	-10.7527
▁clambered	-10.7527
▁bewitched	-10.7528
▁occasionally	-10.7528
▁stumbled	-10.7529
▁astonished	-10.7529
▁recently	-10.7529
▁abandoned	-10.753
▁zooming	-10.753
▁shrilly	-10.753
▁reappeared	-10.753
▁comfortable	-10.7532
▁Merope	-10.7533
▁personal	-10.7534
▁descended	-10.7534
▁belonged	-10.7535
▁gulped	-10.7535
▁purpose	-10.7536
▁streaming	-10.7537
▁blasted	-10.7537
▁kissing	-10.7539
▁shelf	-10.754
▁pouch	-10.7544
▁Chocolate	-10.7548
▁thirty	-10.7549
▁roaring	-10.7552
▁banging	-10.7553
▁neat	-10.7558
▁promised	-10.756
▁Apparition	-10.7564
▁results	-10.7586
green	-10.76
▁turns	-10.7601
▁kiss	-10.7608
▁theory	-10.763
▁feathers	-10.7653
▁urge	-10.766
▁hairy	-10.7661
▁gulp	-10.7698
▁comfort	-10.7705
▁stag	-10.7716
▁press	-10.7716
▁wa	-10.7719
▁occasion	-10.7732
▁knee	-10.7734
▁choose	-10.7735
▁Ravenclaws	-10.7743
▁lamps	-10.7751
ies	-10.7753
▁hex	-10.7754
id	-10.777
▁dive	-10.7796
▁hood	-10.78
▁dim	-10.7812
O	-10.7837
▁concentrate	-10.7839
▁length	-10.7839
▁club	-10.7844
▁faithful	-10.7855
▁magnificent	-10.7856
▁recent	-10.7856
▁brass	-10.7858
▁Goblet	-10.7859
▁Owlery	-10.7859
▁Office	-10.7859
▁luggage	-10.7859
▁slimy	-10.7859
▁archway	-10.7859
▁Macmillan	-10.7859
▁community	-10.7859
▁clapping	-10.786
▁Parseltongue	-10.786
▁cautiously	-10.786
▁unknown	-10.786
▁patting	-10.786
▁shuffled	-10.7861
▁dimly	-10.7861
▁poured	-10.7861
▁arguing	-10.7861
▁mail	-10.7861
▁hoarsely	-10.7862
▁unlikely	-10.7862
▁drowned	-10.7863
▁fluttered	-10.7864
▁daring	-10.7866
Mad	-10.7868
▁Auntie	-10.7869
▁fill	-10.7869
▁amused	-10.787
▁plain	-10.787
▁lovely	-10.7871
▁hi	-10.7873
▁strained	-10.7873
▁climbing	-10.7874
▁cheering	-10.788
▁faced	-10.7888
▁howling	-10.7888
▁counting	-10.7888
▁risen	-10.7892
▁bunch	-10.7896
ie	-10.7898
▁sorts	-10.7902
▁winged	-10.7903
▁desks	-10.7912
▁defend	-10.7913
▁spirits	-10.7937
Leave	-10.7942
▁Like	-10.7949
▁pot	-10.7959
Something	-10.7965
Will	-10.798
▁warn	-10.8008
▁struggle	-10.8017
all	-10.8025
▁treasure	-10.8045
▁honor	-10.8061
▁outline	-10.8062
▁lo	-10.8074
▁beg	-10.8075
▁reflection	-10.8077
▁store	-10.808
pose	-10.8082
▁chicken	-10.8088
▁Be	-10.8102
▁Potters	-10.8107
▁tap	-10.8175
▁disappear	-10.818
▁shudder	-10.8181
▁seize	-10.8183
▁loose	-10.8184
▁realise	-10.8186
▁cough	-10.8186
▁ginger	-10.8191
▁numb	-10.8196
▁eager	-10.8199
▁bus	-10.82
▁regular	-10.8201
▁shabby	-10.8203
▁scroll	-10.8204
▁waist	-10.8204
▁lopsided	-10.8204
▁disbelief	-10.8204
▁graveyard	-10.8204
▁television	-10.8204
▁brandishing	-10.8205
▁gripping	-10.8205
▁Advanced	-10.8205
▁blurred	-10.8205
▁moonlight	-10.8205
▁swaying	-10.8205
▁Bane	-10.8205
▁squinted	-10.8205
▁slightest	-10.8206
▁intently	-10.8206
▁shattered	-10.8207
▁plunged	-10.8207
▁awkwardly	-10.8207
▁twitched	-10.8208
▁indicated	-10.8209
▁suffered	-10.8209
▁insisted	-10.8209
▁scratching	-10.8209
▁glinting	-10.821
▁recognised	-10.8212
▁useless	-10.8213
▁midst	-10.8214
▁tips	-10.8219
▁Felix	-10.8219
▁Bludgers	-10.8221
▁survived	-10.8221
▁outta	-10.8225
▁glowing	-10.8228
▁sought	-10.823
▁shaken	-10.8231
▁speeding	-10.8232
▁flashing	-10.8233
▁marked	-10.8235
▁proved	-10.8235
ce	-10.8246
▁feared	-10.825
▁drinking	-10.8255
▁attacking	-10.8265
out	-10.8268
▁Deathly	-10.8275
▁works	-10.8294
▁Apparently	-10.8294
▁worrying	-10.831
▁stretch	-10.831
▁judges	-10.8314
Dunno	-10.8314
Keep	-10.8321
shaped	-10.8323
colored	-10.8324
Still	-10.8326
▁None	-10.8354
▁aback	-10.8362
▁tracks	-10.8374
▁shapes	-10.8382
face	-10.8389
▁rough	-10.8397
▁triumph	-10.8407
▁mixture	-10.8427
▁war	-10.8429
▁umbrella	-10.843
▁gift	-10.8431
▁Thanks	-10.8435
▁beetle	-10.8436
▁winning	-10.8436
▁reasons	-10.8437
▁favor	-10.844
▁painting	-10.844
▁jaw	-10.844
▁photographs	-10.8441
▁kid	-10.8452
▁account	-10.8456
there	-10.8461
▁quarter	-10.8464
▁duel	-10.8487
▁cart	-10.8495
▁hug	-10.8497
▁kneel	-10.8503
▁inter	-10.8522
▁block	-10.8538
▁drops	-10.8543
▁mere	-10.8545
▁false	-10.8557
▁borrow	-10.8559
▁natural	-10.856
▁focus	-10.856
▁gruffly	-10.856
▁swimming	-10.856
▁popping	-10.8561
▁blazing	-10.8561
▁amazement	-10.8561
▁caretaker	-10.8561
▁uncomfortably	-10.8562
▁utterly	-10.8562
▁sternly	-10.8562
▁absolutely	-10.8562
▁meanwhile	-10.8563
▁possibility	-10.8563
▁broadly	-10.8564
▁Law	-10.8564
▁pacing	-10.8564
▁scribbled	-10.8566
▁pleasantly	-10.8567
▁chilly	-10.8568
▁handful	-10.8568
▁slept	-10.8568
▁Flamel	-10.8569
▁Wizengamot	-10.8569
be	-10.857
▁leaping	-10.8572
▁according	-10.8573
▁spite	-10.8575
▁bothered	-10.8577
▁Nagini	-10.8577
▁crashed	-10.8581
▁Floo	-10.8582
▁revealed	-10.8583
▁chuck	-10.8589
▁entering	-10.8593
▁ordered	-10.861
▁informed	-10.8621
▁enchantments	-10.8626
▁corners	-10.8631
▁star	-10.8636
▁skrewts	-10.8639
▁OUT	-10.8643
▁cursed	-10.8647
▁Bus	-10.8648
Making	-10.8656
▁ankles	-10.8657
▁stuffing	-10.8659
▁bursting	-10.8674
▁slide	-10.8682
moon	-10.8699
said	-10.8712
▁lightly	-10.8722
▁eyeing	-10.875
▁attacks	-10.8754
▁treat	-10.8768
▁Dear	-10.8769
▁crate	-10.8777
ted	-10.8784
▁steak	-10.8792
▁exist	-10.8795
▁symbol	-10.8806
▁Bulgarian	-10.8811
se	-10.8841
▁tear	-10.8868
▁aim	-10.8878
hand	-10.8879
▁ideas	-10.8893
▁frog	-10.8896
▁resist	-10.8908
ting	-10.891
▁awoke	-10.8918
she	-10.892
▁veil	-10.8921
▁grateful	-10.8929
p	-10.893
▁swollen	-10.8931
▁Ireland	-10.8931
▁orphanage	-10.8931
▁despite	-10.8931
▁Knight	-10.8931
▁substance	-10.8931
▁extinguished	-10.8931
▁bigger	-10.8931
▁scattered	-10.8931
▁strike	-10.8931
▁concentrating	-10.8931
▁swam	-10.8931
▁wearily	-10.8931
▁jolt	-10.8932
▁underground	-10.8932
▁distracted	-10.8932
▁amazed	-10.8933
▁necessary	-10.8933
▁stiff	-10.8933
▁floated	-10.8933
▁beckoned	-10.8934
▁rumbling	-10.8934
▁curly	-10.8934
▁straightening	-10.8935
▁frowned	-10.8935
▁drifting	-10.8935
▁fluttering	-10.8937
▁clicking	-10.8939
▁Friday	-10.8939
▁narrowly	-10.894
▁Chang	-10.894
▁contained	-10.8941
▁forbidden	-10.8941
▁goodness	-10.8942
▁honestly	-10.8942
▁Honeydukes	-10.8943
▁button	-10.8945
▁disturbed	-10.8945
▁gaped	-10.8945
▁shone	-10.8949
▁coins	-10.895
▁assured	-10.8952
▁giggling	-10.8958
▁learning	-10.8959
▁avoided	-10.896
▁hurriedly	-10.8961
▁prisoners	-10.8962
▁guarding	-10.8965
▁covering	-10.8973
▁whoever	-10.8973
▁milk	-10.8976
▁humans	-10.8977
▁blonde	-10.8986
▁touching	-10.8988
▁acted	-10.8989
▁blankets	-10.899
▁adding	-10.8992
▁enjoy	-10.901
▁Thestrals	-10.9012
▁Over	-10.9023
Percy	-10.9032
▁Chasers	-10.9036
▁Here	-10.9039
▁g	-10.9047
▁meetings	-10.9051
▁cheers	-10.9074
▁sweets	-10.9109
▁hid	-10.9115
▁fail	-10.9116
ter	-10.9132
▁Never	-10.9136
▁shower	-10.9151
▁experience	-10.9161
▁judge	-10.9166
▁alleyway	-10.9181
▁flask	-10.9184
▁address	-10.9187
▁begin	-10.919
▁pillow	-10.9192
▁punishment	-10.9201
▁U	-10.9204
▁badges	-10.9205
▁complain	-10.9215
▁load	-10.922
▁gown	-10.9224
▁bangs	-10.9225
▁posts	-10.923
▁Ten	-10.9246
im	-10.9247
▁goin	-10.9253
▁flick	-10.9287
▁limp	-10.9293
▁storm	-10.9295
▁snap	-10.9295
▁fierce	-10.9304
▁punish	-10.9306
▁Blood	-10.9307
▁awkward	-10.9311
▁casual	-10.9312
▁music	-10.9315
▁Deluminator	-10.9315
▁Felicis	-10.9315
▁September	-10.9315
▁campsite	-10.9315
▁Davies	-10.9315
▁concentration	-10.9315
▁merpeople	-10.9315
▁momentarily	-10.9315
▁canvas	-10.9315
▁patted	-10.9316
▁drove	-10.9316
▁battered	-10.9316
▁tugging	-10.9316
▁hugged	-10.9316
▁main	-10.9317
▁sniggered	-10.9317
▁precisely	-10.9317
▁carved	-10.9317
▁advanced	-10.9318
▁violently	-10.9318
▁Jorkins	-10.9318
▁firelight	-10.9318
▁benches	-10.9319
▁bushy	-10.9321
▁cheerfully	-10.9321
▁whirled	-10.9321
▁chuckled	-10.9321
▁collect	-10.9323
▁Decree	-10.9324
▁Hepzibah	-10.9324
▁grandmother	-10.9324
▁sparkling	-10.9325
▁embarrassed	-10.9326
▁tucked	-10.9326
▁bowler	-10.9326
▁kissed	-10.9327
▁announced	-10.9329
▁history	-10.9329
▁blocking	-10.933
▁poked	-10.933
▁fence	-10.9333
▁Johnson	-10.9333
▁sneaking	-10.9334
▁protected	-10.9335
▁tortured	-10.9336
ary	-10.934
nd	-10.9342
▁studying	-10.9342
▁POTTER	-10.9342
▁paying	-10.9346
▁blinding	-10.9349
▁Stunned	-10.9352
▁gloves	-10.9354
▁grim	-10.936
▁bolt	-10.9361
made	-10.9362
▁jinxes	-10.9365
▁tie	-10.9367
w	-10.9374
▁Beaters	-10.9381
▁rushing	-10.9387
▁Father	-10.9403
round	-10.9404
▁Everything	-10.9418
▁Looking	-10.9419
▁taste	-10.9426
▁bare	-10.9427
Bill	-10.9433
▁th	-10.9443
Shall	-10.9461
▁cakes	-10.9462
▁understanding	-10.9463
Perhaps	-10.9475
Our	-10.9486
▁chat	-10.9518
▁fond	-10.9532
▁area	-10.9535
▁cars	-10.9563
▁pipe	-10.9569
▁owned	-10.9579
▁stream	-10.958
▁concern	-10.9582
▁confidence	-10.959
▁animal	-10.9594
G	-10.9594
▁wandering	-10.9596
▁Wizard	-10.96
▁belong	-10.9626
▁detentions	-10.9681
▁rats	-10.9686
▁reckons	-10.969
▁rip	-10.9702
▁Disapparate	-10.9704
▁hoarse	-10.9712
▁impressive	-10.9712
▁admitted	-10.9713
▁honest	-10.9713
▁general	-10.9713
▁Roberts	-10.9715
▁grief	-10.9715
▁injuries	-10.9715
▁Malkin	-10.9715
▁patronum	-10.9715
▁pavement	-10.9715
▁disappointment	-10.9715
▁Whomping	-10.9715
▁feebly	-10.9715
▁bounced	-10.9715
▁gamekeeper	-10.9715
▁fancy	-10.9715
▁pinned	-10.9715
▁begun	-10.9715
▁gritted	-10.9715
▁bouncing	-10.9715
Probably	-10.9716
▁stirred	-10.9716
▁muddy	-10.9716
▁permitted	-10.9716
▁series	-10.9716
▁compared	-10.9716
▁agony	-10.9717
▁crouching	-10.9717
▁toppled	-10.9717
▁eagle	-10.9717
▁deafening	-10.9718
▁flickered	-10.9718
▁resembled	-10.9718
▁yawned	-10.9718
▁pleasant	-10.9719
▁betrayed	-10.9719
▁realizing	-10.9719
▁underage	-10.9719
▁vanish	-10.972
▁shoved	-10.972
▁creaked	-10.9721
▁withdrew	-10.9721
▁proudly	-10.9722
▁boring	-10.9722
▁gloomy	-10.9722
▁grasped	-10.9723
▁advantage	-10.9723
▁mental	-10.9724
▁Hannah	-10.9724
▁Horace	-10.9724
▁funeral	-10.9725
▁Irish	-10.9725
▁Astronomy	-10.9725
▁ghostly	-10.9726
▁flicked	-10.9726
▁knuckles	-10.9728
▁Fluffy	-10.9734
▁invited	-10.9735
▁ragged	-10.9735
▁intended	-10.9737
▁streaked	-10.9739
▁tearing	-10.9742
▁harm	-10.9752
▁gloom	-10.9756
▁pupils	-10.9764
▁pig	-10.9766
▁Right	-10.9785
▁deaths	-10.9793
▁attempts	-10.9799
▁ringing	-10.98
▁sobs	-10.982
▁possess	-10.9821
▁grow	-10.9826
▁subjects	-10.9863
▁formed	-10.9883
me	-10.9888
Dad	-10.9892
▁Wizards	-10.9894
Stand	-10.9911
▁First	-10.9917
▁cards	-10.9921
▁co	-10.9923
headed	-10.9939
▁remind	-10.9966
▁trolls	-10.9972
▁yells	-10.9986
Said	-10.9991
▁valuable	-10.9999
▁Frog	-11.0007
▁Dementor	-11.0011
▁colored	-11.0014
▁Healer	-11.0015
▁roof	-11.0016
NO	-11.0017
▁en	-11.0019
long	-11.0019
▁Secret	-11.0019
let	-11.002
▁?'	-11.003
▁jug	-11.003
▁upwards	-11.0038
▁floors	-11.0071
▁bars	-11.0072
N	-11.0073
▁unlike	-11.0073
▁schedule	-11.0084
▁movements	-11.0087
ked	-11.0101
▁approach	-11.0106
▁introduce	-11.0111
▁retrieve	-11.0111
▁anti	-11.0115
▁IT	-11.0117
▁kick	-11.0127
▁hopeful	-11.013
▁popular	-11.0132
▁Committee	-11.0132
▁Sorcerer	-11.0132
▁fountain	-11.0132
▁twinkling	-11.0132
▁curiosity	-11.0132
▁trapdoor	-11.0132
▁lazily	-11.0132
▁thief	-11.0132
▁promptly	-11.0132
▁friendship	-11.0132
▁amusing	-11.0133
▁joking	-11.0133
▁pausing	-11.0133
▁torches	-11.0133
▁currently	-11.0133
▁sunken	-11.0133
▁pride	-11.0133
▁planned	-11.0133
▁bacon	-11.0133
▁preferred	-11.0134
▁devoted	-11.0134
▁plump	-11.0134
▁departed	-11.0134
▁politely	-11.0135
▁neatly	-11.0135
▁stiffly	-11.0135
▁swelling	-11.0136
▁darting	-11.0136
▁snatching	-11.0137
▁bike	-11.0137
▁flushed	-11.0137
▁violent	-11.0138
▁twitching	-11.014
▁gathering	-11.014
▁model	-11.014
▁fairly	-11.0141
▁mingled	-11.0141
▁thundering	-11.0141
▁Arithmancy	-11.0142
▁centuries	-11.0142
▁huddled	-11.0143
▁bitter	-11.0144
▁taller	-11.0146
▁mounted	-11.0149
▁official	-11.015
▁Ern	-11.015
▁Michael	-11.0151
▁spending	-11.0151
▁Extendable	-11.0151
▁separated	-11.0152
▁rare	-11.0159
▁Nevertheless	-11.0161
▁flown	-11.0162
▁lump	-11.0163
▁glimpsed	-11.0169
▁goblets	-11.0174
▁lowering	-11.0176
f	-11.018
▁queue	-11.0183
▁heel	-11.0196
how	-11.0205
ad	-11.0213
▁watery	-11.0214
▁FOR	-11.022
▁Think	-11.022
▁dared	-11.0235
▁thread	-11.0242
▁greater	-11.025
▁-``	-11.0259
▁Without	-11.0268
▁soup	-11.0271
▁Time	-11.0282
▁longing	-11.029
▁mountains	-11.0293
▁OWLs	-11.031
Miss	-11.0311
▁Those	-11.0315
▁mead	-11.0318
Molly	-11.0328
Out	-11.0328
Nobody	-11.033
Another	-11.0331
....``	-11.0333
▁IN	-11.0364
▁hero	-11.0372
▁charms	-11.0375
▁consider	-11.0377
▁`--	-11.0392
▁Keep	-11.0415
▁bubble	-11.0418
▁tin	-11.043
▁score	-11.0431
▁curtain	-11.0432
▁trolley	-11.0438
▁Squib	-11.044
▁pudding	-11.0441
▁Butterbeer	-11.0445
▁Chaser	-11.0453
▁seek	-11.0458
▁unnatural	-11.0467
yes	-11.0488
▁pity	-11.0492
▁leap	-11.0492
▁teams	-11.0505
▁cost	-11.0508
b	-11.052
sn	-11.0527
Wow	-11.0534
▁dread	-11.0536
▁separate	-11.0543
▁arrive	-11.0547
▁disgust	-11.0551
▁sprint	-11.0554
▁confident	-11.0555
▁torture	-11.0555
▁display	-11.0557
▁conceal	-11.0558
▁lace	-11.0558
▁rigid	-11.0563
▁harsh	-11.0563
▁immense	-11.0564
▁urgent	-11.0566
▁Shacklebolt	-11.0567
▁Sunday	-11.0567
▁afford	-11.0567
▁chandelier	-11.0567
▁period	-11.0567
▁transparent	-11.0567
▁Cruciatus	-11.0567
▁HIM	-11.0567
▁incredible	-11.0567
▁existence	-11.0567
▁skidded	-11.0567
▁Easter	-11.0567
▁insane	-11.0567
▁fiery	-11.0567
▁forcefully	-11.0567
▁pressure	-11.0567
▁pearly	-11.0567
▁practicing	-11.0568
▁imagining	-11.0568
▁Yeh	-11.0568
▁Wizardry	-11.0568
▁surveyed	-11.0568
▁werewolves	-11.0568
Ready	-11.0569
▁tugged	-11.0569
▁emptied	-11.0569
▁attitude	-11.0569
▁hoisted	-11.0569
▁swelled	-11.0569
▁unfortunately	-11.0569
▁widened	-11.057
▁courage	-11.057
▁warmth	-11.057
▁hatred	-11.0571
▁flickering	-11.0571
▁Shield	-11.0572
▁yawning	-11.0572
▁thumping	-11.0572
▁unusually	-11.0572
▁directed	-11.0572
▁Inquisitor	-11.0575
▁enemy	-11.0575
▁screeched	-11.0575
▁achieved	-11.0575
▁scales	-11.0575
▁lady	-11.0576
▁talent	-11.0576
▁August	-11.0576
▁Dedalus	-11.0576
▁hotly	-11.0577
▁polished	-11.0578
▁nature	-11.0579
▁swore	-11.058
▁sacked	-11.0584
▁Errol	-11.0587
▁polite	-11.0591
▁magically	-11.0599
▁mid	-11.06
▁packing	-11.0606
▁tank	-11.0606
▁woken	-11.0606
▁total	-11.0608
work	-11.061
▁bath	-11.0612
▁cleaning	-11.0614
▁Amos	-11.0618
▁deadly	-11.0619
▁doubted	-11.0619
▁ability	-11.0619
▁twigs	-11.0622
▁blown	-11.0623
▁HE	-11.0631
cause	-11.064
▁hangings	-11.0648
▁non	-11.0654
▁Merlin	-11.067
▁minds	-11.0687
▁aching	-11.0693
▁sad	-11.07
two	-11.0701
tion	-11.0716
▁eaten	-11.0725
this	-11.0727
▁pit	-11.0753
Remember	-11.0753
Excuse	-11.0761
Winky	-11.077
quarters	-11.0776
▁stir	-11.0798
worthy	-11.0803
Some	-11.0805
▁Another	-11.0811
▁spring	-11.0844
▁Will	-11.0861
▁takes	-11.0866
Ha	-11.0869
▁fix	-11.0873
▁survive	-11.0877
▁rucksack	-11.0878
▁basket	-11.0885
▁brick	-11.0889
▁cushion	-11.0898
▁candle	-11.0899
▁ankle	-11.0899
▁afterward	-11.0905
▁pace	-11.0909
F	-11.0909
off	-11.0931
▁career	-11.0935
▁saving	-11.0937
▁ship	-11.0938
can	-11.0939
▁di	-11.0946
▁attend	-11.0954
▁fashion	-11.0959
▁habit	-11.0961
▁hover	-11.0979
Her	-11.0983
▁discover	-11.0988
▁transform	-11.0997
▁assume	-11.1
▁deny	-11.1009
▁request	-11.1011
▁deliver	-11.1011
▁guilt	-11.1014
▁squash	-11.1016
▁brief	-11.1018
▁immediate	-11.1018
▁unexpected	-11.1018
▁triumphant	-11.1018
▁branch	-11.1019
four	-11.102
▁Bagshot	-11.1021
▁peculiar	-11.1021
▁uncontrollably	-11.1021
▁atmosphere	-11.1021
▁engine	-11.1021
▁rustling	-11.1021
▁Britain	-11.1021
▁nevertheless	-11.1021
▁grabbing	-11.1021
▁prickling	-11.1021
▁refusing	-11.1021
▁whereabouts	-11.1021
▁serenely	-11.1021
▁church	-11.1021
▁barman	-11.1022
▁amazing	-11.1022
▁banned	-11.1022
▁Baron	-11.1022
▁knight	-11.1022
▁skinny	-11.1022
▁mopping	-11.1022
▁earnestly	-11.1022
▁tapping	-11.1022
▁earshot	-11.1022
ier	-11.1023
▁curved	-11.1023
▁bushes	-11.1023
▁stooped	-11.1023
▁nudged	-11.1024
▁fright	-11.1024
Better	-11.1024
▁immensely	-11.1025
▁distractedly	-11.1025
▁spilled	-11.1026
▁ruined	-11.1026
▁deepest	-11.1027
▁chattering	-11.1027
▁cries	-11.1027
▁brand	-11.1028
▁circumstances	-11.1031
▁frightening	-11.1031
▁Dirk	-11.1031
▁unpleasantly	-11.1031
▁Squad	-11.1031
▁ruddy	-11.1031
▁resumed	-11.1032
▁gentle	-11.1032
Avada	-11.1032
▁issued	-11.1032
▁enjoyed	-11.1033
▁outraged	-11.1035
▁disgusting	-11.1035
▁price	-11.1036
▁required	-11.1036
▁eyelids	-11.1036
▁glowed	-11.1037
▁traveled	-11.1039
▁sneering	-11.1042
▁shrieking	-11.1042
▁UP	-11.1043
▁Through	-11.1043
▁experienced	-11.1047
▁noble	-11.1047
Number	-11.1047
▁offering	-11.1054
▁Feeling	-11.1054
▁lime	-11.1054
▁bowing	-11.1056
▁spreading	-11.1064
▁features	-11.1066
▁Everybody	-11.1076
ey	-11.1077
▁visitors	-11.1077
ance	-11.108
▁Inside	-11.1081
▁explaining	-11.1088
▁flowers	-11.1088
▁heaving	-11.1091
H	-11.1093
▁scann	-11.11
▁ex	-11.1101
▁bread	-11.1111
his	-11.1127
▁nod	-11.1129
▁shops	-11.1148
▁snakes	-11.1156
▁Use	-11.1161
▁animals	-11.1163
▁con	-11.1163
▁V	-11.1189
▁respond	-11.1198
Bellatrix	-11.1234
Even	-11.1235
Dear	-11.1238
Three	-11.1254
▁bu	-11.1255
▁...``	-11.1258
Accio	-11.126
▁Get	-11.1265
▁Out	-11.1281
▁wan	-11.1284
who	-11.1311
▁sleeves	-11.1329
▁Ronan	-11.134
▁carriages	-11.1348
▁ambition	-11.1362
▁cliff	-11.1362
▁bucket	-11.1362
▁stack	-11.1367
▁race	-11.1367
▁nightmare	-11.1372
▁sob	-11.1376
▁pie	-11.1378
▁image	-11.1379
▁service	-11.138
▁tale	-11.1389
▁Malfoys	-11.14
▁DO	-11.1424
▁beast	-11.1432
▁beam	-11.145
▁efforts	-11.1456
▁practise	-11.1474
▁penetrate	-11.1475
▁slope	-11.1481
▁slit	-11.1483
▁gives	-11.1484
▁alert	-11.1487
▁bush	-11.1488
▁sugar	-11.1489
▁elves	-11.1493
▁vicious	-11.1494
▁defensive	-11.1494
▁Inferi	-11.1496
▁cruel	-11.1497
▁Kedavra	-11.1497
▁Kendra	-11.1497
▁mantelpiece	-11.1497
▁whatsoever	-11.1497
▁untidy	-11.1497
▁random	-11.1497
▁June	-11.1497
▁ladder	-11.1497
▁indicating	-11.1497
▁identical	-11.1497
▁judging	-11.1498
▁scribbling	-11.1498
▁bezoar	-11.1498
▁launched	-11.1498
▁dissolved	-11.1498
▁stubbornly	-11.1498
▁arriving	-11.1498
▁fluffy	-11.1498
▁invitation	-11.1498
▁freezing	-11.1498
▁bobbing	-11.1499
▁smoking	-11.1499
▁blackboard	-11.1499
▁shopping	-11.1499
▁hopelessly	-11.1499
▁gleefully	-11.1499
▁followers	-11.1499
▁hammering	-11.15
▁retreated	-11.15
▁surveying	-11.15
▁collar	-11.15
▁flattened	-11.1501
▁handbag	-11.1501
▁rarely	-11.1501
▁Summoning	-11.1501
▁swooping	-11.1501
▁casually	-11.1501
▁scowled	-11.1502
Nah	-11.1502
▁collided	-11.1503
▁lungs	-11.1503
▁dug	-11.1503
hot	-11.1503
▁succeeded	-11.1504
▁flooding	-11.1504
▁sniffed	-11.1504
▁shifting	-11.1505
▁automatically	-11.1507
▁Padma	-11.1508
▁shows	-11.1508
▁Warrington	-11.1508
▁hooked	-11.1508
▁chess	-11.1509
▁Headquarters	-11.1509
strewn	-11.151
▁defeated	-11.151
▁shuddered	-11.1511
▁tangled	-11.1511
▁Omnioculars	-11.1512
▁gotta	-11.1512
▁treated	-11.1513
▁forgetting	-11.1518
▁Secrecy	-11.1519
▁gaping	-11.1523
▁blowing	-11.153
▁Rookwood	-11.1531
▁blackened	-11.1533
▁trusted	-11.1539
▁sleepy	-11.1543
▁Bode	-11.1544
▁crashing	-11.1547
▁feed	-11.1553
▁hooting	-11.1558
▁express	-11.1562
▁largest	-11.1568
▁Under	-11.157
▁Burkes	-11.1573
▁parted	-11.1577
▁winding	-11.1579
▁victims	-11.158
▁n	-11.1582
aded	-11.1589
▁seated	-11.1596
▁worn	-11.1609
▁events	-11.161
▁stroll	-11.1621
▁Heads	-11.1626
▁cornered	-11.1629
▁sensed	-11.1637
▁answering	-11.1659
▁groups	-11.1673
▁YOUR	-11.1682
Luna	-11.1712
▁thousands	-11.173
May	-11.174
Expelliarmus	-11.1752
First	-11.1766
▁Remember	-11.1778
▁sc	-11.178
ous	-11.1788
Should	-11.1791
ng	-11.1801
back	-11.1809
▁rooms	-11.1839
▁utter	-11.1845
▁favourite	-11.1852
▁female	-11.1853
▁Sneakoscope	-11.1865
▁suffering	-11.1873
▁manner	-11.1874
▁equal	-11.1881
▁Book	-11.1882
▁headline	-11.1891
▁land	-11.1896
▁shouts	-11.1912
▁skill	-11.1915
▁tents	-11.1917
▁pet	-11.1918
▁Its	-11.1939
term	-11.1945
▁named	-11.1946
▁mistress	-11.1952
▁questioning	-11.1955
▁gestur	-11.1963
▁screech	-11.1971
▁groan	-11.1974
▁despair	-11.1975
▁exchange	-11.1977
▁produce	-11.1978
▁flaming	-11.198
▁appreciate	-11.1981
▁bone	-11.1988
▁damn	-11.1989
▁bizarre	-11.1993
▁piercing	-11.1994
▁spectacular	-11.1994
▁ominous	-11.1994
▁steep	-11.1994
▁frantic	-11.1997
▁snort	-11.1997
Lumos	-11.1997
▁Blotts	-11.1997
▁Cadogan	-11.1997
▁Flourish	-11.1997
▁grumpily	-11.1997
▁issuing	-11.1997
▁motorbike	-11.1997
▁rippling	-11.1997
▁enthusiasm	-11.1997
▁throbbing	-11.1997
▁Leanne	-11.1997
▁greasy	-11.1997
▁Roger	-11.1997
▁shakily	-11.1997
▁repair	-11.1998
▁circling	-11.1998
▁livid	-11.1998
▁Twenty	-11.1998
Ended	-11.1998
▁firm	-11.1998
▁reasonably	-11.1998
▁original	-11.1998
▁fading	-11.1999
▁undertone	-11.1999
▁mildly	-11.2
▁camera	-11.2
▁heartily	-11.2
▁stern	-11.2
▁vo	-11.2001
▁greenish	-11.2001
▁widening	-11.2001
▁Cole	-11.2001
▁Sickles	-11.2001
▁boiling	-11.2002
▁sealed	-11.2002
▁piles	-11.2003
▁scratched	-11.2003
▁smirked	-11.2003
▁compete	-11.2003
▁lunged	-11.2004
ir	-11.2004
▁dazzling	-11.2004
▁strolled	-11.2005
▁daylight	-11.2005
▁personally	-11.2005
▁patches	-11.2006
▁masked	-11.2006
▁scowling	-11.2006
▁winking	-11.2007
▁blackness	-11.2007
▁creaking	-11.2007
▁squashed	-11.2008
▁previously	-11.2009
▁ruffled	-11.201
▁stormed	-11.201
▁revenge	-11.2012
▁wandered	-11.2014
▁vanishing	-11.2015
▁sneaked	-11.2015
▁creeping	-11.2017
▁possessed	-11.202
which	-11.202
▁especially	-11.202
▁grandfather	-11.202
▁stew	-11.2021
▁painted	-11.2026
▁banged	-11.2027
▁slowed	-11.2032
▁Because	-11.2033
▁Ears	-11.2042
▁Five	-11.2058
▁Four	-11.2063
▁wider	-11.2065
▁skirt	-11.2067
▁fish	-11.2068
▁Macnair	-11.2069
▁Again	-11.2069
▁Any	-11.2071
▁Marvolo	-11.2093
▁WHAT	-11.2104
▁biting	-11.2105
▁slits	-11.2108
▁fur	-11.2114
▁prat	-11.2123
Keeper	-11.2128
▁cushions	-11.2135
▁mis	-11.2141
▁pillows	-11.2161
just	-11.2162
floor	-11.2167
printing	-11.2177
▁Thank	-11.2182
um	-11.2186
▁robe	-11.2197
▁nerves	-11.2199
▁emotion	-11.2204
VE	-11.2209
was	-11.2214
▁rear	-11.2242
covered	-11.2243
Krum	-11.2251
Ouch	-11.2262
▁Ah	-11.2264
▁NO	-11.2269
free	-11.2272
Expecto	-11.2278
Once	-11.2281
▁senses	-11.2281
Stupef	-11.2282
▁Should	-11.2287
handed	-11.2295
▁Our	-11.2296
ur	-11.231
▁lawns	-11.2324
Sit	-11.2325
▁secure	-11.2328
▁squeak	-11.2343
▁kitchens	-11.2347
▁north	-11.2361
▁ferret	-11.2362
▁bunk	-11.2371
▁spirit	-11.2381
▁clunk	-11.2386
▁fragment	-11.2386
▁palm	-11.2387
▁discussion	-11.2392
▁gesture	-11.2394
▁telescope	-11.2398
YOU	-11.2398
▁department	-11.2402
▁antidote	-11.241
▁drawer	-11.2414
▁Galleon	-11.2423
▁likes	-11.2427
king	-11.2467
when	-11.2479
▁lookout	-11.2479
▁jerk	-11.2491
▁receive	-11.2496
▁lid	-11.2497
▁duck	-11.2499
▁grasp	-11.25
▁capture	-11.2504
▁partner	-11.2516
▁health	-11.2517
▁brutal	-11.252
▁Marchbanks	-11.2524
▁October	-11.2524
▁Shunpike	-11.2524
▁Thicknesse	-11.2524
▁Tuesday	-11.2524
▁Wednesday	-11.2524
▁confusion	-11.2524
▁gnarled	-11.2524
▁petrified	-11.2524
▁protruding	-11.2524
▁precious	-11.2524
▁copies	-11.2524
▁stroking	-11.2524
▁temple	-11.2524
▁exciting	-11.2524
▁uneasy	-11.2524
▁Pince	-11.2524
▁lonely	-11.2524
▁stammered	-11.2524
▁exceptionally	-11.2525
▁defiantly	-11.2525
▁decorated	-11.2525
▁sidecar	-11.2525
▁writhing	-11.2526
▁peace	-11.2526
▁sallow	-11.2526
▁tiptoe	-11.2526
▁women	-11.2526
▁topmost	-11.2526
▁sloping	-11.2526
▁dashing	-11.2527
▁anythin	-11.2527
▁scarves	-11.2527
▁briefly	-11.2527
▁pointless	-11.2528
▁youngest	-11.2528
▁lingered	-11.2528
▁fumbled	-11.2528
▁spellbooks	-11.2528
▁dodged	-11.2529
▁relaxed	-11.2529
▁bustled	-11.2529
▁gleamed	-11.2529
▁winked	-11.2529
▁shifted	-11.253
▁shivered	-11.253
▁crawled	-11.253
▁glided	-11.253
▁witnessed	-11.2531
▁containing	-11.2531
▁placing	-11.2531
▁marching	-11.2532
▁starry	-11.2532
▁overgrown	-11.2533
▁Dennis	-11.2535
▁English	-11.2535
▁transformed	-11.2535
▁Thursday	-11.2535
▁bustling	-11.2535
▁Grim	-11.2536
▁wandmaker	-11.2536
▁authority	-11.2536
▁deliberately	-11.2536
▁smallest	-11.2536
▁Ronald	-11.2536
▁jerking	-11.2538
▁sweaty	-11.2538
▁built	-11.2541
▁WILL	-11.2543
▁beaten	-11.2543
▁wandlight	-11.2543
▁whirl	-11.2546
▁tripped	-11.2547
▁attached	-11.2547
▁Rufus	-11.2547
▁borrowed	-11.2549
▁counted	-11.2553
▁somewhat	-11.2554
▁grate	-11.2556
▁.``	-11.2557
▁git	-11.2559
ch	-11.2564
▁ripping	-11.2565
▁buying	-11.2566
▁bothering	-11.2566
▁deserved	-11.2567
▁charged	-11.2567
▁appearing	-11.2572
▁ride	-11.2572
▁naturally	-11.2573
▁crossing	-11.2573
▁mound	-11.2575
▁Carrows	-11.2575
▁forty	-11.2582
lunk	-11.2583
▁Sure	-11.2585
▁howled	-11.2587
▁guests	-11.2591
▁dreaming	-11.2596
▁Today	-11.2599
fashioned	-11.26
▁boots	-11.2607
▁heap	-11.2626
▁perch	-11.263
do	-11.2631
▁rack	-11.2637
▁forming	-11.2645
▁drawers	-11.2648
▁darker	-11.2652
▁chas	-11.2655
▁clamp	-11.2656
▁sons	-11.2666
▁tasks	-11.2667
rs	-11.269
▁sell	-11.2691
▁drinks	-11.2693
▁thunder	-11.2708
▁cauldrons	-11.2712
▁mug	-11.2715
▁plants	-11.2733
▁ME	-11.2735
EN	-11.2743
ying	-11.2749
Fudge	-11.2758
▁owners	-11.2761
▁crush	-11.2763
Slughorn	-11.2763
▁yards	-11.2781
please	-11.28
Great	-11.2803
Fleur	-11.2804
blue	-11.2819
Lily	-11.2831
Hold	-11.2831
▁Mudbloods	-11.2834
Anything	-11.2838
Those	-11.284
Won	-11.2854
▁hill	-11.2857
▁fellows	-11.2875
▁Up	-11.2888
▁suck	-11.29
▁fortune	-11.2935
▁suspect	-11.2936
▁protest	-11.294
▁unaware	-11.2942
▁beginning	-11.2942
▁girlfriend	-11.2945
▁statues	-11.2949
▁e	-11.2949
▁reaction	-11.2953
▁skrewt	-11.2956
▁comment	-11.2961
▁rumor	-11.2964
▁swing	-11.2964
▁poke	-11.2971
▁gnome	-11.2979
Yer	-11.2983
▁woods	-11.2992
Had	-11.3
▁string	-11.3019
▁venom	-11.3034
▁heaven	-11.3034
▁mo	-11.3038
▁Take	-11.3042
▁howl	-11.3053
▁bundle	-11.3057
▁terms	-11.3057
▁convince	-11.3058
▁invite	-11.3059
▁glare	-11.3066
▁conscious	-11.3067
▁success	-11.3075
▁dazed	-11.3076
▁fleeting	-11.3079
▁Animagus	-11.3079
▁Magnolia	-11.3079
▁Magorian	-11.3079
▁courtyard	-11.3079
▁disgruntled	-11.3079
▁doorknob	-11.3079
▁eerie	-11.3079
▁monstrous	-11.3079
▁transfixed	-11.3079
▁maroon	-11.3079
▁astonishment	-11.3079
▁nonsense	-11.3079
▁clanking	-11.3079
▁shaggy	-11.3079
▁BANG	-11.3079
▁crossbow	-11.3079
▁preparing	-11.3079
▁imagination	-11.3079
Welcome	-11.3079
▁flapping	-11.3079
▁pan	-11.3079
▁candlelight	-11.308
▁spitting	-11.308
▁magnified	-11.308
▁propped	-11.308
▁conclusion	-11.308
▁driving	-11.308
▁Army	-11.308
▁chapter	-11.308
▁police	-11.308
▁glory	-11.308
▁starving	-11.308
▁feverishly	-11.308
▁booming	-11.308
▁Killing	-11.3081
▁noisy	-11.3081
▁jeering	-11.3081
▁billowing	-11.3081
▁practical	-11.3081
▁kidding	-11.3082
▁complicated	-11.3082
▁ajar	-11.3084
▁windowsill	-11.3084
▁schoolbag	-11.3084
▁groped	-11.3085
▁binding	-11.3085
▁flooded	-11.3085
▁whimpering	-11.3085
▁hallway	-11.3086
▁Day	-11.3087
▁gettin	-11.3087
▁spilling	-11.3087
▁buzzing	-11.3088
▁cooking	-11.3088
▁trailing	-11.3088
▁obscured	-11.3089
▁straining	-11.309
▁delivered	-11.3091
▁Witchcraft	-11.3091
▁stirring	-11.3091
▁punished	-11.3093
▁invented	-11.3097
▁arrogant	-11.3098
▁reminding	-11.3098
▁Top	-11.3098
▁limping	-11.3098
▁exasperated	-11.31
▁chased	-11.3102
▁clattering	-11.3102
▁aiming	-11.3103
▁disappearing	-11.3103
▁murderer	-11.3103
▁Atrium	-11.3104
▁reported	-11.3105
▁gasping	-11.3106
▁dangerously	-11.3109
▁stealing	-11.3112
▁served	-11.3113
▁urged	-11.3117
▁sheet	-11.3117
▁shared	-11.3119
▁driven	-11.3124
▁supported	-11.3126
--``	-11.3127
▁etched	-11.3129
▁clearer	-11.3134
▁dense	-11.3138
▁finishing	-11.3145
▁allowing	-11.315
ned	-11.3153
▁wasted	-11.3153
▁intent	-11.3153
▁wipe	-11.3163
▁instruments	-11.3169
▁tickets	-11.3176
▁raw	-11.318
▁DON	-11.3184
▁joining	-11.3185
.'`	-11.319
▁conditions	-11.3191
▁greenhouses	-11.3198
▁seeking	-11.32
▁wise	-11.3205
▁cares	-11.3207
▁bend	-11.3213
will	-11.3214
are	-11.324
▁bubbles	-11.324
Muggle	-11.3242
▁hairs	-11.3254
▁web	-11.3263
▁chances	-11.3266
▁--?`	-11.3268
▁Surely	-11.3271
▁cats	-11.3273
▁bully	-11.3275
▁HARRY	-11.3294
Umbridge	-11.3295
▁scars	-11.3313
why	-11.3325
Dudley	-11.3346
▁tough	-11.3351
▁possessions	-11.3375
Any	-11.338
▁poster	-11.3386
▁frames	-11.3389
▁command	-11.3391
ard	-11.3407
Two	-11.3421
People	-11.3425
From	-11.3426
▁blind	-11.3443
▁mend	-11.3473
Thought	-11.3476
None	-11.3478
ne	-11.348
▁dais	-11.3488
▁flow	-11.3496
▁insult	-11.3502
▁ease	-11.3506
go	-11.351
▁stage	-11.351
▁deserve	-11.3518
▁shaped	-11.3518
▁adventure	-11.3521
▁Howler	-11.353
▁detail	-11.3534
▁essential	-11.3534
▁headstone	-11.3535
▁answers	-11.3536
▁explosion	-11.3538
▁lantern	-11.3543
▁incantation	-11.3543
▁crime	-11.3544
▁greenhouse	-11.3545
▁version	-11.355
▁edges	-11.3562
ny	-11.3575
▁guards	-11.3575
Put	-11.3589
▁doe	-11.3613
ant	-11.3634
▁repeat	-11.3642
▁murmur	-11.3643
▁fan	-11.3644
▁click	-11.3645
▁inform	-11.3649
▁severe	-11.3652
▁fate	-11.3652
▁encounter	-11.3657
▁foreign	-11.366
▁defeat	-11.366
▁affect	-11.3663
▁sleek	-11.3664
▁vivid	-11.3664
▁resentful	-11.3664
▁apprehensive	-11.3664
▁sinister	-11.3664
▁camp	-11.3665
▁potato	-11.3665
▁Beedle	-11.3667
▁Scabior	-11.3667
▁Spinnet	-11.3667
▁contorted	-11.3667
▁injury	-11.3667
▁desperation	-11.3667
▁porridge	-11.3667
▁Enforcement	-11.3667
▁knives	-11.3667
▁Ancient	-11.3667
▁departure	-11.3667
▁Whinging	-11.3667
▁defence	-11.3668
▁freedom	-11.3668
▁instinctively	-11.3668
▁vigorously	-11.3668
▁bloodshot	-11.3668
onko	-11.3668
▁dripping	-11.3668
▁response	-11.3668
▁considerable	-11.3668
▁drag	-11.3668
▁collection	-11.3668
Shh	-11.3668
▁yellowish	-11.3669
▁snapping	-11.3669
▁crackling	-11.3669
▁Vanishing	-11.3669
▁stroke	-11.367
▁spluttered	-11.367
▁severely	-11.3671
▁pronounced	-11.3671
▁hurtling	-11.3671
▁dried	-11.3671
▁descending	-11.3672
▁breathless	-11.3672
▁prodding	-11.3672
▁mainly	-11.3672
▁Love	-11.3672
▁generally	-11.3672
▁snout	-11.3672
▁hexes	-11.3673
▁winced	-11.3673
▁sunk	-11.3674
▁highest	-11.3676
▁swarming	-11.3676
▁constant	-11.3676
Arry	-11.3677
▁prison	-11.3677
▁Dippet	-11.3677
▁described	-11.3677
▁spoon	-11.3678
▁rattled	-11.3678
▁repaired	-11.3679
▁Each	-11.3679
▁meantime	-11.3679
▁Argus	-11.3679
▁Trevor	-11.3679
▁scanning	-11.368
▁snakelike	-11.3681
▁filed	-11.3682
▁limped	-11.3682
▁punched	-11.3682
▁littered	-11.3683
▁Side	-11.3684
▁arranged	-11.3685
▁stamping	-11.3686
▁believing	-11.3687
▁considering	-11.3687
▁assure	-11.3688
▁complaining	-11.3688
▁boarded	-11.369
▁dueling	-11.3691
▁wishes	-11.3691
▁invisibility	-11.3691
▁Hokey	-11.3693
▁accepted	-11.3694
▁firs	-11.3694
▁oldest	-11.3695
▁draped	-11.3695
▁poisonous	-11.3696
▁sweating	-11.3698
▁liking	-11.3699
▁headmasters	-11.3701
▁motion	-11.3702
▁gestured	-11.3703
▁blink	-11.3703
▁Amycus	-11.3708
▁heat	-11.3712
▁smelled	-11.3717
▁relatives	-11.3717
▁laden	-11.3718
▁rescue	-11.372
▁Weird	-11.3723
▁sausages	-11.3725
▁Blast	-11.3725
▁persuaded	-11.373
▁lifting	-11.3732
▁Riddles	-11.3737
▁newly	-11.3746
ere	-11.375
▁visiting	-11.3763
▁throughout	-11.3773
▁inner	-11.3779
▁greatly	-11.3792
aged	-11.3796
▁feels	-11.3804
fingered	-11.3804
▁heavens	-11.3804
▁sheets	-11.3809
▁paces	-11.3819
▁permit	-11.3826
▁scrape	-11.383
▁straw	-11.384
▁necks	-11.3852
Hogwarts	-11.3854
Erm	-11.3854
▁belongs	-11.3859
▁rag	-11.3867
▁Heir	-11.3896
▁similar	-11.3902
▁signal	-11.3909
Has	-11.3909
▁measures	-11.3913
Ten	-11.3919
▁hic	-11.392
great	-11.3921
▁lots	-11.3925
▁pots	-11.3928
▁revolv	-11.3937
Hmm	-11.3946
▁brow	-11.3946
▁troubled	-11.3952
▁river	-11.3972
foot	-11.3986
Crouch	-11.3988
Want	-11.3988
▁resting	-11.3994
▁forth	-11.3997
▁Crack	-11.4008
Hurry	-11.4008
thing	-11.4011
Draco	-11.4013
▁rolls	-11.4017
▁belt	-11.4017
Albus	-11.4025
filled	-11.4029
Quite	-11.404
▁Vol	-11.4041
Think	-11.4042
Every	-11.4042
Anyone	-11.405
Quick	-11.4052
Over	-11.4054
HARRY	-11.4055
Five	-11.4056
Stay	-11.4057
ably	-11.408
▁pre	-11.4085
▁refuse	-11.413
▁reward	-11.413
▁believes	-11.4133
▁moan	-11.4135
▁silhouette	-11.4145
▁arrest	-11.4147
Wha	-11.4152
▁scurrying	-11.4155
▁swig	-11.416
▁aisle	-11.4161
▁fed	-11.4163
▁teacup	-11.4165
▁condition	-11.4168
▁Thestral	-11.4169
▁suspicion	-11.4169
▁appointment	-11.417
ring	-11.4172
▁hoop	-11.4175
▁muscle	-11.418
▁wasting	-11.4213
▁fled	-11.4218
seven	-11.4228
▁v	-11.4232
time	-11.4244
▁dealing	-11.4247
▁sneer	-11.4255
▁Listen	-11.4259
▁suppress	-11.4265
▁fires	-11.4272
▁insist	-11.4273
▁tones	-11.4273
▁Box	-11.4277
▁cream	-11.4278
▁endure	-11.4278
▁peer	-11.4281
▁obey	-11.4283
▁distinct	-11.4284
▁chase	-11.4285
▁shrill	-11.4285
lit	-11.4286
▁gaunt	-11.4287
▁pathetic	-11.4288
▁unfortunate	-11.4289
▁abrupt	-11.4289
▁vague	-11.4289
▁serve	-11.4291
▁definite	-11.4292
▁complex	-11.4292
▁remorse	-11.4292
▁Confederation	-11.4292
▁Demelza	-11.4292
▁Mafalda	-11.4292
▁Shrieking	-11.4292
▁agitated	-11.4292
▁enclosure	-11.4292
▁indignation	-11.4292
▁paddock	-11.4292
▁responsible	-11.4292
▁rummaging	-11.4292
Oooh	-11.4292
▁appalled	-11.4292
▁determination	-11.4292
▁mercy	-11.4292
▁sarcastically	-11.4292
▁delicious	-11.4292
▁fraction	-11.4292
▁unfolded	-11.4293
▁frustration	-11.4293
▁perplexed	-11.4293
▁dramatically	-11.4293
▁responsibility	-11.4293
▁grubby	-11.4293
▁flapped	-11.4293
▁loathed	-11.4293
▁rubbed	-11.4293
▁signature	-11.4293
▁treacle	-11.4293
Funny	-11.4293
▁advancing	-11.4293
▁irritated	-11.4293
▁stalked	-11.4293
▁electric	-11.4293
▁Corner	-11.4293
Yep	-11.4293
▁squeezing	-11.4293
▁boomed	-11.4294
▁turban	-11.4294
▁managing	-11.4294
▁glowering	-11.4294
▁inherited	-11.4294
▁panicked	-11.4294
▁faintest	-11.4294
▁settle	-11.4294
▁rummaged	-11.4295
▁increasingly	-11.4295
▁cowering	-11.4295
▁savagely	-11.4295
▁sprawled	-11.4295
▁steering	-11.4295
▁scooped	-11.4296
▁glittered	-11.4296
▁hooted	-11.4296
▁goggling	-11.4297
▁puffy	-11.4297
▁threatened	-11.4297
▁sworn	-11.4298
▁sharing	-11.4298
▁galloping	-11.4299
▁brushed	-11.4299
rimmed	-11.4299
▁investigate	-11.43
▁hugging	-11.43
▁shoot	-11.43
▁bitten	-11.43
▁sweetly	-11.4301
▁brushing	-11.4301
▁swerved	-11.4301
▁pounded	-11.4301
▁stumped	-11.4302
▁curling	-11.4302
▁seared	-11.4303
▁increased	-11.4304
▁controlled	-11.4305
▁cozy	-11.4305
▁bronze	-11.4305
▁strangled	-11.4305
▁biggest	-11.4305
▁Finch	-11.4305
▁Nicolas	-11.4305
▁Fletcher	-11.4305
▁Defensive	-11.4305
▁Millicent	-11.4305
▁importance	-11.4305
▁Runes	-11.4305
▁whistling	-11.4306
▁surge	-11.4307
▁mixed	-11.4307
▁locker	-11.4307
▁Abbott	-11.4308
▁strongly	-11.4309
▁comin	-11.4312
▁Piers	-11.4313
▁giggled	-11.4313
▁assistant	-11.4314
▁release	-11.4314
▁dreading	-11.4314
▁corrected	-11.4315
▁shuddering	-11.4318
▁balding	-11.4319
▁Romilda	-11.432
▁chewing	-11.4323
▁discussed	-11.4323
▁scored	-11.4323
▁overcome	-11.4326
▁Tale	-11.4328
▁mission	-11.4328
▁advised	-11.4333
▁messing	-11.4334
▁earned	-11.4347
▁Although	-11.4351
▁shorter	-11.4355
▁fireworks	-11.4362
▁wary	-11.4363
▁Seven	-11.4363
u	-11.4366
▁paler	-11.4369
coloured	-11.437
▁slugs	-11.4382
▁capable	-11.4383
▁annoying	-11.4388
▁AT	-11.4391
▁expressions	-11.4391
▁uses	-11.4392
▁Class	-11.4399
room	-11.4402
▁smart	-11.4402
▁value	-11.4404
▁mane	-11.4406
▁Best	-11.4407
ame	-11.4408
,'`	-11.4409
Bet	-11.4412
▁hoops	-11.4413
ar	-11.4434
▁gnomes	-11.4434
▁God	-11.4439
▁tune	-11.4443
▁trained	-11.445
new	-11.4453
▁army	-11.4484
Wonder	-11.4501
▁sorted	-11.4502
▁ARE	-11.4507
.`...	-11.4508
▁wounds	-11.4521
il	-11.4543
▁Houses	-11.4554
▁sold	-11.4565
don	-11.4581
three	-11.4581
▁fears	-11.4583
▁owe	-11.459
▁stones	-11.4607
▁J	-11.4607
Black	-11.4625
▁paw	-11.4633
▁stamped	-11.4634
▁tricks	-11.4645
▁Nor	-11.4649
now	-11.4656
Wish	-11.4667
ED	-11.4673
Honestly	-11.4673
▁mild	-11.4677
Fletchley	-11.4678
five	-11.4681
▁se	-11.4689
▁range	-11.4701
Kill	-11.4704
Back	-11.4705
▁angle	-11.4705
▁tart	-11.4706
Nearly	-11.4708
▁sock	-11.471
length	-11.4724
Time	-11.4726
▁gas	-11.4731
way	-11.4732
▁cook	-11.4751
▁colour	-11.4753
▁mouthed	-11.4787
▁mouths	-11.4789
▁bark	-11.4797
▁require	-11.4802
▁surprising	-11.4807
▁disguise	-11.4807
▁goals	-11.4808
▁lookin	-11.4812
▁armchairs	-11.4813
▁giggle	-11.4813
▁shallow	-11.482
▁scraping	-11.482
▁keyhole	-11.4821
▁violet	-11.4823
▁spin	-11.4824
Yet	-11.4824
▁stair	-11.4826
ow	-11.483
▁title	-11.483
▁mouthful	-11.4834
▁language	-11.4843
▁annoy	-11.4849
▁lion	-11.486
▁exit	-11.4874
▁result	-11.4893
▁gain	-11.4895
▁Eye	-11.4897
▁whip	-11.4908
▁summon	-11.4908
..	-11.4911
▁frighten	-11.4927
Ask	-11.4927
▁fog	-11.4933
ent	-11.4934
▁accord	-11.4934
▁stump	-11.4935
▁sniff	-11.4935
▁suffer	-11.494
▁covers	-11.4942
▁register	-11.4949
▁boot	-11.4949
▁succeed	-11.495
▁build	-11.4951
▁strain	-11.4953
▁impatient	-11.4956
▁pleading	-11.4956
▁Bogrod	-11.4959
▁Egypt	-11.4959
▁aghast	-11.4959
▁crimson	-11.4959
▁fascinating	-11.4959
▁gratitude	-11.4959
▁marquee	-11.4959
▁temporarily	-11.4959
▁tiara	-11.4959
▁Network	-11.4959
▁destination	-11.4959
▁utmost	-11.4959
▁hooves	-11.4959
▁cackling	-11.4959
▁influence	-11.4959
▁loathing	-11.4959
▁bemused	-11.4959
▁Trace	-11.4959
▁July	-11.4959
▁Shack	-11.4959
▁flustered	-11.4959
▁grudgingly	-11.4959
▁unhappy	-11.4959
▁illuminating	-11.4959
▁travelling	-11.4959
▁Apparating	-11.496
▁misery	-11.496
▁irritable	-11.496
▁fervently	-11.496
▁moldy	-11.496
▁slithering	-11.496
▁snide	-11.496
▁glorious	-11.496
▁season	-11.496
▁thrashing	-11.496
▁inclined	-11.496
Lucky	-11.496
▁slippery	-11.496
▁committed	-11.496
▁frequently	-11.4961
▁coast	-11.4961
▁pelted	-11.4961
▁popped	-11.4961
▁superb	-11.4961
▁enjoyable	-11.4961
▁hastened	-11.4961
▁darkening	-11.4961
▁enclosed	-11.4962
▁caution	-11.4962
▁hilt	-11.4962
▁mouse	-11.4962
▁haze	-11.4962
▁reduced	-11.4962
▁dung	-11.4962
▁roast	-11.4962
▁HERE	-11.4962
▁askew	-11.4963
▁Road	-11.4963
▁holly	-11.4963
▁rich	-11.4963
▁blindly	-11.4963
▁constantly	-11.4963
▁stock	-11.4963
▁dusk	-11.4964
▁defensively	-11.4964
▁flared	-11.4964
▁unexpectedly	-11.4964
▁spotting	-11.4964
▁trousers	-11.4964
▁edging	-11.4965
▁tightened	-11.4965
▁resigned	-11.4965
▁swishing	-11.4966
▁precise	-11.4967
Happy	-11.4968
▁gained	-11.4968
▁stowed	-11.4969
▁lurched	-11.4969
▁crossly	-11.497
▁partners	-11.497
▁consult	-11.497
▁thundered	-11.497
▁pincers	-11.4971
▁fourteen	-11.4971
▁wailed	-11.4971
▁shuffling	-11.4971
▁breakout	-11.4972
▁rabbit	-11.4972
▁Lynch	-11.4972
▁MAGIC	-11.4972
▁blushing	-11.4972
▁obsessed	-11.4972
▁Padfoot	-11.4972
▁grilles	-11.4973
▁arrangements	-11.4973
▁cackled	-11.4973
▁wailing	-11.4973
▁Ball	-11.4974
▁attic	-11.4974
▁trap	-11.4975
▁murmuring	-11.4976
▁peeling	-11.4977
▁apple	-11.498
▁cheered	-11.498
▁arrested	-11.4982
▁chained	-11.4983
▁latter	-11.4984
▁trusts	-11.4987
▁frail	-11.4987
▁downward	-11.4988
▁decorations	-11.499
▁assumed	-11.4991
▁produced	-11.4992
ened	-11.4993
▁collecting	-11.4996
▁aimed	-11.4998
▁stray	-11.4998
▁Dungbombs	-11.4999
▁charming	-11.5002
▁related	-11.5003
▁recall	-11.5005
▁cell	-11.5009
▁focused	-11.5009
▁mortal	-11.5016
▁u	-11.5017
▁rug	-11.5019
▁tested	-11.502
▁Together	-11.5022
▁lasted	-11.5027
▁veins	-11.5038
iness	-11.504
▁Seconds	-11.5046
▁beads	-11.505
▁problems	-11.5052
;`	-11.5056
▁whoosh	-11.5056
▁savage	-11.5057
▁award	-11.5061
▁practices	-11.5062
▁bared	-11.5066
▁ev	-11.5073
▁rotting	-11.5091
▁lanterns	-11.5103
RE	-11.5111
▁creak	-11.5115
▁evenings	-11.5123
ius	-11.5136
side	-11.5139
▁posters	-11.5142
▁effective	-11.5143
v	-11.516
▁boss	-11.5174
▁fewer	-11.5182
▁base	-11.519
▁noses	-11.5197
▁Quick	-11.5214
▁sa	-11.5234
Bye	-11.5238
▁charges	-11.5243
▁bats	-11.5256
Slytherin	-11.5258
▁accidents	-11.5263
with	-11.5264
▁pus	-11.5268
▁ca	-11.5288
▁ruff	-11.5293
▁backing	-11.5296
▁blur	-11.5299
▁detect	-11.5301
▁unicorns	-11.531
Moody	-11.5314
boy	-11.5317
ered	-11.5319
Madam	-11.5335
▁ma	-11.5337
▁brim	-11.5342
ble	-11.5349
Though	-11.5349
▁lurch	-11.5358
owing	-11.5358
Help	-11.5382
Tonks	-11.5384
▁cups	-11.539
▁travel	-11.5394
James	-11.5399
▁ideal	-11.54
▁intense	-11.5403
Jus	-11.5405
By	-11.5414
Narcissa	-11.5426
▁traitor	-11.5426
▁Street	-11.5427
Always	-11.543
More	-11.5432
Surely	-11.5436
own	-11.5451
▁j	-11.5466
U	-11.5467
▁Bard	-11.5471
▁st	-11.5478
▁spots	-11.548
turn	-11.5486
▁marry	-11.5489
light	-11.5497
▁dirt	-11.5497
▁willing	-11.5497
▁grunt	-11.5502
These	-11.5514
▁coffee	-11.5524
▁whizz	-11.5525
Outstanding	-11.5526
▁chimney	-11.5534
▁legend	-11.5536
▁lunchtime	-11.5536
▁IS	-11.5536
▁wail	-11.5537
▁vampire	-11.5542
▁banner	-11.5543
▁suggestion	-11.5544
▁jewel	-11.5544
▁threat	-11.5546
▁victim	-11.5549
▁ticket	-11.5551
▁trial	-11.5552
▁Beater	-11.5552
▁Know	-11.5568
▁distract	-11.5588
Un	-11.5588
▁squat	-11.5615
▁Give	-11.5616
▁Soon	-11.562
▁chart	-11.5627
▁attract	-11.5649
▁rumble	-11.565
▁flee	-11.5651
▁demonstrate	-11.5651
▁gather	-11.5651
▁companion	-11.5659
▁outrage	-11.566
▁rubber	-11.5665
▁regain	-11.5667
▁disapproving	-11.567
▁absent	-11.567
▁occasional	-11.5672
▁process	-11.5673
▁Legilimency	-11.5673
▁enemies	-11.5673
▁persisted	-11.5673
▁pyjamas	-11.5673
▁Studies	-11.5673
▁Veritaserum	-11.5673
▁boarhound	-11.5673
▁crucial	-11.5673
▁energy	-11.5673
▁exasperation	-11.5673
▁miniature	-11.5673
▁practising	-11.5673
▁tablecloth	-11.5673
▁trophy	-11.5673
▁blackthorn	-11.5673
▁temptation	-11.5673
Morning	-11.5673
▁merrily	-11.5673
▁Crescent	-11.5673
▁disturbance	-11.5673
▁jammed	-11.5673
▁credit	-11.5674
▁commentary	-11.5674
▁wrestling	-11.5674
▁Standard	-11.5674
▁dismissively	-11.5674
▁pardon	-11.5674
▁teapot	-11.5674
▁plotting	-11.5674
▁wheezy	-11.5674
▁stabbed	-11.5674
▁Moran	-11.5674
▁glee	-11.5674
▁improvement	-11.5674
▁slapping	-11.5674
▁bracingly	-11.5674
Knock	-11.5674
▁applauding	-11.5674
▁tankard	-11.5674
▁scuttled	-11.5674
▁ninety	-11.5674
▁stubby	-11.5674
▁dabbing	-11.5675
▁trickling	-11.5675
▁canopy	-11.5675
▁grinding	-11.5675
▁tartan	-11.5675
▁handwriting	-11.5675
▁dreamily	-11.5675
▁glumly	-11.5675
▁stepping	-11.5675
▁sleepily	-11.5675
▁sincerely	-11.5676
▁potatoes	-11.5676
Special	-11.5676
▁reluctantly	-11.5676
▁sandwiches	-11.5677
▁underwater	-11.5677
▁island	-11.5677
▁scaly	-11.5677
▁convicted	-11.5677
▁apprehensively	-11.5677
▁witness	-11.5678
▁clinging	-11.5678
▁labeled	-11.5678
▁appeal	-11.5679
Educational	-11.5679
▁matted	-11.568
▁united	-11.568
▁gingerly	-11.568
▁mounting	-11.5681
▁scum	-11.5681
▁filing	-11.5681
take	-11.5682
▁rusty	-11.5682
▁mice	-11.5682
▁accused	-11.5682
▁regained	-11.5682
▁flashes	-11.5683
▁healthy	-11.5684
▁delicate	-11.5684
▁shrinking	-11.5685
▁dining	-11.5685
▁lumpy	-11.5685
▁draining	-11.5686
▁bony	-11.5687
▁streaking	-11.5687
▁Boggart	-11.5687
▁grimy	-11.5687
where	-11.5688
▁confirmed	-11.5688
▁Headmistress	-11.5688
▁GOT	-11.5688
▁Theory	-11.5688
▁china	-11.5689
▁feeding	-11.5689
▁sixty	-11.5689
▁approval	-11.569
▁cheery	-11.569
▁disgusted	-11.5693
▁warningly	-11.5694
▁correctly	-11.5695
▁offended	-11.5695
▁dawned	-11.5696
▁tempted	-11.5697
▁mended	-11.5698
▁waking	-11.5698
▁doorstep	-11.5698
▁prevented	-11.57
▁amid	-11.5701
▁type	-11.5702
▁Hestia	-11.5705
▁Control	-11.5705
▁scarf	-11.5706
▁research	-11.5708
▁Bella	-11.5708
▁paced	-11.5708
▁planted	-11.571
▁smoothed	-11.5711
▁included	-11.5714
▁stupidly	-11.5718
▁awoken	-11.5722
▁THAT	-11.5722
▁Elphias	-11.5722
▁According	-11.5723
▁founders	-11.5724
▁argued	-11.5726
▁Apparated	-11.5735
▁hook	-11.574
▁rapped	-11.5744
▁grades	-11.5745
▁thumbs	-11.5748
▁riding	-11.5753
▁sessions	-11.5755
▁Dawlish	-11.5758
eaten	-11.5762
▁tying	-11.5764
▁Trying	-11.5768
Devil	-11.577
▁Sturgis	-11.5776
▁colder	-11.5782
▁ornate	-11.5783
▁com	-11.5788
▁cracking	-11.5789
▁pinch	-11.5791
▁flu	-11.581
ine	-11.581
▁giggles	-11.5811
▁hunt	-11.582
▁piled	-11.582
▁strings	-11.583
ian	-11.5831
pe	-11.5835
▁fragments	-11.5847
▁finds	-11.5851
▁al	-11.5853
▁creep	-11.5878
▁matching	-11.5892
ook	-11.5907
▁punishments	-11.5912
▁rim	-11.5919
Been	-11.5921
▁sh	-11.5924
▁cuts	-11.5924
▁jaws	-11.5925
▁band	-11.5935
▁wrench	-11.5937
ten	-11.5946
am	-11.5947
▁doin	-11.5949
▁keys	-11.5965
ley	-11.5982
sen	-11.5982
▁watering	-11.5984
HE	-11.5991
▁dates	-11.6004
ever	-11.6009
▁Got	-11.602
▁laws	-11.6025
Gryffindor	-11.6027
K	-11.6032
▁monsters	-11.6069
▁rested	-11.6118
▁masters	-11.6122
Cedric	-11.6123
gged	-11.6125
glass	-11.6145
▁flush	-11.6153
▁facts	-11.6154
minute	-11.616
Karkaroff	-11.6166
▁tells	-11.6172
▁surroundings	-11.618
Merry	-11.6185
Bathilda	-11.6194
Follow	-11.6195
Half	-11.6196
Before	-11.6196
▁moth	-11.6202
Most	-11.6202
mouthed	-11.6203
Without	-11.6206
ible	-11.622
▁streak	-11.6267
▁prize	-11.6279
▁fireplaces	-11.6292
▁ghoul	-11.6299
▁forearm	-11.6303
▁blade	-11.6308
▁Bowtruckle	-11.6308
▁vegetable	-11.6308
▁celebration	-11.6308
▁HAVE	-11.6312
▁boulder	-11.6314
aid	-11.6314
tinies	-11.6315
▁waft	-11.6315
▁chunk	-11.6317
▁grindylow	-11.6317
▁instrument	-11.6318
▁enchantment	-11.6319
▁Burke	-11.6321
▁blanket	-11.6325
▁Does	-11.6326
▁neighbor	-11.6328
▁ruin	-11.6328
▁greeting	-11.6337
▁freak	-11.6349
▁pod	-11.6363
▁lifts	-11.6406
high	-11.6408
▁interrupt	-11.6417
▁flutter	-11.6419
▁glint	-11.642
▁drown	-11.6421
▁improve	-11.6421
▁squeeze	-11.6422
▁prepare	-11.6422
▁include	-11.6424
▁conjure	-11.6424
▁tomb	-11.6426
▁drain	-11.6427
▁confess	-11.6433
▁escort	-11.6433
▁retort	-11.6434
▁filth	-11.6436
▁ON	-11.6439
▁swift	-11.6439
▁elder	-11.644
▁weakness	-11.6442
▁birth	-11.6443
▁Crumple	-11.6443
▁FROM	-11.6443
▁Gurg	-11.6443
▁Hangleton	-11.6443
▁Mostafa	-11.6443
▁Resurrection	-11.6443
▁Statute	-11.6443
▁Wheezes	-11.6443
▁Yule	-11.6443
▁alternative	-11.6443
▁anxiety	-11.6443
▁audible	-11.6443
▁choosing	-11.6443
▁frustrated	-11.6443
▁grumpy	-11.6443
▁minuscule	-11.6443
▁plinth	-11.6443
▁unmistakable	-11.6443
▁volunteer	-11.6443
▁Pucey	-11.6443
▁Regulation	-11.6443
▁resentment	-11.6443
▁slithered	-11.6443
▁Diggle	-11.6443
▁vibrating	-11.6443
▁Memory	-11.6443
▁Terry	-11.6443
▁celebrating	-11.6443
▁commotion	-11.6443
▁knelt	-11.6443
▁aloft	-11.6443
▁wreckage	-11.6443
Horned	-11.6443
▁unwrapped	-11.6443
▁choking	-11.6443
▁loyal	-11.6443
▁performance	-11.6443
▁clump	-11.6443
▁gracefully	-11.6443
▁unnoticed	-11.6443
▁imprisoned	-11.6443
▁digging	-11.6443
▁inspection	-11.6443
▁brandished	-11.6443
▁purring	-11.6443
▁prowled	-11.6443
▁woolly	-11.6443
▁Mason	-11.6443
▁unlocked	-11.6443
▁tension	-11.6443
▁chatting	-11.6443
▁racket	-11.6444
▁Inquisitorial	-11.6444
▁musical	-11.6444
▁uproar	-11.6444
▁countryside	-11.6444
▁craning	-11.6444
▁skies	-11.6444
▁swapped	-11.6444
Riddikulus	-11.6444
▁remotely	-11.6444
▁squid	-11.6445
▁timidly	-11.6445
▁indifferently	-11.6445
▁maliciously	-11.6445
▁humming	-11.6445
▁escaping	-11.6445
▁sunny	-11.6445
▁twittering	-11.6445
▁le	-11.6445
▁pierced	-11.6445
▁fitted	-11.6446
▁menacingly	-11.6446
▁centre	-11.6446
▁summat	-11.6446
▁slam	-11.6446
▁anguished	-11.6446
Knew	-11.6446
▁prominent	-11.6446
▁glistening	-11.6446
▁tucking	-11.6447
▁darkened	-11.6447
▁fondly	-11.6447
▁somethin	-11.6448
▁sniggering	-11.6448
▁ominously	-11.6448
▁chorus	-11.6448
▁poring	-11.6448
▁melted	-11.6449
▁confidently	-11.6449
▁retreating	-11.6449
Oi	-11.6449
▁comfortably	-11.6449
▁quivered	-11.6449
▁clawed	-11.6449
▁puffed	-11.645
▁fox	-11.6451
▁threateningly	-11.6451
▁Standing	-11.6451
▁extracted	-11.6452
▁retorted	-11.6452
▁pound	-11.6453
▁male	-11.6454
Up	-11.6454
▁registered	-11.6454
▁obeyed	-11.6454
▁reared	-11.6455
▁loyalty	-11.6457
▁cap	-11.6457
▁diversion	-11.6457
▁century	-11.6457
▁drenched	-11.6457
▁Albania	-11.6458
▁Runcorn	-11.6458
▁Gellert	-11.6458
▁Petrified	-11.6458
▁splattered	-11.6458
▁Gabrielle	-11.6458
▁longingly	-11.6458
▁governors	-11.6459
▁Snare	-11.6459
▁appointed	-11.646
▁access	-11.646
▁zat	-11.646
▁collected	-11.6462
▁education	-11.6463
▁searing	-11.6463
▁confided	-11.6464
▁statement	-11.6465
▁improved	-11.6465
▁determinedly	-11.6467
▁firing	-11.6467
▁dwelling	-11.6469
▁treating	-11.647
▁sodden	-11.647
▁dish	-11.6471
▁hag	-11.6472
▁poisoned	-11.6473
▁powerfully	-11.6475
▁wrought	-11.6475
▁Alecto	-11.6476
▁Podmore	-11.6476
▁intending	-11.6477
▁humor	-11.6477
▁tracked	-11.6478
▁bandages	-11.648
▁quicker	-11.648
▁guessing	-11.6481
▁importantly	-11.6486
▁Witch	-11.6486
▁sporting	-11.6486
▁piped	-11.6487
▁suggesting	-11.6492
▁freely	-11.6494
▁liar	-11.6497
▁occur	-11.6509
▁tottering	-11.6512
▁vein	-11.6514
▁photos	-11.6515
▁safer	-11.6515
▁facedown	-11.6517
▁awaiting	-11.6519
▁Snap	-11.6519
▁hunting	-11.652
▁locate	-11.6526
▁patched	-11.6531
▁Skrewts	-11.6532
▁Avery	-11.6533
▁massag	-11.6535
▁Quill	-11.6538
▁shawls	-11.6539
▁predictions	-11.6539
▁claws	-11.6539
▁eighteen	-11.6552
▁conversations	-11.6559
▁neighbors	-11.6562
▁doubled	-11.6576
▁mostly	-11.6581
▁mugs	-11.6581
▁dial	-11.6588
▁ye	-11.6592
▁shelter	-11.6603
▁Impediment	-11.6611
▁Sometimes	-11.6612
▁Last	-11.6614
did	-11.6622
▁im	-11.664
▁..	-11.6645
▁jabb	-11.6646
▁uttered	-11.6647
▁behave	-11.6654
▁alley	-11.6663
▁survives	-11.6665
skin	-11.6674
Too	-11.6674
over	-11.6674
▁slice	-11.6684
▁Fi	-11.6714
▁muster	-11.6726
▁Curses	-11.6734
▁revive	-11.6743
our	-11.6745
nfortunately	-11.6745
lessly	-11.6748
▁occasions	-11.6748
Say	-11.6781
▁emptying	-11.6791
▁toes	-11.6802
▁repel	-11.6804
▁Lestranges	-11.6821
rotting	-11.6854
right	-11.6863
▁cork	-11.6868
▁WE	-11.6872
▁Jinx	-11.6888
▁per	-11.6891
▁expel	-11.6897
▁graves	-11.6904
▁reread	-11.6925
Lord	-11.6927
k	-11.6934
▁prod	-11.6939
Gone	-11.6939
sh	-11.694
ver	-11.695
▁murders	-11.6966
making	-11.6967
smelling	-11.6981
oh	-11.6988
Precisely	-11.6989
▁messages	-11.6992
gold	-11.6992
Were	-11.6999
Peeves	-11.6999
Griphook	-11.7004
▁effects	-11.7004
Mundungus	-11.7005
▁De	-11.7015
▁din	-11.7016
▁mock	-11.7017
Brilliant	-11.7019
Imagine	-11.702
▁circles	-11.7022
However	-11.7027
Naturally	-11.7032
▁Yeah	-11.7036
▁Thought	-11.7038
Whatever	-11.7068
▁appears	-11.7069
▁colors	-11.7092
▁leads	-11.7093
▁strip	-11.7094
▁nest	-11.7096
tle	-11.7107
▁tangle	-11.7118
▁wheel	-11.7121
▁uniform	-11.7125
nosed	-11.7132
co	-11.7136
▁stab	-11.714
▁mask	-11.7141
▁Karkus	-11.7142
▁belief	-11.7142
▁crown	-11.7149
▁defense	-11.7151
▁slug	-11.7157
▁sacrifice	-11.7161
▁platforms	-11.7162
▁sport	-11.7164
te	-11.7164
▁leader	-11.7165
▁rate	-11.7165
▁breaths	-11.7168
▁deaf	-11.717
▁Peverell	-11.7182
cy	-11.7187
▁flower	-11.719
▁oil	-11.7198
▁town	-11.7212
--`	-11.7216
▁kn	-11.7218
▁heir	-11.7218
▁claw	-11.7239
ping	-11.7242
▁shiver	-11.7243
▁fuss	-11.7245
though	-11.7251
▁reappear	-11.7252
▁extract	-11.7252
▁confide	-11.7253
Its	-11.7253
▁smirk	-11.7253
▁trail	-11.7254
▁frown	-11.7254
▁grimace	-11.7255
▁huddle	-11.7255
▁twitch	-11.7255
▁issue	-11.7255
▁reverse	-11.7255
▁stall	-11.7256
▁flood	-11.7258
▁shift	-11.726
▁trickle	-11.7261
▁accompany	-11.7262
▁direct	-11.7263
▁wreck	-11.7265
▁transport	-11.7266
▁copper	-11.7267
▁confirm	-11.7269
▁explode	-11.7271
▁advise	-11.7272
▁sickening	-11.7272
▁menacing	-11.7273
▁lure	-11.7273
▁wisp	-11.7273
▁apparent	-11.7273
▁gleeful	-11.7273
▁shrewd	-11.7273
▁fearful	-11.7275
▁̈	-11.7275
▁addition	-11.7275
▁horizon	-11.7276
▁embroider	-11.7276
▁penalty	-11.7276
Definitely	-11.7276
▁Edgecombe	-11.7276
▁February	-11.7276
▁Oracle	-11.7276
▁blimey	-11.7276
▁miracle	-11.7276
▁napkin	-11.7276
▁occupied	-11.7276
▁sympathy	-11.7276
▁variety	-11.7276
▁victory	-11.7276
▁relationship	-11.7276
▁sunshine	-11.7276
▁Tofty	-11.7276
▁copied	-11.7276
▁shrank	-11.7276
▁scrambling	-11.7276
▁Blimey	-11.7276
▁lousy	-11.7276
▁pallid	-11.7276
▁pursuing	-11.7276
▁Weekly	-11.7276
▁Harper	-11.7276
▁groping	-11.7276
▁bidding	-11.7276
▁Life	-11.7276
▁assistance	-11.7276
▁jagged	-11.7276
▁Totalu	-11.7276
▁emitting	-11.7276
▁thunderstruck	-11.7276
▁annoyance	-11.7276
▁example	-11.7276
▁Beans	-11.7276
▁nastily	-11.7276
▁Vane	-11.7276
▁gentlemen	-11.7276
▁gonna	-11.7276
▁considerably	-11.7276
▁generous	-11.7276
▁WAS	-11.7276
▁Section	-11.7276
▁assembled	-11.7276
▁mystery	-11.7276
▁junk	-11.7276
▁incredibly	-11.7276
Enough	-11.7276
▁cramped	-11.7276
▁immersed	-11.7277
▁appreciatively	-11.7277
▁agreement	-11.7277
▁jeered	-11.7277
▁sulky	-11.7277
▁scattering	-11.7277
▁barrel	-11.7277
▁revision	-11.7277
▁babble	-11.7277
▁solemnly	-11.7277
▁increasing	-11.7277
▁scathingly	-11.7278
▁deciding	-11.7278
▁vomit	-11.7278
▁skulking	-11.7278
▁flipped	-11.7278
▁angrier	-11.7278
▁unrolled	-11.7279
▁pelting	-11.7279
▁steered	-11.7279
▁clinking	-11.7279
▁wrinkled	-11.7279
▁`...	-11.7279
▁cluttered	-11.7279
▁parties	-11.728
▁worthless	-11.728
▁leering	-11.728
▁hunched	-11.728
▁straightaway	-11.728
▁swarm	-11.728
▁jealous	-11.728
▁despise	-11.728
▁madness	-11.728
▁buckled	-11.7281
▁amusement	-11.7281
▁sagging	-11.7281
▁leaking	-11.7282
▁significant	-11.7282
▁fumes	-11.7282
▁loomed	-11.7282
▁whimpered	-11.7283
▁prodd	-11.7283
▁rooted	-11.7283
▁flowery	-11.7283
▁court	-11.7284
▁vertical	-11.7284
▁embarrassing	-11.7284
▁yelped	-11.7284
▁regularly	-11.7284
▁hopped	-11.7285
▁bravery	-11.7285
▁trailed	-11.7286
▁skip	-11.7286
▁confiscated	-11.7286
▁glinted	-11.7287
▁summoned	-11.7287
▁reacted	-11.7287
▁brandy	-11.7288
▁sip	-11.7288
▁beady	-11.7289
▁squeaky	-11.7289
▁sensible	-11.7289
▁tethered	-11.7289
▁suppressed	-11.7289
▁Too	-11.729
▁dramatic	-11.7291
▁nighttime	-11.7291
▁applied	-11.7292
▁Salazar	-11.7292
▁quality	-11.7292
▁Twycross	-11.7292
▁Bulstrode	-11.7292
▁furry	-11.7292
▁bump	-11.7292
day	-11.7293
▁clap	-11.7293
▁grunting	-11.7293
▁abroad	-11.7293
▁Sybill	-11.7294
▁Somehow	-11.7294
▁stacked	-11.7295
▁stout	-11.7295
▁accusing	-11.7297
▁squeaking	-11.73
▁selling	-11.7301
▁unwise	-11.7301
▁K	-11.7302
▁thumb	-11.7302
▁fixing	-11.7302
▁cloudy	-11.7304
▁tentacles	-11.7304
▁minor	-11.7305
▁drowning	-11.7306
▁knocker	-11.7308
▁spying	-11.731
▁comforting	-11.7311
▁severed	-11.7311
▁KNOW	-11.7312
▁Twice	-11.7312
▁Alastor	-11.7312
▁Dung	-11.7313
▁cure	-11.7317
▁thrusting	-11.7317
▁alarming	-11.732
▁Snatchers	-11.732
▁rescued	-11.7324
▁pillars	-11.7326
▁park	-11.7327
▁?`	-11.7331
▁planets	-11.7333
▁performing	-11.7335
ack	-11.7335
▁nothin	-11.7338
▁dreamy	-11.7339
ricket	-11.734
▁boils	-11.7349
▁Patronuses	-11.7349
▁guarded	-11.7349
ities	-11.7355
▁limbs	-11.7356
▁pointedly	-11.7358
▁material	-11.7361
▁disguised	-11.737
▁methods	-11.737
▁meal	-11.737
▁paws	-11.7372
▁stricken	-11.7375
▁Help	-11.7384
▁mastered	-11.7389
▁numbers	-11.739
▁markings	-11.7391
▁Students	-11.7397
▁nails	-11.7399
el	-11.74
▁belly	-11.7407
▁stained	-11.7409
▁grindylows	-11.7414
▁sang	-11.7414
▁Somebody	-11.7418
▁fasten	-11.7424
tempered	-11.7425
▁suspicions	-11.7444
▁drunk	-11.7446
▁AN	-11.7453
▁loop	-11.7454
▁hearty	-11.7473
▁Silence	-11.7487
▁lighter	-11.7492
▁antidotes	-11.7496
▁rags	-11.7506
▁afterwards	-11.7516
used	-11.7523
▁bridge	-11.7533
▁Stun	-11.7553
▁badger	-11.7555
▁cope	-11.7558
▁exercise	-11.7562
▁symbols	-11.7568
▁exists	-11.7571
turned	-11.7574
-``	-11.7585
▁pu	-11.7592
▁whispers	-11.7595
▁guardian	-11.7645
▁pulse	-11.765
▁tore	-11.7659
▁washing	-11.766
▁washed	-11.766
▁eyed	-11.7671
▁serpents	-11.7678
George	-11.7686
surprisingly	-11.7718
OUR	-11.7737
Make	-11.7738
Ministry	-11.774
Death	-11.7757
▁excuses	-11.7763
▁pat	-11.779
▁tests	-11.7795
▁hates	-11.78
Quidditch	-11.7803
giant	-11.7815
▁holes	-11.7825
Tha	-11.783
▁Must	-11.7831
▁Is	-11.7843
urried	-11.7843
Looks	-11.7846
▁mutter	-11.7853
Petunia	-11.7854
Riddle	-11.7855
▁newspapers	-11.7864
et	-11.7869
struck	-11.7886
▁Char	-11.7899
shirt	-11.79
Cheer	-11.7902
Scrimgeour	-11.7906
Crucio	-11.791
House	-11.7912
▁Gold	-11.7913
▁mop	-11.7914
blond	-11.7923
Qu	-11.7936
▁topped	-11.7939
Level	-11.7941
ap	-11.7941
Apparently	-11.7942
Everything	-11.7943
While	-11.7944
▁basic	-11.7946
▁armed	-11.7957
▁assist	-11.7963
▁roars	-11.7977
▁wha	-11.7981
ingly	-11.7985
▁collapse	-11.799
▁passages	-11.8
▁Leav	-11.8003
▁pump	-11.8008
▁Wonder	-11.8013
backed	-11.8014
▁bury	-11.8017
▁claim	-11.8018
▁virtu	-11.8019
▁towel	-11.8024
Watch	-11.8029
▁crunch	-11.8032
▁briefcase	-11.8034
▁puff	-11.8038
▁Owl	-11.8045
▁motorcycle	-11.8045
breeds	-11.8046
▁autograph	-11.805
▁Cleansweep	-11.805
▁leaflet	-11.8051
▁Grade	-11.8052
▁adult	-11.8055
▁disappearance	-11.8057
▁neighbour	-11.8059
▁stride	-11.8063
▁jobs	-11.8065
▁twig	-11.807
▁mistakes	-11.8097
ning	-11.8099
▁fang	-11.8108
▁meat	-11.811
▁sub	-11.8118
▁Reg	-11.8124
▁hip	-11.8126
▁youth	-11.813
▁mile	-11.8134
▁marking	-11.8137
▁glances	-11.8144
▁bun	-11.8147
▁scratch	-11.8149
▁challenge	-11.8149
▁march	-11.815
▁pal	-11.8153
▁Y	-11.8154
▁standard	-11.8157
▁Al	-11.8158
▁cloth	-11.8158
man	-11.816
▁relax	-11.8161
▁abandon	-11.8161
▁thrill	-11.8162
▁scowl	-11.8162
V	-11.8162
▁twist	-11.8162
▁rustle	-11.8163
▁provide	-11.8164
▁tremble	-11.8165
▁spill	-11.8169
▁growl	-11.817
▁shrink	-11.8172
▁buzz	-11.8172
▁blaze	-11.8172
▁recognise	-11.8175
▁gleam	-11.8177
▁teenage	-11.8177
▁frost	-11.8178
▁orb	-11.818
▁modest	-11.8182
▁diff	-11.8182
▁peaceful	-11.8182
▁reluctant	-11.8182
▁headmistress	-11.8183
▁fruit	-11.8185
▁superior	-11.8185
▁vulture	-11.8185
▁Celestina	-11.8185
▁Elixir	-11.8185
▁Olympe	-11.8185
▁Sensor	-11.8185
▁bullfrog	-11.8185
▁derisive	-11.8185
▁emblazoned	-11.8185
▁furniture	-11.8185
▁genuine	-11.8185
▁skeletal	-11.8185
▁Flavor	-11.8185
▁Kwikspell	-11.8185
▁Marcus	-11.8185
▁admiration	-11.8185
▁affronted	-11.8185
▁crocodile	-11.8185
▁disapproval	-11.8185
▁pinstriped	-11.8185
▁Solution	-11.8185
▁forefinger	-11.8185
▁interjected	-11.8185
▁awestruck	-11.8185
▁genius	-11.8185
▁valley	-11.8185
▁absentmindedly	-11.8185
▁assortment	-11.8185
▁guarantee	-11.8185
▁priority	-11.8185
▁renewed	-11.8185
▁apologetically	-11.8185
▁identity	-11.8185
▁flailing	-11.8185
▁Club	-11.8185
▁Jones	-11.8185
▁flitted	-11.8185
▁Suddenly	-11.8185
▁pillowcase	-11.8185
▁essence	-11.8185
▁wincing	-11.8185
Absolutely	-11.8185
Cool	-11.8185
▁Sisters	-11.8185
▁cunning	-11.8185
▁resolutely	-11.8185
▁obsession	-11.8185
▁million	-11.8185
▁Underage	-11.8185
▁mistletoe	-11.8185
▁firewhisky	-11.8185
▁observing	-11.8185
▁phrase	-11.8186
▁wheezing	-11.8186
Protego	-11.8186
▁tinkling	-11.8186
▁dodging	-11.8186
▁additional	-11.8186
▁blurted	-11.8186
▁unblinkingly	-11.8186
▁affection	-11.8186
▁supply	-11.8186
▁budge	-11.8186
▁clung	-11.8186
▁battling	-11.8186
▁ranks	-11.8186
▁apron	-11.8186
▁comprised	-11.8186
▁whipping	-11.8186
▁subsided	-11.8187
▁encouragingly	-11.8187
▁stung	-11.8187
▁riot	-11.8187
▁grayish	-11.8187
▁flinched	-11.8187
▁exposed	-11.8187
▁retired	-11.8188
▁truthfully	-11.8188
▁conductor	-11.8188
▁dipped	-11.8188
▁snooz	-11.8188
▁headmistresses	-11.8188
▁shaky	-11.8188
▁staffroom	-11.8189
▁elderly	-11.8189
▁MY	-11.8189
▁toadlike	-11.8189
▁sprouted	-11.8189
▁overcoat	-11.819
Calm	-11.819
▁tripping	-11.819
▁inviting	-11.819
COME	-11.819
▁coward	-11.819
▁ignited	-11.8191
▁admiring	-11.8191
▁drawling	-11.8192
▁jam	-11.8192
▁slashed	-11.8192
▁triumphantly	-11.8192
▁harshly	-11.8192
clad	-11.8192
▁stifled	-11.8192
▁Perkins	-11.8192
▁observed	-11.8194
▁airily	-11.8195
▁swirled	-11.8196
▁smashing	-11.8197
▁squealing	-11.8198
▁hovered	-11.8198
▁puffing	-11.8198
▁bellowing	-11.8199
▁splashing	-11.8199
▁burden	-11.82
▁zero	-11.82
▁reappearing	-11.82
▁tragic	-11.8201
▁sympathetic	-11.8202
▁Prongs	-11.8202
▁activity	-11.8202
▁Peakes	-11.8202
▁behaviour	-11.8202
▁Snuffles	-11.8202
▁knobbly	-11.8202
▁Things	-11.8202
▁THIS	-11.8202
▁Cannons	-11.8204
▁fingernails	-11.8204
▁created	-11.8206
▁developed	-11.8207
▁delightedly	-11.8207
▁league	-11.8207
▁Boot	-11.8207
▁coughed	-11.8208
▁endless	-11.8208
▁throng	-11.821
▁trainers	-11.821
▁gifted	-11.8211
▁strangest	-11.8212
▁chew	-11.8212
▁lifetime	-11.8212
▁healed	-11.8213
▁goodbye	-11.8213
▁manager	-11.8214
▁sickly	-11.8214
▁relish	-11.8215
▁affected	-11.8215
▁vain	-11.8215
▁tricky	-11.8216
▁flaw	-11.8216
▁pixies	-11.8216
▁streetlamps	-11.8216
▁coughing	-11.8217
▁patiently	-11.8219
▁stroked	-11.8219
▁latest	-11.8221
▁flicking	-11.8221
▁moaning	-11.8221
▁matches	-11.8223
▁failing	-11.8224
▁Evans	-11.8224
▁bless	-11.8225
▁solution	-11.8227
▁dresser	-11.8231
▁steaming	-11.8231
▁witnesses	-11.8231
▁stove	-11.8232
▁hind	-11.8232
▁meself	-11.8232
▁messed	-11.8234
▁tasted	-11.8235
▁resisting	-11.8236
▁introduced	-11.8236
▁tensely	-11.8238
▁repeatedly	-11.8239
▁rocky	-11.824
▁sucking	-11.8242
▁react	-11.8245
▁cleaned	-11.8246
▁cores	-11.8247
▁Dangerous	-11.8248
▁assuming	-11.825
▁testing	-11.8253
▁Turn	-11.8259
▁jumble	-11.826
▁halted	-11.8261
▁concentrated	-11.8264
▁arrows	-11.8265
▁fired	-11.8266
▁GO	-11.8266
hat	-11.8268
▁qualified	-11.8272
gone	-11.8277
▁Mother	-11.8278
▁leak	-11.8279
▁Mandrakes	-11.8282
come	-11.8284
▁grouped	-11.8293
▁Third	-11.8293
▁rapt	-11.8295
▁snores	-11.8296
▁twinge	-11.8297
▁trusting	-11.8302
▁backside	-11.8302
▁sherry	-11.8307
have	-11.8327
▁sunli	-11.8331
▁Close	-11.8343
▁li	-11.8346
▁shocking	-11.8349
▁tryin	-11.8349
▁traitors	-11.8356
▁raining	-11.8358
▁tide	-11.8369
▁Big	-11.837
▁Fo	-11.8381
▁sour	-11.8388
▁resolve	-11.8404
▁beasts	-11.8406
▁hearth	-11.8416
▁Told	-11.8417
▁bead	-11.8431
▁bust	-11.8437
▁ga	-11.8439
Nor	-11.8464
lly	-11.8465
▁guide	-11.8466
her	-11.8502
▁rounding	-11.8505
▁tails	-11.8505
aking	-11.8508
▁contradict	-11.8512
▁gin	-11.8519
▁lad	-11.8526
▁chickens	-11.8529
▁awed	-11.8529
▁WHO	-11.8534
▁pa	-11.8543
▁dogs	-11.8544
▁taps	-11.8547
▁.....	-11.8547
▁changes	-11.8621
DON	-11.8637
ball	-11.8654
▁Accio	-11.8666
▁writhe	-11.8666
▁scare	-11.8668
▁sur	-11.8693
half	-11.8709
▁streets	-11.8734
▁stomp	-11.8744
Open	-11.8753
▁ours	-11.8756
▁gran	-11.876
▁ah	-11.8784
iest	-11.8798
▁amounts	-11.8799
hood	-11.8809
ped	-11.8817
Second	-11.8821
▁tooth	-11.883
yeh	-11.8845
Bad	-11.8849
▁splash	-11.8855
▁limit	-11.8857
▁wobble	-11.8859
Hedwig	-11.888
Wormtail	-11.888
Mind	-11.8894
WEASLEY	-11.8897
▁lighting	-11.89
▁interpret	-11.8901
Rita	-11.8902
Poor	-11.8904
grown	-11.8907
Ollivander	-11.8911
gray	-11.8927
age	-11.8927
six	-11.8927
known	-11.8937
▁y	-11.8938
▁sets	-11.8942
Unless	-11.8942
Silence	-11.8942
Merlin	-11.8944
OUT	-11.8952
▁earn	-11.8966
▁pin	-11.8975
▁proceed	-11.898
▁contain	-11.8986
▁waves	-11.9003
▁curl	-11.9003
▁loves	-11.9004
otes	-11.901
▁squeal	-11.9012
▁yelp	-11.9017
posed	-11.9017
▁games	-11.9031
▁Draught	-11.9033
ST	-11.9036
▁squares	-11.904
▁disagree	-11.9044
▁rooster	-11.9045
▁target	-11.9046
▁bullet	-11.9046
▁snore	-11.9049
▁imitation	-11.905
▁Snorkack	-11.9053
▁courtroom	-11.9053
▁Monster	-11.9055
▁maniac	-11.9056
▁cubicle	-11.9056
▁parent	-11.9056
▁prediction	-11.906
▁shawl	-11.906
Point	-11.906
ice	-11.9067
▁reporter	-11.9067
▁swim	-11.9069
▁sphere	-11.907
▁Which	-11.9072
bounds	-11.9084
▁jokes	-11.9092
ward	-11.9095
▁visitor	-11.9095
▁pupil	-11.9096
▁thoughtful	-11.9113
arry	-11.9116
▁limb	-11.9118
your	-11.9124
▁Try	-11.9125
▁glove	-11.9128
▁weed	-11.9132
Bit	-11.9134
▁recover	-11.9154
▁elaborate	-11.9158
▁blunder	-11.9161
▁swallow	-11.9161
▁swirl	-11.9162
▁bond	-11.9164
▁celebrate	-11.9164
▁emerge	-11.9164
▁cackle	-11.9164
▁strangle	-11.9165
▁killer	-11.917
▁root	-11.917
▁blackmail	-11.9171
▁resume	-11.9171
▁employ	-11.9172
▁chatter	-11.9173
▁zoo	-11.9174
▁swish	-11.9175
▁beckon	-11.9176
▁contract	-11.9176
▁rub	-11.9177
▁reckless	-11.9181
▁furtive	-11.9181
▁gracious	-11.9181
▁absurd	-11.9181
▁contemptuous	-11.9182
▁absolute	-11.9182
▁slack	-11.9183
▁gloating	-11.9183
Petrificus	-11.9185
Reparo	-11.9185
▁Chudley	-11.9185
▁Cottage	-11.9185
▁Future	-11.9185
▁Injuries	-11.9185
▁Parselmouth	-11.9185
▁Poltergeist	-11.9185
▁Remembrall	-11.9185
▁STINKS	-11.9185
▁character	-11.9185
▁computer	-11.9185
▁culprit	-11.9185
▁disembodied	-11.9185
▁expulsion	-11.9185
▁fragile	-11.9185
▁furrowed	-11.9185
▁impatience	-11.9185
▁moleskin	-11.9185
▁pineapple	-11.9185
▁poltergeist	-11.9185
▁refuge	-11.9185
▁splendid	-11.9185
▁substitute	-11.9185
▁temporary	-11.9185
▁tumult	-11.9185
▁turquoise	-11.9185
▁unkempt	-11.9185
▁violence	-11.9185
▁Susan	-11.9185
▁Unforgivable	-11.9185
▁brilliance	-11.9185
▁contempt	-11.9185
▁vacation	-11.9185
▁glazed	-11.9185
▁torturing	-11.9185
▁Disposal	-11.9185
▁encouragement	-11.9185
▁gillyweed	-11.9185
▁probation	-11.9185
▁remarkably	-11.9185
▁trooped	-11.9185
▁ornament	-11.9185
▁wizened	-11.9185
▁waistcoat	-11.9185
▁WITH	-11.9185
▁introduction	-11.9185
▁reference	-11.9185
▁reputation	-11.9185
▁Underground	-11.9185
▁helmet	-11.9185
▁discomfort	-11.9185
▁spindly	-11.9185
▁crumbling	-11.9185
▁noisily	-11.9185
▁anticipation	-11.9185
▁clumsily	-11.9185
▁radio	-11.9185
▁rubies	-11.9185
▁unfocused	-11.9185
▁crude	-11.9185
▁basement	-11.9185
▁exploding	-11.9185
▁mousy	-11.9185
▁skidding	-11.9185
▁wheezed	-11.9185
▁fabulous	-11.9185
▁tennis	-11.9185
▁haughty	-11.9185
▁keeled	-11.9185
▁guffaw	-11.9185
▁route	-11.9185
▁punctuated	-11.9186
▁fudge	-11.9186
▁Snackboxes	-11.9186
▁fortnight	-11.9186
▁deposited	-11.9186
▁shrunken	-11.9186
▁slouched	-11.9186
▁remainder	-11.9186
▁extreme	-11.9186
▁verge	-11.9186
▁Shop	-11.9186
▁frankly	-11.9186
▁dingy	-11.9186
▁peril	-11.9186
▁eventually	-11.9186
▁prowling	-11.9186
▁plunging	-11.9186
▁staggering	-11.9186
▁engraved	-11.9186
▁travelled	-11.9186
▁fancied	-11.9186
▁heatedly	-11.9186
▁intrigued	-11.9187
▁doorbell	-11.9187
▁revolted	-11.9187
▁slapped	-11.9187
▁Bole	-11.9187
▁flanked	-11.9187
▁dismissed	-11.9187
▁soothingly	-11.9187
▁aggressively	-11.9187
▁lemon	-11.9187
▁executioner	-11.9187
▁inspiration	-11.9187
▁scratches	-11.9187
▁twirling	-11.9187
▁flexing	-11.9187
▁snoring	-11.9188
▁Inferius	-11.9188
▁Halfway	-11.9188
▁reassuringly	-11.9188
▁cowardly	-11.9188
▁shriveled	-11.9189
▁cursing	-11.9189
▁rasping	-11.9189
▁carelessly	-11.9189
▁alarmingly	-11.919
▁absently	-11.919
Barely	-11.919
▁thinner	-11.919
Eat	-11.919
▁splintered	-11.9191
▁rejoin	-11.9191
▁haunted	-11.9191
▁astounded	-11.9192
▁equally	-11.9192
▁Restricted	-11.9192
▁clanged	-11.9192
▁snarling	-11.9192
▁extended	-11.9193
▁inhabitants	-11.9193
▁wink	-11.9193
▁untied	-11.9193
▁imitated	-11.9194
▁worries	-11.9195
▁gratefully	-11.9195
▁rejoined	-11.9195
▁coiling	-11.9195
▁referee	-11.9196
▁dignified	-11.9196
▁spraying	-11.9196
▁lingering	-11.9197
▁villagers	-11.9197
Joke	-11.9197
▁outbreak	-11.9197
▁snatch	-11.9198
▁lord	-11.9198
▁recovered	-11.9199
▁wolf	-11.9199
▁insulted	-11.9203
▁sleet	-11.9203
▁Fenrir	-11.9203
▁Rubeus	-11.9204
▁Hospital	-11.9204
▁OFF	-11.9204
▁Moony	-11.9204
▁glued	-11.9205
▁banisters	-11.9206
▁celebrated	-11.9207
▁prey	-11.9207
▁brilliantly	-11.9207
▁gravely	-11.9209
line	-11.9209
▁provided	-11.9209
▁barking	-11.9209
▁fainter	-11.921
▁Dream	-11.921
Lovely	-11.921
▁loaded	-11.9211
▁White	-11.9211
▁grimaced	-11.9211
▁complained	-11.9212
▁plus	-11.9212
▁grasping	-11.9212
▁slippers	-11.9213
▁warmer	-11.9214
▁childish	-11.9214
▁safest	-11.9217
▁bruised	-11.9218
▁divided	-11.9219
▁generations	-11.922
▁slower	-11.922
▁workers	-11.922
▁parts	-11.9221
▁brew	-11.9221
▁luminous	-11.9221
▁fixedly	-11.9222
▁balance	-11.9222
▁rumbled	-11.9222
▁extend	-11.9226
▁sufficient	-11.9227
▁await	-11.9227
haven	-11.9228
▁Nymphadora	-11.9229
▁DUMBLEDORE	-11.9229
▁gulping	-11.9229
▁captured	-11.9229
▁appreciated	-11.9229
▁sticky	-11.9229
▁scarred	-11.9232
▁occupants	-11.9233
▁betray	-11.9234
▁skimm	-11.9236
▁pang	-11.9236
▁products	-11.9236
▁tug	-11.9237
▁stationed	-11.924
▁pants	-11.9241
▁differently	-11.9244
▁kit	-11.9248
▁bolted	-11.9249
▁idly	-11.9253
▁KILL	-11.9253
▁lean	-11.9253
▁Whether	-11.9254
▁Cormac	-11.9254
▁Pig	-11.9254
▁items	-11.9255
▁Ch	-11.9255
▁abandoning	-11.9255
▁attended	-11.9257
▁partly	-11.9258
▁brighter	-11.9258
▁oncoming	-11.9263
▁leprechauns	-11.9273
▁colleagues	-11.9273
▁passes	-11.928
▁startling	-11.9281
▁headless	-11.9285
dore	-11.9286
`?'	-11.9287
▁cock	-11.9288
▁damaged	-11.929
▁Knuts	-11.9291
▁abuse	-11.9293
▁connect	-11.9295
▁cow	-11.9299
▁inspect	-11.93
▁rocking	-11.9301
▁ray	-11.9301
▁spheres	-11.9306
▁create	-11.9311
bounded	-11.9319
▁Mom	-11.9325
▁unwilling	-11.9338
▁mentioning	-11.9341
▁belch	-11.9347
▁chunks	-11.9353
▁crowds	-11.9357
▁trials	-11.9379
▁framed	-11.9383
▁Somewhere	-11.9385
▁questioned	-11.9396
ompletely	-11.9406
AL	-11.9408
▁poker	-11.941
▁deserves	-11.9412
▁bomb	-11.943
▁inky	-11.9438
▁strict	-11.9439
▁manners	-11.9446
▁images	-11.9449
▁mattered	-11.9455
▁lain	-11.9465
more	-11.9468
▁apologize	-11.947
▁forms	-11.947
▁smuggle	-11.9473
▁careers	-11.9475
▁Mind	-11.9516
▁Green	-11.9518
house	-11.9524
▁visits	-11.9524
▁trod	-11.9527
▁burnt	-11.9533
Aha	-11.9553
▁cluster	-11.9557
▁pies	-11.9559
▁outlines	-11.9579
▁cases	-11.9585
▁booked	-11.9589
▁examinations	-11.9595
kiving	-11.9595
▁wander	-11.9607
▁dots	-11.9618
▁depend	-11.9623
▁coats	-11.9625
▁wash	-11.963
▁nail	-11.9638
▁hedges	-11.9638
armed	-11.9641
▁weekends	-11.9649
▁Anything	-11.965
▁regard	-11.9656
▁-?`	-11.9668
▁spray	-11.9677
▁boats	-11.9696
cross	-11.97
▁plum	-11.972
▁pumpkins	-11.9742
▁sources	-11.9742
▁packages	-11.9766
▁burns	-11.9769
Glass	-11.9784
▁linger	-11.9785
▁visions	-11.979
▁spit	-11.9811
cold	-11.9823
▁hopes	-11.9838
oo	-11.986
▁sisters	-11.9863
▁droppings	-11.9882
▁Guide	-11.9909
Mudblood	-11.9912
▁doze	-11.9917
▁laz	-11.9925
formed	-11.9935
▁pro	-11.9936
ONS	-11.9961
▁favorites	-11.9965
Crabbe	-11.997
magical	-11.9979
▁alight	-11.9979
Forget	-11.9993
bright	-12.0006
▁Slug	-12.0006
yeah	-12.0009
bound	-12.0012
▁stain	-12.0022
Having	-12.0027
▁boil	-12.0027
Dementors	-12.0031
telling	-12.0032
Phineas	-12.0034
fourth	-12.0041
Yaxley	-12.0045
knitted	-12.0045
▁smash	-12.0046
STOP	-12.0048
▁careless	-12.0049
Minerva	-12.0049
washed	-12.0049
Four	-12.0051
Father	-12.0053
Sometimes	-12.0053
Impediment	-12.0054
WHAT	-12.0055
Told	-12.006
aring	-12.006
size	-12.0065
Last	-12.0067
Tom	-12.007
some	-12.0074
air	-12.0085
Bin	-12.0092
ive	-12.0111
▁jabbe	-12.0121
shouldered	-12.0122
Off	-12.0132
▁incident	-12.0138
▁crisp	-12.0139
▁needing	-12.014
▁dwell	-12.0141
▁turkey	-12.0146
▁Bit	-12.0149
▁thestral	-12.0154
▁shamrock	-12.0155
▁column	-12.0155
▁noticeboard	-12.0156
▁hiccup	-12.0158
▁wrapper	-12.0158
▁Hippogriff	-12.0161
▁volume	-12.0162
▁textbook	-12.0163
▁patrol	-12.0163
▁criminal	-12.0164
▁floorboard	-12.0166
▁vase	-12.0166
▁niffler	-12.0167
▁po	-12.0169
▁eyebrow	-12.0169
▁pitched	-12.0169
▁hostage	-12.0169
▁method	-12.017
▁guest	-12.0176
▁acid	-12.0176
▁firework	-12.0179
▁mirth	-12.0181
▁Doxy	-12.0188
▁session	-12.0188
▁Hallow	-12.0197
▁ban	-12.02
Hand	-12.0209
▁speck	-12.0212
▁Age	-12.0217
footed	-12.0221
▁screen	-12.0227
▁pattern	-12.0231
▁Goblin	-12.0245
▁grade	-12.0255
gs	-12.0258
ries	-12.0269
▁crawl	-12.0272
▁drift	-12.0273
▁quiver	-12.0273
▁yawn	-12.0274
▁approve	-12.0274
▁rattle	-12.028
▁nurse	-12.0281
▁flourish	-12.0282
▁sweep	-12.0283
▁divide	-12.0285
▁erupt	-12.0285
▁arrange	-12.0287
▁delay	-12.0287
▁torch	-12.0288
▁spine	-12.0289
▁enthusiastic	-12.0289
▁disarm	-12.029
▁Mons	-12.0291
▁accurate	-12.0292
▁reproachful	-12.0293
▁malicious	-12.0293
▁current	-12.0293
▁reassuring	-12.0293
▁brisk	-12.0294
▁refer	-12.0294
▁stitch	-12.0295
▁gruesome	-12.0296
▁megaphone	-12.0296
Correct	-12.0296
Exceeds	-12.0296
▁Basilisk	-12.0296
▁Expectations	-12.0296
▁Filibuster	-12.0296
▁Gobstones	-12.0296
▁Improper	-12.0296
▁Mullet	-12.0296
▁Patrick	-12.0296
▁Romania	-12.0296
▁Sinistra	-12.0296
▁Sorcery	-12.0296
▁boundaries	-12.0296
▁champagne	-12.0296
▁chortled	-12.0296
▁combination	-12.0296
▁comprehension	-12.0296
▁debris	-12.0296
▁dignity	-12.0296
▁disconcerted	-12.0296
▁entitled	-12.0296
▁grapefruit	-12.0296
▁impulse	-12.0296
▁mismatched	-12.0296
▁mundane	-12.0296
▁navel	-12.0296
▁oblivious	-12.0296
▁soccer	-12.0296
▁solitary	-12.0296
▁surreptitiously	-12.0296
▁traffic	-12.0296
▁unnerved	-12.0296
▁vicinity	-12.0296
▁PATRONU	-12.0296
▁lenses	-12.0296
▁qualities	-12.0296
▁trudged	-12.0296
▁displeasure	-12.0296
▁profile	-12.0296
▁Maintenance	-12.0296
▁Maladies	-12.0296
▁unnecessary	-12.0296
▁beauty	-12.0296
▁siphon	-12.0296
▁lilac	-12.0296
▁studied	-12.0296
▁navy	-12.0296
▁index	-12.0296
▁chalk	-12.0296
▁properties	-12.0296
▁regime	-12.0296
▁resignation	-12.0296
▁ownership	-12.0296
▁unique	-12.0296
▁clammy	-12.0296
▁knitting	-12.0296
▁obediently	-12.0296
▁imploringly	-12.0296
▁tersely	-12.0296
▁corpse	-12.0296
▁impenetrable	-12.0296
▁chipped	-12.0296
▁altogether	-12.0296
▁exhaustion	-12.0296
▁sympathetically	-12.0297
▁rotten	-12.0297
▁opportunities	-12.0297
▁resistance	-12.0297
▁quantit	-12.0297
▁suitcase	-12.0297
▁twilight	-12.0297
▁ushered	-12.0297
▁avidly	-12.0297
▁confession	-12.0297
▁naked	-12.0297
▁receiving	-12.0297
▁concealment	-12.0297
Reckon	-12.0297
▁Lived	-12.0297
▁applauded	-12.0297
▁communicating	-12.0297
▁welcoming	-12.0297
Looking	-12.0297
▁murderous	-12.0297
▁stumbling	-12.0297
▁Disapparating	-12.0297
▁sunset	-12.0297
▁testily	-12.0297
▁slanting	-12.0297
▁clasp	-12.0297
▁treatment	-12.0297
▁glossy	-12.0297
▁Body	-12.0297
▁deduced	-12.0298
▁stinking	-12.0298
▁blustered	-12.0298
▁granted	-12.0298
▁vacant	-12.0298
▁lolling	-12.0298
▁haircut	-12.0298
▁smoky	-12.0298
▁plot	-12.0298
▁predicted	-12.0298
▁malevolently	-12.0298
▁wriggling	-12.0298
▁gagged	-12.0299
▁Bulgaria	-12.0299
▁mangled	-12.0299
▁lurked	-12.0299
▁swiveled	-12.0299
▁absorbed	-12.0299
▁engulfed	-12.0299
▁nicked	-12.0299
▁weighed	-12.0299
▁sparkled	-12.0299
▁wordlessly	-12.0299
▁scrawled	-12.0299
▁blushed	-12.0299
▁bargain	-12.03
▁pulsing	-12.03
▁backfired	-12.03
▁hammered	-12.03
▁Antho	-12.03
▁Disarming	-12.03
▁sidled	-12.03
▁leered	-12.03
▁weighing	-12.0301
▁Tears	-12.0301
▁faltered	-12.0301
▁shrewdly	-12.0301
▁expanded	-12.0301
▁stowing	-12.0301
▁scrabbl	-12.0301
▁detached	-12.0301
▁shack	-12.0302
▁stony	-12.0302
▁deflected	-12.0302
▁restlessly	-12.0302
▁watchful	-12.0302
▁crest	-12.0302
▁wringing	-12.0302
▁disdainful	-12.0302
▁restore	-12.0302
▁clambering	-12.0302
▁fearfully	-12.0303
▁Barry	-12.0303
▁impress	-12.0303
▁spiked	-12.0303
▁fighters	-12.0303
▁downfall	-12.0304
▁drills	-12.0304
▁tactics	-12.0304
▁viciously	-12.0304
▁withdrawing	-12.0305
▁armful	-12.0305
▁ladies	-12.0305
▁recovery	-12.0305
▁takin	-12.0305
▁clasped	-12.0305
▁intervals	-12.0305
▁wriggled	-12.0305
▁sheaf	-12.0306
▁Line	-12.0306
▁surly	-12.0306
▁reasonable	-12.0306
▁nagging	-12.0306
▁pursed	-12.0307
▁falsely	-12.0307
▁subdued	-12.0308
▁leaf	-12.0308
▁awarded	-12.031
▁wisely	-12.031
▁reassured	-12.031
▁crawling	-12.031
▁receiver	-12.0311
▁bewitching	-12.0312
▁guts	-12.0313
▁crunching	-12.0313
▁prickled	-12.0313
▁singed	-12.0313
▁retching	-12.0314
▁splashed	-12.0314
▁secondhand	-12.0314
▁accompanying	-12.0315
▁eldest	-12.0315
▁pursued	-12.0316
upport	-12.0316
▁convincing	-12.0316
▁Coote	-12.0316
▁ABOUT	-12.0316
▁referring	-12.0316
▁crazy	-12.0316
▁Ignotus	-12.0317
▁flock	-12.0317
▁Fortescue	-12.0317
▁BACK	-12.0317
▁Panting	-12.0317
▁Unfogging	-12.0317
▁Disillusionment	-12.0317
▁attracted	-12.0317
▁descent	-12.0318
▁fascinated	-12.0318
▁apply	-12.0319
▁headquarters	-12.032
▁caf	-12.032
▁onward	-12.032
▁sniffing	-12.032
▁innocently	-12.032
▁talented	-12.032
▁freckles	-12.0321
▁sputtered	-12.0321
▁warmly	-12.0321
▁nothingness	-12.0321
▁indifferent	-12.0322
▁attracting	-12.0322
▁cleverer	-12.0323
▁blazed	-12.0323
▁insisting	-12.0323
▁Inter	-12.0324
▁terrifying	-12.0326
▁trickled	-12.0329
▁honored	-12.0329
▁horned	-12.0331
▁perfumed	-12.0333
▁kicking	-12.0335
▁stripped	-12.0336
▁slime	-12.034
▁hunger	-12.0342
▁powdered	-12.0342
▁Troy	-12.0344
▁Belby	-12.0344
▁folds	-12.0344
▁Muffliato	-12.0345
▁cured	-12.0346
▁tryouts	-12.0351
▁tighter	-12.0352
▁jinxed	-12.0354
▁justice	-12.0354
▁Anti	-12.0354
▁taunt	-12.0357
try	-12.0361
▁net	-12.0361
▁favour	-12.0364
▁Snow	-12.0365
▁pen	-12.0366
▁interfere	-12.0368
had	-12.0369
▁accepting	-12.037
away	-12.037
erm	-12.037
▁smelly	-12.0371
▁soaked	-12.0381
▁raced	-12.0384
▁scrap	-12.0387
▁downright	-12.0389
▁sockets	-12.039
▁linked	-12.0392
▁intruders	-12.0395
▁Dumble	-12.0399
▁Loony	-12.0401
▁Other	-12.0403
▁danced	-12.0404
▁grand	-12.0404
▁traced	-12.0404
▁warming	-12.0406
▁offense	-12.0407
▁quaver	-12.0407
▁Wait	-12.041
▁background	-12.0412
▁cobble	-12.0419
ul	-12.0422
Fair	-12.0423
▁hostages	-12.0425
Dark	-12.0427
▁hearts	-12.0428
▁brush	-12.0431
▁straighter	-12.0433
▁runes	-12.0436
▁nights	-12.0438
Cho	-12.0441
▁dart	-12.0441
ors	-12.0443
were	-12.0448
▁circled	-12.0452
▁meals	-12.0453
▁neighbours	-12.0454
▁wig	-12.0457
▁Personally	-12.046
▁Seer	-12.0462
▁defenses	-12.0467
▁su	-12.0469
▁copying	-12.047
▁feature	-12.0471
▁soot	-12.0471
▁hills	-12.0471
▁tossed	-12.0474
▁wheels	-12.0477
▁Old	-12.0481
▁span	-12.0484
ound	-12.0484
▁chink	-12.0484
▁Daddy	-12.0489
flecked	-12.0497
▁glassy	-12.0503
▁pine	-12.051
▁completed	-12.0516
▁host	-12.0526
▁muscles	-12.0526
▁Might	-12.0526
J	-12.053
lus	-12.0532
▁pocketed	-12.0533
ate	-12.0537
▁Court	-12.0544
▁Red	-12.0555
▁comments	-12.056
▁Voldemorts	-12.0562
math	-12.0564
eneath	-12.0569
Full	-12.0572
use	-12.0573
▁Unless	-12.0578
▁parting	-12.0579
▁Ma	-12.0582
▁breed	-12.0587
den	-12.0588
▁Nott	-12.0592
KE	-12.0595
▁tales	-12.0597
▁manor	-12.06
▁snogg	-12.0614
Whose	-12.0631
▁Th	-12.0632
▁Frogs	-12.0649
▁Levi	-12.065
▁beams	-12.0655
elius	-12.0659
▁print	-12.0664
▁concerns	-12.0669
▁deck	-12.0677
Ar	-12.0693
then	-12.0694
▁Bulgarians	-12.0695
▁joy	-12.0706
▁crates	-12.071
securely	-12.0715
▁treasures	-12.0734
als	-12.0735
▁lengths	-12.0748
▁onion	-12.0758
▁classrooms	-12.0761
▁fame	-12.0764
▁rot	-12.0767
fortunately	-12.0772
ded	-12.0777
.'``	-12.0777
▁furs	-12.0778
▁author	-12.0783
sir	-12.0784
▁coach	-12.0807
▁shov	-12.0816
▁freed	-12.082
opped	-12.0832
▁restrain	-12.0832
heard	-12.0838
▁gasps	-12.0844
▁ending	-12.0869
▁um	-12.0876
fully	-12.0876
▁jackets	-12.0877
▁diet	-12.0884
ments	-12.0893
▁Walk	-12.0908
▁restless	-12.0913
▁buildings	-12.0921
▁passageways	-12.0923
▁clues	-12.0926
▁sayin	-12.0945
▁wove	-12.0949
▁Won	-12.0957
▁elbows	-12.0963
▁Re	-12.0974
wizard	-12.0979
▁DID	-12.1005
▁sting	-12.1011
▁purposeful	-12.1014
▁Bu	-12.1018
▁fatal	-12.1028
▁spoil	-12.1032
ied	-12.1036
Since	-12.1055
▁Has	-12.106
Vernon	-12.1072
▁envelopes	-12.109
▁haste	-12.1095
called	-12.1122
everyone	-12.1149
▁Ro	-12.1151
▁bows	-12.1156
ather	-12.1176
magic	-12.1176
ade	-12.1177
▁OR	-12.1194
▁ash	-12.1194
▁essays	-12.1219
Hope	-12.1222
dy	-12.1237
▁worm	-12.1238
Ladi	-12.1247
Nick	-12.1249
Easy	-12.125
Lucius	-12.125
▁indistinct	-12.1252
tended	-12.1259
ated	-12.1267
▁convenient	-12.127
lining	-12.1271
Explain	-12.1271
▁tramp	-12.1277
▁̈CAnd	-12.1278
Six	-12.128
Aberforth	-12.128
Grindelwald	-12.1286
▁salt	-12.1289
although	-12.129
jinx	-12.1291
Little	-12.1294
Meanwhile	-12.1297
Big	-12.1298
True	-12.1299
▁hem	-12.13
Somewhere	-12.1302
Marvolo	-12.1302
sharp	-12.131
▁writes	-12.1317
▁thus	-12.1323
▁thump	-12.1325
▁fits	-12.133
sight	-12.1336
▁whimper	-12.135
▁file	-12.1375
▁stamp	-12.1382
▁benefit	-12.1392
▁affair	-12.1393
▁interruption	-12.1393
▁program	-12.1402
▁farewell	-12.1405
▁balloon	-12.1411
▁hell	-12.1412
▁dwarf	-12.1413
▁location	-12.1414
▁mill	-12.1415
▁opponent	-12.1415
▁Warlock	-12.1415
▁precaution	-12.1417
▁NEWT	-12.1417
▁dagger	-12.1418
▁warlock	-12.1418
▁nutter	-12.142
▁sausage	-12.1421
▁Carrow	-12.1422
▁steel	-12.1425
▁intention	-12.1427
▁pureblood	-12.1435
▁`'	-12.1435
▁driver	-12.1441
ty	-12.1442
▁trot	-12.1444
▁rob	-12.1451
▁smug	-12.1452
▁starts	-12.1457
ized	-12.146
▁supporter	-12.146
▁sale	-12.146
▁odds	-12.1465
▁uneven	-12.1475
▁Watch	-12.1479
overing	-12.149
▁attacker	-12.15
Muggles	-12.1508
▁pursue	-12.1516
▁warnings	-12.1517
▁resign	-12.1517
lent	-12.1518
▁fulfill	-12.1518
▁congratulate	-12.1519
Oho	-12.1519
▁maintain	-12.1522
▁puncture	-12.1524
▁rely	-12.1525
▁describe	-12.1526
▁increase	-12.1527
▁clang	-12.1527
▁solve	-12.1529
▁scribble	-12.1529
▁enable	-12.1531
▁charg	-12.1531
▁gossip	-12.1531
ters	-12.1535
▁gallop	-12.1535
▁achieve	-12.1536
▁conquer	-12.1536
▁exhaust	-12.1536
▁bid	-12.1537
▁zoom	-12.1537
▁flicker	-12.1538
▁draft	-12.1539
▁jostl	-12.154
▁moves	-12.1542
▁conduct	-12.1543
▁croak	-12.1543
▁pompous	-12.1543
▁mournful	-12.1543
▁hysterical	-12.1543
▁uncertain	-12.1543
▁mutinous	-12.1543
▁remote	-12.1543
▁unconcerned	-12.1543
▁earnest	-12.1544
▁tearful	-12.1544
▁glum	-12.1544
▁wo	-12.1544
▁distinguish	-12.1546
▁mornin	-12.1546
▁tuft	-12.1546
▁Phlegm	-12.1546
▁Stinksap	-12.1546
▁chintz	-12.1546
▁eccentric	-12.1546
▁lunatic	-12.1546
▁mimbletonia	-12.1546
▁necessarily	-12.1546
▁peacock	-12.1546
▁wisdom	-12.1546
Rubbish	-12.1546
▁Cresswell	-12.1546
▁Gornuk	-12.1546
▁Sloper	-12.1546
▁allegiance	-12.1546
▁binoculars	-12.1546
▁cronies	-12.1546
▁demonstrating	-12.1546
▁destruction	-12.1546
▁disheveled	-12.1546
▁earmuffs	-12.1546
▁expensive	-12.1546
▁grotesque	-12.1546
▁inquiry	-12.1546
▁loftily	-12.1546
▁magenta	-12.1546
▁mattress	-12.1546
▁modified	-12.1546
▁monocle	-12.1546
▁parlor	-12.1546
▁plummeted	-12.1546
▁premises	-12.1546
▁preoccupied	-12.1546
▁rectangular	-12.1546
▁relinquish	-12.1546
▁replacing	-12.1546
▁scuttling	-12.1546
▁society	-12.1546
▁spectators	-12.1546
▁sphinx	-12.1546
▁threadbare	-12.1546
▁tremendous	-12.1546
▁triangular	-12.1546
▁twelfth	-12.1546
▁unbeatable	-12.1546
▁unnecessarily	-12.1546
▁walrus	-12.1546
Aaah	-12.1546
▁Championship	-12.1546
▁Slinkhard	-12.1546
▁announcing	-12.1546
▁crestfallen	-12.1546
▁landscape	-12.1546
▁patience	-12.1546
▁resemblance	-12.1546
▁splattering	-12.1546
▁Despite	-12.1546
▁French	-12.1546
▁gradually	-12.1546
▁imprisonment	-12.1546
▁plaque	-12.1546
▁versus	-12.1546
▁windshield	-12.1546
▁Misuse	-12.1546
▁SPEW	-12.1546
▁communication	-12.1546
▁judgment	-12.1546
▁whirring	-12.1546
▁Cooperation	-12.1546
▁freeze	-12.1546
▁sprung	-12.1546
▁treetops	-12.1546
▁uninjured	-12.1546
▁exclusive	-12.1546
▁piggy	-12.1546
▁raucous	-12.1546
▁pretense	-12.1546
▁Erised	-12.1546
▁coincidence	-12.1546
▁pitiful	-12.1546
▁heavier	-12.1546
▁misunderstood	-12.1546
▁untouched	-12.1546
▁bookshelves	-12.1546
▁garage	-12.1546
▁humiliation	-12.1546
▁strateg	-12.1546
▁emitted	-12.1546
▁fingertips	-12.1546
▁onlookers	-12.1546
▁conviction	-12.1546
encrusted	-12.1546
▁chessmen	-12.1546
▁March	-12.1546
▁Sports	-12.1547
▁childhood	-12.1547
▁admirers	-12.1547
▁earsplitting	-12.1547
▁unlucky	-12.1547
▁windswept	-12.1547
▁plastered	-12.1547
▁drowsy	-12.1547
▁cavern	-12.1547
▁jerkily	-12.1547
▁darling	-12.1547
▁arrow	-12.1547
▁rubble	-12.1547
▁genially	-12.1547
▁stationary	-12.1547
witted	-12.1547
▁intercepted	-12.1547
▁hillside	-12.1547
▁wireless	-12.1547
▁unease	-12.1547
▁intact	-12.1547
▁dangled	-12.1547
▁entertaining	-12.1547
▁wretched	-12.1547
▁producing	-12.1547
▁classmates	-12.1547
▁miraculously	-12.1547
▁continually	-12.1547
▁bloodstained	-12.1547
▁chuckling	-12.1547
▁fridge	-12.1547
▁harmless	-12.1547
▁settling	-12.1547
▁contrast	-12.1547
▁Deathstick	-12.1547
▁scuffling	-12.1548
▁impassive	-12.1548
▁weakened	-12.1548
▁threaten	-12.1548
▁scabbed	-12.1548
▁fistful	-12.1548
▁poised	-12.1548
▁inventing	-12.1548
▁unseen	-12.1548
▁distorted	-12.1548
▁moodily	-12.1548
▁prompted	-12.1548
▁removing	-12.1549
▁recited	-12.1549
▁redder	-12.1549
▁soundlessly	-12.1549
▁unsure	-12.1549
▁oaf	-12.1549
▁section	-12.1549
▁successfully	-12.1549
▁glimmered	-12.155
▁survivor	-12.155
▁torso	-12.155
▁indecent	-12.155
▁averted	-12.155
▁strictly	-12.155
▁rebounded	-12.155
▁triple	-12.155
▁reproachfully	-12.155
▁fortress	-12.155
▁tartly	-12.155
▁dodgy	-12.155
▁booklist	-12.155
▁steely	-12.1551
▁giantess	-12.1551
▁goggled	-12.1551
▁distressed	-12.1551
▁constricted	-12.1551
▁refrain	-12.1551
▁glimmering	-12.1551
▁smacking	-12.1551
▁tattered	-12.1552
▁incidentally	-12.1552
▁poles	-12.1552
▁helplessly	-12.1552
▁sustained	-12.1552
▁film	-12.1552
▁delicately	-12.1552
▁tallest	-12.1553
▁Inner	-12.1553
▁actual	-12.1553
▁zis	-12.1553
▁stinging	-12.1553
Stupid	-12.1553
▁frying	-12.1553
▁morale	-12.1554
▁resentfully	-12.1554
▁hitched	-12.1554
Turner	-12.1554
▁resort	-12.1554
▁tidy	-12.1555
▁polishing	-12.1555
▁lyin	-12.1555
▁wispy	-12.1555
▁selected	-12.1555
▁folding	-12.1555
▁faith	-12.1556
▁average	-12.1556
▁maintained	-12.1556
▁representatives	-12.1556
▁stale	-12.1556
▁hoisting	-12.1557
▁looming	-12.1557
▁bandaged	-12.1557
▁ruby	-12.1557
▁somber	-12.1557
▁drawled	-12.1557
▁tipping	-12.1558
▁hopeless	-12.1558
▁contracted	-12.1559
▁demanding	-12.1559
▁expressionless	-12.1559
▁fishy	-12.156
▁gaining	-12.156
▁oozing	-12.156
▁soften	-12.156
▁maintaining	-12.156
▁sealing	-12.156
▁braced	-12.156
▁tonic	-12.1561
▁mount	-12.1561
▁mysteriously	-12.1561
▁headlights	-12.1561
▁concluded	-12.1562
▁escorted	-12.1563
▁confessed	-12.1563
▁hinges	-12.1563
▁bumping	-12.1563
▁detected	-12.1563
▁crashes	-12.1563
▁distinctive	-12.1563
▁wax	-12.1563
▁cradl	-12.1564
▁blundering	-12.1565
▁recalled	-12.1566
▁tingling	-12.1567
▁growling	-12.1568
▁punctured	-12.1568
▁composed	-12.1568
▁detailed	-12.1569
▁Ripper	-12.1569
▁Golgomath	-12.1569
▁clipping	-12.1569
▁consulting	-12.157
▁suitable	-12.1571
▁fried	-12.1571
▁headfirst	-12.1572
▁stormy	-12.1572
▁unfair	-12.1572
eval	-12.1572
▁fireside	-12.1572
▁winter	-12.1572
▁restored	-12.1574
▁rustled	-12.1577
▁curtained	-12.1577
▁feathery	-12.1578
▁limited	-12.1579
▁sailed	-12.1579
▁streamed	-12.158
▁rearranged	-12.1581
▁axe	-12.1581
▁creepy	-12.1581
▁existed	-12.1582
▁Perce	-12.1583
▁screeching	-12.1583
▁boast	-12.1585
▁velvety	-12.1585
▁denying	-12.1585
▁weaving	-12.1586
▁national	-12.1589
▁Test	-12.159
▁obstacles	-12.159
end	-12.159
▁endured	-12.1592
▁domed	-12.1593
▁possessing	-12.1594
▁overnight	-12.1594
▁secretly	-12.1594
▁arc	-12.1595
▁begging	-12.1596
▁proving	-12.1598
▁risky	-12.1599
▁sopping	-12.16
▁nephew	-12.16
▁Amelia	-12.1601
▁England	-12.1601
▁MINISTRY	-12.1601
▁Penelope	-12.1601
▁Exploding	-12.1601
▁Much	-12.1602
▁belonging	-12.1604
▁remarks	-12.1604
▁soaking	-12.1604
▁convers	-12.1604
▁lull	-12.1604
Forgive	-12.1605
▁informing	-12.1605
▁dustbins	-12.1607
▁fairy	-12.1609
▁strengthen	-12.1609
▁teaches	-12.161
▁Grawpy	-12.161
▁wilder	-12.1613
▁retrieved	-12.1618
▁eighty	-12.162
▁Gran	-12.1623
▁stillness	-12.1626
Tonight	-12.1627
▁sprouts	-12.1628
▁Way	-12.163
▁beans	-12.1631
▁enormously	-12.1631
▁Outside	-12.1635
▁blasting	-12.1637
▁gild	-12.1637
▁proven	-12.1637
▁murdering	-12.1643
▁NOW	-12.1644
▁swearing	-12.1649
▁disliked	-12.1649
▁Turning	-12.1652
▁betting	-12.1655
▁spared	-12.1657
▁toffees	-12.1658
▁Ear	-12.1659
ory	-12.166
▁seething	-12.1663
▁Getting	-12.1669
▁thicker	-12.1673
▁warlocks	-12.1676
hosen	-12.168
▁slowing	-12.1681
▁Wi	-12.1682
▁Except	-12.1692
▁towered	-12.1692
ridden	-12.1693
▁Doxys	-12.1694
Ignoring	-12.1699
▁swipe	-12.1701
▁Down	-12.1707
▁mar	-12.1708
▁presented	-12.1709
▁cheat	-12.1712
▁hesitant	-12.1716
▁standards	-12.1729
▁sole	-12.1729
▁OUCH	-12.1731
▁GET	-12.1732
▁masks	-12.1743
men	-12.1756
▁ski	-12.1761
fetched	-12.1763
▁Obviously	-12.1766
▁flap	-12.177
rasped	-12.1778
▁Mars	-12.1778
▁creams	-12.1791
▁True	-12.1803
▁talkin	-12.1803
▁propelle	-12.1803
▁liver	-12.1817
▁crimes	-12.1823
▁incantations	-12.1831
▁insults	-12.1839
▁soar	-12.1843
▁cheap	-12.1844
:`	-12.1845
▁comb	-12.1859
▁ashes	-12.1868
▁Having	-12.1875
▁emotions	-12.1876
▁sing	-12.188
Show	-12.1889
▁openly	-12.189
▁doubts	-12.1892
een	-12.1893
▁nightmares	-12.1898
ig	-12.1898
li	-12.1899
▁Shell	-12.1902
▁transferr	-12.1916
▁ho	-12.1917
▁bind	-12.1919
any	-12.1922
Head	-12.1925
▁schedules	-12.1927
▁lumps	-12.1929
▁puddings	-12.1933
▁Naturally	-12.1933
▁unravel	-12.1946
▁Whatever	-12.1947
▁Healers	-12.1951
coming	-12.1952
▁ver	-12.1963
▁Bott	-12.1965
▁pipes	-12.197
▁hints	-12.1975
▁Id	-12.1977
▁calls	-12.1987
▁rent	-12.1991
▁crave	-12.1994
▁panel	-12.1998
▁Always	-12.2001
▁que	-12.2006
ts	-12.201
▁beetles	-12.2015
▁sacks	-12.2032
▁disgrace	-12.2035
▁clubs	-12.2037
taking	-12.2042
▁chooses	-12.205
▁horns	-12.2055
▁notices	-12.2057
▁wire	-12.2059
▁layer	-12.2063
▁Back	-12.2064
▁Stay	-12.2068
▁LI	-12.2072
licking	-12.2072
▁Anyone	-12.2075
▁crease	-12.2075
▁spark	-12.2088
▁shirt	-12.2088
▁Quite	-12.2088
board	-12.2093
▁views	-12.2096
serted	-12.2112
▁records	-12.2114
▁winds	-12.2116
▁Portkeys	-12.2123
ill	-12.2124
▁aims	-12.2125
▁gargoyles	-12.214
▁omen	-12.214
▁shrieks	-12.2142
▁Py	-12.215
▁talks	-12.2152
▁ac	-12.2157
▁wrists	-12.2165
▁tend	-12.2171
▁scalp	-12.2177
▁tut	-12.2182
▁rune	-12.2198
▁schools	-12.221
▁Moodys	-12.2215
▁idiots	-12.2223
ously	-12.2223
▁shell	-12.2228
▁event	-12.223
▁ra	-12.2231
▁gaps	-12.224
people	-12.2242
▁weapons	-12.2242
▁core	-12.2254
eemed	-12.2256
▁tackle	-12.2256
▁lick	-12.2256
▁toads	-12.2259
▁Put	-12.226
▁caves	-12.2264
▁medi	-12.2266
ship	-12.2267
St	-12.2267
▁vote	-12.2282
iced	-12.2285
▁May	-12.2294
really	-12.23
dishes	-12.2308
▁airy	-12.2309
▁cabinets	-12.2311
▁becomes	-12.2331
▁commit	-12.2339
▁mates	-12.2347
▁reports	-12.2353
open	-12.2354
▁`-	-12.2358
incomprehensible	-12.2361
Read	-12.2365
ious	-12.237
maker	-12.238
ke	-12.2394
▁offensive	-12.2398
nothing	-12.2411
sed	-12.2425
sel	-12.2426
▁hippogriffs	-12.2432
iron	-12.2441
▁toilets	-12.2446
▁risks	-12.2447
▁fathers	-12.2452
▁impostor	-12.2456
▁Hang	-12.2495
Viktor	-12.2504
▁gash	-12.2518
▁vaults	-12.252
▁ties	-12.2547
water	-12.2571
▁perus	-12.2583
Oo	-12.2588
Filch	-12.2597
Aunt	-12.2601
▁smiles	-12.2615
perhaps	-12.2636
Move	-12.2636
▁bla	-12.2648
▁Yours	-12.2653
tip	-12.2671
▁buck	-12.2671
Wand	-12.2672
Scabbers	-12.2672
Aguamenti	-12.2681
Dead	-12.2682
rent	-12.2683
▁trie	-12.2683
Mine	-12.2684
Charlie	-12.2685
maybe	-12.2691
Kingsley	-12.2691
Defense	-12.2698
WE	-12.2704
Night	-12.2706
brown	-12.2708
Loads	-12.271
feather	-12.2711
Gro	-12.2714
Remus	-12.2716
glasses	-12.2717
Coming	-12.2717
Finally	-12.2719
Careful	-12.272
HERMIONE	-12.2723
▁fleck	-12.2726
▁mu	-12.2727
Many	-12.2728
Obviously	-12.2728
Daddy	-12.273
Somebody	-12.273
Might	-12.273
▁shred	-12.2738
Perfect	-12.2738
Kind	-12.274
fire	-12.274
▁select	-12.2745
▁heave	-12.2754
ER	-12.2758
ttered	-12.2764
tering	-12.277
Best	-12.2772
▁ham	-12.2781
▁scarce	-12.2785
RUN	-12.2789
TING	-12.2789
skirt	-12.2789
Boys	-12.2799
capable	-12.2804
▁bruise	-12.2807
▁hurts	-12.2815
▁label	-12.2817
▁nickname	-12.2821
dded	-12.2826
▁instinct	-12.2827
▁swap	-12.2828
▁individual	-12.2833
▁diamond	-12.2833
▁Rain	-12.2833
▁moonstone	-12.2833
▁interests	-12.2833
▁photo	-12.2838
▁content	-12.2839
▁dizzy	-12.2839
▁achievement	-12.2842
▁wrapping	-12.2842
▁flagon	-12.2842
▁objection	-12.2842
▁eyeball	-12.2843
▁Smelting	-12.2844
nine	-12.2844
▁tradition	-12.2844
▁bracket	-12.2845
▁relative	-12.2845
▁Du	-12.2846
▁leprechaun	-12.2847
▁Knut	-12.2848
ating	-12.2851
▁Er	-12.2852
▁Named	-12.2854
serving	-12.2854
▁ribbon	-12.2856
▁reminder	-12.2856
▁prisoner	-12.2861
▁wears	-12.2861
▁socket	-12.2863
▁seal	-12.2866
▁ne	-12.2873
▁colleague	-12.2873
▁goat	-12.2874
▁Mandrake	-12.2874
zzing	-12.2874
▁toffee	-12.2874
▁examiner	-12.2875
▁intruder	-12.2876
lopping	-12.2883
secretary	-12.2884
name	-12.2885
▁Wands	-12.2897
Hu	-12.2906
Says	-12.291
▁HOGWARTS	-12.2917
▁needle	-12.2921
know	-12.2923
▁troubl	-12.2931
▁cracks	-12.2938
▁vibrate	-12.295
▁strap	-12.2952
▁perfume	-12.2953
▁prickle	-12.2953
▁embrace	-12.2953
▁swerve	-12.2954
▁demand	-12.2954
▁flatten	-12.2954
▁float	-12.2955
▁chuckle	-12.2957
▁squawk	-12.2958
▁campaign	-12.2958
▁blossom	-12.296
▁fade	-12.2963
▁scruff	-12.2966
▁depart	-12.2966
▁obscure	-12.2966
▁disbelieving	-12.2971
▁relentless	-12.2971
▁feverish	-12.2971
▁defiant	-12.2972
▁successful	-12.2972
Mount	-12.2975
▁inflict	-12.2975
ABLE	-12.2975
Alohomora	-12.2975
DUDLEY	-12.2975
▁Animagi	-12.2975
▁Arnold	-12.2975
▁Decoy	-12.2975
▁Derrick	-12.2975
▁Friar	-12.2975
▁Goldstein	-12.2975
▁Junior	-12.2975
▁League	-12.2975
▁Mirror	-12.2975
▁Mulciber	-12.2975
▁Murtlap	-12.2975
▁November	-12.2975
▁Spellotape	-12.2975
▁Vampires	-12.2975
▁Vector	-12.2975
▁Wisteria	-12.2975
▁ambitious	-12.2975
▁apologies	-12.2975
▁apprehension	-12.2975
▁banshee	-12.2975
▁berserk	-12.2975
▁criticism	-12.2975
▁custard	-12.2975
▁cutlery	-12.2975
▁diagram	-12.2975
▁disastrous	-12.2975
▁eardrums	-12.2975
▁escalator	-12.2975
▁forcibly	-12.2975
▁graffiti	-12.2975
▁grizzled	-12.2975
▁harassed	-12.2975
▁imperiously	-12.2975
▁inexplicable	-12.2975
▁intensified	-12.2975
▁irritating	-12.2975
▁leisure	-12.2975
▁marmalade	-12.2975
▁nonplussed	-12.2975
▁opaque	-12.2975
▁pencil	-12.2975
▁physical	-12.2975
▁precariously	-12.2975
▁prudent	-12.2975
▁salamander	-12.2975
▁sarcasm	-12.2975
▁spurt	-12.2975
▁trifle	-12.2975
▁turrets	-12.2975
▁unmistakably	-12.2975
▁unmistakeable	-12.2975
▁unnerving	-12.2975
▁unscathed	-12.2975
▁vapour	-12.2975
▁Burbage	-12.2975
▁Percival	-12.2975
▁Prophecy	-12.2975
▁Selwyn	-12.2975
▁description	-12.2975
▁stifling	-12.2975
Plenty	-12.2975
▁Castle	-12.2975
▁fraud	-12.2975
▁happiest	-12.2975
▁hearthrug	-12.2975
▁ruefully	-12.2975
▁scrawny	-12.2975
▁sullen	-12.2975
▁placidly	-12.2975
▁plastic	-12.2975
▁semidarkness	-12.2975
▁spindle	-12.2975
▁ungrateful	-12.2975
▁conscience	-12.2975
▁twiddling	-12.2975
▁Unbreakable	-12.2975
▁exchanging	-12.2975
▁government	-12.2975
▁unbelievable	-12.2975
▁combined	-12.2975
▁hungrily	-12.2975
▁abashed	-12.2975
▁dislodged	-12.2975
▁embarrassment	-12.2975
▁intensity	-12.2975
▁Large	-12.2975
▁jowls	-12.2975
▁pretence	-12.2975
▁Florean	-12.2975
▁draught	-12.2975
▁wastepaper	-12.2975
▁grumbling	-12.2975
▁reddish	-12.2975
▁interference	-12.2975
▁cavernous	-12.2975
▁immortality	-12.2975
▁announcement	-12.2975
▁trespass	-12.2975
▁revulsion	-12.2975
▁tombstone	-12.2975
▁unceremoniously	-12.2975
▁brusquely	-12.2975
▁bickering	-12.2975
▁denied	-12.2975
▁intelligence	-12.2975
▁scornfully	-12.2975
▁slyly	-12.2975
▁hesitation	-12.2975
▁hourglass	-12.2975
▁selection	-12.2975
▁thunderous	-12.2975
▁advertisement	-12.2975
▁passenger	-12.2975
▁skipped	-12.2975
▁flurry	-12.2975
▁Vance	-12.2975
▁chestnut	-12.2975
▁waitress	-12.2975
▁devastated	-12.2975
▁nightdress	-12.2975
▁sadness	-12.2975
▁horde	-12.2975
▁halves	-12.2975
▁procession	-12.2976
▁tilted	-12.2976
▁property	-12.2976
▁consumed	-12.2976
▁baggy	-12.2976
Dreadful	-12.2976
eagled	-12.2976
▁warily	-12.2976
▁canceled	-12.2976
▁impersonating	-12.2976
▁interfering	-12.2976
▁mossy	-12.2976
▁patrolling	-12.2976
▁maimed	-12.2976
▁flopped	-12.2976
▁publicity	-12.2976
▁competing	-12.2976
▁bitterness	-12.2976
▁hopelessness	-12.2976
▁reprovingly	-12.2976
▁spattergroit	-12.2976
Acceptable	-12.2976
▁chimed	-12.2976
Check	-12.2976
▁daybreak	-12.2977
▁silkily	-12.2977
▁tawny	-12.2977
▁praying	-12.2977
▁Hermi	-12.2977
▁throbbed	-12.2977
▁vacated	-12.2977
▁bubotuber	-12.2977
▁Sitting	-12.2977
▁sliver	-12.2977
▁litter	-12.2977
▁exclaimed	-12.2977
▁duelling	-12.2977
▁nightfall	-12.2977
▁wrath	-12.2977
▁immobile	-12.2977
▁initial	-12.2977
▁reddening	-12.2977
▁entry	-12.2977
▁attraction	-12.2977
▁doubtfully	-12.2977
▁instructed	-12.2977
▁respectable	-12.2977
▁evaporated	-12.2978
▁permanently	-12.2978
▁seventy	-12.2978
▁breast	-12.2978
▁regretted	-12.2978
▁mistaking	-12.2978
▁tweed	-12.2978
▁shapeless	-12.2978
▁revolting	-12.2978
▁frequent	-12.2978
▁raven	-12.2978
▁trash	-12.2978
▁banished	-12.2978
▁lament	-12.2979
▁mournfully	-12.2979
▁hysterically	-12.2979
▁occupy	-12.2979
▁predicting	-12.2979
▁international	-12.2979
▁hoot	-12.2979
▁flinging	-12.2979
▁admitting	-12.2979
▁speechless	-12.2979
▁thwarted	-12.2979
▁Cheering	-12.2979
▁panicking	-12.2979
▁greedy	-12.2979
▁batlike	-12.298
▁persuading	-12.298
▁mayhem	-12.298
▁contemptuously	-12.298
Running	-12.298
▁dazzled	-12.298
▁deathday	-12.298
▁niche	-12.298
▁sideboard	-12.298
▁encouraged	-12.298
▁frayed	-12.298
▁drooped	-12.298
▁jogged	-12.298
▁recounted	-12.298
factly	-12.2981
▁screeches	-12.2981
▁nightshirt	-12.2981
▁desktop	-12.2981
▁captioned	-12.2982
▁stupidity	-12.2982
▁paralyzed	-12.2982
▁dank	-12.2983
▁bandy	-12.2983
▁scooping	-12.2983
▁listeners	-12.2983
▁reflecting	-12.2983
▁bunches	-12.2984
▁melt	-12.2984
▁sprouting	-12.2985
▁attach	-12.2985
▁railings	-12.2985
▁cannon	-12.2986
▁disciplinar	-12.2986
▁pimples	-12.2986
▁possessor	-12.2987
▁disturbing	-12.2987
▁parked	-12.2988
▁coiled	-12.2988
▁delayed	-12.2988
▁impressively	-12.2988
▁associated	-12.2988
▁apology	-12.2988
▁shifty	-12.2989
▁flattening	-12.2989
▁limply	-12.2989
▁businesslike	-12.299
▁roused	-12.299
▁thrilled	-12.299
▁WANT	-12.2991
▁outburst	-12.2991
▁yield	-12.2991
▁aura	-12.2991
▁whiskers	-12.2991
▁interrogated	-12.2992
▁hump	-12.2992
▁ceased	-12.2992
▁transported	-12.2992
▁plainer	-12.2993
▁loudest	-12.2993
Uh	-12.2993
▁jeers	-12.2993
▁strayed	-12.2994
▁rippled	-12.2994
▁restraining	-12.2994
▁yelping	-12.2996
▁stalking	-12.2996
▁recovering	-12.2996
▁thorough	-12.2997
▁smells	-12.2997
▁SCORE	-12.2998
▁resulted	-12.2998
▁clothing	-12.2999
▁delivery	-12.2999
▁extracting	-12.3
▁encountered	-12.3
▁totally	-12.3
▁Chief	-12.3
▁fiasco	-12.3001
▁Wheezy	-12.3001
▁Dudders	-12.3001
▁January	-12.3001
▁nonverbal	-12.3001
▁Weatherby	-12.3001
HOW	-12.3001
▁congratulations	-12.3001
▁discovery	-12.3001
▁etc	-12.3001
▁Reasonable	-12.3002
▁bubbling	-12.3003
▁revolved	-12.3003
Meaning	-12.3003
▁appropriate	-12.3003
▁reappearance	-12.3004
▁schemes	-12.3005
▁brambles	-12.3005
▁companions	-12.3005
▁ramparts	-12.3006
▁beef	-12.3006
▁customers	-12.3006
▁teenagers	-12.3007
▁gun	-12.3007
▁behaving	-12.3007
▁Prefect	-12.3008
▁Willy	-12.3009
▁girlish	-12.301
▁wit	-12.301
▁dreaded	-12.301
▁glide	-12.3011
▁straighten	-12.3011
▁insulting	-12.3012
▁goose	-12.3012
▁photographer	-12.3013
▁leathery	-12.3016
▁resisted	-12.3016
▁Rose	-12.3017
eyond	-12.3018
▁oily	-12.302
▁admired	-12.302
▁reliable	-12.3023
▁ounce	-12.3024
▁vomiting	-12.3026
▁expand	-12.3027
▁interviewed	-12.3029
▁braver	-12.303
▁storming	-12.303
Water	-12.3033
▁communicate	-12.3033
▁unconvincing	-12.3036
▁omens	-12.3036
▁teeter	-12.3038
▁Twelve	-12.3038
▁Otherwise	-12.3038
ding	-12.3038
▁Teddy	-12.3039
▁chops	-12.304
▁stress	-12.304
▁hugely	-12.3042
▁nicely	-12.3043
ages	-12.3043
▁involving	-12.3044
▁handling	-12.3044
▁penetrated	-12.3045
▁tricked	-12.3046
▁Kiss	-12.3048
▁offend	-12.3051
▁cling	-12.3053
lready	-12.3057
▁poisoning	-12.306
▁fainted	-12.3062
▁vaulted	-12.3063
▁cuffs	-12.3064
▁overturned	-12.3067
▁stem	-12.3069
▁Evidently	-12.3076
▁spattered	-12.3078
▁Ske	-12.3078
BY	-12.3079
▁Hardly	-12.3081
.``'	-12.3084
▁Potty	-12.3085
▁accusations	-12.3086
▁Nine	-12.3088
▁worms	-12.3092
................	-12.3092
▁jumper	-12.3093
▁earthy	-12.3093
▁coin	-12.3093
ulent	-12.3093
▁memos	-12.3098
▁spiraling	-12.3098
▁weary	-12.3098
ified	-12.3101
▁toothless	-12.3104
▁quieter	-12.3105
urled	-12.3106
▁sandwich	-12.3107
Pity	-12.3108
▁par	-12.311
▁GRYFFINDOR	-12.3114
▁ticking	-12.312
Whoever	-12.3124
▁daggers	-12.3125
▁NEWTs	-12.3126
▁precautions	-12.3126
▁Hunt	-12.3126
▁sp	-12.3129
▁BL	-12.3137
▁market	-12.3139
▁operation	-12.3142
▁nifflers	-12.3146
▁Want	-12.3147
▁blamed	-12.315
▁moor	-12.3151
▁En	-12.3152
night	-12.3154
▁Knowing	-12.3155
ight	-12.3166
▁cubicles	-12.3166
Lies	-12.3166
▁bounding	-12.3169
▁relive	-12.317
▁nineteen	-12.3174
▁fo	-12.3175
▁handy	-12.3175
▁reside	-12.3177
▁laughs	-12.3179
▁onwards	-12.3185
▁disappearances	-12.3186
UST	-12.3189
▁gum	-12.3191
▁curls	-12.3199
▁Second	-12.3204
▁puffs	-12.3205
hapter	-12.3215
▁ro	-12.3216
ERS	-12.3217
Hear	-12.3222
▁Face	-12.3227
HU	-12.3238
▁whistled	-12.3245
▁closet	-12.3262
▁shatter	-12.3263
▁pets	-12.327
Bless	-12.327
▁abnormal	-12.327
▁oven	-12.3283
▁teacups	-12.3285
▁skills	-12.329
▁Find	-12.3295
▁Brit	-12.3305
▁las	-12.3312
fulness	-12.3313
▁entrances	-12.3316
Thinking	-12.3316
▁matched	-12.3317
▁Charming	-12.3321
▁telescopes	-12.3345
ging	-12.3345
▁scent	-12.3347
▁cages	-12.3349
▁practiced	-12.3358
▁refill	-12.3361
see	-12.3365
▁east	-12.3377
▁Dead	-12.338
▁scary	-12.3389
▁Poor	-12.341
▁Off	-12.341
▁ledge	-12.3413
sion	-12.3418
▁bay	-12.3421
▁snail	-12.3437
▁Squibs	-12.3451
AN	-12.3464
▁Pro	-12.347
ge	-12.3472
▁keepin	-12.3477
▁Puk	-12.3478
tarnished	-12.348
▁ba	-12.3481
▁Snar	-12.3482
ening	-12.3487
ARE	-12.3487
▁reminds	-12.3491
▁conf	-12.3493
▁Light	-12.35
▁pr	-12.3502
▁UN	-12.3508
ised	-12.3509
▁Okay	-12.352
▁ch	-12.3526
Clear	-12.3527
▁pasty	-12.3542
▁bee	-12.357
lets	-12.3572
▁Hover	-12.3584
▁lecture	-12.3585
▁HA	-12.3588
▁Bl	-12.3589
rdinary	-12.3605
etti	-12.3614
▁batt	-12.3616
rested	-12.3618
AKE	-12.3626
didn	-12.3628
Am	-12.3634
Kept	-12.3654
top	-12.3656
zing	-12.3664
▁arguments	-12.3669
ucked	-12.3676
▁sheer	-12.3679
▁trampl	-12.3683
owed	-12.3683
▁servants	-12.3686
minent	-12.3686
RDER	-12.37
standing	-12.3706
here	-12.3711
▁Me	-12.3716
▁chap	-12.3721
thought	-12.3738
osa	-12.3743
▁declare	-12.3745
▁passwords	-12.3747
amous	-12.3757
▁fools	-12.3758
ECTO	-12.3762
▁paint	-12.3766
first	-12.377
▁port	-12.3774
▁mus	-12.3781
▁cousins	-12.3796
suited	-12.3797
ckle	-12.3826
keeping	-12.3831
ighty	-12.3834
Imperio	-12.3838
ake	-12.3847
▁Boys	-12.3847
▁gardens	-12.3849
cid	-12.385
▁alm	-12.3856
ACK	-12.3862
rry	-12.3873
▁asks	-12.3879
▁forgetful	-12.3882
▁bloom	-12.3883
▁Cauldrons	-12.3885
▁captain	-12.3889
uttering	-12.3904
▁moons	-12.3918
▁ponder	-12.3919
▁signing	-12.3919
▁labor	-12.393
after	-12.3938
large	-12.3945
▁Je	-12.3952
ear	-12.396
tions	-12.3991
Made	-12.4003
▁rings	-12.4041
▁stops	-12.4046
▁element	-12.4046
▁slopp	-12.4048
▁Restrict	-12.4051
▁glisten	-12.4062
Diggory	-12.4067
▁tame	-12.4069
ug	-12.4072
gging	-12.4078
▁states	-12.4102
▁reopen	-12.4105
Uncle	-12.4111
▁Gaunts	-12.412
▁fiddl	-12.4126
other	-12.4137
eeling	-12.4146
▁Switch	-12.4148
▁vanquish	-12.415
ES	-12.4151
▁qu	-12.4151
Bind	-12.418
▁Ever	-12.4184
▁helpings	-12.4187
`,'	-12.4188
▁Brut	-12.419
Righ	-12.4199
human	-12.4205
▁shovel	-12.4208
morning	-12.4214
▁Stand	-12.4218
▁levels	-12.4219
Minister	-12.422
fact	-12.4231
Wing	-12.4231
Step	-12.4233
fronted	-12.4234
New	-12.4249
Wood	-12.4257
Wo	-12.4261
set	-12.4273
gy	-12.428
▁ached	-12.4282
match	-12.43
Crookshanks	-12.4303
hidden	-12.4307
hanging	-12.4308
ut	-12.4313
▁fee	-12.4315
Parvati	-12.4326
▁rightful	-12.4326
▁expert	-12.4326
reserved	-12.4327
▁Vi	-12.433
▁doorways	-12.4333
Myrtle	-12.4337
Find	-12.4341
▁arch	-12.4342
Potions	-12.4342
Password	-12.4345
Longbottom	-12.4349
Enter	-12.4351
ide	-12.4357
Cornelius	-12.4359
Him	-12.4365
Fanc	-12.4366
WHO	-12.4369
security	-12.4369
breaking	-12.437
Glad	-12.4372
Rosmerta	-12.4377
Gregorovitch	-12.438
Next	-12.4381
Um	-12.4383
Fifty	-12.4386
SIRIUS	-12.4387
Cissy	-12.4387
skinned	-12.439
conscious	-12.4392
Personally	-12.4394
GET	-12.4394
Macnair	-12.4394
Students	-12.4395
OUCH	-12.4395
Sturgis	-12.4396
Doge	-12.4396
Today	-12.4396
brush	-12.4397
Run	-12.4398
loving	-12.4401
Again	-12.4408
▁procure	-12.4409
▁curt	-12.4409
very	-12.441
▁chant	-12.4413
Pass	-12.4418
▁Mar	-12.4421
stained	-12.4431
Ignore	-12.4438
Ow	-12.4442
Seen	-12.4446
Their	-12.4456
ft	-12.446
UM	-12.4467
▁defin	-12.4481
▁intend	-12.4481
▁elephant	-12.4485
▁ripple	-12.4486
▁portion	-12.4486
▁competition	-12.4487
▁snowball	-12.4487
▁sticks	-12.4491
▁vapor	-12.4491
▁quarters	-12.4493
spoken	-12.4496
▁countercurse	-12.4499
▁pursuit	-12.4502
▁pamphlet	-12.4505
▁shortcut	-12.4506
▁transformation	-12.4509
▁blister	-12.4509
▁Cream	-12.451
▁accusation	-12.4512
▁option	-12.4514
▁alike	-12.4514
▁instruction	-12.4514
▁Broomstick	-12.4515
▁Skrewt	-12.4515
▁patient	-12.4518
▁flavor	-12.4524
▁bulb	-12.4526
▁Puff	-12.4528
▁tape	-12.4528
▁chip	-12.4528
▁topic	-12.4532
▁boa	-12.4545
▁timetable	-12.4555
▁plea	-12.4557
▁cuff	-12.4557
▁sometime	-12.4561
▁Wo	-12.4569
▁rocks	-12.4577
▁New	-12.4577
▁jog	-12.4581
scope	-12.4586
▁bough	-12.4594
▁disturb	-12.4617
▁crumble	-12.4617
▁glitter	-12.4617
▁squirm	-12.4617
▁tinkle	-12.4618
▁retreat	-12.4618
▁swoop	-12.4618
▁hoist	-12.4619
▁conclude	-12.4619
▁confiscate	-12.462
▁reassure	-12.462
▁hesitate	-12.462
bout	-12.462
▁scramble	-12.462
▁announce	-12.4621
▁illuminate	-12.4622
▁admire	-12.4624
▁brace	-12.4626
▁identify	-12.4626
▁descend	-12.4627
▁neglect	-12.4631
▁convict	-12.4631
friendly	-12.4632
▁deflect	-12.4633
▁Pepper	-12.4636
uous	-12.4637
▁slaughter	-12.4637
▁ludicrous	-12.4638
▁comical	-12.4638
▁ferocious	-12.4638
▁malevolent	-12.4638
get	-12.4638
▁encouraging	-12.4638
▁incredulous	-12.4638
▁positive	-12.4639
▁scathing	-12.4639
▁radish	-12.4639
ATION	-12.464
▁splinter	-12.464
▁timid	-12.4641
▁soothing	-12.4641
▁unwrap	-12.4641
▁deliberate	-12.4641
UFF	-12.4641
▁scandal	-12.4641
Ooooh	-12.4641
▁aquiver	-12.4641
▁bewilderment	-12.4641
▁intimidating	-12.4641
Emmeline	-12.4641
Fantastic	-12.4641
STUPEF	-12.4641
Search	-12.4641
Urgh	-12.4641
embossed	-12.4641
▁Admittedly	-12.4641
▁Armando	-12.4641
▁Bryce	-12.4641
▁Fungi	-12.4641
▁HOUSE	-12.4641
▁Hungarian	-12.4641
▁Liaison	-12.4641
▁Liechtenstein	-12.4641
▁Nicholas	-12.4641
▁Powder	-12.4641
▁Ridgeback	-12.4641
▁Rowle	-12.4641
▁Society	-12.4641
▁Tornados	-12.4641
▁Volkov	-12.4641
▁Yorkshire	-12.4641
▁ablaze	-12.4641
▁abysmal	-12.4641
▁balaclava	-12.4641
▁blearily	-12.4641
▁chortling	-12.4641
▁consequences	-12.4641
▁disobey	-12.4641
▁eerily	-12.4641
▁fantastic	-12.4641
▁haughtily	-12.4641
▁hurricane	-12.4641
▁impartial	-12.4641
▁intervening	-12.4641
▁irresponsible	-12.4641
▁misshapen	-12.4641
▁molten	-12.4641
▁murky	-12.4641
▁obituary	-12.4641
▁orchard	-12.4641
▁penetrating	-12.4641
▁possibilities	-12.4641
▁presumably	-12.4641
▁procedure	-12.4641
▁puppet	-12.4641
▁remnants	-12.4641
▁somersault	-12.4641
▁symptoms	-12.4641
▁system	-12.4641
▁toppling	-12.4641
▁tragedy	-12.4641
▁trepidation	-12.4641
▁Vicky	-12.4641
▁devotion	-12.4641
▁excruciating	-12.4641
▁foreboding	-12.4641
▁griffin	-12.4641
▁Worple	-12.4641
▁cardigan	-12.4641
▁equipment	-12.4641
▁spiky	-12.4641
▁unhelpful	-12.4641
▁Quietly	-12.4641
▁Spinner	-12.4641
▁injustice	-12.4641
▁refusal	-12.4641
▁lofty	-12.4641
▁podium	-12.4641
▁retirement	-12.4641
▁smudge	-12.4641
▁trestle	-12.4641
▁pheasant	-12.4641
▁recognizable	-12.4641
▁WHAM	-12.4641
▁defiance	-12.4641
▁malice	-12.4641
▁admirable	-12.4641
▁evasive	-12.4641
▁unison	-12.4641
▁remedial	-12.4641
▁razor	-12.4641
▁recapture	-12.4641
FFLE	-12.4642
▁curfew	-12.4642
▁unwrapping	-12.4642
▁waltz	-12.4642
▁ivy	-12.4642
▁assault	-12.4642
▁fuming	-12.4642
▁scampered	-12.4642
▁duties	-12.4642
▁temperature	-12.4642
▁describing	-12.4642
▁removal	-12.4642
▁stunning	-12.4642
▁forbidding	-12.4642
▁legendary	-12.4642
▁unfamiliar	-12.4642
▁peppermint	-12.4642
▁chute	-12.4642
▁walnut	-12.4642
▁cheese	-12.4642
▁hilltop	-12.4642
▁stabbing	-12.4642
▁unwelcome	-12.4642
▁convulsively	-12.4642
▁remarkable	-12.4642
▁strung	-12.4642
Detention	-12.4642
▁goatee	-12.4642
▁reception	-12.4642
▁panicky	-12.4642
▁surname	-12.4642
Tongue	-12.4642
▁jingling	-12.4642
▁unconvinced	-12.4642
▁Feast	-12.4642
▁yanked	-12.4642
▁fancies	-12.4642
▁sweatshirt	-12.4642
▁cowardice	-12.4642
▁whiff	-12.4642
▁candlelit	-12.4642
▁sample	-12.4642
▁operating	-12.4642
Protection	-12.4642
▁cruelty	-12.4642
▁loaf	-12.4642
▁wiz	-12.4642
▁interior	-12.4642
▁conjuring	-12.4642
▁jangling	-12.4642
▁midday	-12.4642
▁speculation	-12.4642
▁eyelashes	-12.4642
▁squeakily	-12.4642
▁grace	-12.4642
▁stripping	-12.4642
▁Jelly	-12.4642
▁guiltily	-12.4642
▁whiskey	-12.4642
▁unbalanced	-12.4642
▁animatedly	-12.4642
▁revising	-12.4642
▁sceptically	-12.4642
▁pantry	-12.4642
▁traipsed	-12.4642
▁playground	-12.4642
▁enjoyment	-12.4643
▁Barnab	-12.4643
▁grease	-12.4643
▁tilting	-12.4643
▁thudded	-12.4643
▁boundary	-12.4643
▁detour	-12.4643
▁anticipated	-12.4643
▁terribly	-12.4643
▁blaming	-12.4643
▁destiny	-12.4643
▁tactless	-12.4643
▁breezy	-12.4643
▁dummy	-12.4643
▁fidgeting	-12.4643
▁Jim	-12.4643
▁Apothecary	-12.4643
▁pepper	-12.4643
▁Hoping	-12.4643
▁forbid	-12.4643
▁ANY	-12.4643
▁depressed	-12.4643
▁constrictor	-12.4644
▁savour	-12.4644
▁taut	-12.4644
▁cords	-12.4644
▁rudeness	-12.4644
▁overflowing	-12.4644
▁yerself	-12.4644
▁sorcerer	-12.4644
▁throb	-12.4644
▁certainty	-12.4644
▁flopping	-12.4644
▁switched	-12.4644
om	-12.4644
▁knotted	-12.4644
▁clown	-12.4644
▁expectantly	-12.4644
▁bluntly	-12.4644
▁rosy	-12.4644
▁airborne	-12.4644
▁noiselessly	-12.4644
▁accomplished	-12.4644
▁drip	-12.4644
▁gateway	-12.4644
Later	-12.4644
▁debating	-12.4644
▁trustworthy	-12.4644
▁flute	-12.4644
▁pleaded	-12.4644
mindedly	-12.4645
▁extent	-12.4645
▁striking	-12.4645
▁mutilated	-12.4645
▁impact	-12.4645
▁aggressive	-12.4645
▁doormat	-12.4645
▁dumb	-12.4645
▁dragonskin	-12.4646
▁glowered	-12.4646
▁Beside	-12.4646
▁cloudless	-12.4646
▁foreseen	-12.4646
▁permanent	-12.4646
▁heartstring	-12.4646
▁recoiled	-12.4646
▁ricocheted	-12.4646
▁fourteenth	-12.4646
▁Vanished	-12.4646
▁overwhelmed	-12.4646
▁BO	-12.4646
▁unfurled	-12.4646
▁combat	-12.4646
▁altered	-12.4646
▁drooling	-12.4647
▁skyward	-12.4647
counterclockwise	-12.4647
▁surging	-12.4647
▁talons	-12.4647
▁hobbled	-12.4647
▁twinkled	-12.4647
▁wildest	-12.4648
▁Diddy	-12.4648
▁ebbing	-12.4648
▁hiccoughing	-12.4648
▁overwhelming	-12.4648
▁mummy	-12.4648
▁scrubbed	-12.4648
Gotta	-12.4648
▁Vow	-12.4649
Shhh	-12.4649
▁redheaded	-12.4649
▁obliged	-12.4649
▁gushed	-12.4649
▁protuberant	-12.4649
▁aerial	-12.4649
▁consented	-12.465
▁slashing	-12.465
▁discard	-12.465
▁smartly	-12.465
▁drooping	-12.4651
▁mixing	-12.4651
hearted	-12.4651
▁slaughtered	-12.4651
▁depressing	-12.4651
▁tufty	-12.4652
▁squirmed	-12.4652
▁supper	-12.4652
▁vividly	-12.4652
▁haul	-12.4652
▁exasperatedly	-12.4652
▁style	-12.4653
▁fortunate	-12.4653
▁dumped	-12.4653
▁snatches	-12.4653
▁recruiting	-12.4653
▁developing	-12.4653
▁stooping	-12.4653
▁rammed	-12.4654
▁shafts	-12.4654
▁abilities	-12.4654
▁seventeenth	-12.4654
▁wages	-12.4655
▁Cards	-12.4655
▁tightening	-12.4655
ardium	-12.4655
▁madam	-12.4655
▁conquered	-12.4655
▁eclairs	-12.4655
▁Artifacts	-12.4655
▁mealtimes	-12.4655
▁separately	-12.4656
▁proceedings	-12.4656
▁refilled	-12.4656
▁tracing	-12.4656
▁squirming	-12.4656
▁city	-12.4656
▁footprints	-12.4656
▁exact	-12.4657
▁boasting	-12.4657
▁goggles	-12.4657
▁fussy	-12.4657
▁bellow	-12.4657
▁thinned	-12.4658
▁cantered	-12.4658
▁taunted	-12.4658
▁notebook	-12.4658
▁blundered	-12.4659
▁cobwebs	-12.4659
▁role	-12.466
▁breeding	-12.4661
▁faking	-12.4661
wn	-12.4661
▁indifference	-12.4662
▁illegally	-12.4662
▁dotted	-12.4663
▁Herbs	-12.4663
▁stup	-12.4664
▁sheltered	-12.4664
▁Table	-12.4664
▁diving	-12.4664
▁professor	-12.4665
▁elsewhere	-12.4666
▁regarding	-12.4666
▁spawn	-12.4666
▁swallowing	-12.4667
▁hatching	-12.4668
▁motioned	-12.4669
nham	-12.4669
▁weirdly	-12.467
▁marshal	-12.467
▁readers	-12.467
▁lethal	-12.4671
▁April	-12.4671
▁fussing	-12.4672
▁Brazil	-12.4672
▁Levski	-12.4672
▁mould	-12.4672
▁laundered	-12.4672
▁Jupiter	-12.4672
▁Judging	-12.4672
natured	-12.4672
▁Mistress	-12.4672
▁dumbstruck	-12.4672
▁Tiny	-12.4672
▁Andromeda	-12.4672
▁folk	-12.4673
▁links	-12.4673
▁Pulling	-12.4673
▁healing	-12.4673
eeming	-12.4674
▁lifeless	-12.4674
▁Station	-12.4674
▁tumbling	-12.4675
▁Jump	-12.4675
tcher	-12.4676
▁keenly	-12.4676
▁spades	-12.4677
▁Potterwatch	-12.4677
▁wheeling	-12.4678
▁privately	-12.4678
▁strand	-12.4678
▁bravely	-12.4679
▁treading	-12.468
▁fullest	-12.4681
▁requested	-12.4681
ational	-12.4681
▁imprint	-12.4681
▁realistic	-12.4682
▁windowless	-12.4683
▁Eve	-12.4685
uddy	-12.4685
▁exception	-12.4687
▁lured	-12.4687
▁behaved	-12.4687
▁Caps	-12.4688
▁bade	-12.4691
Giving	-12.4691
▁withdrawn	-12.4691
▁groaning	-12.4692
▁nosy	-12.4692
▁rally	-12.4692
▁claimed	-12.4692
▁shins	-12.4693
▁interestedly	-12.4693
▁rival	-12.4694
▁pour	-12.4694
▁prized	-12.4694
▁Mess	-12.4694
▁winner	-12.4696
▁harmed	-12.4696
▁webbed	-12.4697
▁demonstrated	-12.4697
▁displaying	-12.4699
▁transforming	-12.4699
▁discovering	-12.47
▁havin	-12.4701
▁Hex	-12.4702
▁kittens	-12.4702
▁hooking	-12.4702
▁surged	-12.4704
▁cooler	-12.4705
HIS	-12.4705
▁gladly	-12.4707
▁feat	-12.471
▁Study	-12.4713
▁shine	-12.4714
▁fooled	-12.4715
▁Senior	-12.4716
▁BOY	-12.4716
▁Dimitrov	-12.4716
▁flagged	-12.4717
▁coils	-12.4719
▁plugs	-12.472
▁Imperiused	-12.4721
▁reminiscent	-12.4723
▁clockwise	-12.4723
▁gale	-12.4724
Scared	-12.4726
▁beforehand	-12.4726
▁Draw	-12.4727
▁breach	-12.4728
▁swell	-12.4728
▁charmed	-12.4729
▁Evil	-12.473
hoodwinked	-12.4731
ology	-12.4731
▁dodges	-12.4733
▁drinker	-12.4733
▁whichever	-12.4736
▁preventing	-12.4737
▁dig	-12.4738
▁Far	-12.4743
▁agreeing	-12.4745
▁forged	-12.4745
▁brood	-12.4748
▁formation	-12.475
▁rosettes	-12.475
▁satisfactory	-12.4757
▁hike	-12.476
▁kidney	-12.4762
▁Possibly	-12.4762
▁reporting	-12.4764
▁positions	-12.4765
▁SHE	-12.4767
▁pox	-12.4769
▁Mummy	-12.4769
rest	-12.4769
▁trance	-12.477
quaking	-12.4771
▁options	-12.4771
▁shadowed	-12.4774
▁appealing	-12.4777
▁swords	-12.4778
▁apiece	-12.4783
▁Being	-12.4783
▁lank	-12.4784
▁mom	-12.4784
▁replay	-12.4786
▁Award	-12.4787
▁measured	-12.4787
▁forgiven	-12.479
▁solved	-12.4791
▁chests	-12.4792
lunging	-12.4792
▁wandless	-12.4794
▁faceless	-12.4795
▁Smeltings	-12.4798
▁striped	-12.4801
▁stopper	-12.4801
der	-12.4802
▁needles	-12.4803
▁scuffle	-12.4803
▁creat	-12.4805
▁k	-12.4809
▁confront	-12.4811
ootsteps	-12.4813
▁̈CHe	-12.4817
▁frogs	-12.4819
▁Lo	-12.4821
▁Warlocks	-12.4822
▁opponents	-12.4822
▁bumps	-12.4823
▁praise	-12.4823
▁distracting	-12.4828
▁thicket	-12.4832
tted	-12.4832
▁orbs	-12.4833
▁stamps	-12.4835
▁narrowing	-12.4838
head	-12.4838
▁Pot	-12.484
▁offence	-12.4848
ise	-12.4852
▁Ages	-12.4854
▁Long	-12.4854
▁borne	-12.4857
▁balled	-12.4857
▁tro	-12.4857
self	-12.4858
▁Monsters	-12.487
eddy	-12.4871
▁Vo	-12.4877
▁dangers	-12.488
▁strides	-12.488
ext	-12.4882
▁weeds	-12.4889
▁graying	-12.4892
▁adults	-12.4894
▁outcome	-12.4895
twined	-12.4897
▁Fear	-12.4897
▁loving	-12.49
▁contains	-12.4902
▁skinned	-12.4906
▁gri	-12.4907
kin	-12.4916
▁Peverells	-12.4919
▁Grand	-12.492
▁strips	-12.4925
▁watchin	-12.4927
ew	-12.4928
rained	-12.4932
▁Glad	-12.494
▁boulders	-12.4941
Use	-12.4941
▁moonli	-12.4942
miling	-12.4945
▁'-	-12.4946
▁HERMIONE	-12.4946
▁shredd	-12.4948
▁willow	-12.4952
▁jogg	-12.4959
▁killin	-12.4965
▁jewels	-12.4966
Re	-12.4974
▁Level	-12.4978
▁harp	-12.498
▁Really	-12.4985
▁south	-12.4987
▁languages	-12.499
▁peck	-12.4995
▁lone	-12.4999
▁gush	-12.5001
▁Summon	-12.5003
▁appointments	-12.5005
▁ashen	-12.5011
▁WH	-12.5012
tending	-12.5018
conversationally	-12.5031
▁saves	-12.5032
▁STOP	-12.5036
▁bein	-12.5042
▁feelin	-12.5058
▁summons	-12.5061
son	-12.5075
▁suspects	-12.5079
▁gl	-12.5089
▁bean	-12.5098
▁mi	-12.5117
▁la	-12.5124
think	-12.5126
ently	-12.5126
▁reserve	-12.5128
mort	-12.5128
▁gurgl	-12.513
▁traditional	-12.5132
▁aid	-12.5135
amber	-12.5135
AVEN	-12.5149
na	-12.515
▁services	-12.5162
▁neared	-12.5171
▁Books	-12.5175
▁Tha	-12.5176
lbert	-12.5179
▁follows	-12.5189
▁border	-12.5193
▁kinds	-12.5195
▁blot	-12.5195
ssing	-12.5197
▁ol	-12.5199
▁Talk	-12.5204
▁IF	-12.5206
Sp	-12.5207
ral	-12.5211
▁crab	-12.5214
▁Jan	-12.5215
de	-12.5221
printed	-12.5234
▁backs	-12.5239
ampered	-12.524
cked	-12.5249
▁watered	-12.525
▁forces	-12.5257
▁Alic	-12.5264
urging	-12.5268
deeds	-12.5268
▁pictured	-12.528
▁winnings	-12.5287
▁accounts	-12.5287
▁firstly	-12.5288
Mmm	-12.5288
ending	-12.5288
▁gifts	-12.5303
▁favors	-12.5306
▁La	-12.532
▁uns	-12.532
▁reflections	-12.5324
raging	-12.5325
ailed	-12.5333
ished	-12.5343
▁Hair	-12.5344
▁ache	-12.535
▁submitt	-12.5354
▁Comm	-12.5359
▁hoods	-12.5364
reathing	-12.5365
▁sighted	-12.5368
SE	-12.5372
▁weightless	-12.5382
ro	-12.5414
▁explanations	-12.5421
▁pi	-12.5421
than	-12.544
▁forks	-12.5441
ti	-12.5447
▁heights	-12.5471
TH	-12.548
ech	-12.5482
Bu	-12.5496
De	-12.5501
Cause	-12.5508
obbed	-12.5508
▁Expecto	-12.5514
ching	-12.5515
robed	-12.5545
came	-12.5546
▁painless	-12.5547
▁Expelliarmus	-12.556
▁Totte	-12.5562
▁nu	-12.5565
▁Wish	-12.5577
▁arrivals	-12.5583
▁decisions	-12.5586
▁poisons	-12.5591
AME	-12.5593
▁throats	-12.5596
▁articles	-12.5608
▁ar	-12.5608
gling	-12.5611
uncharacteristic	-12.5612
med	-12.5615
▁fields	-12.5617
dor	-12.5619
ended	-12.5626
▁trips	-12.5628
▁agrees	-12.5634
▁quot	-12.5636
▁thankful	-12.5653
ired	-12.5653
▁bewitch	-12.5655
▁ouch	-12.5659
▁Professors	-12.5676
▁explore	-12.5684
▁cower	-12.5685
▁fri	-12.5688
ag	-12.5692
most	-12.5695
▁tellin	-12.57
▁hum	-12.5703
lled	-12.5706
US	-12.5714
▁satin	-12.5717
▁imm	-12.5753
▁Make	-12.5753
ets	-12.5759
▁lasting	-12.576
DER	-12.577
ta	-12.5773
bloods	-12.5774
▁Harrys	-12.5778
rimming	-12.5782
McGonagall	-12.5794
ck	-12.5798
▁Kind	-12.5802
pressed	-12.5812
▁crane	-12.5824
▁skulls	-12.5835
give	-12.5838
izing	-12.5839
tail	-12.5851
Lead	-12.5852
tell	-12.5855
▁experiment	-12.5865
▁Star	-12.5866
▁Shall	-12.5877
▁Ar	-12.5881
front	-12.5891
▁Delacours	-12.5895
▁wow	-12.5909
school	-12.5921
laying	-12.5949
ize	-12.5952
▁disentangle	-12.5971
▁represent	-12.5977
▁stub	-12.5977
'?`	-12.5978
bag	-12.5985
second	-12.6023
into	-12.6031
▁banks	-12.6044
thin	-12.6049
ounded	-12.6058
▁si	-12.6069
▁Certainly	-12.6092
being	-12.6097
▁sto	-12.6098
nt	-12.6098
▁locks	-12.6106
been	-12.6106
▁RE	-12.6113
▁Blacks	-12.6131
whether	-12.6132
took	-12.6135
▁render	-12.6141
ggling	-12.6157
killed	-12.6157
growing	-12.6162
til	-12.6163
ught	-12.6165
▁pil	-12.6165
run	-12.6166
▁sill	-12.617
rying	-12.6194
Prefect	-12.6206
▁rightly	-12.6208
▁Dumbledores	-12.6211
minded	-12.6216
▁tempt	-12.6218
▁cou	-12.6231
darkness	-12.6231
▁fe	-12.6233
▁Sorry	-12.6242
▁clash	-12.6243
lost	-12.6243
Dragon	-12.6243
▁Sc	-12.6262
passed	-12.6269
ames	-12.6269
power	-12.6272
RON	-12.6272
IN	-12.6275
▁horrifi	-12.6285
brother	-12.6287
Th	-12.6287
Light	-12.6289
Alas	-12.6291
Granger	-12.6295
SO	-12.6297
▁comp	-12.6299
▁Norw	-12.6301
LL	-12.6301
getting	-12.6308
drawn	-12.6308
Stan	-12.6309
Drop	-12.6311
▁Ca	-12.6312
inch	-12.6315
sing	-12.6321
neath	-12.6323
etty	-12.6327
pink	-12.633
▁contacts	-12.6333
▁fa	-12.6338
Wizarding	-12.6339
Congratulations	-12.6343
Signed	-12.6344
Small	-12.6346
Prince	-12.6357
Ludo	-12.6361
pick	-12.6362
▁dock	-12.6363
Morfin	-12.6363
Fawkes	-12.6363
Almost	-12.6365
dementor	-12.6366
Pretty	-12.6367
▁Short	-12.6368
Both	-12.637
Jordan	-12.637
SHUT	-12.6371
Speaking	-12.6374
ecked	-12.6374
lic	-12.6375
Such	-12.6377
Either	-12.6379
satisfied	-12.638
Lost	-12.6381
Apparition	-12.6382
Shame	-12.6383
Slowly	-12.6384
mortal	-12.6388
Everybody	-12.6389
les	-12.6389
jinxes	-12.6391
Mom	-12.6391
Amos	-12.6392
▁wars	-12.6393
Sure	-12.6393
Dawlish	-12.6393
stricken	-12.6394
Third	-12.6394
Except	-12.6396
Trying	-12.6401
seeking	-12.6402
Inside	-12.6402
connected	-12.6402
Madame	-12.6404
operation	-12.6406
▁drum	-12.641
▁compartments	-12.6415
▁shunt	-12.6416
Close	-12.6416
▁helpful	-12.6419
standard	-12.6422
part	-12.6445
▁flag	-12.6446
▁prim	-12.6448
▁involve	-12.6454
▁nip	-12.6465
Goblins	-12.6468
▁undo	-12.6471
▁partial	-12.6471
▁wince	-12.6473
Wizards	-12.6474
▁sprout	-12.6483
▁hinkypunk	-12.6486
▁candidate	-12.6486
▁valentine	-12.6486
▁Cabinet	-12.6486
▁failure	-12.6486
▁crumpet	-12.6486
▁insect	-12.6489
iding	-12.6499
▁flowerbed	-12.6499
▁throws	-12.6503
Dragons	-12.6503
▁airplane	-12.6505
▁tantrum	-12.6505
Wh	-12.6505
hooting	-12.6506
▁margin	-12.6508
Mimbu	-12.651
▁rosette	-12.6511
▁rebellion	-12.6511
berries	-12.6515
▁Dungbomb	-12.6515
▁pillar	-12.6516
▁compliment	-12.6524
▁Fight	-12.6525
laid	-12.6532
cha	-12.6538
▁Team	-12.6547
lt	-12.6549
eight	-12.655
visibility	-12.6553
heads	-12.6554
FORE	-12.6561
▁pate	-12.6564
▁realiz	-12.6566
▁peg	-12.6567
table	-12.6569
▁slim	-12.657
▁arrogan	-12.657
ringing	-12.6573
▁organ	-12.6586
about	-12.6591
▁reverberat	-12.6602
RN	-12.6605
ELL	-12.6607
imply	-12.6608
▁clutch	-12.6612
▁develop	-12.6612
rinkled	-12.6615
▁clench	-12.6616
▁snarl	-12.6616
▁splutter	-12.6617
▁polish	-12.6617
▁postpone	-12.6618
▁wrestle	-12.6618
▁subdue	-12.662
▁stoop	-12.662
▁snigger	-12.662
▁observe	-12.662
▁grope	-12.6622
▁provoke	-12.6622
▁cease	-12.6622
▁bustle	-12.6623
▁dispose	-12.6624
▁purse	-12.6624
▁Send	-12.6625
rian	-12.6625
▁collide	-12.6627
▁recruit	-12.6627
▁rouse	-12.6627
gum	-12.663
▁ambush	-12.663
▁zigzagg	-12.6631
▁sustain	-12.6632
▁caption	-12.6632
▁consent	-12.6632
▁detach	-12.6634
▁sauce	-12.6634
▁pork	-12.6636
▁execution	-12.6637
▁appraising	-12.6637
▁sheepish	-12.6638
▁anguish	-12.6638
▁indignant	-12.6638
▁stubborn	-12.6638
▁affectionate	-12.6638
▁blunt	-12.6639
▁fruitless	-12.6639
▁exceptional	-12.6639
▁eavesdrop	-12.664
▁astonishing	-12.664
umpkin	-12.664
Us	-12.6641
▁kidnap	-12.6641
▁immortal	-12.6641
▁AGAIN	-12.6641
▁discern	-12.6641
▁Bletchley	-12.6641
▁accomplice	-12.6641
▁formidable	-12.6641
▁labyrinth	-12.6641
HAGRID	-12.6641
Ogwarts	-12.6641
STUBEFY	-12.6641
Wronski	-12.6641
▁Anglia	-12.6641
▁Archie	-12.6641
▁Basil	-12.6641
▁Catchpole	-12.6641
▁Clearwater	-12.6641
▁DARK	-12.6641
▁Dervish	-12.6641
▁Euan	-12.6641
▁FIREBOLT	-12.6641
▁Furious	-12.6641
▁Ghouls	-12.6641
▁Gregory	-12.6641
▁Hopkirk	-12.6641
▁Mermish	-12.6641
▁Nargles	-12.6641
▁Nurmengard	-12.6641
▁Puddifoot	-12.6641
▁SCHOOL	-12.6641
▁SERVANT	-12.6641
▁Services	-12.6641
▁Squinting	-12.6641
▁Supplies	-12.6641
▁Syllabary	-12.6641
▁Uranus	-12.6641
▁Vulchanov	-12.6641
▁Widdershins	-12.6641
▁audience	-12.6641
▁autumn	-12.6641
▁banquet	-12.6641
▁bespectacled	-12.6641
▁cigarette	-12.6641
▁criticise	-12.6641
▁criticizing	-12.6641
▁dishevelled	-12.6641
▁distaste	-12.6641
▁emphasis	-12.6641
▁fruitcake	-12.6641
▁gawping	-12.6641
▁gormless	-12.6641
▁inclination	-12.6641
▁incorporating	-12.6641
▁infusion	-12.6641
▁innocence	-12.6641
▁intriguing	-12.6641
▁irksome	-12.6641
▁irresistibl	-12.6641
▁irritation	-12.6641
▁jubilation	-12.6641
▁landlord	-12.6641
▁liberty	-12.6641
▁librarian	-12.6641
▁loincloth	-12.6641
▁merchandise	-12.6641
▁mullioned	-12.6641
▁muscular	-12.6641
▁orchestra	-12.6641
▁paranoid	-12.6641
▁penalties	-12.6641
▁pockmarked	-12.6641
▁principle	-12.6641
▁quizzical	-12.6641
▁reassurance	-12.6641
▁recommend	-12.6641
▁restricted	-12.6641
▁reunited	-12.6641
▁rhythm	-12.6641
▁routine	-12.6641
▁senior	-12.6641
▁societies	-12.6641
▁sycophantically	-12.6641
▁twiddled	-12.6641
▁unctuous	-12.6641
▁undetected	-12.6641
▁unearthed	-12.6641
▁unoccupied	-12.6641
▁vindictive	-12.6641
▁Harpies	-12.6641
▁President	-12.6641
▁Sanguini	-12.6641
▁Valentine	-12.6641
▁Wellington	-12.6641
▁applicant	-12.6641
▁characteristic	-12.6641
▁discouraged	-12.6641
▁dissolving	-12.6641
▁enhance	-12.6641
▁gorilla	-12.6641
▁inclining	-12.6641
▁laundry	-12.6641
▁mermaid	-12.6641
▁palomino	-12.6641
▁persistent	-12.6641
▁reindeer	-12.6641
▁secrecy	-12.6641
▁tribute	-12.6641
▁unsuccessful	-12.6641
▁Drooble	-12.6641
▁Status	-12.6641
▁cockroach	-12.6641
▁discord	-12.6641
▁excursion	-12.6641
▁flexible	-12.6641
▁footfalls	-12.6641
▁historian	-12.6641
▁levitating	-12.6641
▁cereal	-12.6641
▁providing	-12.6641
▁Erumpent	-12.6641
▁downpour	-12.6641
▁enquired	-12.6641
▁ignorance	-12.6641
▁bishop	-12.6641
▁grandparents	-12.6641
▁ignorant	-12.6641
▁ponytail	-12.6641
▁population	-12.6641
▁tattoo	-12.6641
▁tedious	-12.6641
▁unprotected	-12.6641
▁delegation	-12.6641
▁extraordinarily	-12.6641
▁parrot	-12.6641
Sectumsempra	-12.6641
▁confusing	-12.6641
▁dashboard	-12.6641
▁entertainment	-12.6641
▁grudge	-12.6641
▁rafters	-12.6641
▁reverie	-12.6641
Collo	-12.6641
▁Malfay	-12.6641
▁Between	-12.6641
▁Feint	-12.6641
▁brittle	-12.6641
▁salute	-12.6641
▁vigilance	-12.6641
Tricky	-12.6641
▁insistence	-12.6641
▁rogue	-12.6641
▁advisable	-12.6642
▁profession	-12.6642
▁scandalized	-12.6642
▁Dueling	-12.6642
▁churning	-12.6642
▁residence	-12.6642
▁eavesdropping	-12.6642
▁fathom	-12.6642
▁monkey	-12.6642
▁slumping	-12.6642
▁composition	-12.6642
▁particle	-12.6642
▁suffice	-12.6642
Diffindo	-12.6642
▁Sixty	-12.6642
▁furthest	-12.6642
▁reeled	-12.6642
▁MAR	-12.6642
▁OWN	-12.6642
▁unsupported	-12.6642
▁organisation	-12.6642
▁bawling	-12.6642
▁stragglers	-12.6642
▁Grinning	-12.6642
▁prickly	-12.6642
▁Mimsy	-12.6642
▁fringe	-12.6642
▁unstable	-12.6642
▁balancing	-12.6642
▁device	-12.6642
▁tabby	-12.6642
▁blouse	-12.6642
▁bullied	-12.6642
▁loophole	-12.6642
▁syllable	-12.6642
▁teashop	-12.6642
▁cartoon	-12.6642
▁multicolored	-12.6642
▁foggy	-12.6642
▁unbidden	-12.6642
▁shoppers	-12.6642
▁shrug	-12.6642
▁unmarked	-12.6642
▁lumbered	-12.6642
▁parentage	-12.6642
▁edition	-12.6642
▁France	-12.6642
▁quantities	-12.6642
Liar	-12.6642
▁impertinent	-12.6642
jawed	-12.6642
▁resounding	-12.6642
▁charred	-12.6642
▁sunrise	-12.6642
▁skipping	-12.6642
▁experiencing	-12.6642
▁captor	-12.6642
▁Ronnie	-12.6642
▁WON	-12.6642
▁sanity	-12.6642
▁GOING	-12.6642
▁bedspread	-12.6642
▁sizzling	-12.6642
▁Banges	-12.6642
▁necessity	-12.6642
▁undergrowth	-12.6642
▁decay	-12.6642
▁jail	-12.6642
▁salmon	-12.6642
▁smugness	-12.6642
▁shrivelled	-12.6642
▁tassel	-12.6642
▁chaos	-12.6642
▁padlock	-12.6642
▁Firewhisky	-12.6642
▁gentleman	-12.6642
▁championship	-12.6642
▁Bridge	-12.6642
▁pronouncement	-12.6642
▁uncorked	-12.6642
▁bristling	-12.6642
▁minister	-12.6642
▁woolen	-12.6642
▁commentating	-12.6642
▁raspberry	-12.6642
▁Destiny	-12.6642
▁collapsing	-12.6642
▁jabbering	-12.6642
▁uncanny	-12.6642
▁Blowing	-12.6642
▁enlarge	-12.6642
▁swagger	-12.6642
▁treachery	-12.6642
▁slab	-12.6643
▁courteously	-12.6643
▁consolingly	-12.6643
▁underestimate	-12.6643
▁demolished	-12.6643
▁policy	-12.6643
▁distraction	-12.6643
▁elongated	-12.6643
▁monitored	-12.6643
▁obtained	-12.6643
▁diminished	-12.6643
▁enslaved	-12.6643
▁adjusted	-12.6643
▁joyfully	-12.6643
▁Scrim	-12.6643
▁kip	-12.6643
▁fidgeted	-12.6643
▁daily	-12.6643
▁thrashed	-12.6643
▁euphoria	-12.6643
Release	-12.6643
▁ascended	-12.6643
▁suffocating	-12.6643
▁bangles	-12.6643
▁sickened	-12.6643
▁Spellman	-12.6643
▁varied	-12.6643
▁guesswork	-12.6643
▁improving	-12.6643
▁hitherto	-12.6643
▁Laughing	-12.6643
▁flaring	-12.6643
▁displeased	-12.6643
▁stiffened	-12.6643
▁quarry	-12.6643
▁approvingly	-12.6643
▁undercover	-12.6643
▁advising	-12.6643
▁fairies	-12.6643
▁mercifully	-12.6643
▁imprisoning	-12.6643
▁patrolled	-12.6644
▁quickened	-12.6644
▁craving	-12.6644
▁gravy	-12.6644
▁Bank	-12.6644
Agrid	-12.6644
▁unwanted	-12.6644
▁creation	-12.6644
▁During	-12.6644
▁streamers	-12.6644
▁nightcap	-12.6644
▁mistreated	-12.6644
Interesting	-12.6644
▁tremulously	-12.6644
▁radishes	-12.6644
▁clutches	-12.6644
▁duelers	-12.6644
▁incensed	-12.6644
▁semi	-12.6644
▁mumbling	-12.6644
▁disagreement	-12.6644
▁screwing	-12.6644
▁trotted	-12.6645
▁scoff	-12.6645
▁unrecognizable	-12.6645
▁internal	-12.6645
▁frock	-12.6645
▁dripped	-12.6645
▁releasing	-12.6645
▁simpered	-12.6645
▁affectionately	-12.6645
▁lurid	-12.6645
▁smuggling	-12.6645
▁handwritten	-12.6645
▁regretting	-12.6645
▁unleash	-12.6645
▁deluded	-12.6645
▁snoutlike	-12.6645
▁nosebleed	-12.6645
▁whining	-12.6645
▁transfigured	-12.6646
▁ferociously	-12.6646
▁HER	-12.6646
▁quest	-12.6646
▁mince	-12.6646
▁simpering	-12.6646
▁luckily	-12.6646
▁tiredness	-12.6646
▁Marsh	-12.6646
▁relentlessly	-12.6646
▁dipping	-12.6647
▁regurgitating	-12.6647
▁wreath	-12.6647
▁raving	-12.6647
▁hairpin	-12.6647
▁flanking	-12.6647
▁picturing	-12.6647
▁whacking	-12.6647
▁major	-12.6647
▁adopted	-12.6647
▁overpowered	-12.6647
▁illness	-12.6647
▁smugly	-12.6647
▁cleverest	-12.6647
▁pompously	-12.6647
egian	-12.6647
▁Witches	-12.6647
▁thankfully	-12.6647
▁gagging	-12.6648
▁supreme	-12.6648
▁simmering	-12.6648
▁overexcited	-12.6648
▁mountainside	-12.6648
▁expanse	-12.6648
▁carving	-12.6648
▁mimed	-12.6648
▁crisply	-12.6648
▁stranded	-12.6648
▁compost	-12.6648
▁headdress	-12.6648
▁ensuring	-12.6649
▁household	-12.6649
▁exceed	-12.6649
▁difficulties	-12.6649
▁debt	-12.6649
▁reinstated	-12.6649
▁colorless	-12.6649
▁swiveling	-12.6649
▁muck	-12.6649
▁soggy	-12.665
▁freckled	-12.665
▁gnaw	-12.665
▁realising	-12.665
▁gouge	-12.665
▁sprawl	-12.665
▁wavy	-12.665
▁peacefully	-12.665
ceilinged	-12.665
▁catastrophe	-12.6651
▁Broom	-12.6651
▁Hermes	-12.6652
▁ou	-12.6652
▁Gum	-12.6652
▁zigzagged	-12.6652
▁disrupt	-12.6652
▁plunk	-12.6652
▁everythin	-12.6652
▁beloved	-12.6653
▁shockingly	-12.6653
Silencio	-12.6653
▁Europe	-12.6653
▁waxy	-12.6653
▁Transfigured	-12.6653
▁antlers	-12.6653
▁loosening	-12.6653
▁contented	-12.6654
▁berth	-12.6654
▁neglected	-12.6654
▁brightness	-12.6654
▁attractive	-12.6654
▁lateness	-12.6655
▁pickled	-12.6655
▁Albert	-12.6655
▁echoes	-12.6655
▁haff	-12.6655
▁leafy	-12.6655
▁fleetingly	-12.6655
▁indicate	-12.6656
▁rapping	-12.6656
▁haunting	-12.6656
▁steeply	-12.6656
▁spluttering	-12.6656
▁spectacularly	-12.6657
▁jostled	-12.6657
▁sagged	-12.6657
▁THEM	-12.6657
▁football	-12.6657
▁endlessly	-12.6658
▁intervened	-12.6658
▁elated	-12.6658
▁devil	-12.6658
▁Carry	-12.6658
▁Beginners	-12.6659
▁Pastilles	-12.6659
▁goalposts	-12.6659
▁lightened	-12.6659
▁tighten	-12.6659
▁plait	-12.6659
▁mascots	-12.6659
▁brightest	-12.6659
▁disarmed	-12.6659
▁angel	-12.666
▁powerless	-12.666
▁inquired	-12.666
lumbering	-12.666
▁giveaway	-12.666
▁admittedly	-12.6661
detectable	-12.6661
▁jealousy	-12.6661
▁shattering	-12.6662
▁crackled	-12.6662
▁translation	-12.6662
▁booth	-12.6663
▁wrap	-12.6664
▁clanging	-12.6664
▁falter	-12.6665
▁magnificently	-12.6665
Outer	-12.6665
Locker	-12.6665
▁TALK	-12.6665
▁tinge	-12.6666
▁eve	-12.6666
▁satisfying	-12.6667
▁pinning	-12.6668
▁fussed	-12.6668
▁dearest	-12.6669
▁flourishing	-12.6669
▁spew	-12.6669
▁dryly	-12.667
▁whooping	-12.667
▁flowered	-12.667
▁hatched	-12.6671
▁wiser	-12.6671
▁roved	-12.6672
▁manic	-12.6673
Sh	-12.6674
▁weeping	-12.6674
▁moustache	-12.6674
ninny	-12.6674
▁inkling	-12.6674
▁Fly	-12.6675
▁claiming	-12.6675
▁notorious	-12.6676
▁relaxing	-12.6676
▁phase	-12.6676
▁hasty	-12.6676
▁Dora	-12.6677
▁Saturn	-12.6678
▁ALBUS	-12.6678
▁pewter	-12.6678
▁ATTACK	-12.6678
▁MORE	-12.6678
▁honey	-12.6678
▁strangling	-12.6678
▁DIED	-12.6678
▁Blaise	-12.6678
▁HELP	-12.6678
▁Strong	-12.6678
▁Legilimens	-12.6678
▁spangled	-12.6678
▁Golpalott	-12.6678
▁invincible	-12.6678
▁Fortunately	-12.6679
▁CAN	-12.6679
▁Shaking	-12.6679
▁detection	-12.6679
▁Ottery	-12.6679
▁thieves	-12.6679
▁dozing	-12.668
▁hidin	-12.6681
▁protested	-12.6681
▁yearning	-12.6682
▁carols	-12.6683
lga	-12.6683
▁lizard	-12.6684
▁flies	-12.6684
▁Consider	-12.6684
▁interrupting	-12.6684
Goodness	-12.6685
▁moron	-12.6685
▁fours	-12.6686
▁lurching	-12.6686
mashed	-12.6687
voiced	-12.6687
▁Art	-12.6687
▁alerted	-12.6688
▁Gray	-12.6688
▁innit	-12.6688
▁stumping	-12.6689
▁divid	-12.669
wind	-12.6691
▁balanced	-12.6691
▁bathed	-12.6691
endous	-12.6694
▁camping	-12.6694
▁flattering	-12.6694
▁clutter	-12.6694
▁tiled	-12.6694
▁fastest	-12.6695
▁snored	-12.6695
▁hardest	-12.6697
ryone	-12.6699
▁feign	-12.6699
▁crib	-12.67
▁sightings	-12.6701
▁repeating	-12.6701
▁veiled	-12.6702
▁Mary	-12.6702
▁reversed	-12.6702
▁Year	-12.6702
▁darkest	-12.6704
▁convey	-12.6705
▁touches	-12.6706
▁triumphed	-12.6707
▁overlarge	-12.6708
▁cleaner	-12.6709
▁wiry	-12.671
▁cours	-12.6711
Hmmm	-12.6713
▁nuts	-12.6714
▁dueled	-12.6715
▁reality	-12.6715
▁shards	-12.6715
▁degrees	-12.6716
▁theories	-12.6716
▁blinded	-12.6717
▁descendants	-12.6717
▁Nifflers	-12.6717
▁biscuits	-12.6717
▁flobberworms	-12.6717
▁progressed	-12.6717
▁distantly	-12.6719
reedy	-12.672
▁Mo	-12.6721
▁dishonor	-12.6726
▁Excellent	-12.6726
▁hinted	-12.6726
▁bundled	-12.6727
▁riddle	-12.6728
him	-12.673
▁wistful	-12.673
▁quilt	-12.6733
▁Dilys	-12.6733
▁defending	-12.6735
▁wonderingly	-12.6735
rn	-12.6736
▁Firs	-12.6736
▁Confunded	-12.6737
▁rockets	-12.6737
▁inhabited	-12.674
▁recount	-12.674
▁assent	-12.6743
▁mending	-12.6745
▁Quickly	-12.6745
▁earrings	-12.6745
▁channels	-12.6745
▁eff	-12.6746
▁unstead	-12.6746
▁skeletons	-12.6747
▁ancestors	-12.6747
▁preparations	-12.6747
cent	-12.6747
▁bookcases	-12.6747
▁boyfriend	-12.6748
▁fi	-12.6749
▁complaints	-12.675
▁haunts	-12.6751
raided	-12.6751
▁tread	-12.6752
▁EVER	-12.6752
▁orphans	-12.6753
lipped	-12.6755
mity	-12.6756
▁jumpy	-12.6757
▁taunting	-12.6764
▁planet	-12.6765
▁uncoil	-12.6766
▁pawn	-12.677
▁discipline	-12.677
▁lounge	-12.6771
▁moody	-12.6771
▁longest	-12.6772
▁speaker	-12.6773
▁flags	-12.6774
▁boars	-12.6775
▁misted	-12.6778
▁journeyed	-12.6779
▁whil	-12.6781
▁suffocate	-12.6782
sk	-12.6782
▁available	-12.6782
Aqua	-12.6783
▁practised	-12.6784
▁patchy	-12.6785
PEE	-12.6786
Losing	-12.6786
▁Beaky	-12.679
▁Tomorrow	-12.6791
▁plucked	-12.6791
▁experiments	-12.6792
▁treasured	-12.6792
▁soap	-12.6793
▁LEAVE	-12.6795
-----	-12.6798
would	-12.6799
▁pe	-12.68
▁acknowledge	-12.6801
hem	-12.6802
▁disposed	-12.6805
▁transformations	-12.6807
▁ripples	-12.6807
Yourself	-12.6809
▁timetables	-12.681
▁stored	-12.6814
▁keepers	-12.6816
▁ickle	-12.6816
▁carpeted	-12.6816
▁venomous	-12.6818
▁Bert	-12.682
▁Non	-12.6821
▁wil	-12.6823
dboard	-12.6824
ime	-12.6824
▁nettle	-12.6827
▁Probe	-12.6827
▁bull	-12.6829
▁Stick	-12.6832
▁rays	-12.6832
▁van	-12.6834
▁achievements	-12.6837
▁bonds	-12.6837
▁approved	-12.684
▁wrongly	-12.684
▁Force	-12.6841
▁??``	-12.6843
▁rocked	-12.6844
▁greed	-12.6847
▁decree	-12.6847
Oy	-12.6852
▁touchy	-12.6853
▁boos	-12.6857
▁nutters	-12.6858
▁locations	-12.6865
▁dwarfs	-12.6866
olding	-12.6866
▁calming	-12.687
▁spines	-12.6871
▁Since	-12.6875
makers	-12.6878
▁restraint	-12.688
▁smack	-12.6885
even	-12.6887
▁kinder	-12.6888
▁lashed	-12.6888
▁desired	-12.6889
▁towns	-12.6893
icked	-12.6894
OWLS	-12.6895
▁criminals	-12.6896
▁textbooks	-12.6896
law	-12.6902
▁pods	-12.6902
▁Shame	-12.6908
▁subjected	-12.6914
▁ge	-12.6914
▁fray	-12.6919
▁Such	-12.692
▁courtrooms	-12.6926
▁bold	-12.6927
▁lids	-12.6931
▁staircases	-12.6935
▁procur	-12.6936
▁unscrew	-12.6936
▁stile	-12.6937
▁Along	-12.694
▁Lost	-12.6942
▁secretary	-12.6951
dance	-12.6952
▁Gadd	-12.6954
▁wen	-12.6957
umors	-12.6958
▁skins	-12.6959
▁Di	-12.696
▁Trust	-12.696
▁scrutini	-12.6961
▁Cissy	-12.6961
▁SIRIUS	-12.6961
▁Fifty	-12.6962
▁plunge	-12.6963
▁Snorkacks	-12.6963
stone	-12.6967
▁merry	-12.6967
warts	-12.697
▁reasoned	-12.6979
og	-12.6981
iv	-12.6982
▁bo	-12.6991
▁quake	-12.6996
▁Bat	-12.6996
▁flatter	-12.6999
bled	-12.7002
▁Dep	-12.7002
▁Wh	-12.7011
▁greetings	-12.7013
▁Careful	-12.7023
eased	-12.7026
going	-12.703
▁angles	-12.7038
Change	-12.7039
▁banners	-12.7041
▁THIN	-12.7042
▁gra	-12.7044
▁suggestions	-12.7044
▁vampires	-12.7045
opping	-12.7045
▁slot	-12.7052
▁billow	-12.7053
▁threats	-12.7054
ple	-12.7055
agging	-12.7067
▁titles	-12.707
▁mouthfuls	-12.7074
visibly	-12.7076
▁Six	-12.7077
designed	-12.7079
▁disguises	-12.7083
▁colours	-12.7087
▁nurs	-12.7091
slung	-12.7093
▁requires	-12.7093
rbert	-12.7095
▁Qu	-12.7099
▁bro	-12.71
▁pret	-12.7101
▁charts	-12.7106
▁barks	-12.7113
▁moans	-12.7115
ouple	-12.7117
▁stark	-12.7119
bum	-12.7129
▁knitted	-12.7132
▁explosions	-12.7134
▁dorm	-12.7139
▁Evening	-12.7144
▁refuses	-12.7146
▁Goblins	-12.7157
▁protests	-12.7157
▁Gues	-12.716
▁raged	-12.7169
▁bursts	-12.717
▁Hope	-12.7172
▁lookouts	-12.7174
uff	-12.7175
▁spect	-12.7182
▁repress	-12.719
▁farthe	-12.7191
▁fortunately	-12.7193
▁rein	-12.7215
▁howls	-12.7223
ok	-12.7225
▁stacks	-12.7226
▁Wa	-12.7228
▁revert	-12.7252
wand	-12.7252
▁hap	-12.7257
▁interrogat	-12.726
▁Jus	-12.726
▁heaps	-12.7263
▁stays	-12.7266
ab	-12.7269
▁squeaks	-12.7271
▁barricade	-12.7275
IR	-12.7284
▁'`	-12.729
▁humm	-12.7302
ga	-12.7304
▁Hi	-12.7309
ran	-12.7311
▁trolleys	-12.7312
uck	-12.7318
▁pocketing	-12.7319
▁Sh	-12.7323
▁graze	-12.7326
▁Curious	-12.7344
▁seating	-12.7346
▁heated	-12.7346
▁Point	-12.735
Unti	-12.7355
▁Part	-12.7367
▁WI	-12.7367
io	-12.737
▁fr	-12.7376
hold	-12.7382
▁bill	-12.7394
still	-12.7395
ving	-12.7415
ICE	-12.7419
▁streams	-12.7422
▁experiences	-12.7427
▁wonders	-12.743
▁stores	-12.7439
▁knowin	-12.7442
cal	-12.7442
▁Pr	-12.7452
▁Bob	-12.7454
urned	-12.7454
▁paintings	-12.7455
tensely	-12.7455
▁Near	-12.746
▁dre	-12.7469
▁Him	-12.7469
quiringly	-12.747
▁duels	-12.7471
▁enjoys	-12.7492
ITCH	-12.7515
▁scrubb	-12.7524
LY	-12.7528
▁ALL	-12.7545
aaaah	-12.7547
▁strangers	-12.7549
▁sweaters	-12.7552
▁lettering	-12.7585
Year	-12.7593
▁fl	-12.7597
lo	-12.7632
▁corp	-12.7645
▁pry	-12.766
eet	-12.7661
▁des	-12.7668
bledore	-12.7686
cluded	-12.7689
▁Tall	-12.7694
▁cottages	-12.7697
▁butterbeers	-12.7699
▁carpets	-12.77
▁trays	-12.7708
▁accuse	-12.7711
▁Snapes	-12.7714
▁actions	-12.7715
ell	-12.7719
▁situations	-12.7728
ering	-12.773
never	-12.7732
▁traces	-12.7732
sorted	-12.7746
nce	-12.7747
rode	-12.7748
▁killings	-12.7752
▁Small	-12.7758
from	-12.7776
▁pummel	-12.7776
▁proves	-12.7778
▁SM	-12.7794
▁retrac	-12.7801
▁Teach	-12.7802
ards	-12.781
ched	-12.7843
▁Marauders	-12.7845
▁sentences	-12.7845
ality	-12.7853
▁accus	-12.7854
▁fin	-12.7864
ading	-12.7875
▁doubl	-12.788
▁wh	-12.7882
▁??`	-12.7885
▁mut	-12.7892
▁Har	-12.7895
▁chanced	-12.7895
IND	-12.7913
▁dears	-12.7921
▁Hot	-12.7922
▁dump	-12.7948
▁bites	-12.7949
TS	-12.797
hunting	-12.7978
▁Ford	-12.7983
▁unroll	-12.7986
▁art	-12.7989
ess	-12.8005
dgy	-12.8011
ore	-12.8012
ties	-12.8026
ile	-12.805
good	-12.8062
▁speaks	-12.8069
▁batch	-12.808
▁scrub	-12.8089
▁plug	-12.8091
▁dawdle	-12.8092
▁Ice	-12.8095
oping	-12.8097
lot	-12.8105
▁torment	-12.8109
▁peas	-12.8112
▁concoct	-12.8112
▁outnumber	-12.8114
▁clink	-12.8119
▁surprises	-12.8121
aught	-12.8124
pelled	-12.8125
▁whoop	-12.8145
▁submit	-12.8148
▁bowls	-12.815
▁Mungos	-12.8163
▁Co	-12.8169
▁snuff	-12.817
word	-12.8171
gar	-12.8181
▁Reducto	-12.8182
dden	-12.8186
▁Wel	-12.8188
▁Pick	-12.8192
ery	-12.8198
▁impose	-12.8215
must	-12.8223
Seven	-12.8226
▁squelch	-12.8233
▁project	-12.8234
▁boo	-12.8266
Writ	-12.8271
▁Dunno	-12.8282
▁honour	-12.8284
▁Hold	-12.8291
▁Sit	-12.8305
heartedly	-12.8306
▁shove	-12.8309
▁cr	-12.831
▁Stop	-12.8313
ipping	-12.8314
Pay	-12.8321
▁Open	-12.8326
witch	-12.8327
▁chop	-12.8333
▁imp	-12.8339
case	-12.834
ged	-12.8347
▁clo	-12.8348
▁Seekers	-12.835
▁Wil	-12.835
▁insider	-12.8357
esn	-12.8369
has	-12.8374
master	-12.8375
▁Instant	-12.8385
ink	-12.8393
▁Less	-12.8398
od	-12.8405
▁jo	-12.8407
▁handles	-12.8408
▁fumbl	-12.8418
rely	-12.8424
▁Making	-12.8434
Obliviate	-12.8441
ial	-12.8447
▁tarnish	-12.8448
until	-12.8468
doing	-12.8482
ee	-12.8484
does	-12.8484
▁beats	-12.8492
▁scorch	-12.8493
▁guid	-12.8495
▁frill	-12.8495
shed	-12.8496
form	-12.8504
body	-12.8504
bolt	-12.8518
▁ve	-12.8527
▁ado	-12.8529
ung	-12.8531
orn	-12.8534
▁busi	-12.8541
▁FL	-12.8568
earning	-12.8577
Talk	-12.8578
breath	-12.858
ition	-12.8593
Tut	-12.8596
usual	-12.86
ot	-12.8601
▁dedicate	-12.8611
▁fret	-12.8613
▁silenced	-12.8627
▁breaks	-12.8632
best	-12.8642
CK	-12.8644
CH	-12.866
Add	-12.866
▁swan	-12.8666
Bagman	-12.8673
aving	-12.8679
deep	-12.8685
IGH	-12.8687
girl	-12.8689
tray	-12.8699
▁gar	-12.8706
Under	-12.8712
Dean	-12.8721
▁supplie	-12.8721
ark	-12.8725
▁Man	-12.8728
fine	-12.8732
▁memo	-12.8734
prone	-12.8737
home	-12.8738
▁shy	-12.8738
ay	-12.874
▁Break	-12.8741
▁towers	-12.8743
AND	-12.8749
HA	-12.8754
chart	-12.8757
could	-12.8758
▁tick	-12.8763
nog	-12.8766
▁active	-12.877
view	-12.8772
Skeeter	-12.8772
Odd	-12.8773
specially	-12.8776
figure	-12.8777
Gues	-12.8778
Buckbeak	-12.8779
TER	-12.878
Angelina	-12.8781
worth	-12.8783
control	-12.8783
Pettigrew	-12.8787
▁sees	-12.879
Lie	-12.8792
kins	-12.8798
▁loo	-12.88
Accident	-12.88
▁div	-12.8803
▁sane	-12.8805
Answer	-12.8807
Greyback	-12.8808
order	-12.8821
▁tur	-12.8824
▁hack	-12.8829
worn	-12.883
Divination	-12.8831
Firenze	-12.8835
mate	-12.8837
Everard	-12.8838
Straight	-12.8838
Family	-12.8839
Midnight	-12.884
McLaggen	-12.8841
Call	-12.8841
Clearly	-12.8843
Marge	-12.8844
Tuney	-12.8844
Elf	-12.8845
▁horrors	-12.8846
Headmaster	-12.8848
awake	-12.8851
Trust	-12.8854
Auror	-12.8858
nceforth	-12.8861
Aragog	-12.8863
TAL	-12.8863
enter	-12.8863
Bring	-12.8864
Barty	-12.8864
Seriously	-12.8866
grandson	-12.8867
Fight	-12.8867
Nasty	-12.8868
bow	-12.8868
Dolores	-12.8869
sentence	-12.8869
Neither	-12.8869
Travers	-12.887
market	-12.8873
FOR	-12.8874
School	-12.8875
Drink	-12.8875
EVE	-12.8879
wood	-12.8879
▁por	-12.888
Stunned	-12.8881
proof	-12.8883
LET	-12.8883
Bode	-12.8884
▁-?'	-12.8885
Long	-12.8885
umped	-12.8885
qualified	-12.8886
Firstly	-12.8887
Weird	-12.8888
GRYFFINDOR	-12.8888
Although	-12.8888
Together	-12.8889
ALL	-12.889
Mother	-12.8891
Loony	-12.8892
▁sec	-12.8892
Other	-12.8897
Charms	-12.89
framed	-12.89
oving	-12.89
lax	-12.8902
HAVE	-12.8902
shall	-12.8902
lid	-12.8903
Getting	-12.8904
Mars	-12.8904
safe	-12.8904
Went	-12.8908
laden	-12.8912
GO	-12.8914
▁cute	-12.8915
Gran	-12.8916
Break	-12.8919
lew	-12.8923
Along	-12.8925
pin	-12.8926
Blast	-12.8931
▁rap	-12.8942
▁Car	-12.8951
lookin	-12.8962
▁boar	-12.8964
▁pond	-12.8965
▁migh	-12.8968
bull	-12.8969
Evening	-12.8976
mo	-12.8977
disguised	-12.8982
bend	-12.8983
▁Prewett	-12.8985
▁commentator	-12.8986
▁bathrobe	-12.8986
hater	-12.8987
▁puddle	-12.8988
▁bandage	-12.8988
▁prince	-12.8992
▁nut	-12.8995
▁haunt	-12.8995
▁recipe	-12.8996
bandoning	-12.8996
▁Gurdyroot	-12.8998
▁saucepan	-12.8998
▁phial	-12.8999
▁orphan	-12.8999
▁dodge	-12.9001
VES	-12.9002
▁relation	-12.9003
stand	-12.9004
logy	-12.9004
▁privilege	-12.9004
▁invention	-12.9006
▁preparation	-12.9008
▁ancestor	-12.9008
▁skeleton	-12.9008
▁channel	-12.901
▁coil	-12.901
▁dustbin	-12.9013
▁Patronu	-12.9013
▁bookcase	-12.9013
▁ingredient	-12.9013
mates	-12.9013
▁REAL	-12.9014
▁occupant	-12.9014
▁birthdays	-12.9014
▁pajama	-12.9014
▁decoration	-12.9015
▁ir	-12.9016
OY	-12.9018
lity	-12.9019
▁flop	-12.902
▁fastening	-12.9021
▁buff	-12.9023
▁demon	-12.9024
▁earring	-12.9026
▁BIR	-12.9031
▁remembers	-12.9032
Coward	-12.9038
eur	-12.904
▁trumpet	-12.9042
▁opal	-12.9048
▁wart	-12.9049
▁vine	-12.9054
▁souls	-12.9056
▁spear	-12.906
▁kep	-12.906
ORD	-12.9067
ought	-12.9077
tly	-12.9078
▁holds	-12.9085
▁aroun	-12.9088
Ooooo	-12.9088
Sound	-12.9089
ement	-12.909
▁code	-12.9091
drunk	-12.9094
▁Profes	-12.9098
▁overlook	-12.9099
▁torrent	-12.9101
▁emanat	-12.9102
▁clamber	-12.9105
▁log	-12.9105
▁measur	-12.9107
OLD	-12.9108
▁droop	-12.9108
▁obscur	-12.9108
▁cracker	-12.9109
▁achiev	-12.9109
▁Trouble	-12.9109
ak	-12.911
▁echo	-12.9113
▁decipher	-12.9113
▁tryout	-12.9114
▁distress	-12.9114
▁criticize	-12.9114
▁reflect	-12.9115
▁hush	-12.9117
▁scoop	-12.9117
▁mix	-12.9118
▁sputter	-12.9118
▁survey	-12.9119
▁hammer	-12.912
▁stifle	-12.912
▁intervene	-12.912
▁involuntar	-12.9122
▁organize	-12.9122
▁super	-12.9122
inned	-12.9122
▁dash	-12.9122
▁stumble	-12.9122
▁resemble	-12.9124
▁marvel	-12.9126
▁confine	-12.9126
▁peel	-12.9126
▁tube	-12.9126
▁bleed	-12.9126
▁whack	-12.9126
▁imitate	-12.9127
▁constrict	-12.9128
▁unite	-12.9129
▁steer	-12.913
▁crisscross	-12.913
▁mistrust	-12.9131
▁shrivel	-12.9131
▁shepherd	-12.9131
mpty	-12.9132
▁detest	-12.9132
▁trundl	-12.9133
▁desert	-12.9133
▁suspend	-12.9133
▁foam	-12.9133
Filth	-12.9133
▁bulk	-12.9135
ERO	-12.9135
▁squirt	-12.9137
▁jubilant	-12.9138
▁skeptical	-12.9138
▁valiant	-12.9138
▁potential	-12.9138
▁tremulous	-12.9138
▁dismal	-12.9138
▁solemn	-12.9138
▁explosi	-12.9138
heeled	-12.9138
▁intrude	-12.9139
▁wriggle	-12.9139
▁drone	-12.9139
▁rapid	-12.9139
▁crook	-12.9139
▁Quest	-12.914
▁meaningful	-12.914
▁shrunk	-12.914
▁thwart	-12.9141
▁ecstatic	-12.9141
▁apologetic	-12.9141
▁dyin	-12.9141
▁Corresponden	-12.9141
▁PLEASE	-12.9141
▁monument	-12.9141
Baddock	-12.9141
Darling	-12.9141
Dissendium	-12.9141
Eurgh	-12.9141
Farewell	-12.9141
Frightened	-12.9141
Nonsense	-12.9141
Pathetic	-12.9141
Porpington	-12.9141
RAVENCLAW	-12.9141
SLYTHERIN	-12.9141
VOLDEMORT	-12.9141
▁ALONE	-12.9141
▁AUNT	-12.9141
▁Banshee	-12.9141
▁Bewildered	-12.9141
▁Bonaccord	-12.9141
▁Cadwallader	-12.9141
▁Clankers	-12.9141
▁Criminal	-12.9141
▁Eeylops	-12.9141
▁Fabian	-12.9141
▁Fawcett	-12.9141
▁Goshawk	-12.9141
▁Holyhead	-12.9141
▁INQUISITOR	-12.9141
▁Kirke	-12.9141
▁Malcolm	-12.9141
▁Menagerie	-12.9141
▁Miranda	-12.9141
▁NUMBER	-12.9141
▁Occlumens	-12.9141
▁Pellets	-12.9141
▁Permanent	-12.9141
▁Polkiss	-12.9141
▁SHOULD	-12.9141
▁Spectrespecs	-12.9141
▁Spiders	-12.9141
▁Stoatshead	-12.9141
▁Stubby	-12.9141
▁Taboo	-12.9141
▁Umbndge	-12.9141
▁Venus	-12.9141
▁Warbeck	-12.9141
▁balcony	-12.9141
▁bartender	-12.9141
▁bawled	-12.9141
▁bonnet	-12.9141
▁buffeted	-12.9141
▁cactus	-12.9141
▁casserole	-12.9141
▁cathedral	-12.9141
▁cherub	-12.9141
▁clumsy	-12.9141
▁comparison	-12.9141
▁conspicuous	-12.9141
▁cornflakes	-12.9141
▁culminat	-12.9141
▁deliberation	-12.9141
▁dessert	-12.9141
▁discredit	-12.9141
▁dittany	-12.9141
▁dumbfounded	-12.9141
▁elusive	-12.9141
▁emaciated	-12.9141
▁encircled	-12.9141
▁exclamation	-12.9141
▁extensive	-12.9141
▁fascination	-12.9141
▁flabbergasted	-12.9141
▁generosity	-12.9141
▁hamburger	-12.9141
▁haphazardly	-12.9141
▁haywire	-12.9141
▁incredulity	-12.9141
▁indignity	-12.9141
▁infirmary	-12.9141
▁innumerable	-12.9141
▁insignificant	-12.9141
▁isolated	-12.9141
▁ketchup	-12.9141
▁mahogany	-12.9141
▁marriage	-12.9141
▁mediocre	-12.9141
▁midriff	-12.9141
▁misfortune	-12.9141
▁misgivings	-12.9141
▁multiply	-12.9141
▁obliterated	-12.9141
▁obliterating	-12.9141
▁oblivion	-12.9141
▁ostentatiously	-12.9141
▁perturbed	-12.9141
▁plummeting	-12.9141
▁presume	-12.9141
▁pristine	-12.9141
▁privacy	-12.9141
▁rebirth	-12.9141
▁remedies	-12.9141
▁sabotage	-12.9141
▁shrivelfig	-12.9141
▁skepticism	-12.9141
▁smoulder	-12.9141
▁sumptuous	-12.9141
▁talisman	-12.9141
▁tendency	-12.9141
▁thirtieth	-12.9141
▁treacherous	-12.9141
▁unbearable	-12.9141
▁undamaged	-12.9141
▁unpopular	-12.9141
▁unprecedented	-12.9141
▁unreasonable	-12.9141
▁waterlogged	-12.9141
▁Fancies	-12.9141
▁Fifteen	-12.9141
▁Handbook	-12.9141
▁Surrey	-12.9141
▁casket	-12.9141
▁disconsolate	-12.9141
▁editor	-12.9141
▁endurance	-12.9141
▁external	-12.9141
▁gunshot	-12.9141
▁insubstantial	-12.9141
▁juicy	-12.9141
▁meekly	-12.9141
▁observation	-12.9141
▁obsessive	-12.9141
▁savior	-12.9141
▁vengeance	-12.9141
decker	-12.9141
▁Algie	-12.9141
▁Instinctively	-12.9141
▁Plimpies	-12.9141
▁Robins	-12.9141
▁Royal	-12.9141
▁THREE	-12.9141
▁activities	-12.9141
▁cotton	-12.9141
▁manacle	-12.9141
▁nonexistent	-12.9141
▁piano	-12.9141
▁radiant	-12.9141
▁singsong	-12.9141
▁unfolding	-12.9141
▁vehement	-12.9141
▁enviously	-12.9141
▁palmistry	-12.9141
▁riverbank	-12.9141
▁sentinel	-12.9141
▁snuffbox	-12.9141
Gerroff	-12.9141
▁WRONG	-12.9141
▁burial	-12.9141
▁deluge	-12.9141
▁groggy	-12.9141
Damn	-12.9141
▁Immediately	-12.9141
▁Reversal	-12.9141
▁bulldog	-12.9141
▁buoyant	-12.9141
▁grandeur	-12.9141
▁mortified	-12.9141
▁numerous	-12.9141
▁recognition	-12.9141
▁reverence	-12.9141
▁tirelessly	-12.9141
▁blandly	-12.9141
▁bleary	-12.9141
▁excitable	-12.9141
▁grievous	-12.9141
▁waistband	-12.9141
▁SUPPO	-12.9141
▁misleading	-12.9141
▁Africa	-12.9141
▁Filius	-12.9141
▁astride	-12.9141
▁bloodstains	-12.9141
▁specific	-12.9141
▁toothbrush	-12.9141
▁Fuming	-12.9141
▁Pausing	-12.9141
▁constitute	-12.9141
▁gouging	-12.9141
▁memorial	-12.9141
▁smattering	-12.9141
▁eggnog	-12.9141
▁expertise	-12.9141
▁repayment	-12.9141
▁scandalised	-12.9141
▁Tibbles	-12.9141
▁opposition	-12.9141
▁Country	-12.9142
▁FATHER	-12.9142
▁Hopefully	-12.9142
▁captive	-12.9142
▁flowerpot	-12.9142
▁indication	-12.9142
▁twilit	-12.9142
▁unaccompanied	-12.9142
▁cancelled	-12.9142
▁energetically	-12.9142
▁queasy	-12.9142
▁fungi	-12.9142
▁garlic	-12.9142
▁havoc	-12.9142
▁LAST	-12.9142
▁percent	-12.9142
▁vermin	-12.9142
▁devised	-12.9142
▁retribution	-12.9142
DENTS	-12.9142
▁smock	-12.9142
▁Incantatem	-12.9142
▁courtesy	-12.9142
▁mermen	-12.9142
▁misunderstand	-12.9142
▁gambling	-12.9142
▁greedily	-12.9142
▁tolerance	-12.9142
Finite	-12.9142
uddleme	-12.9142
▁spasm	-12.9142
▁kidnapped	-12.9142
▁Accidental	-12.9142
▁END	-12.9142
▁celebrity	-12.9142
▁diverted	-12.9142
▁STILL	-12.9142
▁merman	-12.9142
▁repulsed	-12.9142
▁contagious	-12.9142
▁dismissal	-12.9142
▁contribution	-12.9142
▁trilled	-12.9142
▁Narrow	-12.9142
▁hawthorn	-12.9142
▁marvelous	-12.9142
▁lamely	-12.9142
▁uncertainty	-12.9142
▁ninth	-12.9142
▁dismay	-12.9142
▁strapping	-12.9142
Parents	-12.9142
▁nonstop	-12.9142
wishers	-12.9142
▁LORD	-12.9142
▁uneasily	-12.9142
▁workload	-12.9142
▁Toffee	-12.9142
▁peanuts	-12.9142
▁pellet	-12.9142
▁Barmy	-12.9142
▁disruption	-12.9142
▁paragraph	-12.9142
▁flailed	-12.9142
▁boomslang	-12.9142
▁Snivelly	-12.9142
▁jovially	-12.9142
▁maddeningly	-12.9142
▁singularly	-12.9142
▁tantalizingly	-12.9142
▁harness	-12.9142
▁beadily	-12.9142
▁Hastily	-12.9142
▁identification	-12.9142
▁BROOM	-12.9142
▁survival	-12.9142
▁Medi	-12.9142
▁interrogate	-12.9142
▁Obliviator	-12.9142
▁ushering	-12.9142
▁Peru	-12.9142
▁superiority	-12.9142
▁goldfish	-12.9142
▁Stupefied	-12.9142
▁compass	-12.9142
▁hovel	-12.9142
ptitude	-12.9142
▁mutely	-12.9142
▁passersby	-12.9142
▁emergency	-12.9142
▁spattering	-12.9142
▁peaky	-12.9142
▁tragically	-12.9142
▁edible	-12.9142
▁ploughed	-12.9142
▁rosebushes	-12.9142
▁unsmiling	-12.9142
▁contemplation	-12.9142
YEH	-12.9142
▁solidified	-12.9142
▁menace	-12.9142
▁elapsed	-12.9143
▁disapproved	-12.9143
▁Cakes	-12.9143
▁Rowena	-12.9143
▁Remover	-12.9143
▁biography	-12.9143
▁strawberry	-12.9143
▁despairingly	-12.9143
Settle	-12.9143
▁abusing	-12.9143
Spect	-12.9143
▁naughty	-12.9143
▁unbroken	-12.9143
▁Binky	-12.9143
▁lengthening	-12.9143
Balderdash	-12.9143
▁Stonewall	-12.9143
▁Eric	-12.9143
▁banning	-12.9143
▁consideration	-12.9143
▁foals	-12.9143
▁armpit	-12.9143
▁simultaneously	-12.9143
▁planner	-12.9143
▁waddling	-12.9143
▁imposter	-12.9143
▁congealed	-12.9143
▁envy	-12.9143
▁immobilized	-12.9143
▁palace	-12.9143
Enchant	-12.9143
▁shameful	-12.9143
▁taxi	-12.9143
▁interrogation	-12.9143
▁wheedle	-12.9143
▁hunchbacked	-12.9143
▁popularity	-12.9143
bodied	-12.9143
▁mourning	-12.9143
▁unblocked	-12.9143
▁Fail	-12.9143
▁sittin	-12.9143
▁consciousness	-12.9143
▁dismounted	-12.9143
▁sponge	-12.9143
▁suspension	-12.9143
▁unsettled	-12.9143
▁Jack	-12.9143
▁sweetshop	-12.9143
▁unseated	-12.9143
▁discoveries	-12.9143
▁erected	-12.9143
▁bookshop	-12.9143
▁grazing	-12.9143
▁strutting	-12.9143
▁recognizing	-12.9143
▁succession	-12.9143
▁mesmerized	-12.9143
▁worthwhile	-12.9144
▁infuriating	-12.9144
▁Muttering	-12.9144
▁beaver	-12.9144
▁hazard	-12.9144
▁backpack	-12.9144
▁inwardly	-12.9144
▁morosely	-12.9144
▁doggedly	-12.9144
▁drunkenly	-12.9144
▁slouching	-12.9144
▁critically	-12.9144
▁reciting	-12.9144
▁pony	-12.9144
▁sidelines	-12.9144
▁ingenious	-12.9144
Awful	-12.9144
▁halfheartedly	-12.9144
▁Thick	-12.9144
DDY	-12.9144
▁Terrible	-12.9144
▁stringent	-12.9144
▁extinguishing	-12.9144
▁Manor	-12.9144
▁comic	-12.9144
▁disaster	-12.9144
illusion	-12.9144
▁reinforce	-12.9144
▁bleakly	-12.9145
▁horrorstruck	-12.9145
▁eagerness	-12.9145
▁straightforward	-12.9145
▁postman	-12.9145
▁numbness	-12.9145
▁repacked	-12.9145
▁thirst	-12.9145
▁snug	-12.9145
▁collective	-12.9145
▁trade	-12.9145
▁dismally	-12.9145
▁potentially	-12.9145
▁skeptically	-12.9145
▁destined	-12.9145
▁dented	-12.9145
▁bedclothes	-12.9145
▁contaminated	-12.9145
▁deflated	-12.9145
▁inhaled	-12.9145
▁enraged	-12.9145
▁antique	-12.9145
▁shark	-12.9145
▁signpost	-12.9145
▁secretive	-12.9145
▁payment	-12.9145
▁inspired	-12.9145
▁wizardkind	-12.9145
▁Midgen	-12.9145
▁personality	-12.9145
▁selfish	-12.9145
▁ordeal	-12.9145
▁dimmed	-12.9145
▁lamplight	-12.9145
Veil	-12.9146
geour	-12.9146
▁acquired	-12.9146
▁straggly	-12.9146
▁medicine	-12.9146
▁slackened	-12.9146
▁astonishingly	-12.9146
[...]
